{"<unk>":0,"<bos>":1,"<eos>":2,"<pad>":3,"!":4,"\"":5,"#":6,"$":7,"%":8,"&":9,"'":10,"(":11,")":12,"*":13,"+":14,",":15,"-":16,".":17,"/":18,"0":19,"1":20,"2":21,"3":22,"4":23,"5":24,"6":25,"7":26,"8":27,"9":28,":":29,";":30,"<":31,"=":32,">":33,"?":34,"@":35,"A":36,"B":37,"C":38,"D":39,"E":40,"F":41,"G":42,"H":43,"I":44,"J":45,"K":46,"L":47,"M":48,"N":49,"O":50,"P":51,"Q":52,"R":53,"S":54,"T":55,"U":56,"V":57,"W":58,"X":59,"Y":60,"Z":61,"[":62,"\\":63,"]":64,"^":65,"_":66,"`":67,"a":68,"b":69,"c":70,"d":71,"e":72,"f":73,"g":74,"h":75,"i":76,"j":77,"k":78,"l":79,"m":80,"n":81,"o":82,"p":83,"q":84,"r":85,"s":86,"t":87,"u":88,"v":89,"w":90,"x":91,"y":92,"z":93,"{":94,"|":95,"}":96,"~":97,"":98,"":99,"":100,"":101,"":102,"":103,"":104,"":105,"":106,"":107,"":108,"":109,"":110,"":111,"":112,"":113,"":114,"":115,"":116,"":117,"":118,"":119,"¡":120,"¢":121,"£":122,"¤":123,"¥":124,"¦":125,"§":126,"©":127,"¬":128,"­":129,"®":130,"°":131,"±":132,"¶":133,"·":134,"¿":135,"À":136,"Á":137,"Â":138,"Ã":139,"Ä":140,"Å":141,"Æ":142,"Ç":143,"È":144,"É":145,"Ê":146,"Ë":147,"Ì":148,"Í":149,"Î":150,"Ï":151,"Ð":152,"Ñ":153,"Ò":154,"Ó":155,"Ô":156,"Õ":157,"Ö":158,"×":159,"Ø":160,"Ù":161,"Ú":162,"Û":163,"Ü":164,"Ý":165,"Þ":166,"ß":167,"à":168,"á":169,"â":170,"ã":171,"ä":172,"å":173,"æ":174,"ç":175,"è":176,"é":177,"ê":178,"ë":179,"ì":180,"í":181,"î":182,"ï":183,"ð":184,"ñ":185,"ò":186,"ó":187,"ô":188,"õ":189,"ö":190,"÷":191,"ø":192,"ù":193,"ú":194,"û":195,"ü":196,"ý":197,"þ":198,"ÿ":199,"Ā":200,"ā":201,"Ă":202,"ă":203,"Ą":204,"ą":205,"Ć":206,"ć":207,"Č":208,"č":209,"Ď":210,"ď":211,"Đ":212,"đ":213,"ē":214,"ĕ":215,"Ė":216,"ė":217,"Ę":218,"ę":219,"Ě":220,"ě":221,"ĝ":222,"Ğ":223,"ğ":224,"ġ":225,"ģ":226,"ħ":227,"ĩ":228,"Ī":229,"ī":230,"Į":231,"į":232,"İ":233,"ı":234,"ķ":235,"Ĺ":236,"ĺ":237,"ļ":238,"Ľ":239,"ľ":240,"Ł":241,"ł":242,"Ń":243,"ń":244,"ņ":245,"Ň":246,"ň":247,"Ō":248,"ō":249,"ŏ":250,"Ő":251,"ő":252,"Œ":253,"œ":254,"ŕ":255,"Ř":256,"ř":257,"Ś":258,"ś":259,"Ş":260,"ş":261,"Š":262,"š":263,"Ţ":264,"ţ":265,"ť":266,"Ū":267,"ū":268,"ŭ":269,"Ů":270,"ů":271,"Ű":272,"ű":273,"Ų":274,"ų":275,"Ÿ":276,"ź":277,"Ż":278,"ż":279,"Ž":280,"ž":281,"ƒ":282,"ơ":283,"ư":284,"ǎ":285,"ǐ":286,"ǔ":287,"ș":288,"ț":289,"ɐ":290,"ɑ":291,"ɔ":292,"ə":293,"ɛ":294,"ɨ":295,"ɪ":296,"ɾ":297,"ʃ":298,"ʒ":299,"ʿ":300,"ˆ":301,"ˈ":302,"ˌ":303,"ː":304,"́":305,"̃":306,"̄":307,"̇":308,"̈":309,"̊":310,"̋":311,"̍":312,"̤":313,"̧":314,"̨":315,"Ά":316,"Α":317,"Β":318,"Γ":319,"Δ":320,"Ε":321,"Η":322,"Θ":323,"Ι":324,"Κ":325,"Λ":326,"Μ":327,"Ν":328,"Ο":329,"Π":330,"Ρ":331,"Σ":332,"Τ":333,"Υ":334,"Φ":335,"Χ":336,"Ω":337,"ά":338,"έ":339,"ή":340,"ί":341,"α":342,"β":343,"γ":344,"δ":345,"ε":346,"ζ":347,"η":348,"θ":349,"ι":350,"κ":351,"λ":352,"μ":353,"ν":354,"ξ":355,"ο":356,"π":357,"ρ":358,"ς":359,"σ":360,"τ":361,"υ":362,"φ":363,"χ":364,"ψ":365,"ω":366,"ϋ":367,"ό":368,"ύ":369,"ώ":370,"Ё":371,"Ђ":372,"Ѓ":373,"Є":374,"І":375,"Ї":376,"Ј":377,"Љ":378,"Њ":379,"Ћ":380,"Ќ":381,"Ў":382,"Џ":383,"А":384,"Б":385,"В":386,"Г":387,"Д":388,"Е":389,"Ж":390,"З":391,"И":392,"Й":393,"К":394,"Л":395,"М":396,"Н":397,"О":398,"П":399,"Р":400,"С":401,"Т":402,"У":403,"Ф":404,"Х":405,"Ц":406,"Ч":407,"Ш":408,"Ы":409,"Ь":410,"Э":411,"Ю":412,"Я":413,"а":414,"б":415,"в":416,"г":417,"д":418,"е":419,"ж":420,"з":421,"и":422,"й":423,"к":424,"л":425,"м":426,"н":427,"о":428,"п":429,"р":430,"с":431,"т":432,"у":433,"ф":434,"х":435,"ц":436,"ч":437,"ш":438,"щ":439,"ъ":440,"ы":441,"ь":442,"э":443,"ю":444,"я":445,"ё":446,"ѓ":447,"є":448,"ѕ":449,"і":450,"ї":451,"ј":452,"љ":453,"њ":454,"ћ":455,"ќ":456,"ў":457,"џ":458,"Ґ":459,"ґ":460,"ғ":461,"қ":462,"ң":463,"ү":464,"ұ":465,"һ":466,"ә":467,"ֳ":468,"ִ":469,"ַ":470,"ָ":471,"ּ":472,"ֿ":473,"א":474,"ב":475,"ג":476,"ד":477,"ה":478,"ו":479,"ז":480,"ח":481,"ט":482,"י":483,"כ":484,"ל":485,"ם":486,"מ":487,"ן":488,"נ":489,"ס":490,"ע":491,"פ":492,"צ":493,"ק":494,"ר":495,"ש":496,"ת":497,"،":498,"ء":499,"آ":500,"أ":501,"إ":502,"ا":503,"ب":504,"ة":505,"ت":506,"ث":507,"ج":508,"ح":509,"خ":510,"د":511,"ذ":512,"ر":513,"ز":514,"س":515,"ش":516,"ص":517,"ض":518,"ط":519,"ع":520,"غ":521,"ف":522,"ق":523,"ك":524,"ل":525,"م":526,"ن":527,"ه":528,"و":529,"ى":530,"ي":531,"ً":532,"َ":533,"ُ":534,"ِ":535,"ّ":536,"ْ":537,"پ":538,"ک":539,"ی":540,"۰":541,"۱":542,"۲":543,"क":544,"त":545,"न":546,"प":547,"म":548,"य":549,"र":550,"ल":551,"स":552,"ह":553,"ा":554,"ि":555,"ु":556,"े":557,"्":558,"র":559,"্":560,"்":561,"ก":562,"ข":563,"ค":564,"ง":565,"จ":566,"ช":567,"ณ":568,"ด":569,"ต":570,"ถ":571,"ท":572,"ธ":573,"น":574,"บ":575,"ป":576,"ผ":577,"พ":578,"ม":579,"ย":580,"ร":581,"ล":582,"ว":583,"ศ":584,"ส":585,"ห":586,"อ":587,"ะ":588,"ั":589,"า":590,"ิ":591,"ี":592,"ึ":593,"ื":594,"ุ":595,"ู":596,"เ":597,"แ":598,"โ":599,"ใ":600,"ไ":601,"ๆ":602,"็":603,"่":604,"้":605,"์":606,"ํ":607,"ა":608,"ბ":609,"გ":610,"დ":611,"ე":612,"ვ":613,"ი":614,"ლ":615,"მ":616,"ნ":617,"ო":618,"რ":619,"ს":620,"ტ":621,"შ":622,"ረ":623,"ዓ":624,"ḥ":625,"ṭ":626,"ṳ":627,"ạ":628,"ả":629,"ế":630,"ề":631,"ệ":632,"ố":633,"ồ":634,"ộ":635,"ớ":636,"ờ":637,"ữ":638,"​":639,"‌":640,"‎":641,"‏":642,"‐":643,"―":644,"‛":645,"‟":646,"†":647,"‡":648,"•":649,"‬":650,"‭":651,"‰":652,"′":653,"‹":654,"›":655,"※":656,"⁄":657,"€":658,"←":659,"↑":660,"→":661,"⇒":662,"⇢":663,"−":664,"√":665,"∞":666,"≈":667,"≤":668,"≥":669,"≪":670,"≫":671,"─":672,"│":673,"╚":674,"╩":675,"▁":676,"▒":677,"■":678,"▪":679,"►":680,"◆":681,"◊":682,"○":683,"◎":684,"●":685,"★":686,"☆":687,"♥":688,"♦":689,"♪":690,"、":691,"。":692,"「":693,"」":694,"『":695,"』":696,"【":697,"】":698,"あ":699,"い":700,"う":701,"え":702,"お":703,"か":704,"が":705,"き":706,"く":707,"け":708,"こ":709,"さ":710,"し":711,"じ":712,"す":713,"せ":714,"た":715,"だ":716,"ち":717,"っ":718,"つ":719,"て":720,"で":721,"と":722,"な":723,"に":724,"の":725,"は":726,"ば":727,"ま":728,"み":729,"め":730,"も":731,"よ":732,"ら":733,"り":734,"る":735,"れ":736,"わ":737,"を":738,"ん":739,"ア":740,"イ":741,"オ":742,"カ":743,"コ":744,"ジ":745,"ス":746,"タ":747,"ッ":748,"テ":749,"ト":750,"ド":751,"ナ":752,"バ":753,"フ":754,"プ":755,"マ":756,"メ":757,"ラ":758,"リ":759,"ル":760,"レ":761,"ワ":762,"ン":763,"・":764,"ー":765,"一":766,"三":767,"上":768,"下":769,"不":770,"东":771,"个":772,"中":773,"为":774,"乐":775,"也":776,"了":777,"事":778,"二":779,"五":780,"亚":781,"交":782,"产":783,"京":784,"人":785,"仁":786,"以":787,"会":788,"伦":789,"但":790,"体":791,"元":792,"克":793,"免":794,"入":795,"全":796,"八":797,"内":798,"农":799,"出":800,"分":801,"切":802,"刘":803,"到":804,"前":805,"加":806,"动":807,"北":808,"区":809,"匿":810,"十":811,"南":812,"博":813,"厂":814,"原":815,"去":816,"参":817,"发":818,"取":819,"口":820,"可":821,"台":822,"司":823,"合":824,"吉":825,"名":826,"吗":827,"和":828,"品":829,"啦":830,"国":831,"图":832,"國":833,"土":834,"在":835,"地":836,"场":837,"城":838,"增":839,"士":840,"多":841,"大":842,"天":843,"套":844,"女":845,"如":846,"娱":847,"婷":848,"子":849,"字":850,"学":851,"安":852,"定":853,"家":854,"容":855,"寺":856,"寿":857,"小":858,"少":859,"就":860,"山":861,"岛":862,"島":863,"州":864,"工":865,"市":866,"常":867,"平":868,"年":869,"应":870,"式":871,"引":872,"当":873,"影":874,"心":875,"思":876,"性":877,"情":878,"愛":879,"成":880,"我":881,"手":882,"持":883,"文":884,"料":885,"新":886,"方":887,"日":888,"明":889,"易":890,"是":891,"更":892,"最":893,"月":894,"有":895,"木":896,"本":897,"机":898,"李":899,"来":900,"杨":901,"東":902,"松":903,"林":904,"核":905,"楽":906,"模":907,"正":908,"武":909,"比":910,"民":911,"水":912,"江":913,"法":914,"洲":915,"海":916,"淫":917,"清":918,"漢":919,"爱":920,"片":921,"物":922,"王":923,"球":924,"理":925,"生":926,"用":927,"田":928,"电":929,"白":930,"的":931,"直":932,"相":933,"知":934,"石":935,"神":936,"禅":937,"种":938,"科":939,"空":940,"站":941,"简":942,"管":943,"線":944,"网":945,"美":946,"而":947,"能":948,"自":949,"舞":950,"色":951,"艳":952,"茶":953,"行":954,"西":955,"要":956,"見":957,"见":958,"言":959,"語":960,"论":961,"语":962,"赌":963,"越":964,"路":965,"载":966,"迅":967,"过":968,"运":969,"这":970,"通":971,"道":972,"都":973,"酒":974,"里":975,"重":976,"量":977,"金":978,"问":979,"雄":980,"雷":981,"青":982,"面":983,"音":984,"頂":985,"顶":986,"颖":987,"题":988,"風":989,"食":990,"馬":991,"高":992,"국":993,"년":994,"어":995,"이":996,"한":997,"":998,"":999,"":1000,"":1001,"﻿":1002,"�":1003,"en":1004,"er":1005,"in":1006,"▁a":1007,"▁t":1008,"▁d":1009,"ch":1010,"es":1011,"on":1012,"▁th":1013,"un":1014,"it":1015,"is":1016,"▁s":1017,"▁w":1018,"at":1019,"ie":1020,"or":1021,"an":1022,"▁the":1023,"re":1024,"▁b":1025,"▁o":1026,"al":1027,"ar":1028,"▁in":1029,"▁f":1030,"ich":1031,"▁m":1032,"te":1033,"ion":1034,"▁e":1035,"▁an":1036,"ur":1037,"as":1038,"le":1039,"▁p":1040,"▁c":1041,"▁un":1042,"▁h":1043,"us":1044,"▁S":1045,"ent":1046,"ge":1047,"▁of":1048,"ro":1049,"▁n":1050,"▁v":1051,"ing":1052,"ung":1053,"▁and":1054,"▁to":1055,"▁A":1056,"ll":1057,"ed":1058,"▁die":1059,"om":1060,"▁der":1061,"▁und":1062,"▁E":1063,"▁I":1064,"ig":1065,"st":1066,"ic":1067,"▁be":1068,"▁M":1069,"▁is":1070,"▁D":1071,"▁T":1072,"▁ein":1073,"▁B":1074,"▁P":1075,"ir":1076,"▁z":1077,"im":1078,"▁g":1079,"el":1080,"ut":1081,"ra":1082,"ter":1083,"em":1084,"il":1085,"en,":1086,"▁W":1087,"et":1088,"ol":1089,"ation":1090,"der":1091,"eit":1092,"▁F":1093,"▁l":1094,"am":1095,"▁re":1096,"▁G":1097,"ten":1098,"hr":1099,"ies":1100,"um":1101,"op":1102,"▁K":1103,"ct":1104,"▁H":1105,"id":1106,"sch":1107,"▁R":1108,"ul":1109,"▁k":1110,"uf":1111,"▁C":1112,"ber":1113,"iv":1114,"en.":1115,"lich":1116,"▁V":1117,"▁for":1118,"ab":1119,"ot":1120,"ür":1121,"isch":1122,"icht":1123,"ier":1124,"end":1125,"▁Th":1126,"▁on":1127,"▁das":1128,"▁zu":1129,"▁L":1130,"and":1131,"ere":1132,"▁den":1133,"ly":1134,"est":1135,"ess":1136,"▁that":1137,"os":1138,"▁U":1139,"ce":1140,"omm":1141,"ein":1142,"ers":1143,"▁pro":1144,"▁al":1145,"ow":1146,"▁wh":1147,"ach":1148,"▁von":1149,"▁r":1150,"ort":1151,"▁ge":1152,"▁im":1153,"uch":1154,"ad":1155,"▁st":1156,"ith":1157,"▁y":1158,"▁In":1159,"▁wir":1160,"kt":1161,"▁N":1162,"if":1163,"▁con":1164,"ind":1165,"▁ist":1166,"gen":1167,"▁ver":1168,"▁er":1169,"ver":1170,"▁with":1171,"▁auf":1172,"▁we":1173,"▁für":1174,"urop":1175,"ay":1176,"ill":1177,"▁des":1178,"▁(":1179,"▁it":1180,"ve":1181,"▁mit":1182,"▁are":1183,"ts":1184,"▁Z":1185,"▁1":1186,"▁as":1187,"ck":1188,"▁so":1189,"▁-":1190,"▁de":1191,"den":1192,"▁The":1193,"de":1194,"▁ne":1195,"iss":1196,"▁yo":1197,"▁dies":1198,"▁St":1199,"af":1200,"▁Europ":1201,"pp":1202,"ate":1203,"ment":1204,"t,":1205,"ik":1206,"th":1207,"▁se":1208,"qu":1209,"ist":1210,"▁2":1211,"00":1212,"▁Un":1213,"e,":1214,"ag":1215,"ischen":1216,"ib":1217,"s,":1218,"▁Ver":1219,"▁als":1220,"ak":1221,"▁eine":1222,"ust":1223,"▁ex":1224,"t.":1225,"▁dem":1226,"for":1227,"ah":1228,"▁this":1229,"ity":1230,"▁O":1231,"ug":1232,"s.":1233,"▁ha":1234,"und":1235,"ial":1236,"▁An":1237,"▁Sie":1238,"ant":1239,"▁j":1240,"▁or":1241,"ann":1242,"▁nicht":1243,"▁J":1244,"▁wer":1245,"art":1246,"▁co":1247,"ungen":1248,"ne":1249,"▁not":1250,"ive":1251,"über":1252,"ste":1253,"pe":1254,"▁sich":1255,"än":1256,"▁all":1257,"▁le":1258,"ub":1259,"ff":1260,"ien":1261,"tel":1262,"la":1263,"▁Re":1264,"▁by":1265,"we":1266,"rom":1267,"▁have":1268,"ens":1269,"▁dass":1270,"igh":1271,"▁at":1272,"▁\"":1273,"▁es":1274,"ain":1275,"▁aus":1276,"ass":1277,"all":1278,"uld":1279,"ern":1280,"▁Die":1281,"▁you":1282,"▁sh":1283,"men":1284,"up":1285,"od":1286,"▁will":1287,"sp":1288,"▁ab":1289,"omp":1290,"iel":1291,"▁über":1292,"aus":1293,"▁uns":1294,"ure":1295,"nen":1296,"▁Pr":1297,"age":1298,"▁which":1299,"▁me":1300,"ission":1301,"ted":1302,"▁was":1303,"ze":1304,"ran":1305,"▁auch":1306,"▁Sch":1307,"lie":1308,"igen":1309,"▁from":1310,"ahr":1311,"hal":1312,"ard":1313,"ungs":1314,"du":1315,"och":1316,"▁um":1317,"e.":1318,"▁Be":1319,"ould":1320,"▁sind":1321,"▁sch":1322,"▁We":1323,"▁us":1324,"tern":1325,"..":1326,"tr":1327,"ommission":1328,"▁Pro":1329,"og":1330,"▁ch":1331,"▁i":1332,"ident":1333,"'s":1334,"▁pr":1335,"▁Europe":1336,"▁ent":1337,"▁vor":1338,"▁wird":1339,"▁En":1340,"fer":1341,"▁has":1342,"esch":1343,"▁hab":1344,"ang":1345,"schaf":1346,"iz":1347,"ip":1348,"ction":1349,"mer":1350,"port":1351,"enn":1352,"ön":1353,"▁wor":1354,"ition":1355,"ss":1356,"ud":1357,"gr":1358,"▁res":1359,"oc":1360,"ous":1361,"▁en":1362,"▁Er":1363,"ick":1364,"uss":1365,"ok":1366,"▁Par":1367,"▁wie":1368,"▁da":1369,"ische":1370,"ue":1371,"our":1372,"tz":1373,"▁he":1374,"urch":1375,"err":1376,"▁can":1377,"form":1378,"▁man":1379,"etz":1380,"able":1381,"▁am":1382,"ige":1383,"ft":1384,"ire":1385,"keit":1386,"▁hat":1387,"▁Ein":1388,"▁ich":1389,"▁sein":1390,"▁comp":1391,"ap":1392,"▁Ar":1393,"ost":1394,"ben":1395,"▁oder":1396,"ament":1397,"▁our":1398,"ast":1399,"ia":1400,"otel":1401,"cc":1402,"erv":1403,"▁zur":1404,"pr":1405,"▁also":1406,"beit":1407,"▁European":1408,"be":1409,"ise":1410,"me":1411,"▁sie":1412,"ome":1413,"▁Mit":1414,"ru":1415,"ational":1416,"ical":1417,"heit":1418,"ult":1419,"oll":1420,"▁ad":1421,"ish":1422,"▁Aus":1423,"ert":1424,"lo":1425,"es,":1426,"ated":1427,"ore":1428,"▁werden":1429,"ese":1430,"out":1431,"are":1432,"dern":1433,"▁einer":1434,"▁kön":1435,"ide":1436,"▁do":1437,"olit":1438,"rit":1439,"lichen":1440,"ine":1441,"he":1442,"ord":1443,"tell":1444,"hl":1445,"ther":1446,"▁Wir":1447,"▁200":1448,"▁Ge":1449,"ark":1450,"fü":1451,"▁unter":1452,"ect":1453,"es.":1454,"▁werd":1455,"ün":1456,"pt":1457,"her":1458,"▁Parl":1459,"ign":1460,"ät":1461,"▁nach":1462,"▁qu":1463,"ac":1464,"▁einen":1465,"är":1466,"▁Union":1467,"▁bei":1468,"▁your":1469,"hen":1470,"▁its":1471,"vel":1472,"▁part":1473,"oun":1474,"tra":1475,"▁te":1476,"▁Das":1477,"ear":1478,"ution":1479,"▁ag":1480,"▁reg":1481,"tw":1482,"ations":1483,"▁durch":1484,"▁gro":1485,"▁Fra":1486,"ank":1487,"ian":1488,"aten":1489,"au":1490,"ake":1491,"▁Ber":1492,"se":1493,"enden":1494,"schaft":1495,"yste":1496,"▁su":1497,"▁sp":1498,"▁but":1499,"ugh":1500,"ary":1501,"▁It":1502,"▁wur":1503,"ember":1504,"▁go":1505,"▁ro":1506,"glich":1507,"ger":1508,"▁Ab":1509,"cial":1510,"▁Ich":1511,"▁Vor":1512,"äs":1513,"▁there":1514,"lem":1515,"ice":1516,"▁Mr":1517,"ight":1518,"per":1519,"ute":1520,"▁3":1521,"con":1522,"▁app":1523,"▁Herr":1524,"ör":1525,"hre":1526,"anz":1527,"▁Commission":1528,"▁dar":1529,"▁EU":1530,"imm":1531,"▁tra":1532,"ual":1533,"▁war":1534,"rie":1535,"▁19":1536,"cl":1537,"ose":1538,"▁would":1539,"▁spe":1540,"▁mö":1541,"geb":1542,"ance":1543,"ail":1544,"▁zum":1545,"ov":1546,"▁their":1547,"ite":1548,"ile":1549,"reat":1550,"chte":1551,"erm":1552,"ystem":1553,"▁einem":1554,"cht":1555,"mp":1556,"hn":1557,"eren":1558,"▁gen":1559,"▁cont":1560,"▁bes":1561,"liche":1562,"ild":1563,"ram":1564,"y,":1565,"▁been":1566,"uß":1567,"chn":1568,"▁Al":1569,"ong":1570,"leg":1571,"▁more":1572,"▁Europä":1573,"▁ar":1574,"ktion":1575,"utz":1576,"▁Te":1577,"▁kann":1578,"▁This":1579,"ück":1580,"ack":1581,"▁De":1582,"act":1583,"▁diese":1584,"üss":1585,"▁Le":1586,"▁acc":1587,"▁nur":1588,"▁dis":1589,"oss":1590,"▁comm":1591,"▁coun":1592,"▁Ch":1593,"▁Unter":1594,"ates":1595,"▁Sp":1596,"ont":1597,"wer":1598,"ob":1599,"▁Auf":1600,"▁should":1601,"▁Gr":1602,"▁pl":1603,"ame":1604,"▁bet":1605,"ahl":1606,"▁Hotel":1607,"▁work":1608,"▁.":1609,"ierung":1610,"▁one":1611,"▁haben":1612,"▁tim":1613,"land":1614,"lic":1615,"elt":1616,"▁new":1617,"y.":1618,"▁Der":1619,"▁,":1620,"sten":1621,"er,":1622,"ende":1623,"▁up":1624,"äsident":1625,"▁cl":1626,"ges":1627,"eine":1628,"▁Se":1629,"auf":1630,"iert":1631,"zu":1632,"▁soll":1633,"gan":1634,"▁For":1635,"ike":1636,"▁Jahr":1637,"▁out":1638,"▁dieser":1639,"▁ob":1640,"av":1641,"igkeit":1642,"che":1643,"▁Pres":1644,"ase":1645,"▁Kommission":1646,"to":1647,"ld":1648,"▁jed":1649,"a,":1650,"ähr":1651,"reich":1652,"▁pre":1653,"▁countr":1654,"gram":1655,"▁Dies":1656,"▁ind":1657,"▁very":1658,"bar":1659,"▁Es":1660,"▁per":1661,"ree":1662,"▁inter":1663,"▁zw":1664,"▁who":1665,"▁other":1666,"▁daß":1667,"▁noch":1668,"neh":1669,"▁produ":1670,"ities":1671,"▁must":1672,"formation":1673,"ner":1674,"▁ihr":1675,"ten.":1676,"ink":1677,"one":1678,"▁ev":1679,"▁ste":1680,"▁pe":1681,"▁they":1682,"▁weit":1683,"dition":1684,"▁need":1685,"▁off":1686,"...":1687,"gel":1688,"tet":1689,"pro":1690,"pl":1691,"▁wurde":1692,"wo":1693,"ient":1694,"rat":1695,"▁werden.":1696,"llen":1697,"▁no":1698,"▁ber":1699,"ons":1700,"enz":1701,"▁mehr":1702,"ions":1703,"▁intern":1704,"▁only":1705,"▁year":1706,"▁fe":1707,"▁President":1708,"▁bec":1709,"▁supp":1710,"▁cons":1711,"▁Präsident":1712,"ement":1713,"▁str":1714,"▁aber":1715,"mit":1716,"olog":1717,"▁find":1718,"ade":1719,"▁Um":1720,"glie":1721,"oin":1722,"▁5":1723,"ely":1724,"lin":1725,"▁wenn":1726,"▁about":1727,"▁like":1728,"▁polit":1729,"teil":1730,"schl":1731,"ke":1732,").":1733,"▁4":1734,"pos":1735,"▁könn":1736,"ible":1737,"ater":1738,"ence":1739,"entr":1740,"chen":1741,"▁any":1742,"ht":1743,"ious":1744,"▁müss":1745,"ced":1746,"▁Y":1747,"leich":1748,"▁sehr":1749,"▁prov":1750,"ange":1751,"▁ges":1752,"▁Reg":1753,"velop":1754,"gt":1755,"▁tran":1756,"ung,":1757,"alt":1758,"ally":1759,"wend":1760,"▁unser":1761,"nah":1762,"blem":1763,"▁eff":1764,"cess":1765,"amp":1766,"fe":1767,"olle":1768,"ject":1769,"▁alle":1770,"▁sow":1771,"ied":1772,"iament":1773,"▁ra":1774,"ütz":1775,"arbeit":1776,"▁Arbeit":1777,"onder":1778,"▁fin":1779,"▁Parlament":1780,"ring":1781,"ism":1782,"▁können":1783,"▁rec":1784,"▁these":1785,"▁serv":1786,"▁sol":1787,"led":1788,"ommen":1789,"▁Mitglie":1790,"io":1791,"▁dire":1792,"usam":1793,"führ":1794,"ular":1795,"atz":1796,"▁Member":1797,"▁vie":1798,"own":1799,"fahr":1800,"erson":1801,"▁hin":1802,"ph":1803,"ility":1804,"te,":1805,"▁import":1806,"ichtig":1807,"xt":1808,"▁diesem":1809,"a.":1810,"stit":1811,"äl":1812,"▁Men":1813,"▁So":1814,"schen":1815,"ider":1816,"irst":1817,"ople":1818,"sta":1819,"ings":1820,"▁gegen":1821,"▁if":1822,"ing,":1823,"änd":1824,"▁develop":1825,"▁tr":1826,"fl":1827,"▁wel":1828,"▁such":1829,"fol":1830,"▁report":1831,"▁ihre":1832,"ook":1833,"ing.":1834,"ors":1835,"wn":1836,"▁Europäischen":1837,"rag":1838,"fen":1839,"ieren":1840,"▁gr":1841,"ität":1842,"▁them":1843,"▁pol":1844,"ces":1845,"uen":1846,"ments":1847,"▁bis":1848,"▁sub":1849,"▁la":1850,"ateg":1851,"ause":1852,"usammen":1853,"▁ins":1854,"sche":1855,"ific":1856,"▁rel":1857,"▁my":1858,"▁Parliament":1859,"hnen":1860,"▁Zeit":1861,"▁over":1862,"itu":1863,"▁Ma":1864,"▁20":1865,"▁ist,":1866,"▁into":1867,"▁people":1868,"ließ":1869,"▁were":1870,"▁gew":1871,"▁Ne":1872,"),":1873,"▁well":1874,"str":1875,"ans":1876,"iven":1877,"cre":1878,"▁gem":1879,"▁best":1880,"▁Ü":1881,"▁international":1882,"mal":1883,"erg":1884,"▁As":1885,"esent":1886,"▁viel":1887,"▁some":1888,"-S":1889,"ative":1890,"▁com":1891,"inn":1892,"▁möchte":1893,"halt":1894,"▁system":1895,"▁what":1896,"ene":1897,"lung":1898,"cil":1899,"icher":1900,"▁inv":1901,"▁Mitglied":1902,"conom":1903,"▁President,":1904,"▁Mar":1905,"▁act":1906,"ühr":1907,"ument":1908,"▁dif":1909,"bs":1910,"▁hier":1911,"▁mark":1912,"▁Or":1913,"arge":1914,"▁high":1915,"atur":1916,"fr":1917,"rei":1918,"hand":1919,"fore":1920,"▁Coun":1921,"▁eines":1922,"uropä":1923,"▁Im":1924,"ention":1925,"▁Über":1926,"▁hotel":1927,"▁kn":1928,"ou":1929,"iger":1930,"▁her":1931,"▁bed":1932,"ull":1933,"▁countries":1934,"▁first":1935,"kte":1936,"▁loc":1937,"▁than":1938,"wor":1939,"▁incl":1940,"▁use":1941,"▁vom":1942,"▁most":1943,"olitik":1944,"very":1945,"iet":1946,"▁Me":1947,"zeit":1948,"ks":1949,"▁hel":1950,"▁Nach":1951,"äch":1952,"▁dec":1953,"sel":1954,"▁his":1955,"▁Q":1956,"▁lie":1957,"ays":1958,"▁groß":1959,"▁partic":1960,"amen":1961,"öglich":1962,"ale":1963,"▁müssen":1964,"▁vers":1965,"ace":1966,"▁under":1967,"▁when":1968,"ed.":1969,"ation,":1970,"▁polic":1971,"rough":1972,"stand":1973,"▁werden,":1974,"itz":1975,"rech":1976,"▁time":1977,"pect":1978,"▁Council":1979,"▁Kon":1980,"itte":1981,"ation.":1982,"▁just":1983,"▁Entw":1984,"hm":1985,"unden":1986,"▁sowie":1987,"▁dam":1988,"▁bas":1989,"kl":1990,"▁leg":1991,"▁now":1992,"▁He":1993,"▁again":1994,"▁europä":1995,"▁Land":1996,"▁support":1997,"ett":1998,"änder":1999,"ibt":2000,"stell":2001,"tre":2002,"▁aut":2003,"▁mach":2004,"▁gu":2005,"▁Bericht":2006,"ights":2007,"▁dieses":2008,"▁Fl":2009,"▁Ihr":2010,"etzt":2011,"ween":2012,"ond":2013,"▁make":2014,"stitution":2015,"▁Pl":2016,"▁econom":2017,"▁how":2018,"▁room":2019,"stütz":2020,"▁pla":2021,"▁Rat":2022,"▁wo":2023,"▁many":2024,"ry":2025,"▁between":2026,"je":2027,"▁Comm":2028,"arm":2029,"▁ass":2030,"▁propos":2031,"oth":2032,"▁fre":2033,"▁6":2034,"▁requ":2035,"halb":2036,"▁mo":2037,"gramm":2038,"▁fr":2039,"fter":2040,"abe":2041,"▁techn":2042,"ating":2043,"▁poss":2044,"cy":2045,"▁par":2046,"urs":2047,"▁zwischen":2048,"ös":2049,"ware":2050,"▁Bed":2051,"▁Verb":2052,"bst":2053,"wir":2054,"▁bereit":2055,"▁imp":2056,"zie":2057,"▁kon":2058,"▁Entwick":2059,"▁world":2060,"off":2061,"ublic":2062,"▁market":2063,"ister":2064,"▁pos":2065,"▁take":2066,"ful":2067,"uer":2068,"red":2069,"▁Mitgliedsta":2070,"▁Menschen":2071,"▁important":2072,"▁Ent":2073,"dr":2074,"ever":2075,"isten":2076,"cted":2077,"▁fo":2078,"zial":2079,"eschä":2080,"▁because":2081,"▁Intern":2082,"▁ist.":2083,"▁sel":2084,"lear":2085,"att":2086,"ath":2087,"▁son":2088,"hör":2089,"▁op":2090,"▁unsere":2091,"▁national":2092,"itä":2093,"atter":2094,"▁All":2095,"ward":2096,"▁min":2097,"▁good":2098,"▁where":2099,"ality":2100,"ision":2101,"ly,":2102,"▁keine":2103,"▁Ges":2104,"▁verb":2105,"▁hand":2106,"▁Ihre":2107,"▁great":2108,"▁rem":2109,"o,":2110,"dem":2111,"vern":2112,"nis":2113,"ed,":2114,"▁US":2115,"▁two":2116,"▁av":2117,"▁information":2118,"▁mein":2119,"ough":2120,"▁Min":2121,"ote":2122,"ory":2123,"▁emp":2124,"▁Produ":2125,"als":2126,"rauch":2127,"ict":2128,"ax":2129,"ho":2130,"urn":2131,"rä":2132,"ium":2133,"▁every":2134,"▁poin":2135,"trag":2136,"net":2137,"öff":2138,"▁einz":2139,"▁way":2140,"▁had":2141,"▁ele":2142,"ages":2143,"▁Grund":2144,"▁conc":2145,"lish":2146,"▁end":2147,"tschaft":2148,"min":2149,"ices":2150,"▁bie":2151,"amil":2152,"rol":2153,"ats":2154,"▁problem":2155,"▁even":2156,"ession":2157,"ures":2158,"▁through":2159,"laub":2160,"aff":2161,"fort":2162,"▁If":2163,"ung.":2164,"▁iss":2165,"er.":2166,"aut":2167,"▁199":2168,"▁Ä":2169,"▁[":2170,"air":2171,"▁those":2172,"les":2173,"▁get":2174,"▁sa":2175,"forder":2176,"els":2177,"setz":2178,"iden":2179,"uring":2180,"assen":2181,"▁Art":2182,"▁product":2183,"▁anderen":2184,"▁ange":2185,"▁sc":2186,"ount":2187,"ereich":2188,"▁7":2189,"▁Fin":2190,"cept":2191,"▁Am":2192,"▁bef":2193,"ußer":2194,"halten":2195,"▁tak":2196,"immer":2197,"day":2198,"unkt":2199,"▁Ihnen":2200,"▁immer":2201,"ischer":2202,"erein":2203,"▁order":2204,"▁Fr":2205,"▁may":2206,"urr":2207,"▁Zusammen":2208,"uman":2209,"▁made":2210,"▁see":2211,"▁Seit":2212,"▁beg":2213,"▁form":2214,"lick":2215,"igung":2216,"▁wird.":2217,"▁Wenn":2218,"▁disc":2219,"▁Frau":2220,"essen":2221,"rif":2222,"ues":2223,"ital":2224,"▁dann":2225,"ganis":2226,"▁Ex":2227,"▁10":2228,"▁8":2229,"schie":2230,"▁view":2231,"▁ac":2232,"▁know":2233,"unity":2234,"spr":2235,"▁States":2236,"ivers":2237,"▁gibt":2238,"com":2239,"▁being":2240,"▁direct":2241,"▁num":2242,"erman":2243,"▁Haus":2244,"▁Bes":2245,"ited":2246,"▁rest":2247,"▁fact":2248,"▁ke":2249,"▁There":2250,"▁weiter":2251,"ior":2252,"weise":2253,"▁Wh":2254,"ives":2255,"▁'":2256,"schließ":2257,"▁belie":2258,"▁particular":2259,"▁appro":2260,"▁wieder":2261,"▁cent":2262,"istr":2263,"000":2264,"▁damit":2265,"▁differ":2266,"▁diesen":2267,"ustr":2268,"ys":2269,"itt":2270,"gest":2271,"▁car":2272,"ster":2273,"▁Man":2274,"hne":2275,"sicht":2276,"▁zwe":2277,"▁trans":2278,"▁ger":2279,"▁includ":2280,"▁own":2281,"vor":2282,"lex":2283,"▁On":2284,"▁Bereich":2285,"▁ganz":2286,"te.":2287,"tens":2288,"bal":2289,"aur":2290,"▁Gro":2291,"▁beste":2292,"▁process":2293,"folg":2294,"erk":2295,"icherheit":2296,"▁def":2297,"▁...":2298,"eins":2299,"▁resp":2300,"eln":2301,"fach":2302,"le,":2303,"iness":2304,"▁Des":2305,"▁del":2306,"ultur":2307,"read":2308,"nehmen":2309,"▁mon":2310,"alk":2311,"ever,":2312,"▁Komm":2313,"10":2314,"zeich":2315,"▁geb":2316,"▁Con":2317,"old":2318,"öß":2319,"ändern":2320,"▁Diese":2321,"▁right":2322,"▁bus":2323,"▁agre":2324,"hen,":2325,"-P":2326,"▁gesch":2327,"alls":2328,"▁Mitgliedstaaten":2329,"▁At":2330,"▁Europa":2331,"part":2332,"▁quest":2333,"az":2334,"▁mus":2335,"▁main":2336,"▁wichtig":2337,"▁exp":2338,"▁kein":2339,"▁ph":2340,"▁bu":2341,"▁Hand":2342,"▁muss":2343,"ält":2344,"▁unserer":2345,"hin":2346,"▁stand":2347,"issen":2348,"ool":2349,"eth":2350,"eld":2351,"▁Geb":2352,"▁situ":2353,"▁real":2354,"▁haben,":2355,"oy":2356,"▁compan":2357,"igt":2358,"▁9":2359,"round":2360,"ower":2361,"ix":2362,"▁help":2363,"▁here":2364,"▁sm":2365,"schafts":2366,"illion":2367,"kommen":2368,"▁sondern":2369,"▁Zu":2370,"ßnah":2371,"piel":2372,"org":2373,"▁You":2374,"▁Gem":2375,"▁deb":2376,"▁after":2377,"▁Inter":2378,"▁seine":2379,"nung":2380,"▁jedoch":2381,"▁political":2382,"ents":2383,"eng":2384,"ktiv":2385,"ince":2386,"tegr":2387,"-M":2388,"▁Europäische":2389,"acht":2390,"ruck":2391,"▁ausge":2392,"▁public":2393,"▁place":2394,"▁ide":2395,"▁gut":2396,"▁Information":2397,"▁incre":2398,"▁concern":2399,"gesch":2400,"ows":2401,"mittel":2402,"▁prote":2403,"▁possible":2404,"▁Br":2405,"w.":2406,"elle":2407,"▁person":2408,"▁cre":2409,"▁Bar":2410,"▁Bür":2411,"▁region":2412,"reis":2413,"äng":2414,"▁sim":2415,"▁Schl":2416,"schieden":2417,"isse":2418,"iron":2419,"▁clear":2420,"▁etw":2421,"▁wür":2422,"▁wird,":2423,"▁ser":2424,"▁human":2425,"eral":2426,"▁say":2427,"öglichkeit":2428,"ieren.":2429,"ätz":2430,"▁could":2431,"eration":2432,"▁development":2433,"▁bring":2434,"▁dr":2435,"▁sind,":2436,"▁Ind":2437,"▁heute":2438,"isk":2439,"lement":2440,"weit":2441,"nder":2442,"i,":2443,"▁number":2444,"scheid":2445,"▁contin":2446,"▁Vorschl":2447,"▁same":2448,"füg":2449,"bens":2450,"▁offer":2451,"yp":2452,"▁neue":2453,"▁economic":2454,"▁curr":2455,"▁gleich":2456,"▁est":2457,"-B":2458,"fern":2459,"▁Teil":2460,"aj":2461,"▁opp":2462,"▁Sta":2463,"ertain":2464,"▁within":2465,"▁effect":2466,"▁stat":2467,"nehm":2468,"get":2469,"iß":2470,"▁wen":2471,"▁Str":2472,"▁Her":2473,"▁rights":2474,"ken":2475,"▁komm":2476,"ants":2477,"hen.":2478,"satz":2479,"zeug":2480,"ven":2481,"iti":2482,"▁Änder":2483,"▁fest":2484,"▁want":2485,"▁sind.":2486,"▁Fran":2487,"entlich":2488,"▁does":2489,"innen":2490,"kehr":2491,"▁stell":2492,"▁avail":2493,"▁Fre":2494,"▁transp":2495,"▁15":2496,"▁selbst":2497,"▁against":2498,"ina":2499,"▁bereits":2500,"upt":2501,"ähl":2502,"▁much":2503,"hip":2504,"▁mich":2505,"▁fund":2506,"▁val":2507,"way":2508,"▁both":2509,"ivid":2510,"▁dat":2511,"▁lang":2512,"▁Bet":2513,"adt":2514,"work":2515,"lage":2516,"ander":2517,"▁vis":2518,"weis":2519,"o.":2520,"entral":2521,"▁prof":2522,"▁How":2523,"-A":2524,"in,":2525,"ichte":2526,"ock":2527,"▁können.":2528,"ierte":2529,"▁ihrer":2530,"lobal":2531,"▁fun":2532,"▁sur":2533,"stru":2534,"▁level":2535,"▁möglich":2536,"▁var":2537,"▁Ha":2538,"ler":2539,"▁führ":2540,"▁sign":2541,"ständ":2542,"▁hist":2543,"ep":2544,"loy":2545,"▁Is":2546,"viron":2547,"äre":2548,"▁equ":2549,"bes":2550,"ftware":2551,"▁med":2552,"ustom":2553,"▁Hin":2554,"▁europäischen":2555,"ator":2556,"et.":2557,"▁ohne":2558,"▁Wie":2559,"▁pra":2560,"▁nat":2561,"▁Eur":2562,"▁bek":2563,"▁provid":2564,"▁Vers":2565,"▁conf":2566,"▁play":2567,"chts":2568,"iff":2569,"ux":2570,"▁full":2571,"▁regard":2572,"▁andere":2573,"br":2574,"agement":2575,"▁social":2576,"▁Richt":2577,"▁neuen":2578,"▁cr":2579,"▁German":2580,"▁Welt":2581,"vironment":2582,"over":2583,"erung":2584,"▁bre":2585,"pf":2586,"legen":2587,"urg":2588,"par":2589,"▁different":2590,"▁Entwicklung":2591,"▁Kl":2592,"▁denn":2593,"▁zwei":2594,"▁think":2595,"▁finan":2596,"▁exper":2597,"▁group":2598,"▁without":2599,"▁letz":2600,"irm":2601,"▁still":2602,"wick":2603,"ouse":2604,"▁18":2605,"ierten":2606,"ha":2607,"▁years":2608,"eut":2609,"▁eigen":2610,"▁meas":2611,"▁Präsident,":2612,"mb":2613,"▁ens":2614,"under":2615,"wort":2616,"cur":2617,"raft":2618,"▁Mon":2619,"▁Sicherheit":2620,"▁12":2621,"▁oper":2622,"▁consider":2623,"gar":2624,"ently":2625,"▁adv":2626,"-s":2627,"▁Frage":2628,"▁long":2629,"olution":2630,"▁then":2631,"ctions":2632,"▁Mus":2633,"▁Gen":2634,"fass":2635,"iqu":2636,"▁access":2637,"ctor":2638,"▁gemeins":2639,"▁used":2640,"▁bo":2641,"▁priv":2642,"▁mod":2643,"▁Fe":2644,"hor":2645,"▁opt":2646,"line":2647,"▁last":2648,"▁Ste":2649,"ists":2650,"▁Part":2651,"äß":2652,"▁policy":2653,"ohl":2654,"▁woll":2655,"▁term":2656,"▁mak":2657,"▁spec":2658,"licher":2659,"ollow":2660,"▁fl":2661,"ER":2662,"▁verschieden":2663,"▁ers":2664,"ährend":2665,"ßnahmen":2666,"ness":2667,"▁Person":2668,"▁gel":2669,"▁prin":2670,"▁down":2671,"▁habe":2672,"osten":2673,"▁govern":2674,"▁att":2675,"alen":2676,"▁set":2677,"▁denen":2678,"▁unterstütz":2679,"▁agreement":2680,"▁available":2681,"▁cap":2682,"▁Bürger":2683,"▁require":2684,"cond":2685,"ungen,":2686,"▁back":2687,"ime":2688,"uture":2689,"ondere":2690,"ved":2691,"hol":2692,"ibility":2693,"▁interest":2694,"ude":2695,"tend":2696,"ieren,":2697,"▁able":2698,"▁kle":2699,"rach":2700,"wert":2701,"▁Jahren":2702,"▁Kont":2703,"urther":2704,"zahl":2705,"ability":2706,"▁special":2707,"▁business":2708,"ines":2709,"alth":2710,"▁dazu":2711,"yn":2712,"gem":2713,"▁Stat":2714,"ience":2715,"▁einfach":2716,"vers":2717,"ize":2718,"fic":2719,"ünd":2720,"ically":2721,"ienst":2722,"kun":2723,"ten,":2724,"▁Dem":2725,"▁small":2726,"richt":2727,"▁Mittel":2728,"äh":2729,"▁look":2730,"ers,":2731,"afür":2732,"ispiel":2733,"▁question":2734,"tem":2735,"▁Tra":2736,"ting":2737,"▁cor":2738,"▁custom":2739,"▁weil":2740,"▁ben":2741,"ready":2742,"▁Aut":2743,"▁day":2744,"▁gest":2745,"▁future":2746,"▁haben.":2747,"zus":2748,"▁believe":2749,"ktur":2750,"res":2751,"itor":2752,"▁ze":2753,"ters":2754,"▁air":2755,"iver":2756,"▁som":2757,"▁aller":2758,"▁therefore":2759,"▁Stand":2760,"-F":2761,"ante":2762,"war":2763,"ulation":2764,"ason":2765,"▁respons":2766,"zug":2767,"ahre":2768,"▁free":2769,"▁viele":2770,"akt":2771,"▁allen":2772,"orte":2773,"ell":2774,"▁seiner":2775,"]]":2776,"ers.":2777,"▁already":2778,"▁today":2779,"▁darauf":2780,"▁That":2781,"ittee":2782,"▁environment":2783,"ron":2784,"▁design":2785,"esell":2786,"ismus":2787,"▁hat,":2788,"▁Möglichkeit":2789,"▁voll":2790,"üh":2791,"▁But":2792,"et,":2793,"▁Ziel":2794,"let":2795,"▁inst":2796,"▁project":2797,"ritt":2798,"▁cann":2799,"▁compet":2800,"▁größ":2801,"▁Them":2802,"▁et":2803,"▁Finanz":2804,"▁Daten":2805,"▁eing":2806,"▁pres":2807,"ope":2808,"▁0":2809,"▁Rah":2810,"▁Region":2811,"▁To":2812,"imin":2813,"▁proposal":2814,"itiz":2815,"▁sag":2816,"its":2817,"amm":2818,"▁Lage":2819,"▁cannot":2820,"ving":2821,"▁fac":2822,"ws":2823,"cr":2824,"▁bietet":2825,"▁certain":2826,"okrat":2827,"curity":2828,"▁pers":2829,"▁area":2830,"esse":2831,"▁eas":2832,"▁follow":2833,"▁Problem":2834,"▁prev":2835,"öl":2836,"▁open":2837,"other":2838,"▁ach":2839,"los":2840,"▁schon":2841,"geben":2842,"aterial":2843,"▁Med":2844,"▁mir":2845,"mar":2846,"▁before":2847,"▁int":2848,"lä":2849,"raph":2850,"ationen":2851,"▁redu":2852,"▁seit":2853,"▁And":2854,"▁repr":2855,"▁kl":2856,"▁individ":2857,"▁Mein":2858,"▁befind":2859,"▁jetzt":2860,"▁present":2861,"leist":2862,"▁neg":2863,"▁Verein":2864,"aher":2865,"▁Ro":2866,"▁System":2867,"fra":2868,"ahn":2869,"orn":2870,"une":2871,"▁lif":2872,"▁einige":2873,"▁Rechts":2874,"▁hal":2875,"olid":2876,"▁dafür":2877,"▁Energ":2878,"klär":2879,"▁[[":2880,"▁word":2881,"▁put":2882,"▁&":2883,"ased":2884,"ble":2885,"▁impro":2886,"nahme":2887,"lagen":2888,"tain":2889,"ird":2890,"▁Gemein":2891,"EN":2892,"▁Herrn":2893,"ungsant":2894,"▁point":2895,"ential":2896,"▁Tran":2897,"isierung":2898,"ccess":2899,"fahren":2900,"ulture":2901,"reib":2902,"iber":2903,"▁Pol":2904,"▁Russ":2905,"▁integr":2906,"ajor":2907,"▁ple":2908,"ilit":2909,"ified":2910,"▁Rahmen":2911,"eich":2912,"▁financial":2913,"▁Kommiss":2914,"▁city":2915,"▁change":2916,"▁meet":2917,"welt":2918,"▁histor":2919,"ies.":2920,"▁Amer":2921,"▁öff":2922,"ies,":2923,"▁activ":2924,"grund":2925,"▁during":2926,"▁je":2927,"press":2928,"ode":2929,"▁pass":2930,"ised":2931,"▁rev":2932,"▁Zimmer":2933,"▁offers":2934,"▁institution":2935,"▁citiz":2936,"▁allem":2937,"▁invest":2938,"iert.":2939,"▁zurück":2940,"äm":2941,"komm":2942,"▁ihren":2943,"ppen":2944,"▁comple":2945,"ove":2946,"▁gef":2947,"▁prom":2948,"▁position":2949,"▁fol":2950,"▁Serv":2951,"▁said":2952,"▁deut":2953,"ichter":2954,"▁Jahre":2955,"raf":2956,"ia,":2957,"iving":2958,"20":2959,"ather":2960,"▁global":2961,"▁nun":2962,"▁large":2963,"▁modern":2964,"200":2965,"▁Uns":2966,"▁achie":2967,"▁2009":2968,"▁energ":2969,"-c":2970,"aben":2971,"▁ref":2972,"▁saf":2973,"▁el":2974,"▁Kommissar":2975,"▁examp":2976,"▁liegt":2977,"▁ask":2978,"aum":2979,"ics":2980,"▁Bei":2981,"▁Ö":2982,"▁Wor":2983,"abei":2984,"▁quality":2985,"ilt":2986,"nov":2987,"▁applic":2988,"▁major":2989,"▁Aussch":2990,"▁hat.":2991,"punkt":2992,"▁member":2993,"▁cour":2994,"▁cost":2995,"▁Internet":2996,"halts":2997,"▁famil":2998,"antwort":2999,"gress":3000,"▁entsp":3001,"▁cas":3002,"ins":3003,"ativ":3004,"▁Für":3005,"▁program":3006,"▁since":3007,"▁besch":3008,"▁besonder":3009,"ek":3010,"lichkeit":3011,"▁strateg":3012,"reit":3013,"▁debate":3014,"gend":3015,"iend":3016,"▁necess":3017,"ern,":3018,"▁condition":3019,"unter":3020,"▁Als":3021,"ether":3022,"▁art":3023,"▁far":3024,"▁Go":3025,"▁Ad":3026,"▁eng":3027,"nisse":3028,"isl":3029,"▁unseren":3030,"▁Kin":3031,"asch":3032,"besondere":3033,"▁Pal":3034,"▁Gew":3035,"itive":3036,"▁coop":3037,"come":3038,"gang":3039,"▁technolog":3040,"▁Eine":3041,"gestell":3042,"ilities":3043,"vention":3044,"▁Sh":3045,"omat":3046,"▁child":3047,"▁Our":3048,"▁amend":3049,"▁contr":3050,"▁wurden":3051,"▁common":3052,"▁würde":3053,"▁With":3054,"▁Maßnahmen":3055,"▁Spe":3056,"▁Best":3057,"▁each":3058,"-T":3059,"▁adop":3060,"anc":3061,"▁Unternehmen":3062,"▁bin":3063,"ßen":3064,"ield":3065,"amer":3066,"▁che":3067,"▁sollte":3068,"ärk":3069,"▁matter":3070,"haf":3071,"eschäft":3072,"▁Form":3073,"▁meine":3074,"▁Gesch":3075,"ually":3076,"▁sollten":3077,"▁Informationen":3078,"tig":3079,"▁Ph":3080,"▁solution":3081,"▁Ger":3082,"▁Eng":3083,"▁standard":3084,"▁Arbeits":3085,"-R":3086,"▁means":3087,"▁Politik":3088,"omen":3089,"▁data":3090,"▁Bo":3091,"▁author":3092,"▁including":3093,"▁stay":3094,"opp":3095,"▁30":3096,"ipp":3097,"▁während":3098,"▁bud":3099,"ret":3100,"gew":3101,"zen":3102,"-D":3103,"schied":3104,"▁etwas":3105,"loss":3106,"▁allow":3107,"-K":3108,"▁Ur":3109,"cip":3110,"ablish":3111,"▁country":3112,"▁However,":3113,"ways":3114,"an,":3115,"▁found":3116,"▁Wer":3117,"iele":3118,"▁/":3119,"▁areas":3120,"▁Und":3121,"▁Vorschlag":3122,"▁respect":3123,"▁fra":3124,"orth":3125,"▁Bild":3126,"▁colle":3127,"▁doch":3128,"▁stud":3129,"ffen":3130,"▁sozial":3131,"▁Res":3132,"hält":3133,"▁three":3134,"häng":3135,"ders":3136,"bed":3137,"▁give":3138,"strument":3139,"▁einge":3140,"▁democ":3141,"▁rece":3142,"1.":3143,"▁ensure":3144,"▁sein,":3145,"ves":3146,"linie":3147,"ürlich":3148,"uge":3149,"ily":3150,"al,":3151,"▁erm":3152,"▁next":3153,"ized":3154,"▁addition":3155,"▁further":3156,"▁tradition":3157,"fang":3158,"▁few":3159,"▁thank":3160,"▁tun":3161,"▁discuss":3162,"▁Länder":3163,"In":3164,"▁object":3165,"stimm":3166,"▁Deut":3167,"gleich":3168,"▁imm":3169,"▁build":3170,"▁success":3171,"▁fil":3172,"▁Bl":3173,"inen":3174,"▁organis":3175,"▁cal":3176,"▁Unterstütz":3177,"▁Durch":3178,"▁second":3179,"▁control":3180,"of":3181,"▁Fall":3182,"▁provide":3183,"gre":3184,"▁services":3185,"iate":3186,"ion,":3187,"zept":3188,"▁ander":3189,"unde":3190,"eschäf":3191,"▁Lös":3192,"▁Committee":3193,"▁gar":3194,"ohn":3195,"weg":3196,"▁einmal":3197,"▁|":3198,"▁Stadt":3199,"on,":3200,"elf":3201,"▁insbesondere":3202,"zieh":3203,"ziel":3204,"▁pay":3205,"▁det":3206,"▁War":3207,"▁employ":3208,"▁(1":3209,"▁Qual":3210,"setzung":3211,"lungs":3212,"▁Qu":3213,"trä":3214,"▁link":3215,"por":3216,"chten":3217,"▁star":3218,"▁establish":3219,"▁grow":3220,"▁außer":3221,"▁du":3222,"orm":3223,"▁Rest":3224,"▁verl":3225,"▁read":3226,"▁bestimm":3227,"▁Verfüg":3228,"▁abs":3229,"ule":3230,"ried":3231,"ash":3232,"▁Ital":3233,"▁Techn":3234,"▁Zug":3235,"kunft":3236,"jekt":3237,"▁ear":3238,"▁wirk":3239,"▁Komp":3240,"▁Group":3241,"ining":3242,"▁that,":3243,"▁beim":3244,"utes":3245,"▁em":3246,"▁service":3247,"-m":3248,"▁pop":3249,"falls":3250,"▁opport":3251,"▁inde":3252,"▁sk":3253,"▁Markt":3254,"igin":3255,"ren":3256,"-E":3257,"▁finden":3258,"▁ersten":3259,"▁shall":3260,"pend":3261,"▁Schw":3262,"▁25":3263,"▁ho":3264,"▁erreich":3265,"▁Zusammenarbeit":3266,"▁necessary":3267,"ma":3268,"unic":3269,"▁did":3270,"ultural":3271,"▁schw":3272,"▁Programm":3273,"politik":3274,"▁14":3275,"ien,":3276,"▁add":3277,"▁terr":3278,"▁Webs":3279,"ordin":3280,"▁princip":3281,"▁bl":3282,"ruct":3283,"'t":3284,"▁begr":3285,"▁drei":3286,"▁vo":3287,"▁action":3288,"▁zusammen":3289,"▁legisl":3290,"▁ä":3291,"▁X":3292,"▁Tag":3293,"▁security":3294,"▁pract":3295,"▁Spiel":3296,"tschafts":3297,"▁Cl":3298,"bau":3299,"▁taken":3300,"▁Mad":3301,"▁simp":3302,"▁invol":3303,"AT":3304,"igen,":3305,"▁erst":3306,"bo":3307,"▁health":3308,"ald":3309,"▁ret":3310,"örder":3311,"▁key":3312,"▁Änderungsant":3313,"ross":3314,"dress":3315,"äd":3316,"▁entwick":3317,"▁kann.":3318,"▁lead":3319,"enk":3320,"▁char":3321,"ordnung":3322,"burg":3323,"stellung":3324,"AN":3325,"bewer":3326,"iste":3327,"atte":3328,"ht,":3329,"ared":3330,"▁while":3331,"▁Tr":3332,"▁inform":3333,"esser":3334,"▁bro":3335,"urz":3336,"▁wirtschaft":3337,"gether":3338,"nell":3339,"lect":3340,"▁Dienst":3341,"ichts":3342,"▁sicher":3343,"▁reason":3344,"▁16":3345,"cing":3346,"zess":3347,"▁ir":3348,"rodu":3349,"▁located":3350,"tes":3351,"▁situation":3352,"▁wish":3353,"rache":3354,"ktionen":3355,"▁Deb":3356,"joy":3357,"▁represent":3358,"▁Namen":3359,"▁power":3360,"rop":3361,"▁Da":3362,"▁protection":3363,"▁given":3364,"gangen":3365,"arch":3366,"leit":3367,"heiten":3368,"ES":3369,"IN":3370,"▁implement":3371,"▁Comp":3372,"▁Euro":3373,"▁come":3374,"schrif":3375,"ands":3376,"▁and,":3377,"▁Parlaments":3378,"earch":3379,"iation":3380,"▁refer":3381,"▁Ländern":3382,"▁Regierung":3383,"▁br":3384,"▁products":3385,"▁Sw":3386,"osition":3387,"▁writ":3388,"▁seinen":3389,"ests":3390,"▁Geschäf":3391,"▁Vol":3392,"rad":3393,"▁Rom":3394,"▁17":3395,"ains":3396,"ktor":3397,"kten":3398,"▁können,":3399,"ilfe":3400,"▁bar":3401,"üf":3402,"allen":3403,"▁Port":3404,"▁tre":3405,"▁They":3406,"iew":3407,"▁comb":3408,"wirk":3409,"▁Dar":3410,"▁Americ":3411,"man":3412,"▁Red":3413,"co":3414,"▁always":3415,"▁Ob":3416,"schein":3417,"▁komp":3418,"▁Besch":3419,"▁Bel":3420,"▁sens":3421,"▁Kolle":3422,"▁case":3423,"▁wäre":3424,"▁better":3425,"cell":3426,"▁Kol":3427,"▁net":3428,"▁start":3429,"▁United":3430,"ichterst":3431,"▁show":3432,"ustrie":3433,"▁akt":3434,"▁Beit":3435,"▁mult":3436,"ivil":3437,"▁why":3438,"ettbewer":3439,"voll":3440,"führung":3441,"kon":3442,"ling":3443,"▁geht":3444,"erstell":3445,"▁Nutz":3446,"entrum":3447,"▁Not":3448,"ialog":3449,"▁too":3450,"▁(A":3451,"▁glaub":3452,"fre":3453,"▁energy":3454,"▁complete":3455,"▁dank":3456,"wendung":3457,"▁gehör":3458,"arte":3459,"▁wicht":3460,"▁Unterstützung":3461,"▁rele":3462,"▁Umwelt":3463,"▁2010":3464,"▁2008":3465,"zü":3466,"▁hö":3467,"spro":3468,"bereich":3469,"ämp":3470,"rechte":3471,"▁hope":3472,"iod":3473,"▁result":3474,"▁fav":3475,"▁La":3476,"▁cho":3477,"▁letzten":3478,"-b":3479,"▁Community":3480,"sequ":3481,"atch":3482,"▁Energie":3483,"▁muß":3484,"iert,":3485,"less":3486,"▁issue":3487,"▁Kr":3488,"ikan":3489,"blick":3490,"▁Entscheid":3491,"▁measures":3492,"▁Bedeut":3493,"reg":3494,"obil":3495,"clus":3496,"▁using":3497,"ierungs":3498,"▁mov":3499,"▁50":3500,"undheit":3501,"▁Ko":3502,"▁consum":3503,"▁ble":3504,"▁reach":3505,"ising":3506,"▁legal":3507,"▁sing":3508,"▁Sk":3509,"▁entfern":3510,"▁law":3511,"▁sector":3512,"▁around":3513,"rän":3514,"ge,":3515,"▁13":3516,"igten":3517,"▁conne":3518,"▁Was":3519,"▁transport":3520,"ölk":3521,"▁event":3522,"▁current":3523,"▁Wel":3524,"▁Ser":3525,"abil":3526,"▁Lebens":3527,"load":3528,"▁deren":3529,"▁rep":3530,"-G":3531,"▁production":3532,"ucht":3533,"markt":3534,"▁What":3535,"pflich":3536,"▁vote":3537,"▁Gu":3538,"eite":3539,"▁welche":3540,"esellschaft":3541,"▁sein.":3542,"pecial":3543,"ets":3544,"▁USA":3545,"bild":3546,"ervor":3547,"ately":3548,"ged":3549,"iter":3550,"▁clos":3551,"▁inner":3552,"lungen":3553,"▁short":3554,"▁Ergeb":3555,"▁non":3556,"▁rapp":3557,"▁bel":3558,"▁Famil":3559,"▁rooms":3560,"▁Fun":3561,"▁tour":3562,"▁Hier":3563,"wards":3564,"▁Mrs":3565,"▁based":3566,"itäten":3567,"sk":3568,"▁whether":3569,"▁großen":3570,"▁Kunden":3571,"▁große":3572,"▁mor":3573,"▁individual":3574,"agen":3575,"altung":3576,"lich,":3577,"▁Situ":3578,"hof":3579,"▁less":3580,"▁lim":3581,"app":3582,"▁crit":3583,"▁diffic":3584,"▁centre":3585,"uten":3586,"▁extre":3587,"ünst":3588,"▁become":3589,"▁together":3590,"ctive":3591,"ites":3592,"▁When":3593,"ott":3594,"schaften":3595,"▁near":3596,"▁sl":3597,"▁Aber":3598,"▁These":3599,"▁another":3600,"▁1.":3601,"▁particularly":3602,"▁Fol":3603,"esen":3604,"▁government":3605,"eder":3606,"ice.":3607,"ategor":3608,"ferenz":3609,"▁International":3610,"▁dist":3611,"▁state":3612,"oten":3613,"▁Schutz":3614,"ibution":3615,"▁lea":3616,"▁24":3617,"-L":3618,"umen":3619,"▁research":3620,"kauf":3621,"▁trade":3622,"▁field":3623,"ros":3624,"▁Auch":3625,"▁zahl":3626,"▁industr":3627,"▁dabei":3628,"ße":3629,"upp":3630,"druck":3631,"▁Bus":3632,"▁Vertrag":3633,"ice,":3634,"-C":3635,"▁Bank":3636,"▁Restaur":3637,"▁him":3638,"ify":3639,"▁men":3640,"▁Kinder":3641,"▁100":3642,"aden":3643,"▁rapporte":3644,"▁care":3645,"▁working":3646,"▁Regel":3647,"▁Beispiel":3648,"▁bekann":3649,"aster":3650,"▁Tur":3651,"▁bene":3652,"▁Air":3653,"▁notwend":3654,"▁Berichterst":3655,"▁(S":3656,"▁join":3657,"▁Ben":3658,"▁km":3659,"▁call":3660,"▁met":3661,"▁dav":3662,"ern.":3663,"▁resolution":3664,"room":3665,"le.":3666,"▁hervor":3667,"ichten":3668,"werk":3669,"iar":3670,"ules":3671,"▁wurd":3672,"ined":3673,"ckt":3674,"▁2007":3675,"▁öffent":3676,"\".":3677,"astr":3678,"▁UN":3679,"▁organ":3680,"ikel":3681,"▁entsprech":3682,"▁visit":3683,"▁local":3684,"isher":3685,"arante":3686,"roll":3687,"▁Zahl":3688,"▁Recht":3689,"▁specific":3690,"▁friend":3691,"ender":3692,"▁Proble":3693,"▁darüber":3694,"ätze":3695,"▁erforder":3696,"▁Wirtschafts":3697,"ON":3698,"ique":3699,"▁company":3700,"igkeiten":3701,"wach":3702,"▁restaur":3703,"▁Stud":3704,"▁decision":3705,"vest":3706,"▁citizens":3707,"▁break":3708,"▁aff":3709,"▁San":3710,"alle":3711,"▁resul":3712,"hö":3713,"▁beach":3714,"▁subject":3715,"pecially":3716,"ural":3717,"▁book":3718,"▁ann":3719,"▁gegenüber":3720,"▁eben":3721,"▁schnell":3722,"▁jeder":3723,"▁address":3724,"▁hoff":3725,"ion.":3726,"ty":3727,"ording":3728,"▁Gä":3729,"▁tax":3730,"▁El":3731,"▁various":3732,"äuf":3733,"▁brauch":3734,"▁exist":3735,"▁cours":3736,"▁New":3737,"▁Fahr":3738,"▁enjoy":3739,"ength":3740,"▁run":3741,"gaben":3742,"▁Weg":3743,"fäh":3744,"lock":3745,"▁Viel":3746,"▁col":3747,"▁EUR":3748,"▁Lie":3749,"▁di":3750,"▁experience":3751,"▁gesam":3752,"gemein":3753,"▁however,":3754,"üt":3755,"iges":3756,"\",":3757,"▁Fort":3758,"▁ur":3759,"▁page":3760,"▁Präsident!":3761,"▁sowohl":3762,"▁step":3763,"▁Wahl":3764,"▁typ":3765,"▁Haushalts":3766,"▁old":3767,"hang":3768,"veral":3769,"▁Mark":3770,"▁Fragen":3771,"imate":3772,"▁bew":3773,"eign":3774,"50":3775,"▁basis":3776,"adies":3777,"▁guarante":3778,"schutz":3779,"▁weitere":3780,"▁profession":3781,"▁beh":3782,"▁aim":3783,"▁Mal":3784,"▁näch":3785,"til":3786,"▁Gar":3787,"ocument":3788,"▁difficult":3789,"ogen":3790,"ia.":3791,"raum":3792,"▁eigenen":3793,"▁third":3794,"▁Ende":3795,"▁occ":3796,"▁dort":3797,"▁Ihrer":3798,"▁natürlich":3799,"▁Stra":3800,"▁pack":3801,"heb":3802,"▁Preis":3803,"▁beaut":3804,"▁comfort":3805,"▁it.":3806,"▁really":3807,"use":3808,"▁meiner":3809,"▁budget":3810,"▁China":3811,"geord":3812,"ücks":3813,"▁deal":3814,"isation":3815,"text":3816,"▁sum":3817,"▁commit":3818,"▁speak":3819,"▁nie":3820,"▁arbeit":3821,"▁cooperation":3822,"▁politischen":3823,"▁Haupt":3824,"▁klar":3825,"wand":3826,"▁Pre":3827,"enten":3828,"▁effort":3829,"asser":3830,"▁distr":3831,"▁innov":3832,"▁Park":3833,"üd":3834,"▁prior":3835,"▁month":3836,"ingungen":3837,"isches":3838,"▁Geschäfts":3839,"▁staff":3840,"angen":3841,"eten":3842,"spl":3843,"▁needs":3844,"▁cris":3845,"▁programm":3846,"▁account":3847,"▁gent":3848,"▁period":3849,"▁Deutsch":3850,"uc":3851,"▁erfolg":3852,"▁Gegen":3853,"▁though":3854,"chan":3855,"isen":3856,"▁Forsch":3857,"▁tot":3858,"geleg":3859,"▁teil":3860,"i.":3861,"▁origin":3862,"30":3863,"▁Mehr":3864,"ungen.":3865,"cellent":3866,"▁proced":3867,"▁mot":3868,"ünft":3869,"ifiz":3870,"▁verschiedenen":3871,"▁rapporteur":3872,"▁11":3873,"▁wirklich":3874,"▁Tour":3875,"ograph":3876,"▁nam":3877,"▁food":3878,"-V":3879,"▁hoch":3880,"gabe":3881,"▁top":3882,"▁innerhalb":3883,"zuf":3884,"▁nor":3885,"▁besonders":3886,"ly.":3887,"ober":3888,"▁Berichterstatter":3889,"arn":3890,"▁Ausschuss":3891,"▁especially":3892,"▁negot":3893,"▁create":3894,"▁daher":3895,"genommen":3896,"AR":3897,"el,":3898,"lich.":3899,"▁problems":3900,"▁Zwe":3901,"oment":3902,"▁Minister":3903,"▁plan":3904,"▁Treat":3905,"▁turn":3906,"by":3907,"▁Alle":3908,"c.":3909,"ig,":3910,"▁private":3911,"stoff":3912,"▁water":3913,"▁Fest":3914,"▁Rolle":3915,"inter":3916,"ton":3917,"ension":3918,"▁perform":3919,"istic":3920,"-H":3921,"▁treat":3922,"▁press":3923,"IT":3924,"▁approach":3925,"▁personal":3926,"▁vielen":3927,"▁Jan":3928,"yl":3929,"▁betr":3930,"▁close":3931,"▁Lin":3932,"▁million":3933,"▁Natur":3934,"▁zwar":3935,"▁verwend":3936,"▁gener":3937,"▁soc":3938,"uter":3939,"duc":3940,"oor":3941,"ec":3942,"▁terms":3943,"▁reform":3944,"▁prop":3945,"▁Wettbewer":3946,"▁favour":3947,"▁Seite":3948,"▁enter":3949,"▁dra":3950,"olf":3951,"asse":3952,"▁among":3953,"▁(P":3954,"▁job":3955,"ht.":3956,"▁Kollegen":3957,"hmen":3958,"▁internationalen":3959,"row":3960,"▁ihnen":3961,"iol":3962,"▁itself":3963,"zip":3964,"▁someth":3965,"eiten":3966,"▁Terr":3967,"▁langu":3968,"▁ess":3969,"ugen":3970,"▁Kolleg":3971,"rieden":3972,"▁Gru":3973,"▁initi":3974,"▁several":3975,"bene":3976,"▁general":3977,"▁Dire":3978,"▁struct":3979,"glichen":3980,"ival":3981,"▁doub":3982,"▁Wind":3983,"▁Chr":3984,"▁install":3985,"▁Afr":3986,"▁resour":3987,"▁material":3988,"ination":3989,"imal":3990,"leb":3991,"ature":3992,"mework":3993,"gen,":3994,"▁Disk":3995,"▁Richtlinie":3996,"ts.":3997,"▁document":3998,"tember":3999,"▁town":4000,"▁direkt":4001,"▁role":4002,"▁increas":4003,"▁Software":4004,"▁Op":4005,"▁webs":4006,"ipt":4007,"▁Verbrauch":4008,"▁Ihren":4009,"ritte":4010,"uth":4011,"▁regul":4012,"▁natur":4013,"ände":4014,"partment":4015,"▁Uhr":4016,"▁No":4017,"▁enc":4018,"▁dür":4019,"▁besteht":4020,"▁Woch":4021,"▁hinaus":4022,"▁gl":4023,"▁let":4024,"▁inc":4025,"▁pat":4026,"wh":4027,"▁single":4028,"▁port":4029,"ksam":4030,"▁Strateg":4031,"wär":4032,"▁Thema":4033,"▁mar":4034,"ünf":4035,"cher":4036,"eg":4037,"mos":4038,"▁automat":4039,"oren":4040,"▁davon":4041,"haus":4042,"▁whole":4043,"dings":4044,"▁introdu":4045,"führt":4046,"iety":4047,"▁(C":4048,"▁gewähr":4049,"▁\"S":4050,"▁aufge":4051,"ived":4052,"▁Kü":4053,"▁she":4054,"▁excellent":4055,"▁progress":4056,"▁away":4057,"bet":4058,"▁course":4059,"amt":4060,"▁serious":4061,"▁alles":4062,"▁peace":4063,"▁Zukunft":4064,"-in":4065,"d.":4066,"▁lo":4067,"IS":4068,"▁Union.":4069,"▁kind":4070,"ches":4071,"▁beginn":4072,"ts,":4073,"▁creat":4074,"redit":4075,"▁opin":4076,"▁mean":4077,"nehmer":4078,"▁gentlem":4079,"▁something":4080,"ards":4081,"▁wurde,":4082,"zeichnet":4083,"▁management":4084,"lik":4085,"gric":4086,"▁sup":4087,"▁2000":4088,"▁function":4089,"▁konn":4090,"ennt":4091,"ably":4092,"▁Fisch":4093,"uellen":4094,"▁Seiten":4095,"▁following":4096,"lauf":4097,"hens":4098,"▁understand":4099,"ittle":4100,"▁tro":4101,"▁Weise":4102,"▁list":4103,"▁making":4104,"ima":4105,"▁particip":4106,"wä":4107,"affen":4108,"ations.":4109,"thing":4110,"-1":4111,"▁ermöglich":4112,"▁steht":4113,"▁Transp":4114,"uchen":4115,"▁Berlin":4116,"ity.":4117,"▁Emp":4118,"fehl":4119,"▁crisis":4120,"▁House":4121,"though":4122,"▁europäische":4123,"cel":4124,"▁going":4125,"▁ans":4126,"▁contact":4127,"▁Frauen":4128,"▁accept":4129,"▁forward":4130,"▁waren":4131,"▁anal":4132,"▁benef":4133,"▁sett":4134,"▁Frank":4135,"produ":4136,"▁World":4137,"▁mone":4138,"▁extrem":4139,"ners":4140,"▁My":4141,"▁Gesundheit":4142,"▁gra":4143,"▁erste":4144,"▁members":4145,"▁Probleme":4146,"▁once":4147,"▁software":4148,"▁gentlemen,":4149,"▁stark":4150,"lag":4151,"▁Rep":4152,"▁range":4153,"▁towards":4154,"legenheit":4155,"ache":4156,"▁bal":4157,"ca":4158,"▁wurde.":4159,"▁befindet":4160,"▁198":4161,"▁express":4162,"▁genau":4163,"▁Univers":4164,"ody":4165,"uh":4166,"ury":4167,"▁absol":4168,"▁don":4169,"ots":4170,"▁einzel":4171,"▁Invest":4172,"rieb":4173,"▁Million":4174,"▁recog":4175,"▁dest":4176,"▁continue":4177,"▁mention":4178,"CH":4179,"indung":4180,"▁Zusammenhang":4181,"▁Gleich":4182,"cken":4183,"▁walk":4184,"▁issu":4185,"-0":4186,"ologie":4187,"▁hät":4188,"▁post":4189,"ference":4190,"▁Abgeord":4191,"▁communic":4192,"rechen":4193,"▁feel":4194,"▁ident":4195,"rael":4196,"▁(D":4197,"▁Car":4198,"▁often":4199,"itäts":4200,"▁Nov":4201,"▁until":4202,"omb":4203,"▁land":4204,"▁Pe":4205,"▁milit":4206,"asst":4207,"▁Kar":4208,"emp":4209,"▁unserem":4210,"▁Gäste":4211,"gän":4212,"▁Madam":4213,"yr":4214,"▁App":4215,"halten.":4216,"outh":4217,"▁time,":4218,"▁week":4219,"2.":4220,"wirtschaft":4221,"▁Artikel":4222,"▁nutz":4223,"armon":4224,"▁beiden":4225,"▁National":4226,"▁aid":4227,"stum":4228,"uff":4229,"▁ant":4230,"sprache":4231,"▁defin":4232,"▁Rück":4233,"▁finanz":4234,"fect":4235,"usätz":4236,"uell":4237,"▁2.":4238,"as,":4239,"▁strong":4240,"▁2006":4241,"ype":4242,"▁sagen,":4243,"▁Do":4244,"▁Entschließ":4245,"vent":4246,"tract":4247,"▁Span":4248,"▁Bedeutung":4249,"▁Can":4250,"▁Kultur":4251,"ächst":4252,"▁Met":4253,"OR":4254,"ym":4255,"stimmung":4256,"onn":4257,"idence":4258,"ences":4259,"▁bieten":4260,"isions":4261,"▁weltw":4262,"leicht":4263,"ment.":4264,"▁opportunity":4265,"zimmer":4266,"plan":4267,"▁little":4268,"ativen":4269,"ally,":4270,"bei":4271,"ußen":4272,"▁Verantwort":4273,"-f":4274,"ment,":4275,"▁Jul":4276,"▁Fil":4277,"▁rather":4278,"▁keep":4279,"▁Demokrat":4280,"▁bz":4281,"ars":4282,"▁growth":4283,"▁Sep":4284,"▁stehen":4285,"ika":4286,"r.":4287,"▁activities":4288,"▁mind":4289,"schriften":4290,"imum":4291,"ij":4292,"half":4293,"ocus":4294,"▁hard":4295,"full":4296,"▁Dieses":4297,"uft":4298,"erien":4299,"aps":4300,"ity,":4301,"▁Bas":4302,"▁Fraktion":4303,"edom":4304,"▁check":4305,"pekt":4306,"▁ve":4307,"▁Deutschland":4308,"weil":4309,"▁quite":4310,"go":4311,"▁il":4312,"mäß":4313,"▁Mo":4314,"▁Weit":4315,"▁life":4316,"▁Union,":4317,"▁seem":4318,"▁fast":4319,"mor":4320,"▁Staaten":4321,"▁Service":4322,"▁sw":4323,"AS":4324,"▁begrü":4325,"▁Organis":4326,"▁Partner":4327,"ean":4328,"ison":4329,"▁phot":4330,"▁ihn":4331,"▁tas":4332,"▁bzw.":4333,"assen.":4334,"▁elect":4335,"▁sug":4336,"▁Hotels":4337,"▁Sc":4338,"▁dev":4339,"ämpf":4340,"bour":4341,"▁indem":4342,"igt,":4343,"stra":4344,"▁chang":4345,"ises":4346,"▁behalf":4347,"▁Schluss":4348,"fall":4349,"▁Commissioner":4350,"agn":4351,"icle":4352,"arian":4353,"ino":4354,"enzen":4355,"letz":4356,"age,":4357,"räge":4358,"▁women":4359,"ethod":4360,"▁Deshalb":4361,"▁qual":4362,"ommend":4363,"▁least":4364,"▁Cent":4365,"▁try":4366,"▁children":4367,"▁four":4368,"genden":4369,"▁Stell":4370,"▁gesag":4371,"mosph":4372,"▁Dienstleist":4373,"ails":4374,"▁big":4375,"▁effic":4376,"▁relations":4377,"▁spiel":4378,"▁include":4379,"abhäng":4380,"▁Sa":4381,"▁signific":4382,"▁remain":4383,"▁näm":4384,"▁weniger":4385,"▁might":4386,"▁verw":4387,"teilung":4388,"▁lab":4389,"wohl":4390,"füll":4391,"▁increase":4392,"iful":4393,"▁etwa":4394,"the":4395,"▁Char":4396,"ter,":4397,"▁gute":4398,"▁State":4399,"ure,":4400,"▁Sozial":4401,"onger":4402,"ively":4403,"▁fully":4404,"amental":4405,"▁ideal":4406,"▁done":4407,"▁Ass":4408,"▁verfü":4409,"▁persön":4410,"onds":4411,"▁park":4412,"▁positive":4413,"▁erhalten":4414,"▁zahlreich":4415,"ica":4416,"▁welcome":4417,"ization":4418,"einander":4419,"▁After":4420,"enen":4421,"▁agree":4422,"ides":4423,"▁Erfahr":4424,"zeitig":4425,"▁kurz":4426,"▁sogar":4427,"▁Projekt":4428,"▁pur":4429,"▁September":4430,"▁content":4431,"▁framework":4432,"▁having":4433,"▁jeden":4434,"ratic":4435,"▁ladies":4436,"▁directive":4437,"hunder":4438,"▁conditions":4439,"▁bor":4440,"▁admin":4441,"äge":4442,"recht":4443,"icial":4444,"▁Pat":4445,"ety":4446,"▁Punkt":4447,"▁nah":4448,"▁Geld":4449,"▁an.":4450,"völk":4451,"▁Per":4452,"OM":4453,"▁educ":4454,"▁along":4455,"▁risk":4456,"self":4457,"-W":4458,"▁continu":4459,"ification":4460,"selves":4461,"▁arch":4462,"ächlich":4463,"ellen":4464,"met":4465,"▁Hilfe":4466,"gen.":4467,"bereit":4468,"▁log":4469,"▁pa":4470,"▁Austr":4471,"baren":4472,"auer":4473,"▁Situation":4474,"racht":4475,"▁issues":4476,"sweise":4477,"▁Priv":4478,"▁recommend":4479,"immt":4480,"rank":4481,"▁Ange":4482,"▁above":4483,"▁gerade":4484,"▁hour":4485,"eits":4486,"▁Tod":4487,"▁unterschied":4488,"▁kann,":4489,"▁companies":4490,"tag":4491,"▁Institution":4492,"▁Millionen":4493,"▁machen":4494,"▁fair":4495,"oph":4496,"ric":4497,"▁oth":4498,"verb":4499,"lean":4500,"esehen":4501,"fast":4502,"▁adopted":4503,"ai":4504,"▁nicht,":4505,"▁example,":4506,"▁nämlich":4507,"iere":4508,"ostel":4509,"▁suf":4510,"erecht":4511,"▁essential":4512,"▁network":4513,"▁Dank":4514,"▁bitte":4515,"▁Sal":4516,"▁Zugang":4517,"igen.":4518,"uz":4519,"tigen":4520,"▁Tats":4521,"▁Tür":4522,"▁strength":4523,"▁Web":4524,"iberal":4525,"▁ihm":4526,"atis":4527,"▁statt":4528,"wahl":4529,"▁flo":4530,"age.":4531,"unst":4532,"▁seinem":4533,"▁ü":4534,"most":4535,"ief":4536,"▁taking":4537,"▁viol":4538,"▁Leben":4539,"ierungen":4540,"frage":4541,"anst":4542,"ce,":4543,"▁led":4544,"▁charac":4545,"▁40":4546,"▁entire":4547,"bank":4548,"▁Bezug":4549,"▁makes":4550,"▁meisten":4551,"▁tool":4552,"▁class":4553,"▁Dieser":4554,"stant":4555,"lei":4556,"▁bank":4557,"▁stre":4558,"▁transpar":4559,"ager":4560,"ure.":4561,"eum":4562,"▁called":4563,"▁bleib":4564,"▁bede":4565,"▁darf":4566,"▁flex":4567,"▁agric":4568,"▁Unsere":4569,"unehm":4570,"▁bath":4571,"▁send":4572,"▁politische":4573,"▁Chin":4574,"▁return":4575,"▁text":4576,"bare":4577,"äum":4578,"▁constru":4579,"liches":4580,"reicht":4581,"▁never":4582,"ex":4583,"ül":4584,"▁provided":4585,"▁Janu":4586,"igr":4587,"▁Kap":4588,"▁focus":4589,"▁wesent":4590,"▁Buch":4591,"▁genann":4592,"word":4593,"▁time.":4594,"▁eur":4595,"rift":4596,"▁Zust":4597,"▁Initi":4598,"▁line":4599,"aten,":4600,"ruktur":4601,"▁gre":4602,"ünsch":4603,"▁ak":4604,"igital":4605,"▁2005":4606,"▁ebenfalls":4607,"find":4608,"▁stellt":4609,"▁anges":4610,"▁Rechte":4611,"▁gib":4612,"▁name":4613,"▁wahr":4614,"▁(E":4615,"▁Frei":4616,"amb":4617,"▁instrument":4618,"▁(F":4619,"▁One":4620,"▁location":4621,"aussch":4622,"▁family":4623,"vement":4624,"▁Grün":4625,"▁freedom":4626,"▁Verkehr":4627,"▁Verhand":4628,"▁attention":4629,"side":4630,"berg":4631,"▁Gesetz":4632,"▁Produktion":4633,"henden":4634,"bon":4635,"▁Antw":4636,"▁Entwicklungs":4637,"▁pot":4638,"ured":4639,"▁Europe.":4640,"▁Gl":4641,"ideo":4642,"▁provides":4643,"▁tele":4644,"▁recht":4645,"▁ren":4646,"▁Sel":4647,"wohn":4648,"erst":4649,"urf":4650,"▁demand":4651,"▁Ide":4652,"▁cover":4653,"▁Text":4654,"rolle":4655,"▁home":4656,"▁responsibility":4657,"▁sehen":4658,"AL":4659,"issen,":4660,"atives":4661,"▁Lösung":4662,"▁neu":4663,"▁beautiful":4664,"▁deliver":4665,"▁Em":4666,"▁Sub":4667,"is,":4668,"▁etc.":4669,"ufact":4670,"▁öffentlichen":4671,"irc":4672,"▁Nor":4673,"iken":4674,"▁derzeit":4675,"▁appropr":4676,"benso":4677,"han":4678,"▁online":4679,"now":4680,"▁rela":4681,"▁talk":4682,"▁recent":4683,"▁Nicht":4684,"▁Jahres":4685,"▁course,":4686,"rieg":4687,"apan":4688,"▁Unternehm":4689,"ested":4690,"ampf":4691,"▁dom":4692,"▁perfect":4693,"▁due":4694,"züglich":4695,"▁Just":4696,"▁team":4697,"▁importance":4698,"▁(B":4699,"▁Kosten":4700,"▁Verw":4701,"▁Hö":4702,"▁Produkt":4703,"▁Flug":4704,"▁mass":4705,"▁rules":4706,"▁sport":4707,"wür":4708,"ta":4709,"ustain":4710,"äus":4711,"ive,":4712,"▁Beschäft":4713,"issenschaft":4714,"▁Früh":4715,"greif":4716,"▁Rei":4717,"▁yet":4718,"▁vol":4719,"▁ihrem":4720,"▁head":4721,"▁Jahrhunder":4722,"▁Angeb":4723,"▁Produkte":4724,"lease":4725,"zustell":4726,"▁site":4727,"▁Europas":4728,"▁bedeute":4729,"▁known":4730,"iled":4731,"▁price":4732,"▁\"T":4733,"▁Prof":4734,"▁TV":4735,"▁easy":4736,"-O":4737,"▁holid":4738,"▁keinen":4739,"schließlich":4740,"rimin":4741,"ustry":4742,"▁Commissioner,":4743,"▁Groß":4744,"▁simply":4745,"▁Jun":4746,"uk":4747,"▁2004":4748,"▁Israel":4749,"▁Members":4750,"▁Wes":4751,"zogen":4752,"al.":4753,"ledge":4754,"▁method":4755,"telle":4756,"verkehr":4757,"äll":4758,"spolitik":4759,"▁left":4760,"ser":4761,"aged":4762,"forderungen":4763,"▁zusätz":4764,"ations,":4765,"dern,":4766,"▁nationalen":4767,"ban":4768,"ilf":4769,"▁Cont":4770,"ception":4771,"▁Tre":4772,"fore,":4773,"illa":4774,"▁Funktion":4775,"lemen":4776,"unds":4777,"▁Rates":4778,"99":4779,"▁moment":4780,"▁table":4781,"▁test":4782,"▁road":4783,"▁II":4784,"▁weiterhin":4785,"▁greater":4786,"iting":4787,"unächst":4788,"cript":4789,"▁sal":4790,"▁arr":4791,"▁sure":4792,"▁erwar":4793,"▁verste":4794,"▁fish":4795,"▁rad":4796,"▁Sitz":4797,"▁schließ":4798,"▁Wach":4799,"▁müssen.":4800,"ig.":4801,"▁heiß":4802,"▁environmental":4803,"hib":4804,"▁Fortsch":4805,"astru":4806,"▁ja":4807,"▁young":4808,"▁(s":4809,"ption":4810,"▁Christ":4811,"ücksichtig":4812,"▁Ag":4813,"▁light":4814,"▁central":4815,"▁kosten":4816,"▁building":4817,"▁heart":4818,"▁einigen":4819,"▁guest":4820,"frastru":4821,"▁stärk":4822,"änger":4823,"OS":4824,"▁customers":4825,"halten,":4826,"spruch":4827,"inge":4828,"iations":4829,"sen":4830,"▁moder":4831,"▁Cas":4832,"term":4833,"▁Design":4834,"unities":4835,"AD":4836,"▁heraus":4837,"▁Far":4838,"igent":4839,"▁fa":4840,"imes":4841,"▁abge":4842,"▁natural":4843,"▁manufact":4844,"▁Bem":4845,"▁erklär":4846,"▁things":4847,"▁reserv":4848,"▁attra":4849,"▁23":4850,"▁Leist":4851,"▁farm":4852,"▁an,":4853,"ift":4854,"▁systems":4855,"▁besser":4856,"▁benö":4857,"▁total":4858,"▁Mor":4859,"ances":4860,"▁music":4861,"▁deshalb":4862,"▁authorities":4863,"▁capital":4864,"▁max":4865,"unch":4866,"fully":4867,"▁quick":4868,"▁unver":4869,"assen,":4870,"▁infl":4871,"▁Plan":4872,"arf":4873,"▁Wohn":4874,"ürz":4875,"▁cla":4876,"▁tem":4877,"▁Fot":4878,"schlag":4879,"enc":4880,"▁verfüg":4881,"▁democra":4882,"▁parl":4883,"▁worden":4884,"läss":4885,"▁relax":4886,"▁Apr":4887,"aler":4888,"▁Aussprache":4889,"▁dessen":4890,"▁competition":4891,"i-":4892,"▁Sport":4893,"▁aufgrund":4894,"atic":4895,"▁effective":4896,"ie,":4897,"▁pub":4898,"oting":4899,"▁interess":4900,"ceed":4901,"▁extra":4902,"▁Bezieh":4903,"nete":4904,"▁money":4905,"▁learn":4906,"fte":4907,"▁value":4908,"▁programme":4909,"ance,":4910,"▁achieve":4911,"▁Pra":4912,"m.":4913,"▁lar":4914,"▁aspect":4915,"▁technical":4916,"▁Govern":4917,"▁May":4918,"▁meeting":4919,"▁wichtige":4920,"▁increasing":4921,"ning":4922,"▁sour":4923,"▁wenig":4924,"fin":4925,"sid":4926,"▁Will":4927,"ant,":4928,"ames":4929,"äsent":4930,"▁share":4931,"▁Besuch":4932,"▁Dok":4933,"stück":4934,"hing":4935,"erous":4936,"gestellt":4937,"atal":4938,"▁Wort":4939,"uelle":4940,"▁gilt":4941,"anze":4942,"▁request":4943,"▁November":4944,"igur":4945,"▁according":4946,"▁via":4947,"▁besten":4948,"▁appear":4949,"▁Kunst":4950,"▁significant":4951,"▁erfolgreich":4952,"zentr":4953,"▁z.":4954,"▁Mitarbeit":4955,"▁Menschenrechte":4956,"▁beispiel":4957,"▁partners":4958,"▁Ansicht":4959,"▁Benutz":4960,"▁fundamental":4961,"us,":4962,"▁longer":4963,"▁nichts":4964,"▁internal":4965,"60":4966,"ären":4967,"▁Schul":4968,"▁facilities":4969,"▁example":4970,"▁Nä":4971,"äter":4972,"omfort":4973,"alität":4974,"-Pro":4975,"▁Bro":4976,"▁verein":4977,"▁enough":4978,"change":4979,"▁obl":4980,"▁setz":4981,"▁Bevölk":4982,"▁Von":4983,"▁solche":4984,"platz":4985,"▁\"A":4986,"▁responsible":4987,"treten":4988,"▁character":4989,"jen":4990,"mals":4991,"▁version":4992,"pflicht":4993,"▁ern":4994,"▁disk":4995,"/200":4996,"▁Brit":4997,"▁caus":4998,"▁Meinung":4999,"▁First":5000,"▁könnte":5001,"▁erne":5002,"▁vorgesch":5003,"▁nächsten":5004,"▁Sol":5005,"EC":5006,"▁Mensch":5007,"▁Förder":5008,"▁Verbraucher":5009,"▁oft":5010,"▁industry":5011,"▁Such":5012,"▁Industrie":5013,"▁konk":5014,"▁lange":5015,"▁verbunden":5016,"▁minutes":5017,"ios":5018,"▁\"D":5019,"▁prevent":5020,"orted":5021,"▁maintain":5022,"▁thing":5023,"▁Auss":5024,"▁vier":5025,"▁Program":5026,"▁Gemeinschaft":5027,"▁civil":5028,"▁Ira":5029,"ublik":5030,"frist":5031,"heim":5032,"n,":5033,"▁Bud":5034,"▁currently":5035,"▁April":5036,"▁müssen,":5037,"iner":5038,"schluss":5039,"▁all,":5040,"▁ed":5041,"▁terror":5042,"ians":5043,"stadt":5044,"haltung":5045,"▁assist":5046,"▁clearly":5047,"IC":5048,"▁Stad":5049,"ench":5050,"B.":5051,"roffen":5052,"▁Website":5053,"▁wollen":5054,"▁web":5055,"▁Nord":5056,"2,":5057,"▁sustain":5058,"▁Ir":5059,"▁prec":5060,"▁Fern":5061,"verständ":5062,"▁Abstimmung":5063,"▁days":5064,"▁Fehl":5065,"drück":5066,"has":5067,"▁Wasser":5068,"▁Klima":5069,"irt":5070,"▁illeg":5071,"hem":5072,"US":5073,"▁is,":5074,"▁Co":5075,"▁sele":5076,"el.":5077,"▁mount":5078,"▁proposals":5079,"oid":5080,"▁Umsetzung":5081,"▁benutz":5082,"▁Insel":5083,"▁application":5084,"▁Bü":5085,"▁Wirtschaft":5086,"▁zie":5087,"▁Wachstum":5088,"▁Struktur":5089,"▁featur":5090,"▁versch":5091,"unkte":5092,"▁mess":5093,"cep":5094,"▁Selbst":5095,"▁Aug":5096,"▁stor":5097,"▁verbess":5098,"▁betre":5099,"teile":5100,"▁foreign":5101,"▁Bau":5102,"isc":5103,"▁low":5104,"ce.":5105,"▁voted":5106,"▁201":5107,"AP":5108,"▁extremely":5109,"orr":5110,"fassung":5111,"za":5112,"▁Gre":5113,"▁entscheid":5114,"istischen":5115,"afen":5116,"▁Netz":5117,"▁-,":5118,"rab":5119,"▁Verfügung":5120,"▁Mot":5121,"▁From":5122,"▁servic":5123,"▁Dam":5124,"▁recogn":5125,"mbH":5126,"▁Raum":5127,"griff":5128,"▁camp":5129,"▁197":5130,"▁lassen":5131,"▁weiß":5132,".0":5133,"▁AG":5134,"▁gemeinsamen":5135,"▁cultural":5136,"ysteme":5137,"ency":5138,"▁jeweil":5139,"iten":5140,"▁2003":5141,"▁item":5142,"▁amendments":5143,"▁contain":5144,"▁Erfolg":5145,"▁kont":5146,"-d":5147,"▁Kons":5148,"▁Grundlage":5149,"▁them.":5150,"▁Druck":5151,"land,":5152,"ynam":5153,"▁Ort":5154,"▁Soc":5155,"ommod":5156,"ritten":5157,"iable":5158,"▁bedeut":5159,"lang":5160,"▁wohl":5161,"neten":5162,"▁Trans":5163,"▁Pf":5164,"ichtet":5165,"▁Cour":5166,"▁vielleicht":5167,"▁Qualität":5168,"▁wind":5169,"▁safety":5170,"dam":5171,"▁hatte":5172,"▁prep":5173,"▁lat":5174,"obile":5175,"hend":5176,"▁Version":5177,"ave":5178,"inzip":5179,"▁Off":5180,"schaft,":5181,"▁GmbH":5182,"play":5183,"▁Einz":5184,"tet,":5185,"▁Bek":5186,"▁upon":5187,"▁Treaty":5188,"ee":5189,"▁circ":5190,"▁erziel":5191,"▁user":5192,"▁expect":5193,"▁charge":5194,"▁Musik":5195,"▁demokrat":5196,"▁sty":5197,"▁wissen,":5198,"▁separ":5199,"▁Parte":5200,"idency":5201,"▁challen":5202,"▁Commission's":5203,"u.":5204,"▁Ihrem":5205,"▁geben":5206,"lands":5207,"▁Auswirk":5208,"▁Wieder":5209,"ely,":5210,"▁Tages":5211,"▁Please":5212,"▁Son":5213,"ork":5214,"achten":5215,"▁bevor":5216,"▁zust":5217,"▁lot":5218,"▁Personen":5219,"▁Tro":5220,"▁Krit":5221,"amous":5222,"▁erreicht":5223,"inner":5224,"schn":5225,"▁corre":5226,"ri":5227,"▁fünf":5228,"▁beispielsweise":5229,"▁directly":5230,"▁protect":5231,"mitted":5232,"▁live":5233,"ine,":5234,"techn":5235,"ller":5236,"idd":5237,"EL":5238,"ona":5239,"▁Außen":5240,"sichtlich":5241,"würd":5242,"▁ö":5243,"▁Einsatz":5244,"▁comfortable":5245,"onstr":5246,"vert":5247,"ented":5248,"bl":5249,"bie":5250,"atten":5251,"▁countries.":5252,"ilder":5253,"▁fight":5254,"▁gestell":5255,"▁By":5256,"▁pool":5257,"istan":5258,"andid":5259,"aging":5260,"▁Kön":5261,"▁proposed":5262,"▁Daher":5263,"▁Mär":5264,"crib":5265,"▁Außer":5266,"▁Windows":5267,"-,":5268,"▁Damen":5269,"▁werde":5270,"merksam":5271,"▁guarantee":5272,"▁Tele":5273,"ms":5274,"▁situated":5275,"anten":5276,"▁targe":5277,"▁Date":5278,"deut":5279,"▁Heraus":5280,"▁optim":5281,"▁eith":5282,"▁Meer":5283,"▁Book":5284,"▁Ebene":5285,"öffentlich":5286,"▁Anwendung":5287,"▁allerdings":5288,"▁previous":5289,"▁Wert":5290,"▁normal":5291,"▁angeb":5292,"▁sozialen":5293,"▁Stre":5294,"▁weltweit":5295,"ien.":5296,"um,":5297,"▁happ":5298,"▁regional":5299,"ate.":5300,"▁verst":5301,"▁einges":5302,"mut":5303,"▁indic":5304,"best":5305,"▁war,":5306,"gebung":5307,"▁daran":5308,"▁required":5309,"▁costs":5310,"▁client":5311,"▁Blick":5312,"hes":5313,"ppe":5314,"ance.":5315,"▁Prozess":5316,"▁States.":5317,"▁stellen":5318,"val":5319,"▁übern":5320,"▁Fund":5321,"▁Reihe":5322,"▁bit":5323,"▁Erweit":5324,"ww.":5325,"▁mag":5326,"▁Gebiet":5327,"▁More":5328,"▁Lis":5329,"▁d'":5330,"▁kleinen":5331,"ise,":5332,"▁Öff":5333,"▁created":5334,"▁South":5335,"ilater":5336,"▁ausgest":5337,"▁60":5338,"▁comes":5339,"▁stim":5340,"▁happen":5341,"▁Prot":5342,"TM":5343,"▁clean":5344,"▁Aktiv":5345,"▁surround":5346,"ana":5347,"stall":5348,"▁please":5349,"lier":5350,"▁Arbeitspl":5351,"ette":5352,"bahn":5353,"▁21":5354,"ound":5355,"▁kommt":5356,"ump":5357,"▁Erklär":5358,"vant":5359,"▁Den":5360,"▁apply":5361,"▁soon":5362,"▁improve":5363,"▁amb":5364,"sh":5365,"▁Schwe":5366,"▁höch":5367,"▁Hinblick":5368,"▁Mod":5369,"▁statement":5370,"TO":5371,"▁\"E":5372,"▁Werk":5373,"cent":5374,"▁resources":5375,"▁Hoch":5376,"hab":5377,"-In":5378,"▁final":5379,"ided":5380,"▁pict":5381,"▁Nähe":5382,"▁Europe,":5383,"▁€":5384,"▁Mont":5385,"▁schwier":5386,"spräsident":5387,"▁Integr":5388,"ired":5389,"trie":5390,"▁accommod":5391,"▁funktion":5392,"▁monitor":5393,"▁developing":5394,"unik":5395,"▁views":5396,"▁French":5397,"▁richt":5398,"hörden":5399,"▁immed":5400,"ommen.":5401,"▁verschiedene":5402,"vin":5403,"bel":5404,"▁pages":5405,"▁Su":5406,"ast,":5407,"▁Aff":5408,"lossen":5409,"▁schaff":5410,"▁möchten":5411,"▁almost":5412,"▁altern":5413,"ymb":5414,"▁card":5415,"▁results":5416,"▁Ziele":5417,"▁analys":5418,"RO":5419,"öhn":5420,"ibr":5421,"▁vill":5422,"eless":5423,"erc":5424,"▁democratic":5425,"ikt":5426,"▁additional":5427,"▁cut":5428,"▁institutions":5429,"....":5430,"orf":5431,"▁Room":5432,"chsel":5433,"▁que":5434,"▁Japan":5435,"▁findet":5436,"usst":5437,"▁Steuer":5438,"▁points":5439,"▁schrift":5440,"üssel":5441,"▁Diskuss":5442,"▁climate":5443,"▁file":5444,"lack":5445,"▁pow":5446,"aking":5447,"▁Platz":5448,"▁Investition":5449,"▁Gesellschaft":5450,"▁gemeinsame":5451,"▁travel":5452,"▁Zentrum":5453,"IP":5454,"▁\"W":5455,"▁es,":5456,"▁regulation":5457,"▁review":5458,"ennen":5459,"▁Kir":5460,"wind":5461,"▁Änderungsantrag":5462,"system":5463,"▁house":5464,"▁EC":5465,"▁actually":5466,"▁encour":5467,"▁Doch":5468,"▁Rechn":5469,"▁exam":5470,"ulate":5471,"▁Unser":5472,"▁contract":5473,"▁lack":5474,"▁deutlich":5475,"▁kommen":5476,"▁Süd":5477,"▁akzept":5478,"pendent":5479,"L)":5480,".000":5481,"iment":5482,"ilar":5483,"ube":5484,"▁tats":5485,"▁hold":5486,"lied":5487,"▁vollständ":5488,"▁betra":5489,"▁Mill":5490,"que":5491,"ipped":5492,"▁download":5493,"▁Demokratie":5494,"▁appropriate":5495,"▁dialog":5496,"barkeit":5497,"▁Rad":5498,"▁Richtung":5499,"▁Sicherheits":5500,"▁schein":5501,"hinder":5502,"prüf":5503,"▁holiday":5504,"richtung":5505,"▁Beg":5506,"▁bess":5507,"▁Arch":5508,"igungs":5509,"▁official":5510,"such":5511,"ding":5512,"▁enl":5513,",000":5514,"▁Ausdruck":5515,"▁receive":5516,"▁allgemein":5517,"▁Kle":5518,"▁\"F":5519,"pre":5520,"▁Vorschläge":5521,"▁27":5522,"▁developed":5523,"▁Nie":5524,"▁American":5525,"ID":5526,"frei":5527,"▁thus":5528,"erra":5529,"tended":5530,"▁world.":5531,"▁connection":5532,"adurch":5533,"▁assoc":5534,"▁Dat":5535,"▁Bedingungen":5536,"▁Germany":5537,"rechts":5538,"▁Ergebnis":5539,"▁professional":5540,"-st":5541,"▁gesamten":5542,"gesehen":5543,"▁Iran":5544,"chs":5545,"feld":5546,"atory":5547,"auber":5548,"▁Interesse":5549,"▁contrib":5550,"▁Verantwortung":5551,"▁erwä":5552,"▁implementation":5553,"▁vor,":5554,"öll":5555,"▁training":5556,"▁States,":5557,"▁Vertre":5558,":00":5559,"ished":5560,"anced":5561,"▁publish":5562,"▁West":5563,"▁school":5564,"▁Kolleginnen":5565,"▁Portug":5566,"▁questions":5567,"ators":5568,"ood":5569,"▁suggest":5570,"▁propert":5571,"▁rat":5572,"▁erk":5573,"▁ce":5574,"▁Frieden":5575,"atisf":5576,"ane":5577,"▁umfass":5578,"ielle":5579,"▁Antwort":5580,"▁\"B":5581,"erseits":5582,"stead":5583,"▁equip":5584,"▁red":5585,"tet.":5586,"▁Lond":5587,"ims":5588,"gn":5589,"jähr":5590,"iellen":5591,"linien":5592,"achen":5593,"▁famous":5594,"▁cop":5595,"▁einzelnen":5596,"▁times":5597,"▁wurden.":5598,"ate,":5599,"▁\"M":5600,"▁unique":5601,"▁stop":5602,"▁posit":5603,"▁hon":5604,"▁harmon":5605,"partments":5606,"aß":5607,"▁held":5608,"▁Pak":5609,"▁wide":5610,"orge":5611,"▁Ant":5612,"ense":5613,"▁Führ":5614,"▁Position":5615,"ternal":5616,"▁Entscheidung":5617,"▁throughout":5618,"aul":5619,"▁General":5620,"▁Mitglieder":5621,"▁gemeinsam":5622,"▁bisher":5623,"▁efforts":5624,"clud":5625,"▁ebenso":5626,"arbeitung":5627,"▁leb":5628,"▁answer":5629,"▁Du":5630,".\"":5631,"▁See":5632,"▁Herstell":5633,"▁Binnen":5634,"▁exclus":5635,"▁emphas":5636,"ländern":5637,"dern.":5638,"alled":5639,"▁context":5640,"indest":5641,"▁draw":5642,"fähigkeit":5643,"▁impact":5644,"▁principle":5645,"▁behand":5646,"▁technology":5647,"▁Außerdem":5648,"▁Dec":5649,"ässt":5650,"haps":5651,"▁Auswirkungen":5652,"▁äußer":5653,"▁Denn":5654,"▁train":5655,"or,":5656,"▁Verfahren":5657,"▁pleas":5658,"▁transl":5659,"▁space":5660,"▁looking":5661,"▁Acc":5662,"▁solid":5663,"▁eleg":5664,"tt":5665,"ipf":5666,"ox":5667,"▁five":5668,"jekte":5669,"gl":5670,"▁Team":5671,"▁past":5672,"▁type":5673,"▁Zur":5674,"▁living":5675,"ume":5676,"▁potential":5677,"orre":5678,"▁designed":5679,"▁wider":5680,"▁000":5681,"äche":5682,".00":5683,"▁enable":5684,"▁jedem":5685,"▁countries,":5686,"▁strengthen":5687,"▁machen.":5688,"▁Gemeinschafts":5689,"lling":5690,"▁ever":5691,"ological":5692,"▁Pap":5693,"▁brauchen":5694,"▁univers":5695,"▁North":5696,"acy":5697,"wel":5698,"▁Ris":5699,"▁consequ":5700,"▁proper":5701,"▁Debatte":5702,"▁*":5703,"▁takes":5704,"▁Währ":5705,"fil":5706,"kn":5707,"esh":5708,"ommer":5709,"ging":5710,"▁internationale":5711,"▁Zum":5712,"▁across":5713,"▁Dialog":5714,"ester":5715,"▁aud":5716,"onom":5717,"▁wirtschaftlichen":5718,"▁Reform":5719,"▁colleag":5720,"▁Mil":5721,"zif":5722,"▁Vereinigten":5723,"▁80":5724,"zw":5725,"▁Staats":5726,"▁record":5727,"▁Bestimm":5728,"▁sit":5729,"▁everything":5730,"bar.":5731,"igt.":5732,"▁lik":5733,"▁benefit":5734,"▁mechan":5735,"bru":5736,"▁took":5737,"▁certainly":5738,"▁early":5739,"▁seen":5740,"ingen":5741,"▁Bre":5742,"prochen":5743,"▁(T":5744,"na":5745,"▁adopt":5746,"stellen":5747,"▁eth":5748,"▁divers":5749,"ählen":5750,"▁erhö":5751,"1,":5752,"ada":5753,"▁aus.":5754,"▁complex":5755,"ama":5756,"▁hinter":5757,"▁Turke":5758,"▁Strategie":5759,"geben.":5760,"oint":5761,"▁hom":5762,"▁projects":5763,"ted.":5764,"temp":5765,"handlung":5766,"▁contribution":5767,"teid":5768,"▁existing":5769,"▁dürfen":5770,"leis":5771,"▁report.":5772,"▁Kos":5773,"▁weiteren":5774,"▁zuf":5775,"▁night":5776,"▁wichtig,":5777,"▁gleichzeitig":5778,"umente":5779,"ones":5780,"▁Let":5781,"▁Leit":5782,"▁search":5783,"▁website":5784,"ball":5785,"on.":5786,"▁strategy":5787,"▁either":5788,"gegen":5789,"▁relig":5790,"ämpfung":5791,"▁Terror":5792,"▁aktiv":5793,"▁Jug":5794,"▁sorg":5795,"kr":5796,"▁Kraft":5797,"fortun":5798,"▁neben":5799,"▁amendment":5800,"-p":5801,"ränk":5802,"▁später":5803,"airs":5804,"wie":5805,"▁coordin":5806,"länder":5807,"▁Zus":5808,"▁legislation":5809,"odell":5810,"▁richtig":5811,"▁profit":5812,"▁sei":5813,"▁versuch":5814,"▁although":5815,"▁auf,":5816,"▁wurden,":5817,"▁Commission,":5818,"esserung":5819,"▁Ins":5820,"▁neues":5821,"▁changes":5822,"▁Hol":5823,"▁Flugh":5824,"▁traditional":5825,"▁wollen,":5826,"▁breakfast":5827,"cke":5828,"▁cross":5829,"▁parliament":5830,"▁Beitrag":5831,"oz":5832,"-h":5833,"▁jede":5834,"▁knowledge":5835,"ush":5836,"▁opinion":5837,"▁Fischere":5838,"▁concerning":5839,"▁erstell":5840,"▁side":5841,"▁lux":5842,"▁Handels":5843,"▁sea":5844,"▁absolute":5845,"▁(2":5846,"▁Inform":5847,"▁völl":5848,"unk":5849,"ables":5850,"▁intens":5851,"▁Türke":5852,"int":5853,"▁becom":5854,"▁aware":5855,"▁Vertra":5856,"▁Geschichte":5857,"▁denk":5858,"▁PC":5859,"lle":5860,"▁High":5861,"▁outside":5862,"stre":5863,"ungsver":5864,"serv":5865,"gency":5866,"n't":5867,"▁Restaurant":5868,"▁half":5869,"▁gegenwär":5870,"▁related":5871,"ari":5872,"▁Präsidentin,":5873,"at,":5874,"geln":5875,"▁CD":5876,"entur":5877,"▁Verpflicht":5878,"AM":5879,"▁basic":5880,"▁Parliament,":5881,"▁arg":5882,"▁fort":5883,"▁extens":5884,"▁mer":5885,"▁demonstr":5886,"▁Diskussion":5887,"▁English":5888,"▁movement":5889,"▁beit":5890,"▁los":5891,"▁leading":5892,"kra":5893,"▁rund":5894,"▁Gebie":5895,"▁community":5896,"▁original":5897,"arten":5898,"▁Schlussel":5899,"abl":5900,"zös":5901,"▁culture":5902,"haft":5903,"▁1,":5904,"▁Paris":5905,"ET":5906,"▁Fuß":5907,"▁conflic":5908,"ipl":5909,"▁idea":5910,"▁Technolog":5911,"mark":5912,"▁policies":5913,"range":5914,"▁(M":5915,"pression":5916,"statt":5917,"▁Stabil":5918,"men,":5919,"ED":5920,"▁Online":5921,"▁groups":5922,"▁enlarge":5923,"▁it,":5924,"▁gab":5925,"▁unseres":5926,"▁assess":5927,"urt":5928,"▁Förderung":5929,"affung":5930,"▁prakt":5931,"▁joint":5932,"▁you,":5933,"▁Verhandlungen":5934,"▁spr":5935,"termin":5936,"bildung":5937,"▁involved":5938,"▁Familien":5939,"▁Luft":5940,"emb":5941,"▁Kampf":5942,"▁schwer":5943,"seit":5944,"▁digital":5945,"▁military":5946,"haupt":5947,"▁IS":5948,"▁Barcel":5949,"üb":5950,"▁wichtigen":5951,"äss":5952,"▁berücksichtig":5953,"grat":5954,"alter":5955,"▁verd":5956,"▁Febru":5957,"▁interests":5958,"▁Minuten":5959,"▁Standard":5960,"▁Link":5961,"endes":5962,"erb":5963,"iterran":5964,"▁upd":5965,"▁unterstützt":5966,"▁fail":5967,"▁sec":5968,"▁avoid":5969,"▁included":5970,"-t":5971,"ausch":5972,"ums":5973,"prise":5974,"▁firm":5975,"▁oblig":5976,"▁consult":5977,"in.":5978,"gangenen":5979,"action":5980,"gende":5981,"gesetz":5982,"▁sound":5983,"▁Kern":5984,"▁spezie":5985,"▁$":5986,"gern":5987,"▁amount":5988,"iddle":5989,"▁report,":5990,"and,":5991,"▁Schritt":5992,"face":5993,"▁this,":5994,"▁entwickel":5995,"▁jedes":5996,"▁Volk":5997,"▁Ed":5998,"istrat":5999,"lant":6000,"▁advant":6001,"▁1999":6002,"▁conclus":6003,"ires":6004,"▁August":6005,"▁Imm":6006,"▁Sup":6007,"lös":6008,"quis":6009,"▁(N":6010,"▁Since":6011,"▁allows":6012,"▁erwähn":6013,"▁Cor":6014,"▁gesagt":6015,"▁Beziehungen":6016,"▁includes":6017,"ingt":6018,"▁Einzel":6019,"▁wa":6020,"▁durchge":6021,"▁verfügt":6022,"▁Konferenz":6023,"▁Rel":6024,"▁Wettbewerbs":6025,"itness":6026,"▁\"P":6027,"▁Dokument":6028,"g.":6029,"uck":6030,"▁Instrument":6031,"▁Proz":6032,"▁years.":6033,"▁transfer":6034,"ias":6035,"▁commer":6036,"aring":6037,"iated":6038,"▁prim":6039,"▁emer":6040,"▁later":6041,"hung":6042,"▁hous":6043,"▁true":6044,"öst":6045,"▁guests":6046,"▁Vis":6047,"▁wegen":6048,"staat":6049,"AC":6050,"eff":6051,"▁satisf":6052,"▁spend":6053,"▁reich":6054,"▁standards":6055,"▁Liste":6056,"▁Lux":6057,"aly":6058,"▁Interessen":6059,"os,":6060,"▁Che":6061,"▁Kop":6062,"▁Thank":6063,"▁poor":6064,"▁Abkommen":6065,"otion":6066,"▁angem":6067,"▁warm":6068,"bring":6069,"▁Änderungsanträge":6070,"ühl":6071,"▁plann":6072,"▁Forschung":6073,"▁confirm":6074,"jahr":6075,"▁Now":6076,"▁completely":6077,"ourn":6078,"tragen":6079,"▁schön":6080,"▁suit":6081,"▁Verbesserung":6082,"▁Abgeordneten":6083,"ole":6084,"▁capac":6085,"▁(H":6086,"▁vorlie":6087,"▁move":6088,"▁darstell":6089,"▁majority":6090,"▁macht":6091,"▁Prior":6092,"able.":6093,"igkeit,":6094,"▁lok":6095,"▁gemacht":6096,"fen,":6097,"▁Notwend":6098,"▁wunder":6099,"▁regarding":6100,"▁erlaub":6101,"ress":6102,"▁Pass":6103,"▁ich,":6104,"▁verantwort":6105,"pite":6106,"▁option":6107,"issab":6108,"▁Sie,":6109,"▁Bad":6110,"▁solutions":6111,"▁doing":6112,"▁kleine":6113,"▁broad":6114,"▁jud":6115,"▁Damit":6116,"▁airport":6117,"ife":6118,"▁Volks":6119,"▁limit":6120,"▁attack":6121,"vious":6122,"pected":6123,"▁force":6124,"iance":6125,"gesetzt":6126,"ymbol":6127,"erve":6128,"istration":6129,"▁purch":6130,"▁+":6131,"▁customer":6132,"SE":6133,"▁war.":6134,"uclear":6135,"▁Aufent":6136,"deck":6137,"▁needed":6138,"▁unabhäng":6139,"ikanischen":6140,"▁Urlaub":6141,"▁Cons":6142,"▁Forder":6143,"▁Home":6144,"▁\"C":6145,"▁Ober":6146,"▁Lissab":6147,"▁Aktion":6148,"▁mehrere":6149,"▁hinsichtlich":6150,"▁built":6151,"▁Handel":6152,"▁Here":6153,"fluss":6154,"put":6155,"▁aus,":6156,"▁Ausschusses":6157,"▁cru":6158,"▁face":6159,"isiert":6160,"hende":6161,"▁agricultural":6162,"▁valu":6163,"▁Institutionen":6164,"▁wonder":6165,"▁keyword":6166,"▁herr":6167,"leben":6168,"▁IT":6169,"▁below":6170,"abel":6171,"▁Frankreich":6172,"ano":6173,"▁investment":6174,"gehen":6175,"▁citizen":6176,"▁erheb":6177,"ant.":6178,"▁err":6179,"▁Imp":6180,"▁Regionen":6181,"▁language":6182,"▁Nutzung":6183,"▁fran":6184,"▁Bereichen":6185,"ava":6186,"▁self":6187,"▁Sant":6188,"▁einger":6189,"▁ganze":6190,"▁economy":6191,"▁handelt":6192,"▁wichtigsten":6193,"▁industrial":6194,"ine.":6195,"▁sun":6196,"-N":6197,"▁22":6198,"eln.":6199,"▁nachhalt":6200,"▁ganzen":6201,"▁Jed":6202,"▁Eff":6203,"oppel":6204,"▁nature":6205,"▁Dienstleistungen":6206,"▁Verordnung":6207,"▁wobei":6208,"en!":6209,"ying":6210,"▁Ukra":6211,"▁Gelegenheit":6212,"▁Auswahl":6213,"▁south":6214,"▁Ze":6215,"ko":6216,"▁Kontrolle":6217,"minister":6218,"▁gerne":6219,"aving":6220,"uted":6221,"▁Museum":6222,"▁features":6223,"sitz":6224,"▁trotz":6225,"▁experien":6226,"dom":6227,"▁Veranst":6228,"eln,":6229,"▁huge":6230,"▁machen,":6231,"ips":6232,"▁Möglichkeiten":6233,"geben,":6234,"▁popular":6235,"▁Amend":6236,"oft":6237,"iers":6238,"lam":6239,"▁för":6240,"erweise":6241,"▁ill":6242,"lav":6243,"▁Verbindung":6244,"▁genie":6245,"▁code":6246,"▁glaube,":6247,"folgt":6248,"40":6249,"▁fall":6250,"undes":6251,"▁front":6252,"▁Erweiterung":6253,"grif":6254,"itect":6255,"▁Gree":6256,"-term":6257,"▁Sim":6258,"gef":6259,"▁garant":6260,"sterreich":6261,"entwick":6262,"iveness":6263,"umb":6264,"▁nothing":6265,"▁beein":6266,"▁rail":6267,"▁direction":6268,"▁Binnenmarkt":6269,",\"":6270,"pass":6271,"▁Court":6272,"zer":6273,"ops":6274,"▁Wirk":6275,"▁Bevölkerung":6276,"schließend":6277,"ourc":6278,"▁Anfang":6279,"▁cooper":6280,"alten":6281,"▁grund":6282,"▁this.":6283,"▁themselves":6284,"▁model":6285,"iesen":6286,"▁employment":6287,"▁Schaffung":6288,"▁nahe":6289,"▁spac":6290,"▁irgend":6291,"▁Les":6292,"▁gehen":6293,"▁years,":6294,"möglichkeit":6295,"▁Angebot":6296,"▁policy.":6297,"▁correct":6298,"▁Play":6299,"▁vict":6300,"wander":6301,"▁Up":6302,"▁erfüll":6303,"mann":6304,"▁events":6305,"▁ruh":6306,"ar,":6307,"▁congrat":6308,"▁sagen":6309,"osed":6310,"▁mittel":6311,"▁contains":6312,"▁apartment":6313,"▁received":6314,"▁Bitte":6315,"▁veh":6316,"▁Reise":6317,"▁offen":6318,"▁konkre":6319,"▁Fach":6320,"▁concerns":6321,"▁Club":6322,"▁carry":6323,"▁parts":6324,"ienste":6325,"▁Gebä":6326,"▁Global":6327,"▁requirements":6328,"▁E-M":6329,"pid":6330,"▁28":6331,"änden":6332,"VD":6333,"mehr":6334,"▁Landes":6335,"▁Management":6336,"▁Augen":6337,"▁Innov":6338,"▁Social":6339,"▁efficient":6340,"▁oil":6341,"▁presented":6342,"▁3.":6343,"▁Central":6344,"▁highly":6345,"▁bekannt":6346,"▁heut":6347,"▁Liefer":6348,"▁Wein":6349,"▁Darüber":6350,"▁frü":6351,"gesamt":6352,"▁scient":6353,"▁seems":6354,"▁successful":6355,"örper":6356,"▁Erst":6357,"ität,":6358,"ught":6359,"▁einzig":6360,"alien":6361,"▁click":6362,"▁entfernt.":6363,"▁frei":6364,"▁comprom":6365,"▁Some":6366,"▁pain":6367,"imension":6368,"▁führen":6369,"▁Amster":6370,"▁exc":6371,"▁Voraus":6372,"▁!":6373,"/9":6374,"as.":6375,"▁Zweit":6376,"▁mal":6377,"▁Roman":6378,"▁exchange":6379,"▁ut":6380,"ätigkeit":6381,"▁ein.":6382,"▁Mich":6383,"▁Bef":6384,"istische":6385,"▁völlig":6386,"▁kulture":6387,"▁lässt":6388,"▁Of":6389,"▁Ho":6390,"uel":6391,"▁area.":6392,"halte":6393,"▁Strand":6394,"▁Pan":6395,"▁Material":6396,"▁Mic":6397,"▁Second":6398,"▁furn":6399,"▁carried":6400,"▁which,":6401,"utt":6402,"▁Anzahl":6403,"▁Post":6404,"ge.":6405,"▁whose":6406,"▁block":6407,"itch":6408,"▁floor":6409,"ragen,":6410,"▁Council,":6411,"inne":6412,"atell":6413,"lies":6414,"▁häuf":6415,"chter":6416,"▁works":6417,"▁seek":6418,"▁Leg":6419,"▁communication":6420,"erkenn":6421,"▁negotiations":6422,"gelegt":6423,"▁year.":6424,"▁erinn":6425,"▁history":6426,"aktion":6427,"▁double":6428,"abor":6429,"▁Term":6430,"▁sex":6431,"-St":6432,"▁gefähr":6433,"ällen":6434,"esten":6435,"▁Balk":6436,"▁parties":6437,"▁Zeitpunkt":6438,"▁Krieg":6439,"▁eig":6440,"▁verg":6441,"-Fra":6442,"▁others":6443,"▁anz":6444,"apt":6445,"▁Lat":6446,"▁subsid":6447,"▁wom":6448,"▁500":6449,"▁perm":6450,"▁sent":6451,"▁dang":6452,"astic":6453,"▁Transport":6454,"▁Firm":6455,"▁Wochen":6456,"ón":6457,"▁bathroom":6458,"▁coll":6459,"▁Verwendung":6460,"▁vorgeschlagen":6461,"▁Entschließung":6462,"buch":6463,"▁Freiheit":6464,"izien":6465,"irit":6466,"▁mountain":6467,"OL":6468,"▁expl":6469,"▁Further":6470,"▁Jugend":6471,"▁Mag":6472,"immt,":6473,"will":6474,"▁überzeug":6475,"▁ground":6476,"▁objective":6477,"▁commercial":6478,"IL":6479,"▁meinen":6480,"PE":6481,"▁Solid":6482,"▁großer":6483,"▁guten":6484,"ental":6485,"▁traff":6486,"äst":6487,"▁border":6488,"RE":6489,"▁hoffe,":6490,"▁similar":6491,"▁meinem":6492,"▁tell":6493,"▁six":6494,"cy,":6495,"ruf":6496,"▁fehl":6497,"ka":6498,"▁Business":6499,"▁gegeben":6500,"▁gehört":6501,"▁Lauf":6502,"▁Berg":6503,"mitteln":6504,"▁diskut":6505,"12":6506,"▁Mac":6507,"▁obtain":6508,"▁active":6509,"organis":6510,"▁anzu":6511,"ight.":6512,"mat":6513,"atast":6514,"▁states":6515,"▁künft":6516,"▁Col":6517,"▁zunächst":6518,"▁Türkei":6519,"▁Män":6520,"▁nehmen":6521,"▁restaurant":6522,"IM":6523,"itel":6524,"▁months":6525,"▁commitment":6526,"▁dep":6527,"▁eigene":6528,"▁export":6529,"osen":6530,"stitute":6531,"▁gesamte":6532,"okoll":6533,"ficient":6534,"▁stress":6535,"▁regions":6536,"▁Ham":6537,"unt":6538,"▁shown":6539,"▁196":6540,"▁dre":6541,"▁atmosph":6542,"klus":6543,"ache,":6544,"ätzen":6545,"just":6546,"igte":6547,"▁soziale":6548,"ierenden":6549,"mm":6550,"osp":6551,"▁nuclear":6552,"acc":6553,"▁pan":6554,"▁Develop":6555,"merk":6556,"▁task":6557,"ay,":6558,"▁Lisbon":6559,"rieben":6560,"▁erreichen":6561,"▁vorhand":6562,"one,":6563,"▁dynam":6564,"▁Presidency":6565,"▁former":6566,"lad":6567,"fält":6568,"▁Well":6569,"▁Sil":6570,"alu":6571,"▁Dez":6572,"▁Wahr":6573,"bewert":6574,"▁Rot":6575,"▁Golf":6576,"▁Log":6577,"▁ständ":6578,"▁Inde":6579,"▁Dan":6580,"▁Ferien":6581,"▁established":6582,"ader":6583,"▁Kosov":6584,"-Z":6585,"▁Behörden":6586,"▁dring":6587,"▁Get":6588,"▁equipped":6589,"▁Hinter":6590,"isted":6591,"ech":6592,"▁gibt,":6593,"lass":6594,"▁Ele":6595,"▁possibility":6596,"wegen":6597,"▁latest":6598,"▁tatsächlich":6599,"▁promote":6600,"▁eindeut":6601,"artige":6602,"▁Article":6603,"licken":6604,"▁opportunities":6605,"▁Mehrheit":6606,"bedingungen":6607,"▁verwendet":6608,"▁Kommission,":6609,"programm":6610,"▁Beschl":6611,"nissen":6612,"▁miss":6613,"mitt":6614,"▁90":6615,"yd":6616,"▁Eigen":6617,"▁Zw":6618,"▁=":6619,"▁ernst":6620,"▁Lissabon":6621,"▁station":6622,"▁Debian":6623,"▁Während":6624,"legen,":6625,"▁Bra":6626,"▁York":6627,"▁behind":6628,"▁society":6629,"▁gleichen":6630,"ühm":6631,"de,":6632,"▁internet":6633,"iglich":6634,"▁guid":6635,"▁übr":6636,"▁angen":6637,"sv":6638,"▁came":6639,"▁engine":6640,"▁Nieder":6641,".com":6642,"▁sofort":6643,"▁depend":6644,"▁Parliament's":6645,"▁note":6646,"weisen,":6647,"▁Arg":6648,"▁Sum":6649,"imming":6650,"▁leicht":6651,"▁you.":6652,"▁funds":6653,"▁rein":6654,"formen":6655,"▁Finally,":6656,"▁Wettbewerb":6657,"▁phys":6658,"▁Ratspräsident":6659,"▁you'":6660,"gra":6661,"wart":6662,"ape":6663,"▁Spain":6664,"ächt":6665,"rought":6666,"▁Dabei":6667,"rief":6668,"▁äußerst":6669,"▁Republic":6670,"unsch":6671,"▁Tat":6672,"tige":6673,"▁register":6674,"where":6675,"▁Hostel":6676,"tern,":6677,"▁komplet":6678,"▁choose":6679,"▁26":6680,"ing.com":6681,"▁schö":6682,"▁welcom":6683,"▁70":6684,"▁leaders":6685,"oo":6686,"▁atmosphere":6687,"▁bi":6688,"▁Einführung":6689,"▁providing":6690,"▁summer":6691,"▁prepared":6692,"▁Pers":6693,"▁rich":6694,"▁IN":6695,"▁Convention":6696,"▁death":6697,"▁betriff":6698,"▁societ":6699,"▁asked":6700,"▁Gruppe":6701,"▁Net":6702,"▁Government":6703,"▁Aud":6704,"▁Stellung":6705,"▁simple":6706,"fen.":6707,"▁(G":6708,"▁af":6709,"▁Russia":6710,"vision":6711,"▁exhib":6712,"▁criter":6713,"io.":6714,"▁betreff":6715,"▁somit":6716,"▁größten":6717,"▁Staat":6718,"annt":6719,"▁higher":6720,"▁external":6721,"▁deta":6722,"▁Ergebnisse":6723,"rehens":6724,"▁Amsterdam":6725,"▁prob":6726,"5,":6727,"▁schle":6728,"▁Krise":6729,"▁angenommen":6730,"akter":6731,"▁words":6732,"▁links":6733,"▁entste":6734,"▁Programme":6735,"▁à":6736,"sprech":6737,"▁reduce":6738,"▁Themen":6739,"▁users":6740,"▁Weiter":6741,"▁Install":6742,"urteil":6743,"▁elekt":6744,"▁prepar":6745,"▁Konfl":6746,"▁Kontakt":6747,"▁König":6748,"▁verpflich":6749,"▁workers":6750,"▁prices":6751,"rang":6752,"▁Tex":6753,"ommen,":6754,"▁condu":6755,"▁year,":6756,"quare":6757,"▁innovative":6758,"▁Loc":6759,"iot":6760,"▁Macht":6761,"▁\"L":6762,"▁friendly":6763,"▁non-":6764,"▁display":6765,"▁hohen":6766,"▁Don":6767,"▁umf":6768,"▁thanks":6769,"iens":6770,"▁Juni":6771,"▁beteil":6772,"▁terra":6773,"▁Gra":6774,"ary,":6775,"igration":6776,"▁recently":6777,"▁wid":6778,"3.":6779,"▁Ents":6780,"▁submitted":6781,"ibilities":6782,"▁zentral":6783,"ara":6784,"▁lay":6785,"▁Agr":6786,"▁empf":6787,"▁300":6788,"▁unterstützen":6789,"employ":6790,"rachen":6791,"▁Informations":6792,"▁Ged":6793,"▁Verfügung.":6794,"▁Oct":6795,"▁Vereinbar":6796,"▁neigh":6797,"emin":6798,"amera":6799,"ronic":6800,"xis":6801,"▁gives":6802,"itting":6803,"▁regular":6804,"opping":6805,"▁Di":6806,"altungs":6807,"▁Standpunkt":6808,"▁Kommunik":6809,"älle":6810,"▁architect":6811,"▁discover":6812,"▁setting":6813,"▁vern":6814,"issions":6815,"cret":6816,"▁Gemeins":6817,"ulgar":6818,"fert":6819,"üsse":6820,"▁agreed":6821,"▁lassen.":6822,"▁perhaps":6823,"▁decisions":6824,"▁treatment":6825,"roat":6826,"iat":6827,"▁Sicht":6828,"▁Eing":6829,"▁belieb":6830,"▁suffer":6831,"▁credit":6832,"▁sustainable":6833,"▁Komprom":6834,"▁foot":6835,"ifft":6836,"▁increased":6837,"▁zweiten":6838,"ych":6839,"med":6840,"▁une":6841,"▁Gefahr":6842,"▁Erach":6843,"▁British":6844,"▁erschein":6845,"-An":6846,"▁system.":6847,"▁image":6848,"▁beginning":6849,"▁E-Mail":6850,"▁regel":6851,"industrie":6852,"▁lediglich":6853,"ausschuss":6854,"▁Akt":6855,"rec":6856,"verständlich":6857,"▁billion":6858,"▁meines":6859,"resp":6860,"▁Neben":6861,"▁market.":6862,"▁island":6863,"bek":6864,"isch,":6865,"▁draft":6866,"chten,":6867,"▁Cal":6868,"▁March":6869,"▁Bekämpfung":6870,"▁Dis":6871,"spiel":6872,"▁leave":6873,"-w":6874,"zeuge":6875,"▁Ost":6876,"▁Mai":6877,"▁initiative":6878,"▁St.":6879,"▁announ":6880,"▁Organisation":6881,"tent":6882,"▁Commission.":6883,"▁December":6884,"oking":6885,"iedr":6886,"▁Mitarbeiter":6887,"ille":6888,"▁added":6889,"iction":6890,"▁Anwend":6891,"▁amer":6892,"▁Aufgabe":6893,"va":6894,"▁Abend":6895,"ürf":6896,"▁describ":6897,"▁us.":6898,"▁obwohl":6899,"▁WTO":6900,"▁Integration":6901,"▁cases":6902,"▁gross":6903,"▁Herzen":6904,"▁bestimmte":6905,"▁Russland":6906,"adem":6907,"▁coming":6908,"▁accep":6909,"ast.":6910,"▁bezie":6911,"▁Erachtens":6912,"▁considered":6913,"ight,":6914,"▁decl":6915,"stellungen":6916,"nehmen,":6917,"vorschriften":6918,"ierter":6919,"EM":6920,"ieg":6921,"▁Ke":6922,"▁zahlreiche":6923,"ini":6924,"▁independent":6925,"oh":6926,"▁ten":6927,"▁choice":6928,"▁construction":6929,"▁Sektor":6930,"ibl":6931,"3,":6932,"▁Okt":6933,"▁les":6934,"▁Personal":6935,"usion":6936,"schw":6937,"▁series":6938,"ilos":6939,"▁bestimmten":6940,"gründ":6941,"5.":6942,"ces.":6943,"▁repla":6944,"▁Transpar":6945,"sprün":6946,"▁x":6947,"▁board":6948,"▁education":6949,"▁anderer":6950,"▁highl":6951,"▁Gewalt":6952,"▁Ress":6953,"▁Wohl":6954,"fragen":6955,"▁Woche":6956,"▁\"G":6957,"rid":6958,"▁Überein":6959,"▁City":6960,"cy.":6961,"ghan":6962,"'.":6963,"▁zweite":6964,"▁zeigt":6965,"zehn":6966,"▁Enter":6967,"▁hätte":6968,"▁supported":6969,"-up":6970,"▁ähn":6971,"▁track":6972,"▁sor":6973,"reiben":6974,"ais":6975,"▁fal":6976,"▁people.":6977,"▁gesetz":6978,"▁decided":6979,"▁Tage":6980,"hren":6981,"▁shows":6982,"▁Solidar":6983,"▁rate":6984,"▁Ru":6985,"▁Dom":6986,"▁außerdem":6987,"▁north":6988,"▁erweit":6989,"▁Italian":6990,"▁Film":6991,"▁Dezember":6992,"▁Open":6993,"-Fraktion":6994,"▁entfernt":6995,"▁Aspe":6996,"▁relevant":6997,"▁Änderungen":6998,"son":6999,"▁virt":7000,"▁Verkehrs":7001,"▁brought":7002,"▁Real":7003,"▁administrat":7004,"▁wirtschaftliche":7005,"▁London":7006,"▁population":7007,"here":7008,"▁Höhe":7009,"▁effe":7010,"▁nice":7011,"▁Afric":7012,"▁bestät":7013,"5%":7014,"▁Western":7015,"▁hours":7016,"k,":7017,"geber":7018,"▁veröffentlich":7019,"nern":7020,"▁dadurch":7021,"ism,":7022,"80":7023,"over,":7024,"▁Initiative":7025,"▁ord":7026,"▁game":7027,"immung":7028,"▁(d":7029,"▁gemäß":7030,"nehmen.":7031,"arily":7032,"▁tw":7033,"▁Af":7034,"inal":7035,"lla":7036,"▁restaurants":7037,"inger":7038,"any":7039,"▁it's":7040,"fahrt":7041,"▁darin":7042,"▁neuer":7043,"z,":7044,"▁erster":7045,"▁Star":7046,"▁mentioned":7047,"▁lic":7048,"▁repe":7049,"▁ermöglicht":7050,"▁Privat":7051,"icherung":7052,"▁1998":7053,"▁(L":7054,"▁high-":7055,"▁euro":7056,"terne":7057,"grupp":7058,"end,":7059,"fonds":7060,"äg":7061,"▁democracy":7062,"▁französ":7063,"▁prot":7064,"▁remains":7065,"xim":7066,"▁Belg":7067,"▁Nur":7068,"▁einzige":7069,"▁Oper":7070,"▁centur":7071,"▁Sl":7072,"▁ausreich":7073,"-l":7074,"▁mobile":7075,"▁Vertrags":7076,"▁fix":7077,"▁enthalten":7078,"11":7079,"fon":7080,"▁Je":7081,"▁creating":7082,"▁expla":7083,"anischen":7084,"merksamkeit":7085,"▁deep":7086,"unden.":7087,"▁solidar":7088,"stag":7089,"▁solchen":7090,"▁grundleg":7091,"▁instead":7092,"onse":7093,"▁produced":7094,"▁exec":7095,"▁improvement":7096,"▁largest":7097,"▁easily":7098,"estens":7099,"▁sus":7100,"conomic":7101,"▁hohe":7102,"view":7103,"▁date":7104,"NG":7105,"gab":7106,"▁became":7107,"▁media":7108,"z.":7109,"▁scre":7110,"▁renov":7111,"▁Aufmerksamkeit":7112,"▁computer":7113,"▁2002":7114,"▁würd":7115,"▁future.":7116,"▁Har":7117,"uis":7118,"ournal":7119,"▁thous":7120,"▁Grand":7121,"▁B.":7122,"▁führt":7123,"immt.":7124,"▁relationship":7125,"▁vergangenen":7126,"▁relativ":7127,"▁reached":7128,"zustellen,":7129,"▁z.B.":7130,"▁schütz":7131,"orten":7132,"▁u.":7133,"häl":7134,"▁Nat":7135,"▁Unterk":7136,"▁bein":7137,"▁chem":7138,"▁host":7139,"▁conference":7140,"▁stability":7141,"ctors":7142,"▁Sam":7143,"▁obvious":7144,"▁Turkey":7145,"▁determin":7146,"▁accord":7147,"ery":7148,"▁disp":7149,"▁Det":7150,"▁body":7151,"▁October":7152,"▁gelten":7153,"▁Kre":7154,"▁pleased":7155,"entlichkeit":7156,"▁29":7157,"bert":7158,"▁verbind":7159,"▁Organ":7160,"▁concerned":7161,"▁Camp":7162,"▁Unternehmens":7163,"träge":7164,"▁Kommissar,":7165,"uit":7166,"yond":7167,"anlage":7168,"▁Frühstück":7169,"▁2001":7170,"▁l'":7171,"s:":7172,"▁resol":7173,"▁don't":7174,"▁Booking.com":7175,"lare":7176,"itzer":7177,"▁hervorrag":7178,"S.":7179,"▁ändern":7180,"besch":7181,"ases":7182,"▁Down":7183,"▁unterst":7184,"▁quickly":7185,"▁bedeutet":7186,"▁regards":7187,"schnitt":7188,"▁speed":7189,"ering":7190,"▁film":7191,"▁Mart":7192,"▁allein":7193,"▁Neu":7194,"ter.":7195,"▁Europe's":7196,"▁End":7197,"▁purs":7198,"▁fact,":7199,"▁jün":7200,"▁procedure":7201,"▁Möglichkeit,":7202,"▁medium":7203,"▁Alt":7204,"ritts":7205,"▁everyone":7206,"gliche":7207,"▁Rights":7208,"▁section":7209,"▁supply":7210,"▁Bestell":7211,"▁size":7212,"▁particular,":7213,"kommens":7214,"iko":7215,"licht":7216,"▁party":7217,"▁einschließlich":7218,"▁Parliament.":7219,"▁cause":7220,"ämt":7221,"anzen":7222,"tex":7223,"▁Oktober":7224,"▁tun,":7225,"▁performance":7226,"-2":7227,"▁konzentr":7228,"fühl":7229,"ollar":7230,"▁hear":7231,"▁liberal":7232,"▁Schweiz":7233,"ufen":7234,"▁Server":7235,"▁minor":7236,"▁distribution":7237,"▁variety":7238,"mäßig":7239,"ählt":7240,"etary":7241,"▁gain":7242,"▁news":7243,"▁Lösungen":7244,"oder":7245,"▁path":7246,"▁Fed":7247,"▁eigentlich":7248,"reibung":7249,"aschinen":7250,"▁June":7251,"▁green":7252,"▁Öffentlichkeit":7253,"cement":7254,"▁Zeich":7255,"▁mil":7256,"▁Kan":7257,"aper":7258,"porate":7259,"▁Familie":7260,"▁dut":7261,"▁France":7262,"▁Sm":7263,"▁Pla":7264,"▁hand,":7265,"kraft":7266,"▁package":7267,"ley":7268,"▁partner":7269,"▁Booking.com:":7270,"▁Last":7271,"▁keiner":7272,"▁Städ":7273,"▁Erzeug":7274,"EP":7275,"▁video":7276,"▁beschäft":7277,"ienen":7278,"▁King":7279,"▁exact":7280,"▁here.":7281,"▁Gästebewert":7282,"▁www.":7283,"▁possible.":7284,"▁muss.":7285,"länd":7286,"ibil":7287,"▁well-":7288,"▁Folgen":7289,"▁Democ":7290,"▁labour":7291,"▁Cap":7292,"▁century":7293,"▁creation":7294,"eting":7295,"ately,":7296,"▁achieved":7297,"asons":7298,"▁Bundes":7299,"ford":7300,"▁san":7301,"▁accoun":7302,"enntnis":7303,"▁auch,":7304,"▁legislative":7305,"▁wissen":7306,"▁Every":7307,"▁committee":7308,"▁alten":7309,"▁würden":7310,"▁Regierungen":7311,"ente":7312,"▁tä":7313,"zusch":7314,"ograf":7315,"▁Transparenz":7316,"▁compon":7317,"▁Erfahrung":7318,"▁Beschäftigung":7319,"▁Wider":7320,"aft":7321,"▁Fortschritte":7322,"us.":7323,"▁forder":7324,"▁historical":7325,"▁dise":7326,"▁Adr":7327,"▁Spanish":7328,"ben.":7329,"▁principles":7330,"▁Angelegenheit":7331,"▁Arbeitnehmer":7332,"▁appe":7333,"▁sta":7334,"▁relation":7335,"iterranean":7336,"ourcen":7337,"itial":7338,"▁leider":7339,"an.":7340,"etimes":7341,"▁klein":7342,"▁people,":7343,"▁got":7344,"itions":7345,"▁Landwir":7346,"▁Kur":7347,"▁befinden":7348,"▁bod":7349,"kont":7350,"▁besitz":7351,"▁purpos":7352,"ierende":7353,"▁Gipf":7354,"▁Basis":7355,"▁Val":7356,"▁div":7357,"▁Bilder":7358,"▁agreements":7359,"4.":7360,"▁Empfehl":7361,"▁During":7362,"▁insgesamt":7363,"auch":7364,"▁Tradition":7365,"▁conven":7366,"ategorien":7367,"▁agend":7368,"▁launch":7369,"70":7370,"▁Ansatz":7371,"▁Exper":7372,"▁giving":7373,"▁Prinzip":7374,"▁work.":7375,"-U":7376,"richtungen":7377,"ent.":7378,"▁Ist":7379,"▁schließlich":7380,"▁comprehens":7381,"ored":7382,"▁center":7383,"wes":7384,"iegel":7385,"▁pen":7386,"▁Inn":7387,"ugg":7388,"lob":7389,"▁wenige":7390,"legung":7391,"▁sense":7392,"nahmen":7393,"▁diejen":7394,"ifik":7395,"▁America":7396,"▁so,":7397,"▁prefer":7398,"öffnet":7399,"▁concept":7400,"▁evalu":7401,"▁violence":7402,"▁Hung":7403,"▁goods":7404,"or.":7405,"▁Ere":7406,"▁reports":7407,"▁Maßnah":7408,"▁mem":7409,"▁Mut":7410,"immen":7411,"freund":7412,"▁dialogue":7413,"▁Gesundheits":7414,"▁files":7415,"preis":7416,"▁Tatsache,":7417,"▁Mult":7418,"▁said,":7419,"▁stra":7420,"▁Auftrag":7421,"▁employe":7422,"mission":7423,"▁Lebensmittel":7424,"▁4.":7425,"ney":7426,"▁programmes":7427,"4,":7428,"▁fell":7429,"kt,":7430,"▁erreichen.":7431,"▁nehm":7432,"ground":7433,"in!":7434,"▁ein,":7435,"▁markets":7436,"▁influ":7437,"ena":7438,"▁Linux":7439,"▁unmittel":7440,"▁abgesch":7441,"▁aufz":7442,"▁budge":7443,"este":7444,"▁häufig":7445,"▁berühm":7446,"ise.":7447,"▁pressure":7448,"▁She":7449,"▁brit":7450,"▁pal":7451,"sprozess":7452,"▁März":7453,"ategories":7454,"▁Benutzer":7455,"ology":7456,"▁Sign":7457,"▁ab.":7458,"ben,":7459,"▁Union's":7460,"▁Schwier":7461,"▁Cost":7462,"otes":7463,"▁Verl":7464,"lossen.":7465,"icles":7466,"▁Preise":7467,"▁values":7468,"▁objectives":7469,"▁Afghan":7470,"▁age":7471,"▁CO":7472,"▁worth":7473,"):":7474,"▁policy,":7475,"▁consumer":7476,"▁west":7477,"▁Veränder":7478,"▁started":7479,"achs":7480,"▁höher":7481,"▁limited":7482,"▁bra":7483,"cer":7484,"isp":7485,"▁ca.":7486,"▁Untersuch":7487,"▁freund":7488,"▁highest":7489,"▁governments":7490,"▁discussion":7491,"ummer":7492,"▁response":7493,"ills":7494,"▁ihres":7495,"▁Many":7496,"▁nicht.":7497,"▁angesichts":7498,"▁observ":7499,"▁Bulgar":7500,"▁Iraq":7501,"ungs-":7502,"▁Betrieb":7503,"kommen,":7504,"▁grat":7505,"▁threat":7506,"▁forms":7507,"frastruct":7508,"streng":7509,"▁Ol":7510,"▁Bestimmungen":7511,"▁Although":7512,"▁extend":7513,"▁round":7514,"enew":7515,"oper":7516,"▁Alp":7517,"▁Vorsitz":7518,"▁perfe":7519,"iews":7520,"▁ult":7521,"gesellschaft":7522,"▁kannst":7523,"▁niedr":7524,"▁verm":7525,"▁bleibt":7526,"▁geben,":7527,"▁effects":7528,"▁(R":7529,"▁dafür,":7530,"▁Mann":7531,"▁Gal":7532,"▁bezüglich":7533,"▁aktuellen":7534,"▁Flor":7535,"OT":7536,"▁integrated":7537,"▁Juli":7538,"▁rule":7539,"▁written":7540,"▁useful":7541,"▁Meine":7542,"aign":7543,"läuf":7544,"usch":7545,"▁stock":7546,"ously":7547,"setzungen":7548,"▁stattfind":7549,"▁allowed":7550,"-mail":7551,"▁Your":7552,"▁dein":7553,"▁fisher":7554,"▁aspects":7555,"▁won":7556,"ism.":7557,"▁Flü":7558,"▁weder":7559,"▁Erklärung":7560,"▁1997":7561,"▁numerous":7562,"▁spirit":7563,"kt.":7564,"▁Hel":7565,"▁Anfrage":7566,"!!":7567,"▁cy":7568,"zwe":7569,"▁ursprün":7570,"▁darin,":7571,"arbeiten":7572,"▁emb":7573,"▁zeit":7574,"▁select":7575,"▁(in":7576,"▁europäischer":7577,"operation":7578,"sych":7579,"▁wan":7580,"▁zehn":7581,"▁detail":7582,"▁Bemüh":7583,"▁mut":7584,"▁bad":7585,"▁(\"":7586,"▁Free":7587,"▁January":7588,"head":7589,"▁affect":7590,"▁helpful":7591,"▁East":7592,"▁DVD":7593,"▁reality":7594,"legen.":7595,"▁schl":7596,"▁sonst":7597,"▁pover":7598,"▁Republik":7599,"▁garden":7600,"mosphäre":7601,"▁Januar":7602,"izient":7603,"▁Centre":7604,"krä":7605,"order":7606,"uls":7607,"▁interesting":7608,"▁Swed":7609,"at.":7610,"▁Micros":7611,"▁consist":7612,"R)":7613,"ces,":7614,"▁morgen":7615,"▁accomp":7616,"▁Mobil":7617,"▁Beginn":7618,"▁popul":7619,"▁Barcelona":7620,"▁Schließ":7621,"▁Nr.":7622,"▁constant":7623,"▁Koh":7624,"zuführ":7625,"wa":7626,"▁statt.":7627,"ends":7628,"▁Stelle":7629,"▁produce":7630,"▁eher":7631,"▁erneut":7632,"▁Bahn":7633,"▁indeed":7634,"▁teach":7635,"▁lauf":7636,"arbeitet":7637,"▁unemploy":7638,"▁Dinge":7639,"▁Medien":7640,"▁occas":7641,"▁crucial":7642,"vis":7643,"▁Zeit,":7644,"▁Heute":7645,"ent,":7646,"▁offering":7647,"▁ausdrück":7648,"üst":7649,"▁Zentral":7650,"▁ausgestatte":7651,"▁drink":7652,"▁beyond":7653,"▁beton":7654,"▁Ereign":7655,"lehn":7656,"▁accommodation":7657,"▁Aktivitäten":7658,"▁Hal":7659,"▁payment":7660,"ilosoph":7661,"▁Beteil":7662,"uert":7663,"▁perman":7664,"▁Armut":7665,"▁legit":7666,"▁kam":7667,"▁capacity":7668,"▁har":7669,"▁wir,":7670,"▁Test":7671,"▁ign":7672,"▁Mos":7673,"able,":7674,"▁Dr":7675,"grenz":7676,"▁integration":7677,"itude":7678,"▁Anforderungen":7679,"▁entsprechenden":7680,"▁Stunden":7681,"▁undert":7682,"▁notwendig":7683,"▁begrüß":7684,"▁paid":7685,"no":7686,"rich":7687,"▁mis":7688,"▁equal":7689,"polit":7690,"ero":7691,"▁Villa":7692,"staaten":7693,"▁krit":7694,"▁wissenschaft":7695,"▁\"R":7696,"ic,":7697,"▁finden.":7698,"▁humanit":7699,"atastrop":7700,"▁Are":7701,"▁van":7702,"ilateral":7703,"▁Beruf":7704,"▁bem":7705,"▁Sprache":7706,"zeichnung":7707,"▁Fehler":7708,"▁practical":7709,"one.":7710,"▁fig":7711,"spricht":7712,"maßnahmen":7713,"▁Innen":7714,"ated.":7715,"▁hinzu":7716,"▁lower":7717,"▁öffentliche":7718,"▁Flughafen":7719,"▁konnte":7720,"▁Notwendigkeit":7721,"IA":7722,"board":7723,"▁Schlusselwor":7724,"▁Winter":7725,"▁super":7726,"▁balance":7727,"▁Gruppen":7728,"▁enthält":7729,"iability":7730,"pret":7731,"▁langfrist":7732,"falt":7733,"▁Sinne":7734,"▁places":7735,"more,":7736,"▁Spezial":7737,"▁Party":7738,"▁Entscheidungen":7739,"irmen":7740,"ev":7741,"teuer":7742,"essen,":7743,"▁morn":7744,"▁sufficient":7745,"6,":7746,"▁Agrar":7747,"ammlung":7748,"▁alternative":7749,"urb":7750,"▁Bedürf":7751,"weisen":7752,"park":7753,"-to":7754,"▁Tagesordnung":7755,"▁TH":7756,"▁2,":7757,"▁kil":7758,"▁Hous":7759,"möglich":7760,"ony":7761,"niss":7762,"▁früher":7763,"▁verhin":7764,"UR":7765,"▁reasons":7766,"▁geeign":7767,"▁feature":7768,"onnen":7769,"angeb":7770,"▁Nachbar":7771,"stein":7772,"kommen.":7773,"▁Java":7774,"end.":7775,"meid":7776,"▁arbeiten":7777,"iveau":7778,"▁equipment":7779,"▁provision":7780,"▁infrastruct":7781,"▁Restaurants":7782,"▁Dr.":7783,"▁Punkte":7784,"▁las":7785,"▁reduction":7786,"▁ey":7787,"és":7788,"▁Wunsch":7789,"ST":7790,"cription":7791,"▁Dritt":7792,"▁weak":7793,"▁Ak":7794,"▁measure":7795,"▁steps":7796,"▁ship":7797,"▁Kredit":7798,"ocol":7799,"▁minimum":7800,"page":7801,"▁ol":7802,"▁\"H":7803,"{{":7804,"legt":7805,"▁Herz":7806,"▁Völk":7807,"▁property":7808,"▁tomor":7809,"▁Prüf":7810,"▁erhält":7811,"▁frequ":7812,"irl":7813,"▁Las":7814,"▁\"I":7815,"▁präsent":7816,"▁soll.":7817,"ik,":7818,"▁genannten":7819,"liz":7820,"stellen,":7821,"▁pie":7822,"▁Gast":7823,"der,":7824,"▁jüng":7825,"▁vorher":7826,"▁modified":7827,"▁Even":7828,"▁anderem":7829,"▁kostenlos":7830,"dienst":7831,"▁5.":7832,"▁efficien":7833,"estic":7834,"▁Palest":7835,"▁congratulate":7836,"▁Site":7837,"▁implemen":7838,"▁drive":7839,"▁Public":7840,"▁Human":7841,"▁rates":7842,"▁Sommer":7843,"▁Tier":7844,"19":7845,"▁Mass":7846,"▁leis":7847,"▁partnership":7848,"vere":7849,"▁study":7850,"▁charm":7851,"ürger":7852,"▁Security":7853,"▁bild":7854,"▁loss":7855,"▁Mitgliedstaat":7856,"lim":7857,"▁Vorschriften":7858,"▁Ven":7859,"▁office":7860,"▁writing.":7861,"hold":7862,"schaft.":7863,"ehm":7864,"▁liegen":7865,"▁source":7866,"▁Bot":7867,"ischem":7868,"ages.":7869,"▁Berichts":7870,"▁renew":7871,"▁quiet":7872,"▁trip":7873,"▁hotels":7874,"▁reference":7875,"▁tex":7876,"▁claim":7877,"▁gehören":7878,"▁relating":7879,"bezogen":7880,"▁passen":7881,"▁gek":7882,"▁gran":7883,"mö":7884,"▁paar":7885,"▁kur":7886,"letzt":7887,"▁funding":7888,"▁practice":7889,"wertung":7890,"front":7891,"▁Metho":7892,"▁bedroom":7893,"▁Änderung":7894,"ite.":7895,"pose":7896,"▁syn":7897,"▁Protokoll":7898,"rupt":7899,"DF":7900,"▁wollen.":7901,"▁goes":7902,"▁historic":7903,"▁ski":7904,"▁Gest":7905,"▁wr":7906,"-Re":7907,"▁Grenzen":7908,"▁wichtiger":7909,"▁restr":7910,"▁message":7911,"▁critic":7912,"▁unterstützen.":7913,"uffet":7914,"▁types":7915,"▁Mc":7916,"▁Vergangen":7917,"▁maximum":7918,"▁well.":7919,"▁betrifft,":7920,"▁zunehm":7921,"▁Stock":7922,"m,":7923,"riff":7924,"frastruktur":7925,"▁Kn":7926,"▁Amendment":7927,"▁circum":7928,"ures.":7929,"▁territor":7930,"cle":7931,"▁requires":7932,"6.":7933,"▁Behandlung":7934,"▁Gas":7935,"schreit":7936,"▁exception":7937,"▁Finanzierung":7938,"▁Bürgerinnen":7939,"▁animal":7940,"▁Gerichts":7941,"▁Präsidenten":7942,"ändert":7943,"ico":7944,"ures,":7945,"▁Erd":7946,"ide.":7947,"▁element":7948,"▁denke,":7949,"theless":7950,"▁Atmosphäre":7951,"▁illegal":7952,"-con":7953,"▁sollen":7954,"▁starting":7955,"üs":7956,"▁Cop":7957,"▁Vertreter":7958,"▁ful":7959,"-Off":7960,"II":7961,"▁Italien":7962,"▁Sitzung":7963,"schloss":7964,"▁gas":7965,"▁besondere":7966,"griffen":7967,"▁recon":7968,"▁das,":7969,"▁campaign":7970,"▁Gebäude":7971,"▁sprech":7972,"▁Firma":7973,"▁accordance":7974,"▁hop":7975,"ilfen":7976,"▁Linie":7977,"▁email":7978,"▁Natürlich":7979,"▁server":7980,"▁will,":7981,"▁Aller":7982,"engen":7983,"iker":7984,"▁Mess":7985,"▁Lang":7986,"▁Airport":7987,"▁unbed":7988,"▁muss,":7989,"▁(3":7990,"ilen":7991,"bar,":7992,"volle":7993,"▁hatten":7994,"▁initial":7995,"▁Minder":7996,"▁Koordin":7997,"▁While":7998,"▁schriftlich.":7999,"▁günst":8000,"▁levels":8001,"▁rapid":8002,"T)":8003,"▁ded":8004,"▁urg":8005,"15":8006,"▁sechs":8007,"▁Pet":8008,"-Mit":8009,"▁buy":8010,"▁Wass":8011,"▁manufactur":8012,"izin":8013,"LA":8014,"▁subst":8015,"▁Investitionen":8016,"▁mitt":8017,"▁Altern":8018,"▁Saf":8019,"▁Ess":8020,"▁Ac":8021,"men.":8022,"▁Dav":8023,"▁Gef":8024,"▁sollte.":8025,"▁Technologie":8026,"▁194":8027,"so":8028,"iell":8029,"▁Berat":8030,"▁Therefore,":8031,"▁plat":8032,"▁Computer":8033,"▁operating":8034,"▁mensch":8035,"üg":8036,"bre":8037,"ted,":8038,"▁offiz":8039,"▁Milliar":8040,"aint":8041,"▁extent":8042,"legenheiten":8043,"verfahren":8044,"▁Id":8045,"achtung":8046,"legation":8047,"▁begrüße":8048,"▁warum":8049,"▁actions":8050,"▁sämt":8051,"▁Verteid":8052,"▁Lassen":8053,"▁mechanism":8054,"--":8055,"▁level.":8056,"see":8057,"▁advert":8058,"ordn":8059,"▁\"N":8060,"▁jobs":8061,"stitutional":8062,"leistet":8063,"▁d.":8064,"▁Vergangenheit":8065,"cies":8066,"▁Mand":8067,"▁remov":8068,"ängt":8069,"▁provisions":8070,"▁worldw":8071,"▁Conference":8072,"}}":8073,"▁addition,":8074,"oker":8075,"▁fishing":8076,"▁richtige":8077,"▁bill":8078,"▁begin":8079,"▁Green":8080,"▁damage":8081,"▁zahlreichen":8082,"▁happy":8083,"standen":8084,"oto":8085,"▁Gel":8086,"▁assistance":8087,"▁staat":8088,"istics":8089,"▁eingeb":8090,"',":8091,"▁zu,":8092,"▁Terrorismus":8093,"land.":8094,"▁betroffen":8095,"▁case,":8096,"hafte":8097,"▁Jahrhundert":8098,"▁offered":8099,"▁caused":8100,"bus":8101,"ächen":8102,"▁entwickelt":8103,"▁genutz":8104,"PS":8105,"▁uner":8106,"▁Menschenrechts":8107,"▁daily":8108,"▁benötig":8109,"▁Anstreng":8110,"▁Umgebung":8111,"▁Fäh":8112,"▁welches":8113,"▁könnten":8114,"▁us,":8115,"▁consumers":8116,"ugs":8117,"▁interested":8118,"▁bur":8119,"▁respond":8120,"▁jeweiligen":8121,"▁erhalten.":8122,"▁selection":8123,"folge":8124,"wesen":8125,"▁organiz":8126,"▁Hoff":8127,"etzen.":8128,"▁ban":8129,"asc":8130,"▁John":8131,"▁requirement":8132,"▁Bereiche":8133,"▁Bu":8134,"▁Rede":8135,"▁einheit":8136,"▁halten":8137,"▁probably":8138,"handel":8139,"scheiden":8140,"▁comprehensive":8141,"13":8142,"▁motor":8143,"▁applied":8144,"\")":8145,"▁Auto":8146,"▁Vergleich":8147,"▁priority":8148,"schö":8149,"ki":8150,"chen,":8151,"▁scientific":8152,"▁election":8153,"▁Regeln":8154,"▁Projekte":8155,"▁heißt":8156,"una":8157,"▁Aufenthalt":8158,"▁colour":8159,"annten":8160,"▁seines":8161,"▁symbol":8162,"zielle":8163,"▁counter":8164,"▁gestellt":8165,"St":8166,"▁größte":8167,"▁saying":8168,"▁Doppel":8169,"ernen":8170,"IV":8171,"▁ehem":8172,"liegen":8173,"▁Goog":8174,"▁PH":8175,"▁ko":8176,"▁gee":8177,"▁candid":8178,"▁arrange":8179,"▁bald":8180,"orsitz":8181,"▁valid":8182,"▁anim":8183,"▁Soll":8184,"▁Option":8185,"▁cert":8186,"▁Download":8187,"▁season":8188,"▁gere":8189,"▁wat":8190,"▁Gesell":8191,"▁Opfer":8192,"▁Monaten":8193,"▁außerhalb":8194,"▁hör":8195,"▁reflect":8196,"-based":8197,"▁hor":8198,"bezieh":8199,"st,":8200,"▁Systems":8201,"iately":8202,"▁rul":8203,"▁Fernse":8204,"▁zuständ":8205,"▁Eas":8206,"▁exerc":8207,"▁sprechen":8208,"ities.":8209,"▁beträ":8210,"▁neighbour":8211,"▁sort":8212,"▁usw.":8213,"sam":8214,"▁Menschen,":8215,"▁11.":8216,"▁apprec":8217,"▁world,":8218,"▁befür":8219,"▁Supp":8220,"▁Industr":8221,"▁Frankf":8222,"▁Ire":8223,"ruit":8224,"▁tät":8225,"ustausch":8226,"▁zumindest":8227,"▁applications":8228,"io,":8229,"▁tourist":8230,"back":8231,"▁clar":8232,"▁Straßen":8233,"▁Präsidentschaft":8234,"▁stets":8235,"▁sometimes":8236,"▁distance":8237,"▁(K":8238,"▁Zivil":8239,"▁Gene":8240,"▁schaffen,":8241,"▁entsprechend":8242,"▁Microsoft":8243,"upts":8244,"▁ways":8245,"▁darum":8246,"▁Ord":8247,"▁gemein":8248,"▁else":8249,"sequent":8250,"figur":8251,"▁bringen":8252,"▁Viele":8253,"▁Mediterranean":8254,"zentrum":8255,"▁Bal":8256,"▁beant":8257,"-re":8258,"ral":8259,"▁despite":8260,"▁enorm":8261,"▁process.":8262,"▁matters":8263,"▁\"K":8264,"▁SM":8265,"mand":8266,"▁details":8267,"gänz":8268,"▁bege":8269,"prü":8270,"atalog":8271,"konom":8272,"▁genug":8273,"künft":8274,"▁sil":8275,"▁award":8276,"▁NAT":8277,"kunf":8278,"erstör":8279,"▁Dann":8280,"▁long-term":8281,"▁influence":8282,"▁honour":8283,"▁verab":8284,"▁area,":8285,"ückt":8286,"ünstler":8287,"▁historischen":8288,"▁verkauf":8289,"icket":8290,"▁Gründen":8291,"▁genu":8292,"glied":8293,"▁cast":8294,"▁Et":8295,"reichen":8296,"▁secure":8297,"/0":8298,"▁remember":8299,"▁sehen,":8300,"▁Del":8301,"zeichn":8302,"▁Dazu":8303,"▁shop":8304,"ients":8305,"▁lost":8306,"▁coup":8307,"amin":8308,"utive":8309,"▁Modell":8310,"book":8311,"-in-Off":8312,"▁handel":8313,"▁Swiss":8314,"▁Versuch":8315,"▁inf":8316,"▁fant":8317,"▁S.":8318,"▁Video":8319,"▁AC":8320,"▁Russian":8321,"▁EU.":8322,"▁Services":8323,"▁mann":8324,"▁today.":8325,"▁meaning":8326,"▁prem":8327,"icy":8328,"aren":8329,"▁investig":8330,"▁Affairs":8331,"▁annual":8332,"▁vertra":8333,"▁village":8334,"orgung":8335,"▁ergreif":8336,"▁habe,":8337,"▁services.":8338,"scheinlich":8339,"▁blo":8340,"▁late":8341,"▁heutigen":8342,"▁slow":8343,"2)":8344,"▁e-mail":8345,"▁substant":8346,"▁Est":8347,"iant":8348,"▁ready":8349,"ktive":8350,"▁Einwander":8351,"▁halte":8352,"▁cohes":8353,"▁heav":8354,"▁Bürgern":8355,"▁University":8356,"ue,":8357,"▁Regierungs":8358,"▁absolutely":8359,"ist,":8360,"h.":8361,"▁Development":8362,"▁Landwirtschaft":8363,"▁Voll":8364,"gehend":8365,"peratur":8366,"▁Drit":8367,"▁crimin":8368,"▁Nun":8369,"▁auf.":8370,"▁bessere":8371,"▁Islam":8372,"▁them,":8373,"▁affe":8374,"▁hotel.":8375,"▁Kapital":8376,"▁Start":8377,"quem":8378,"8,":8379,"hältnis":8380,"nit":8381,"▁Prem":8382,"▁swimming":8383,"▁UK":8384,"▁Bildung":8385,"▁persönlichen":8386,"▁advantage":8387,"nam":8388,"pack":8389,"▁benefits":8390,"▁base":8391,"1)":8392,"▁Hinsicht":8393,"rats":8394,"▁Nationen":8395,"▁insp":8396,"▁spezif":8397,"▁growing":8398,"▁EU's":8399,"▁folgenden":8400,"▁decor":8401,"pool":8402,"▁größer":8403,"▁Inhalt":8404,"▁club":8405,"▁scheint":8406,"▁uns,":8407,"▁lands":8408,"▁sav":8409,"▁stage":8410,"▁competit":8411,"▁Flex":8412,"▁anerk":8413,"▁finally":8414,"▁thought":8415,"gy":8416,"▁trying":8417,"▁Def":8418,"DE":8419,"ünsche":8420,"▁Verfass":8421,"▁ausschließlich":8422,"▁Praxis":8423,"▁published":8424,"▁vital":8425,"▁geben.":8426,"16":8427,"5-0":8428,"führt.":8429,"ION":8430,"standing":8431,"▁Furthermore,":8432,"gül":8433,"▁overall":8434,"cape":8435,"▁Arbeitslos":8436,"ages,":8437,"▁effizient":8438,"▁verurs":8439,"▁Einige":8440,"▁therefore,":8441,"▁Aufgaben":8442,"▁Gespr":8443,"▁purpose":8444,"nd":8445,"▁jähr":8446,"▁brand":8447,"barer":8448,"▁Fällen":8449,"▁wes":8450,"▁Ihres":8451,"▁specif":8452,"▁Kosovo":8453,"hilfe":8454,"▁fire":8455,"▁ourselves":8456,"▁technischen":8457,"▁Gold":8458,"▁Eigent":8459,"▁view,":8460,"date":8461,"▁Sonder":8462,"▁überhaupt":8463,"ifen":8464,"▁day.":8465,"unden,":8466,"▁deutschen":8467,"-Ver":8468,"komp":8469,"oom":8470,"▁sieht":8471,"vollen":8472,"▁Tagen":8473,"inian":8474,"▁bleiben":8475,"▁zukünft":8476,"▁too,":8477,"▁vorgesehen":8478,"▁nutzen":8479,"ated,":8480,"ie.":8481,"▁italien":8482,"▁analysis":8483,"▁verfügen":8484,"enken":8485,"▁Kauf":8486,"▁argument":8487,"▁President-in-Off":8488,"▁separate":8489,"▁195":8490,"umin":8491,"ibe":8492,"unternehmen":8493,"▁collection":8494,"▁stärker":8495,"▁offens":8496,"▁Wissen":8497,"▁EU,":8498,"▁July":8499,"▁strategic":8500,"iertel":8501,"auen":8502,"▁system,":8503,"▁world's":8504,"▁Eind":8505,"▁yourself":8506,"▁modernen":8507,"▁expert":8508,"prech":8509,"▁goal":8510,"▁Sprach":8511,"▁Hilf":8512,"▁Maß":8513,"▁that.":8514,"▁hostel":8515,"▁resort":8516,"▁vollständig":8517,"▁wiederhol":8518,"▁simpl":8519,"▁cred":8520,"sprü":8521,"▁Cy":8522,"▁Agre":8523,"▁Allerdings":8524,"tempt":8525,"▁materials":8526,"▁disapp":8527,"▁wrong":8528,"liefer":8529,"▁Österreich":8530,"acht,":8531,"ato":8532,"ästin":8533,"▁Herausforder":8534,"▁accession":8535,"▁Georg":8536,"last":8537,"vo":8538,"IF":8539,"▁fahr":8540,"▁heard":8541,"▁erforderlich":8542,"▁Krank":8543,"▁Größ":8544,"▁street":8545,"▁politic":8546,"▁status":8547,"▁gam":8548,"▁geze":8549,"▁(w":8550,"▁gibt.":8551,"▁wanted":8552,"möglichkeiten":8553,"▁circumst":8554,"ügen":8555,"imat":8556,"▁Bemühungen":8557,"SS":8558,"▁Only":8559,"▁monitoring":8560,"▁ehemal":8561,"ität.":8562,"▁Opt":8563,"urance":8564,"lymp":8565,"▁zudem":8566,"wise":8567,"▁Agreement":8568,"▁35":8569,"▁Tal":8570,"▁wine":8571,"ener":8572,"▁Miss":8573,"enze":8574,"▁distrib":8575,"25":8576,"tere":8577,"▁Ang":8578,"▁occup":8579,"▁verstär":8580,"▁Its":8581,"▁kürz":8582,"▁today,":8583,"▁Directive":8584,"▁Falls":8585,"▁zweit":8586,"//":8587,"▁cell":8588,"▁compromise":8589,"▁Liberal":8590,"▁allgemeinen":8591,"affe":8592,"▁ability":8593,"ifizierung":8594,"mens":8595,"hotel":8596,"▁elements":8597,"9,":8598,"▁listen":8599,"▁sales":8600,"▁privaten":8601,"▁Obwohl":8602,"▁\"The":8603,"hood":8604,"▁einsetz":8605,"ägt":8606,"ira":8607,"▁lies":8608,"▁Antrag":8609,"▁Kompromiss":8610,"▁Trotz":8611,"▁150":8612,"▁teleph":8613,"▁verlang":8614,"▁Secondly,":8615,"▁NATO":8616,"▁länd":8617,"▁dipl":8618,"▁electronic":8619,"▁würde.":8620,"▁Glaub":8621,"ymp":8622,"▁way,":8623,"▁love":8624,"▁flexible":8625,"QL":8626,"äte":8627,"▁unterb":8628,"▁Ukraine":8629,"▁Council.":8630,"SP":8631,"ione":8632,"▁Wann":8633,"▁ab,":8634,"bad":8635,"▁Ausgang":8636,"▁country.":8637,"▁gesagt,":8638,"lose":8639,"▁(FR)":8640,"▁fresh":8641,"sprogramm":8642,"▁ausgezeichnet":8643,"▁Amb":8644,"▁datab":8645,"ösen":8646,"sicherheit":8647,"▁inn":8648,"▁deine":8649,"▁Tor":8650,"▁chance":8651,"▁placed":8652,"ja":8653,"cker":8654,"▁worden.":8655,"alyse":8656,"▁Tätigkeit":8657,"▁Anerkenn":8658,"▁sinn":8659,"▁Erk":8660,"▁tit":8661,"▁People":8662,"▁Zimmer,":8663,"uber":8664,"▁enterpr":8665,"▁vor.":8666,"▁God":8667,"▁rom":8668,"zy":8669,"▁Freiz":8670,"omet":8671,"▁Grenz":8672,"▁endlich":8673,"▁hot":8674,"ely.":8675,"▁Schritte":8676,"▁Aspekte":8677,"▁jem":8678,"▁spect":8679,"▁Chinese":8680,"▁parking":8681,"▁Leute":8682,"os.":8683,"▁voting":8684,"attet":8685,"▁gerecht":8686,"▁bringen.":8687,"▁Öl":8688,"obby":8689,"▁länger":8690,"▁Forschungs":8691,"▁concentr":8692,"agraph":8693,"uern":8694,"▁spok":8695,".m.":8696,"▁negative":8697,"▁plant":8698,"undred":8699,"▁fear":8700,"▁hol":8701,"▁Mex":8702,"▁luxur":8703,"umm":8704,"▁Vertrauen":8705,"▁produz":8706,"▁natür":8707,"▁autom":8708,"17":8709,"uren":8710,"▁Mer":8711,"▁Mün":8712,"▁möglich,":8713,"▁remind":8714,"gt.":8715,"▁geht,":8716,"▁way.":8717,"▁Folge":8718,"▁ethn":8719,"▁Verkauf":8720,"ande":8721,"grad":8722,"▁shopping":8723,"kosten":8724,"▁geforder":8725,"▁anc":8726,"▁Prä":8727,"▁gelang":8728,"ares":8729,"▁kaum":8730,"ite,":8731,"▁dram":8732,"▁mainly":8733,"▁formul":8734,"▁Dub":8735,"▁Herren!":8736,"abkommen":8737,"▁Guest":8738,"▁größere":8739,"▁jun":8740,"igungen":8741,"▁automatisch":8742,"▁Moreover,":8743,"▁touch":8744,"▁country,":8745,"▁rights.":8746,"▁reag":8747,"▁letzte":8748,"▁Ausschuß":8749,"▁arm":8750,"avig":8751,"▁walking":8752,"▁whom":8753,"▁Beweg":8754,"hrte":8755,"▁Überwach":8756,"▁Gesamt":8757,"abr":8758,"▁Grie":8759,"▁proceed":8760,"▁affected":8761,"▁occur":8762,"▁umfang":8763,"▁regulations":8764,"▁operation":8765,"▁elegant":8766,"-e":8767,"aw":8768,"▁beide":8769,"▁dar.":8770,"meer":8771,"▁Milliarden":8772,"▁Ressourcen":8773,"▁auszu":8774,"▁po":8775,"▁komfort":8776,"lichkeiten":8777,"▁worked":8778,"lines":8779,"▁Zweck":8780,"▁Bade":8781,"23":8782,"▁Us":8783,"▁Erfahrungen":8784,"etzen":8785,"▁Hostels":8786,"▁coast":8787,"uly":8788,"▁Acht":8789,"▁talking":8790,"▁consequences":8791,"▁folgt":8792,"für":8793,"▁discrimin":8794,"▁falls":8795,"ive.":8796,"▁bezahl":8797,"▁Schiff":8798,"and.":8799,"▁AL":8800,"▁comment":8801,"-de":8802,"▁friends":8803,"▁Präsidentin!":8804,"bt":8805,"▁rights,":8806,"▁Qualitäts":8807,"▁enlargement":8808,"▁childr":8809,"▁reduced":8810,"▁Slo":8811,"▁Zweif":8812,"▁began":8813,"änge":8814,"▁box":8815,"ärkung":8816,"▁sites":8817,"▁Bon":8818,"▁wünsch":8819,"benen":8820,"▁entspricht":8821,"▁Falle":8822,"▁soll,":8823,"mus":8824,"▁Sache":8825,"▁zusätzliche":8826,"▁encourage":8827,"gruppe":8828,"▁watch":8829,"▁increasingly":8830,"▁Google":8831,"ssystem":8832,"▁intended":8833,"**":8834,"werte":8835,"▁style":8836,"▁Immobil":8837,"8.":8838,"▁ausführ":8839,"▁products.":8840,"▁confidence":8841,"struktur":8842,"▁expressed":8843,"▁contribute":8844,"zech":8845,"sätze":8846,"▁compl":8847,"▁Annahme":8848,"▁Besonder":8849,"▁Dro":8850,"▁stabil":8851,"▁Entschließungsant":8852,"9.":8853,"▁Bur":8854,"▁Licht":8855,"▁cos":8856,"▁Schwer":8857,"▁intell":8858,"gere":8859,"ehen":8860,"▁opening":8861,"▁betrifft":8862,"gebie":8863,"akte":8864,"▁now,":8865,"gt,":8866,"▁Nacht":8867,"▁1990":8868,"▁apartments":8869,"▁instruments":8870,"▁Versch":8871,"reiber":8872,"▁calls":8873,"▁guidel":8874,"izienz":8875,"▁administrative":8876,"▁speziell":8877,"▁Ann":8878,"▁expens":8879,"cul":8880,"▁IP":8881,"▁Stil":8882,"ionen":8883,"▁tal":8884,"▁sollte,":8885,"▁militär":8886,"ham":8887,"▁elektron":8888,"▁unbedingt":8889,"verläss":8890,"▁safe":8891,"ategie":8892,"▁His":8893,"▁suitable":8894,"▁structural":8895,"▁Elekt":8896,"▁setzen":8897,"ices.":8898,"▁Werte":8899,"▁perspect":8900,"tlich":8901,"enty":8902,"▁Stellen":8903,"ors,":8904,"▁Liber":8905,"▁ersch":8906,"folger":8907,"▁Frage,":8908,"▁Dre":8909,"▁Sing":8910,"▁mill":8911,"▁Kollegen!":8912,"▁Einfluss":8913,"las":8914,"▁nimmt":8915,"A.":8916,"E)":8917,"▁powerful":8918,"▁Agentur":8919,"▁ensuring":8920,"imb":8921,"%.":8922,"▁Paul":8923,"▁unfortun":8924,"reiche":8925,"▁doubt":8926,"ING":8927,"90":8928,"het":8929,"▁structure":8930,"ästinens":8931,"▁herz":8932,"▁angemessen":8933,"▁medic":8934,"▁attempt":8935,"▁fellow":8936,"▁\"V":8937,"▁Rechtsvorschriften":8938,"▁surrounding":8939,"▁Körper":8940,"ray":8941,"▁speech":8942,"▁Nah":8943,"▁Also":8944,"folgen":8945,"strumente":8946,"äher":8947,"▁Vide":8948,"▁unterschiedlichen":8949,"▁voraus":8950,"▁News":8951,"▁chann":8952,"▁namely":8953,"▁Serb":8954,"▁Garant":8955,"▁dringend":8956,"▁bewusst":8957,"▁finden,":8958,"isely":8959,"gewöhn":8960,"qual":8961,"▁reduz":8962,"n.":8963,"▁committed":8964,"8)":8965,"▁AN":8966,"▁anything":8967,"ighted":8968,"▁Durchführung":8969,"▁challenges":8970,"▁Lab":8971,"▁more.":8972,"▁Spr":8973,"zeugen":8974,"▁Autom":8975,"▁zusam":8976,"▁verz":8977,"▁herunter":8978,"▁Ern":8979,"▁pictures":8980,"▁mid":8981,"esearch":8982,"▁mindestens":8983,"craft":8984,"24":8985,"inu":8986,"▁Haft":8987,"▁Anspruch":8988,"ide,":8989,"ael":8990,"▁fine":8991,"▁Any":8992,"▁gestal":8993,"▁waste":8994,"▁Card":8995,"▁Generation":8996,"▁intend":8997,"▁Agend":8998,"▁Archite":8999,"▁betrachte":9000,"▁poll":9001,"▁introduced":9002,"▁market,":9003,"hilfen":9004,"▁agriculture":9005,"▁immediately":9006,"p:":9007,"bü":9008,"▁Spieler":9009,"ifying":9010,"▁hochwert":9011,"aktiv":9012,"amber":9013,"▁automatically":9014,"reise":9015,"▁Wik":9016,"▁impos":9017,"ae":9018,"zul":9019,"▁black":9020,"▁nachdem":9021,"ivity":9022,"▁nö":9023,"▁church":9024,"▁quant":9025,"posit":9026,"▁sports":9027,"svorsitz":9028,"▁mehreren":9029,"coming":9030,"▁Zimm":9031,"▁Bestand":9032,"▁Bemerk":9033,"ium,":9034,"ückw":9035,"▁agen":9036,"▁geschütz":9037,"AG":9038,"▁Sinn":9039,"▁anders":9040,"▁Ident":9041,"▁Verhalten":9042,"▁Arab":9043,"▁committe":9044,"▁Vorteile":9045,"▁Ander":9046,"▁procedures":9047,"▁larger":9048,"▁wonderful":9049,"▁Each":9050,"▁Arbeitsplätze":9051,"igran":9052,"▁ausgew":9053,"▁Betrie":9054,"▁Regional":9055,"▁supports":9056,"iture":9057,"wser":9058,"▁entsprechende":9059,"▁IM":9060,"▁Fakt":9061,"▁Exp":9062,"▁(200":9063,"▁extensive":9064,"raw":9065,"▁platform":9066,"▁Board":9067,"ius":9068,"▁angeze":9069,"▁hundred":9070,"▁work,":9071,"bum":9072,"▁getting":9073,"▁referred":9074,"▁domin":9075,"▁fert":9076,"raten":9077,"▁ec":9078,"zimmer,":9079,"▁erleb":9080,"rans":9081,"▁activity":9082,"can":9083,"▁Olymp":9084,"▁reviews":9085,"artigen":9086,"bung":9087,"▁map":9088,"▁museum":9089,"▁Zwischen":9090,"fläche":9091,"▁summit":9092,"▁release":9093,"IG":9094,"▁kit":9095,"▁raised":9096,"▁traffic":9097,"▁dedic":9098,"▁Hintergrund":9099,"stieg":9100,"▁Most":9101,"▁erh":9102,"law":9103,"▁euch":9104,"▁ris":9105,"hnen,":9106,"▁detailed":9107,"künd":9108,"ps":9109,"▁usually":9110,"mack":9111,"ión":9112,"▁Einrichtung":9113,"idential":9114,"▁Konflikt":9115,"idge":9116,"▁serve":9117,"▁Prozent":9118,"▁Zweitens":9119,"▁demokratischen":9120,"▁aimed":9121,"▁Tem":9122,"ams":9123,"▁kontroll":9124,"▁Czech":9125,"▁Rev":9126,"▁Bay":9127,"▁frag":9128,"ola":9129,"▁(n":9130,"▁Verwaltung":9131,"▁ehr":9132,"▁dead":9133,"▁Wissenschaft":9134,"▁protected":9135,"▁Costa":9136,"▁Schlaf":9137,"▁colleagues":9138,"IE":9139,"▁Ev":9140,"▁Nahr":9141,"udem":9142,"▁ged":9143,"▁globalen":9144,"▁scen":9145,"▁restrict":9146,"▁Einsch":9147,"▁glaube":9148,"▁Cr":9149,"▁Assoc":9150,"▁Kind":9151,"▁ago":9152,"▁mand":9153,"▁According":9154,"onym":9155,"▁transparent":9156,"▁Dol":9157,"▁2020":9158,"▁gebracht":9159,"sichtig":9160,"▁Cast":9161,"p://":9162,"▁vac":9163,"ingu":9164,"▁facilit":9165,"▁einzu":9166,"▁Motor":9167,"▁wants":9168,"teilt":9169,"▁mic":9170,"▁rural":9171,"▁decide":9172,"▁flow":9173,"▁moderne":9174,"haften":9175,"▁services,":9176,"▁gefunden":9177,"▁Mitgliedstaaten,":9178,"▁actual":9179,"▁tools":9180,"▁eindeutig":9181,"uppen":9182,"itation":9183,"lagen,":9184,"ichen":9185,"ologischen":9186,"▁besonderen":9187,"▁..":9188,"▁entw":9189,"▁nationale":9190,"▁6.":9191,"▁unbe":9192,"▁conver":9193,"▁sich,":9194,"▁wood":9195,"▁Bew":9196,"▁Zeitraum":9197,"üste":9198,"▁Konzept":9199,"▁Reserv":9200,"IR":9201,"▁aktuelle":9202,"▁bind":9203,"verage":9204,"▁criteria":9205,"quality":9206,"spunkt":9207,"▁played":9208,"lying":9209,"▁mix":9210,"▁Komfort":9211,"▁budgetary":9212,"▁forces":9213,"▁documents":9214,"▁convin":9215,"wogen":9216,"▁Turk":9217,"izing":9218,"▁Abschluss":9219,"▁becoming":9220,"ities,":9221,"jected":9222,"▁institutional":9223,"▁Zudem":9224,"ulierung":9225,"▁spacious":9226,"hop":9227,"▁coff":9228,"▁Middle":9229,"▁Zunächst":9230,"▁zweif":9231,"7,":9232,"izenz":9233,"anken":9234,"▁Anerkennung":9235,"acht.":9236,"▁sub-c":9237,"ennen,":9238,"▁critical":9239,"▁dispos":9240,"▁Economic":9241,"cks":9242,"▁Tab":9243,"▁gelegen":9244,"▁bestehenden":9245,"▁Firmen":9246,"▁remark":9247,"▁tomorrow":9248,"freiheit":9249,"▁Griechen":9250,"▁rechts":9251,"▁plus":9252,"▁winter":9253,"▁unc":9254,"▁Code":9255,"▁Parteien":9256,"▁Lage,":9257,"▁Great":9258,"▁exactly":9259,"▁Wellness":9260,"▁sollten.":9261,"▁feed":9262,"▁target":9263,"▁Sand":9264,"▁danke":9265,"▁Prote":9266,"▁scr":9267,"▁Sach":9268,"▁forest":9269,"imme":9270,"▁Salz":9271,"▁Luxem":9272,"▁oben":9273,"▁running":9274,"▁Kore":9275,"▁corresp":9276,"▁representatives":9277,"▁Out":9278,"▁Vorbereit":9279,"▁Kenntnis":9280,"▁expected":9281,"▁vorge":9282,"▁Einkauf":9283,"brit":9284,"▁Other":9285,"▁Tar":9286,"▁Holz":9287,"▁multip":9288,"▁provider":9289,"▁introduction":9290,"▁selected":9291,"entwicklung":9292,"▁Zustimmung":9293,"▁setzt":9294,"▁Netzwerk":9295,"nel":9296,"▁möglicherweise":9297,"leistungen":9298,"▁erfolgt":9299,"▁Anpass":9300,"entrale":9301,"▁Patient":9302,"ved.":9303,"sport":9304,"▁earlier":9305,"▁abzu":9306,"▁changed":9307,"nahm":9308,"oon":9309,"gebiet":9310,"präsident":9311,"▁iP":9312,"▁Beitritts":9313,"ar.":9314,"▁tabled":9315,"cht,":9316,"▁öffentlich":9317,"laus":9318,"▁notwendigen":9319,"▁unterstützen,":9320,"▁Wettbewerbsfähigkeit":9321,"ureau":9322,"▁Mitte":9323,"▁ideas":9324,"▁medical":9325,"▁weap":9326,"▁Belar":9327,"azz":9328,"▁bedeutet,":9329,"▁bequem":9330,"oß":9331,"uard":9332,"ibly":9333,"chen.":9334,"▁(W":9335,"▁mad":9336,"rok":9337,"▁Gran":9338,"▁conflict":9339,"▁Research":9340,"fäll":9341,"▁Mitteilung":9342,"▁Unterkategorien":9343,"▁served":9344,"▁Waren":9345,"▁challenge":9346,"▁employees":9347,"▁Milit":9348,"▁darauf,":9349,"▁?":9350,"▁unit":9351,"▁Som":9352,"▁sub-categories":9353,"▁weiß,":9354,"▁I'":9355,"used":9356,"▁Bi":9357,"▁süd":9358,"▁Ap":9359,"▁rapporteur,":9360,"▁expand":9361,"▁abhäng":9362,"/E":9363,"-called":9364,"▁finanziellen":9365,"▁glob":9366,"▁Verfassung":9367,"▁spread":9368,"flü":9369,"▁jederzeit":9370,"▁Vill":9371,"▁represents":9372,"ba":9373,"meld":9374,"▁wesentlich":9375,"7)":9376,"▁Tun":9377,"stitut":9378,"eks":9379,"les,":9380,"lemente":9381,"▁cuis":9382,"selv":9383,"öm":9384,"▁thousands":9385,"▁Verwaltungs":9386,"▁Indeed,":9387,"▁managed":9388,"britann":9389,"lebr":9390,"▁comput":9391,"▁electric":9392,"ado":9393,"anden":9394,"▁kennen":9395,"▁Ba":9396,"▁Wahlen":9397,"▁acqu":9398,"u,":9399,"▁Homepage":9400,"▁Click":9401,"▁ausger":9402,"14":9403,"▁ade":9404,"▁Aufnahme":9405,"▁graph":9406,"either":9407,"▁competitive":9408,"zeichen":9409,"▁players":9410,"/2":9411,"▁Lehr":9412,"▁here,":9413,"▁defend":9414,"allel":9415,"▁likely":9416,"ragen":9417,"sprach":9418,"▁ries":9419,"▁explo":9420,"▁Center":9421,"house":9422,"▁Verpflichtungen":9423,"▁transparency":9424,"▁sold":9425,"▁freien":9426,"▁selbstverständlich":9427,"▁scope":9428,"rum":9429,"▁3,":9430,"▁Irak":9431,"▁400":9432,"▁stellen.":9433,"▁Moment":9434,"größ":9435,"▁criminal":9436,"▁precisely":9437,"▁Switzer":9438,"bas":9439,"ists,":9440,"▁centr":9441,"▁Found":9442,"▁Ky":9443,"▁zug":9444,"▁Infrastruktur":9445,"▁exhibition":9446,"▁Küche":9447,"▁zuletzt":9448,"▁compens":9449,"▁belong":9450,"bruch":9451,"▁Anstrengungen":9452,"izes":9453,"▁Schließlich":9454,"ives.":9455,"▁Pack":9456,"gestellt.":9457,"▁tempor":9458,"▁listed":9459,"▁geführt":9460,"▁Verbind":9461,"▁impress":9462,"altungen":9463,"▁Schengen":9464,"▁Frem":9465,"▁substantial":9466,"▁so-called":9467,"▁Break":9468,"▁win":9469,"▁demands":9470,"zep":9471,"▁accepted":9472,"▁life.":9473,"▁compar":9474,"▁Enterprise":9475,"▁entit":9476,"▁information.":9477,"clude":9478,"▁Solidarität":9479,"▁wachs":9480,"folgend":9481,"atik":9482,"▁approved":9483,"▁begrenz":9484,"▁Klein":9485,"▁visitors":9486,"▁Rein":9487,"▁Bec":9488,"zeiten":9489,"▁empfehl":9490,"▁window":9491,"DP":9492,"▁zu.":9493,"ices,":9494,"▁Waffen":9495,"▁durchgeführt":9496,"▁Abs":9497,"▁kauf":9498,"etzung":9499,"▁supporting":9500,"inc":9501,"▁Prag":9502,"▁gemüt":9503,"7.":9504,"▁brief":9505,"bit":9506,"▁lassen,":9507,"angs":9508,"▁save":9509,"▁Grundsatz":9510,"▁leader":9511,"▁presence":9512,"fu":9513,"▁spielen":9514,"▁rise":9515,"▁behandelt":9516,"annte":9517,"▁destro":9518,"▁wahrscheinlich":9519,"▁Top":9520,"▁gave":9521,"ervice":9522,"zone":9523,"▁nütz":9524,"▁vertre":9525,"▁darum,":9526,"fun":9527,"▁darunter":9528,"▁dage":9529,"▁implemented":9530,"▁Hause":9531,"▁not,":9532,"▁Schlüssel":9533,"ita":9534,"ut,":9535,"▁genommen":9536,"▁Vereinbarung":9537,"-20":9538,"▁Boden":9539,"ded":9540,"▁Sü":9541,"TA":9542,"▁gewünsch":9543,"▁offensicht":9544,"schuld":9545,"▁development.":9546,"6)":9547,"▁SP":9548,"▁jeweils":9549,"▁solidarity":9550,"▁went":9551,"▁dan":9552,"ner,":9553,"-y":9554,"▁recognis":9555,"krise":9556,"▁match":9557,"olden":9558,"▁improving":9559,"▁grenz":9560,"▁specifically":9561,"▁Power":9562,"▁convenient":9563,"s\"":9564,"konferenz":9565,"▁photograph":9566,"is.":9567,"▁Heil":9568,"▁Vereinten":9569,"▁Sehens":9570,"▁geschaffen":9571,"h,":9572,"▁bott":9573,"▁EAD":9574,"▁processing":9575,"▁bestehen":9576,"▁eingerichte":9577,"▁Av":9578,"▁7.":9579,"chmal":9580,"▁Begriff":9581,"▁gleiche":9582,"▁CO2":9583,"▁sicherlich":9584,"ften":9585,"▁produc":9586,"nungs":9587,"▁Angelegenheiten":9588,"▁Afghanistan":9589,"▁dah":9590,"▁Kriterien":9591,"▁ru":9592,"▁vorzu":9593,"▁know,":9594,"▁auth":9595,"gemäß":9596,"penden":9597,"▁IC":9598,"▁reading":9599,"▁Großbritann":9600,"attle":9601,"▁Agenda":9602,"stände":9603,"▁Krä":9604,"▁Abschließend":9605,"▁plants":9606,"▁Herausforderungen":9607,"▁Hy":9608,"ktiven":9609,"ücken":9610,"leistung":9611,"-Te":9612,"▁typical":9613,"▁farmers":9614,"oted":9615,"▁Phil":9616,"▁entweder":9617,"leiste":9618,"gebaut":9619,"▁Italy":9620,"▁alloc":9621,"▁erwarten":9622,"▁Kal":9623,"▁Spanien":9624,"▁Schwierigkeiten":9625,"▁interpret":9626,"▁Bruss":9627,"▁mobil":9628,"ata":9629,"▁supplier":9630,"▁machine":9631,"▁Suche":9632,"ores":9633,"▁refuge":9634,"ades":9635,"▁(4":9636,"▁Why":9637,"onen":9638,"-System":9639,"gemeine":9640,"▁kommen.":9641,"▁Lib":9642,"▁untern":9643,"portion":9644,"▁competitiveness":9645,"-Pl":9646,"LE":9647,"▁dealing":9648,"▁Bereit":9649,"▁tun.":9650,"▁sho":9651,"▁Lag":9652,"▁Never":9653,"▁persons":9654,"ikanische":9655,"▁tack":9656,"▁Klimawand":9657,"▁Entwurf":9658,"▁incor":9659,"f.":9660,"▁ISO":9661,"tempor":9662,"▁linked":9663,"▁delay":9664,"▁elimin":9665,"bourg":9666,"▁options":9667,"▁covered":9668,"▁too.":9669,"▁regret":9670,"▁welcher":9671,"quate":9672,"▁psych":9673,"▁forget":9674,"▁considerable":9675,"club":9676,"▁participation":9677,"hagen":9678,"▁Charakter":9679,"▁NI":9680,"▁Besucher":9681,"sper":9682,"-star":9683,"▁Africa":9684,"▁weeks":9685,"letter":9686,"zähl":9687,"▁chines":9688,"▁Plen":9689,"etzen,":9690,"▁photo":9691,"▁würde,":9692,"▁hosp":9693,"gewicht":9694,"ielt":9695,"▁Fore":9696,"▁Rh":9697,"punkte":9698,"▁kommenden":9699,"▁komplex":9700,"führt,":9701,"▁Sow":9702,"▁gern":9703,"▁Europa,":9704,"▁defic":9705,"▁Health":9706,"▁eingesetzt":9707,"ishing":9708,"uropa":9709,"▁zuvor":9710,"▁processes":9711,"▁exclusive":9712,"road":9713,"▁gegründ":9714,"▁Teile":9715,"▁white":9716,"▁Engagement":9717,"▁erhalten,":9718,"▁suc":9719,"▁Over":9720,"▁entgegen":9721,"▁klare":9722,"▁Ausgaben":9723,"▁genießen":9724,"de.":9725,"ünschen":9726,"▁peaceful":9727,"ossible":9728,"▁Portugal":9729,"▁Unfortun":9730,"ampag":9731,"▁Roma":9732,"-3":9733,"▁pleasant":9734,"fahrens":9735,"die":9736,"▁technische":9737,"▁stimme":9738,"▁Bos":9739,"▁Haltung":9740,"fahren,":9741,"▁193":9742,"▁trust":9743,"works":9744,"▁contra":9745,"▁Distr":9746,"▁é":9747,"▁Kurz":9748,"▁Installation":9749,"führer":9750,"▁paragraph":9751,"▁Unabhäng":9752,"▁moral":9753,"▁jur":9754,"▁Madrid":9755,"igem":9756,"▁Mir":9757,"alten,":9758,"▁Nutzen":9759,"▁stimm":9760,"▁relate":9761,"▁willing":9762,"ometer":9763,"▁refle":9764,"▁Verständ":9765,"richten":9766,"s-":9767,"iler":9768,"▁(b":9769,"▁percent":9770,"▁methods":9771,"▁powers":9772,"uropean":9773,"gruppen":9774,"▁sauber":9775,"struction":9776,"▁flexibility":9777,"MU":9778,"▁PHP":9779,"mod":9780,"▁Absatz":9781,"▁Dienste":9782,"▁ober":9783,"▁Leider":9784,"▁color":9785,"▁(the":9786,"isten,":9787,"auftrag":9788,"ga":9789,"spe":9790,"▁ausz":9791,"▁sitting":9792,"▁aufgenommen":9793,"▁opposition":9794,"▁Prov":9795,"▁withd":9796,"ih":9797,"▁trave":9798,"▁words,":9799,"irus":9800,"akes":9801,"▁strict":9802,"▁Kommunikation":9803,"ales":9804,"des":9805,"▁Menge":9806,"▁Karte":9807,"inder":9808,"ameter":9809,"▁Environment":9810,"▁teilweise":9811,"▁Spa":9812,"▁entry":9813,"inary":9814,"▁factor":9815,"18":9816,"schech":9817,"set":9818,"▁Haushalt":9819,"▁getan":9820,"lung,":9821,"▁waren,":9822,"▁Christian":9823,"forsch":9824,"▁adjust":9825,"anda":9826,"▁Mio.":9827,"wachs":9828,"▁russ":9829,"▁Fischerei":9830,"herstell":9831,"stechn":9832,"▁Währung":9833,"▁Innovation":9834,"4-0":9835,"▁told":9836,"▁Wander":9837,"▁Inhalte":9838,"lassen":9839,"kap":9840,"bew":9841,"▁Meter":9842,"zz":9843,"iding":9844,"▁verring":9845,"▁durchaus":9846,"▁Act":9847,"▁uses":9848,"▁Ausbildung":9849,"▁mail":9850,"ia's":9851,"▁schem":9852,"▁registr":9853,"▁Anteil":9854,"ya":9855,"▁alte":9856,"bericht":9857,"▁oppos":9858,"▁behav":9859,"▁sle":9860,"denk":9861,"▁Arten":9862,"▁Stabilität":9863,"sektor":9864,"▁law.":9865,"unehmen.":9866,"▁verfolg":9867,"▁bringen,":9868,"▁Übergang":9869,"cluded":9870,"▁32":9871,"▁gradu":9872,"▁lines":9873,"▁übernachten":9874,"▁Under":9875,"▁nieder":9876,"▁efficiency":9877,"▁rooms,":9878,"▁permanent":9879,"▁minister":9880,"▁entscheiden":9881,"▁führen.":9882,"gree":9883,"▁Vielen":9884,"▁resist":9885,"▁orient":9886,"▁Zeichen":9887,"RA":9888,"▁Mel":9889,"etten":9890,"eb":9891,"▁liebe":9892,"▁positiv":9893,"▁GN":9894,"▁fit":9895,"▁danken.":9896,"▁Mount":9897,"▁Status":9898,"▁Harmon":9899,"dete":9900,"crete":9901,"▁motion":9902,"pann":9903,"▁Bil":9904,"▁areas.":9905,"▁domestic":9906,"▁desire":9907,"▁Ul":9908,"▁It's":9909,"▁himself":9910,"▁Richtlinien":9911,"uan":9912,"wan":9913,"eh":9914,"edia":9915,"▁vertreten":9916,"▁becomes":9917,"▁Group.":9918,"5)":9919,"▁Black":9920,"▁entirely":9921,"ständen":9922,"/or":9923,"karte":9924,"▁followed":9925,"▁Aspekt":9926,"prüfung":9927,"▁versuchen,":9928,"▁Origin":9929,"▁pros":9930,"▁angegeben":9931,"▁environment.":9932,"eschrän":9933,"▁Partei":9934,"▁assessment":9935,"▁Februar":9936,"▁wert":9937,"▁myself":9938,"▁ständig":9939,"▁playing":9940,"▁President-in-Office":9941,"▁Reformen":9942,"▁mission":9943,"▁gestimmt,":9944,"▁Gründ":9945,"daten":9946,"▁Vien":9947,"▁Kenn":9948,"▁--":9949,"▁improved":9950,"umän":9951,"ples":9952,"▁bekommen":9953,"▁inside":9954,"▁superv":9955,"regel":9956,"▁Tool":9957,"▁combat":9958,"▁Kil":9959,"cknow":9960,"▁advanced":9961,"▁fle":9962,"▁absolut":9963,"esterday":9964,"▁konkrete":9965,"▁metres":9966,"▁easier":9967,"IB":9968,"▁player":9969,"▁Because":9970,"▁Königreich":9971,"▁says":9972,"gehen.":9973,"imit":9974,"▁clients":9975,"▁19.":9976,"▁imag":9977,"leitet":9978,"itter":9979,"▁elections":9980,"▁delivery":9981,"▁bezeichnet":9982,"ischen,":9983,"▁hinzuf":9984,"▁planning":9985,"▁plans":9986,"▁anderes":9987,"▁45":9988,"▁Got":9989,"▁prä":9990,"▁früh":9991,"iums":9992,"▁initiatives":9993,"fälle":9994,"▁lives":9995,"▁Eisen":9996,"▁Ratsvorsitz":9997,"▁region.":9998,"▁Erstens":9999,"▁möchten,":10000,"▁police":10001,"▁fühl":10002,"▁htt":10003,"vey":10004,"haber":10005,"opol":10006,"▁Once":10007,"▁opened":10008,"▁verurteil":10009,"stoffe":10010,"iro":10011,"▁Non":10012,"known":10013,"▁occasion":10014,"▁zul":10015,"iling":10016,"▁stated":10017,"▁Sehenswürd":10018,"▁images":10019,"accept":10020,"▁mich,":10021,"▁conduct":10022,"▁(EN":10023,"▁closely":10024,"▁klass":10025,"ued":10026,"▁sicher,":10027,"▁acknow":10028,"▁Bran":10029,"ystemen":10030,"▁helfen":10031,"▁parliamentary":10032,"▁Atlant":10033,"▁experienced":10034,"▁ancient":10035,"▁Konz":10036,"▁founded":10037,"fertig":10038,"▁service.":10039,"▁chair":10040,"-Hotel":10041,"-Sch":10042,"EA":10043,"▁Mail":10044,"▁wenigen":10045,"▁organisations":10046,"▁Gewähr":10047,"pla":10048,"▁hatte,":10049,"▁ago,":10050,"▁Kingdom":10051,"▁song":10052,"▁Straf":10053,"▁Roy":10054,"▁concerned,":10055,"9)":10056,"▁nächste":10057,"▁negotiation":10058,"▁and/or":10059,"ative,":10060,"▁surpr":10061,"▁erreichen,":10062,"gramme":10063,"▁Sprachen":10064,"▁Barros":10065,"▁dennoch":10066,"äck":10067,"▁promoting":10068,"ütze":10069,"oring":10070,"ickets":10071,"▁Asyl":10072,"▁geograph":10073,"wasser":10074,"▁möglichst":10075,"▁Warum":10076,"reck":10077,"▁Monate":10078,"▁length":10079,"▁zufrieden":10080,"▁accident":10081,"▁Band":10082,"iles":10083,"▁stehen.":10084,"▁discussed":10085,"▁Modern":10086,"tete":10087,"▁Garten":10088,"▁EADS":10089,"▁dangerous":10090,"▁pet":10091,"CO":10092,"]],":10093,"▁Bush":10094,"▁dro":10095,"box":10096,"▁Klicken":10097,"▁Mechan":10098,"▁Aufbau":10099,"▁00":10100,"rem":10101,"▁vere":10102,"▁load":10103,"▁lokalen":10104,"▁(c":10105,"▁promotion":10106,"▁information,":10107,"▁50%":10108,"zustellen.":10109,"▁Anges":10110,"▁February":10111,"▁gegenseit":10112,"organisation":10113,"asing":10114,"▁Osten":10115,"schul":10116,"rt":10117,"▁celebr":10118,"▁facing":10119,"▁Gipfel":10120,"▁(PL)":10121,"en?":10122,"▁Chance":10123,"▁connected":10124,"▁difference":10125,"▁Dennoch":10126,"▁Entschließungsantrag":10127,"▁session":10128,"▁sector.":10129,"▁associated":10130,"▁Flücht":10131,"▁m2":10132,"▁hotel,":10133,"▁Freund":10134,"▁Fle":10135,"finition":10136,"▁railway":10137,"▁television":10138,"▁defence":10139,"▁getroffen":10140,"▁geschlossen.":10141,"▁bear":10142,"▁Einhaltung":10143,"▁students":10144,"▁Hall":10145,"▁Allgemein":10146,"▁Santa":10147,"auern":10148,"▁\"O":10149,"▁dish":10150,"▁Private":10151,"heit,":10152,"▁fruit":10153,"▁room,":10154,"▁Flexibil":10155,"chten.":10156,"hoben":10157,"▁ausdrücklich":10158,"▁issue.":10159,"▁citizens.":10160,"ilden":10161,"▁poverty":10162,"hrase":10163,"▁safeg":10164,"unkten":10165,"▁festgeleg":10166,"gesell":10167,"▁Stoff":10168,"ids":10169,"▁\"s":10170,"▁vorgeleg":10171,"▁Nachfolgend":10172,"The":10173,"ärkten":10174,"▁freue":10175,"▁Alex":10176,"▁humanitarian":10177,"nter":10178,"▁Vorteil":10179,"▁finanzielle":10180,"▁bringt":10181,"▁umfasst":10182,"ask":10183,"▁again,":10184,"schrift":10185,"isieren":10186,"▁unto":10187,"▁1996":10188,"▁täglich":10189,"▁middle":10190,"▁Lam":10191,"▁signal":10192,"ENT":10193,"▁Pfl":10194,"C,":10195,"▁accur":10196,"▁endgül":10197,"▁unaccept":10198,"▁Inf":10199,"▁Gemeinsamen":10200,"▁condem":10201,"▁say,":10202,"maß":10203,"isierten":10204,"▁Fen":10205,"govern":10206,"öder":10207,"▁21.":10208,"▁kommen,":10209,"▁Straß":10210,"▁fäll":10211,"▁3D":10212,"▁collabor":10213,"häus":10214,"▁impossible":10215,"▁hätten":10216,"icks":10217,"S)":10218,"etze":10219,"▁Nations":10220,"▁however":10221,"▁generally":10222,"▁Kompon":10223,"mel":10224,"▁Vielfalt":10225,"▁establishment":10226,"▁(V":10227,"▁immediate":10228,"ags":10229,"▁daran,":10230,"▁implementing":10231,"▁unterschiedliche":10232,"▁Herstellung":10233,"zog":10234,"illing":10235,"ikal":10236,"▁verabschied":10237,"▁unge":10238,"▁degree":10239,"▁radio":10240,"ault":10241,"try":10242,"▁Mö":10243,"▁combination":10244,"▁Meinung,":10245,"en:":10246,"iffer":10247,"▁except":10248,"▁benötigen":10249,"▁Organisationen":10250,"führten":10251,"▁Note":10252,"▁Kritik":10253,"▁amerikanischen":10254,"▁Then":10255,"▁are,":10256,"▁Stein":10257,"▁sole":10258,"▁indire":10259,"▁gram":10260,"▁vorbe":10261,"deckt":10262,"▁evidence":10263,"▁Com":10264,"▁besuch":10265,"▁Stimme":10266,"▁ausgesch":10267,"lern":10268,"▁manage":10269,"▁Hotel,":10270,"▁gewähl":10271,"iano":10272,"▁Irish":10273,"▁comments":10274,"▁fulfil":10275,"▁Dorf":10276,"▁Bern":10277,"▁Immobilien":10278,"aste":10279,"▁Super":10280,"▁place.":10281,"▁understanding":10282,"kte,":10283,"▁reducing":10284,"▁Kollegen,":10285,"▁announced":10286,"▁Unternehmen,":10287,"oram":10288,"▁Saint":10289,"▁propose":10290,"▁recognition":10291,"iesen,":10292,"▁Nahrungs":10293,"▁Achtung":10294,"ige,":10295,"cia":10296,"krieg":10297,"▁übernachten?":10298,"orient":10299,"▁persönlich":10300,"▁denke":10301,"▁Umfang":10302,"itze":10303,"▁Strom":10304,"▁AK":10305,"▁Hamburg":10306,"▁sand":10307,"▁rent":10308,"▁MP":10309,"▁shared":10310,"▁Resort":10311,"▁discussions":10312,"▁Kompet":10313,"gu":10314,"ünen":10315,"ranken":10316,"wechsel":10317,"▁truly":10318,"▁erforderlichen":10319,"C.":10320,"▁Wo":10321,"▁Jahrzehn":10322,"amente":10323,"▁Jetzt":10324,"istor":10325,"sehen":10326,"▁fields":10327,"▁danken,":10328,"▁satell":10329,"▁compla":10330,"▁erleich":10331,"les.":10332,"▁au":10333,"▁Finn":10334,"▁tragen":10335,"▁applies":10336,"aub":10337,"▁excess":10338,"▁bir":10339,"▁sollen.":10340,"▁sollten,":10341,"▁background":10342,"▁agenda":10343,"ris":10344,"▁mist":10345,"▁Hard":10346,"iam":10347,"stad":10348,"▁Aussicht":10349,"▁effektiv":10350,"▁ahead":10351,"▁verstehen":10352,"leitung":10353,"▁Vielzahl":10354,"▁OS":10355,"▁cur":10356,"icken":10357,"licherweise":10358,"▁quar":10359,"▁permit":10360,"ärm":10361,"▁purchase":10362,"▁adapt":10363,"▁Währungs":10364,"▁Apartments":10365,"▁screen":10366,"▁Due":10367,"▁Standards":10368,"▁availability":10369,"▁fisheries":10370,"▁Völker":10371,"▁Stärkung":10372,"▁entertain":10373,"▁duty":10374,"▁wall":10375,"ücke":10376,"▁formal":10377,"▁Kommission.":10378,"▁Element":10379,"▁Stellungnahme":10380,"▁Wald":10381,"▁dauer":10382,"▁trag":10383,"▁possibilities":10384,"wurf":10385,"che,":10386,"▁Berichterstatterin":10387,"▁berücksichtigt":10388,"gment":10389,"▁menu":10390,"▁victims":10391,"utin":10392,"▁Einigung":10393,"▁votes":10394,"▁one.":10395,"▁constit":10396,"zwischen":10397,"kan":10398,"igung,":10399,"▁games":10400,"▁jetz":10401,"enhagen":10402,"▁Sehr":10403,"▁(19":10404,"itious":10405,"▁konnten":10406,"▁enth":10407,"▁membership":10408,"door":10409,"itors":10410,"etter":10411,"▁einiger":10412,"▁umgesetzt":10413,"▁Office":10414,"▁Arbeiten":10415,"▁hingew":10416,"▁10.":10417,"▁cohesion":10418,"jo":10419,"▁aufmerksam":10420,"▁phone":10421,"▁level,":10422,"▁Wall":10423,"▁opinion,":10424,"▁Gleichzeitig":10425,"▁•":10426,"▁könnte.":10427,"▁calling":10428,"▁Schön":10429,"-J":10430,"▁Produktions":10431,"▁leben":10432,"▁spl":10433,"▁begann":10434,"ando":10435,"▁isol":10436,"▁reception":10437,"▁marketing":10438,"▁genieß":10439,"gestellt,":10440,"▁Gott":10441,"▁erzeug":10442,"▁industry.":10443,"▁Polize":10444,"▁Support":10445,"leid":10446,"▁monetary":10447,"▁Colle":10448,"▁fixed":10449,"▁miteinander":10450,"ennen.":10451,"▁(EN)":10452,"▁there,":10453,"▁today's":10454,"▁Work":10455,"▁Prime":10456,"gers":10457,"ombin":10458,"EO":10459,"▁Tourismus":10460,"opt":10461,"▁Name":10462,"▁übrigen":10463,"▁Land,":10464,"iscal":10465,"nach":10466,"attform":10467,"▁darüber,":10468,"▁Zuständ":10469,"▁Bedarf":10470,"▁otherwise":10471,"▁transition":10472,"re,":10473,"▁delic":10474,"▁evening":10475,"▁Wege":10476,"▁greatest":10477,"▁urban":10478,"▁äl":10479,"ier,":10480,"ologische":10481,"▁sn":10482,"iente":10483,"▁20%":10484,"aschine":10485,"asil":10486,"▁Typ":10487,"▁Sonnen":10488,"▁Gästebewertungen":10489,"arischen":10490,"zeichnete":10491,"▁expend":10492,"▁ST":10493,"▁intention":10494,"ounts":10495,"▁una":10496,"stelle":10497,"ils":10498,"▁Paket":10499,"▁Beach":10500,"▁generation":10501,"▁hinweisen,":10502,"▁entdeck":10503,"▁Vo":10504,"erechn":10505,"▁Dateien":10506,"mental":10507,"um.":10508,"▁Pa":10509,"scher":10510,"▁üb":10511,"▁Geist":10512,"▁attach":10513,"▁Funktionen":10514,"▁unabhängig":10515,"▁Fonds":10516,"▁Angaben":10517,"▁schaffen":10518,"▁connect":10519,"▁vernünft":10520,"▁Frankfurt":10521,"▁hilf":10522,"-sized":10523,"64":10524,"▁gering":10525,"▁genutzt":10526,"▁richtigen":10527,"waren":10528,"▁e.":10529,"riminierung":10530,"▁Anw":10531,"▁Wi":10532,"fs":10533,"▁unless":10534,"▁laws":10535,"rüst":10536,"▁Verletz":10537,"▁cities":10538,"▁Datei":10539,"▁Parlament,":10540,"▁allowing":10541,"▁niemand":10542,"▁erwartet":10543,"▁Main":10544,"▁again.":10545,"▁schönen":10546,"utch":10547,"▁door":10548,"▁treff":10549,"▁Titel":10550,"ilot":10551,"▁Lo":10552,"ireless":10553,"iertes":10554,"▁Ear":10555,"▁Datenbank":10556,"▁entitled":10557,".S.":10558,"band":10559,"erver":10560,"üll":10561,"▁introduce":10562,"▁Check":10563,"▁erfahren":10564,"▁benutzt":10565,"aken":10566,"▁Digital":10567,"▁Rand":10568,"▁enormous":10569,"mon":10570,"▁Apartment":10571,"▁installation":10572,"▁notwendig,":10573,"▁divid":10574,"▁gegenwärtig":10575,"chem":10576,"GO":10577,"▁enables":10578,"▁concrete":10579,"yle":10580,"▁so.":10581,"temporary":10582,"▁(DE)":10583,"ichert":10584,"▁religious":10585,"ny":10586,"▁Turkish":10587,"▁konstru":10588,"▁intervention":10589,"öss":10590,"genommen.":10591,"ühren":10592,");":10593,"▁Fel":10594,"▁conclusion":10595,"▁Mun":10596,"▁Maschinen":10597,"▁8.":10598,"▁Germany,":10599,"zt":10600,"▁vision":10601,"▁Webseite":10602,"▁square":10603,"▁möglich.":10604,"▁Breakfast":10605,"union":10606,"▁Berichte":10607,"▁Teilnehmer":10608,"▁Palestinian":10609,"▁genuine":10610,"▁harm":10611,"tzeit":10612,"jährigen":10613,"▁bemü":10614,"▁überall":10615,"▁Mik":10616,"▁conv":10617,"▁products,":10618,"▁vul":10619,"▁20.":10620,"▁adoption":10621,"▁Sonn":10622,"▁convention":10623,"▁Nether":10624,"▁Lesung":10625,"▁danach":10626,"▁definition":10627,"▁Rechnungs":10628,"▁Firstly,":10629,"▁kitchen":10630,"▁Os":10631,"▁Chanc":10632,"ägen":10633,"▁banks":10634,"▁Analyse":10635,"werke":10636,"▁format":10637,"istisch":10638,"▁rock":10639,"▁Straße":10640,"▁risks":10641,"▁weiterer":10642,"bere":10643,"▁ones":10644,"▁approxim":10645,"uche":10646,"▁Zugriff":10647,"▁Michael":10648,"▁Veränderungen":10649,"▁0.":10650,"▁komplett":10651,"raucher":10652,"▁surface":10653,"▁Forderung":10654,"▁businesses":10655,"tert":10656,"▁dient":10657,"500":10658,"▁asyl":10659,"▁kulturellen":10660,"▁signed":10661,"▁appears":10662,":0":10663,"▁prospect":10664,"▁Angesichts":10665,"▁Wand":10666,"▁Technologien":10667,"▁Seine":10668,"viel":10669,"ilst":10670,"▁Interess":10671,"▁folgen":10672,"▁morning":10673,"▁there.":10674,"▁aims":10675,"▁Regelung":10676,"▁Kommissions":10677,"▁possible,":10678,"asts":10679,"▁future,":10680,"▁THE":10681,"▁technologies":10682,"▁vorliegenden":10683,"UT":10684,"▁besteht,":10685,"-r":10686,"▁Verst":10687,"▁unf":10688,"▁Welt.":10689,"▁Globalisierung":10690,"▁�":10691,"▁then,":10692,"plätze":10693,"▁camera":10694,"▁Justiz":10695,"▁sämtliche":10696,"▁Idee":10697,"▁zeigen":10698,"▁keinerlei":10699,"▁African":10700,"▁ging":10701,"▁jour":10702,"ooth":10703,"▁hy":10704,"ängen":10705,"ora":10706,"theless,":10707,"▁kons":10708,"rägen":10709,"ördert":10710,"▁earth":10711,"▁Custom":10712,"▁Leistungen":10713,"reu":10714,"alys":10715,"▁Ros":10716,"arten,":10717,"▁Rec":10718,"orden":10719,"▁Live":10720,"▁ausges":10721,"▁attractive":10722,"▁Gerichtshof":10723,"▁grenzüber":10724,"▁Cub":10725,"▁liter":10726,"▁Rechnung":10727,"ala":10728,"▁coordination":10729,"atever":10730,"▁administration":10731,"▁Prioritäten":10732,"▁sell":10733,"▁http://":10734,"tern.":10735,"-year":10736,"▁all.":10737,"▁romant":10738,"tzentrum":10739,"▁dedicated":10740,"▁Wechsel":10741,"▁forced":10742,"ürk":10743,"▁Hinweis":10744,"▁theor":10745,"▁regionalen":10746,"▁Very":10747,"▁declar":10748,"▁closed":10749,"▁ök":10750,"ein,":10751,"▁waren.":10752,"person":10753,"▁führen,":10754,"ey":10755,"▁Kurs":10756,"▁Meiner":10757,"▁Forderungen":10758,"verkehrs":10759,"▁Pakistan":10760,"▁ID":10761,"▁expression":10762,"▁Mittelmeer":10763,"LAN":10764,"▁zentrale":10765,"▁100%":10766,"▁folgende":10767,"▁Beitritt":10768,"▁Messe":10769,"ounge":10770,"▁installed":10771,"▁raise":10772,"▁Initiativen":10773,"▁reliable":10774,"▁USB":10775,"he,":10776,"▁revolution":10777,"▁Kindern":10778,"gas":10779,"▁Reich":10780,"▁PDF":10781,"ieten,":10782,"▁Kontroll":10783,"▁haupts":10784,"▁CH":10785,"ines,":10786,"▁vermeid":10787,"▁totally":10788,"▁verantwortlich":10789,"quar":10790,"▁Syn":10791,"▁development,":10792,"▁einver":10793,"▁beschrän":10794,"▁debt":10795,"▁fordern":10796,"▁Mat":10797,"▁developments":10798,"▁picture":10799,"▁strongly":10800,"äden":10801,"▁tief":10802,"▁aufzu":10803,"▁Foreign":10804,"▁2009.":10805,"ue.":10806,"▁pure":10807,"gehen,":10808,"wohner":10809,"▁cheap":10810,"▁succeed":10811,"▁Federal":10812,"anlagen":10813,"▁diss":10814,"arr":10815,"es:":10816,"active":10817,"wirt":10818,"▁on.":10819,"▁problem.":10820,"▁Lizenz":10821,"▁rech":10822,"▁Erhö":10823,"▁befürwor":10824,"▁convinced":10825,"▁compared":10826,"▁Produkten":10827,"▁Urs":10828,"▁qualit":10829,"▁Mond":10830,"▁Another":10831,"▁informed":10832,"▁mm":10833,"ida":10834,"▁enh":10835,"▁motiv":10836,"aries":10837,"▁combined":10838,"▁accompan":10839,"▁Festival":10840,"▁born":10841,"▁heißt,":10842,"stücks":10843,"▁Control":10844,"▁beru":10845,"▁estate":10846,"▁collect":10847,"achtet":10848,"▁prison":10849,"▁französischen":10850,"▁Systeme":10851,"▁establishing":10852,"▁reforms":10853,"▁wirks":10854,"aby":10855,"aves":10856,"▁defined":10857,"mittag":10858,"▁Leistungs":10859,"▁currency":10860,"▁Austrian":10861,"▁magn":10862,"▁emissions":10863,"▁spent":10864,"ragen.":10865,"▁Ihnen,":10866,"▁10%":10867,"▁por":10868,"▁Back":10869,"▁größeren":10870,"▁biggest":10871,"▁höchste":10872,"▁Halb":10873,"▁described":10874,"brauch":10875,"▁reprodu":10876,"▁available.":10877,"di":10878,"▁mainten":10879,"▁genet":10880,"▁Third":10881,"▁Casino":10882,"▁diplomat":10883,"▁forth":10884,"▁guidelines":10885,"jekten":10886,"▁ausgestattet":10887,"▁science":10888,"fle":10889,"▁beinhal":10890,"▁diejenigen,":10891,"▁golf":10892,"arta":10893,"▁anyone":10894,"▁pour":10895,"▁ow":10896,"▁engl":10897,"▁entwickeln":10898,"▁gewinn":10899,"▁grunds":10900,"▁Croat":10901,"▁languages":10902,"▁veget":10903,"3)":10904,"A,":10905,"▁Eindruck":10906,"hörde":10907,"mas":10908,"ource":10909,"itzen":10910,"▁worldwide":10911,"onial":10912,"▁vereinbar":10913,"▁effectively":10914,"utor":10915,"▁Formen":10916,"▁China,":10917,"▁spezielle":10918,"▁zusätzlich":10919,"▁beige":10920,"omin":10921,"▁Gebrauch":10922,"▁closer":10923,"▁gegenwärtigen":10924,"▁Kandid":10925,"▁Rob":10926,"▁Bis":10927,"-Bahn":10928,"▁worden,":10929,"▁meant":10930,"x,":10931,"▁Verz":10932,"▁Mindest":10933,"▁verbundenen":10934,"▁law,":10935,"▁grundsätz":10936,"▁Hafen":10937,"istik":10938,"▁patent":10939,"iov":10940,"▁Beschreibung":10941,"▁enfor":10942,"prinzip":10943,"▁31":10944,"▁continued":10945,"▁dir":10946,"▁Überwachung":10947,"igsten":10948,"▁gratul":10949,"▁button":10950,"▁Van":10951,"▁freuen":10952,"▁para":10953,"atoren":10954,"▁abgest":10955,"▁disaster":10956,"▁>":10957,"▁optimal":10958,"▁wäre,":10959,"▁anbie":10960,"▁politischer":10961,"▁großes":10962,"▁schaffen.":10963,"▁priorities":10964,"▁Wien":10965,"▁PPE":10966,"▁Bewertung":10967,"▁fest,":10968,"istence":10969,"▁reasonable":10970,"▁verwenden":10971,"▁Tatsache":10972,"▁Reaktion":10973,"ile,":10974,"-Programm":10975,"afr":10976,"▁Heimat":10977,"athed":10978,"▁paper":10979,"▁gutes":10980,"▁Haut":10981,"▁average":10982,"▁day,":10983,"aming":10984,"▁internationaler":10985,"erei":10986,"▁Vertrie":10987,"▁grant":10988,"▁Special":10989,"▁tried":10990,"▁zerstör":10991,"▁beruf":10992,"▁herrsch":10993,"▁out,":10994,"ancial":10995,"partner":10996,"▁Head":10997,"▁begl":10998,"▁müs":10999,"▁legitim":11000,"▁drawn":11001,"-00":11002,"cap":11003,"▁sectors":11004,"roff":11005,"▁systems.":11006,"▁12.":11007,"stät":11008,"▁erf":11009,"▁functions":11010,"CD":11011,"▁steig":11012,"▁laid":11013,"▁vollkommen":11014,"▁Engl":11015,"▁Deutsche":11016,"▁Ans":11017,"ammer":11018,"▁command":11019,"▁gesehen":11020,"▁solcher":11021,"▁Stadtzentrum":11022,"▁Eastern":11023,"look":11024,"fordern":11025,"▁sogen":11026,"▁Constitution":11027,"▁Foto":11028,"▁Bol":11029,"ines.":11030,"▁unable":11031,"▁liber":11032,"▁seven":11033,"▁Opp":11034,"▁Association":11035,"▁Technik":11036,"ibrary":11037,"▁Fitness":11038,"▁Ganz":11039,"▁contex":11040,"▁regime":11041,"iothe":11042,"▁Beteiligung":11043,"▁wesentlichen":11044,"▁erinnern,":11045,"▁destroy":11046,"vorschlag":11047,":30":11048,"▁(z.":11049,"22":11050,"▁saw":11051,"erap":11052,"▁Grunde":11053,"▁Ansicht,":11054,"▁Quest":11055,"leun":11056,"▁Tit":11057,"▁Dollar":11058,"▁rob":11059,"▁neither":11060,"teten":11061,"▁families":11062,"äne":11063,"öse":11064,"▁geht.":11065,"▁Vermitt":11066,"▁Palace":11067,"spar":11068,"ago":11069,"▁Verteidigung":11070,"▁Dimension":11071,"▁guarantees":11072,"▁expos":11073,"▁gründ":11074,"bald":11075,"▁verbesser":11076,"▁näher":11077,"▁erlaubt":11078,"▁Sea":11079,"▁korre":11080,"▁corporate":11081,"▁beglückw":11082,"lösung":11083,"itts":11084,"▁Todes":11085,"üter":11086,"▁interface":11087,"ibliothe":11088,"anim":11089,"heits":11090,"flug":11091,"▁äuß":11092,"▁route":11093,"▁Brüssel":11094,"▁sicherzustellen,":11095,"▁Sen":11096,"▁ergänz":11097,"ösch":11098,"▁Gegensatz":11099,"jet":11100,"windigkeit":11101,"▁Instrumente":11102,"▁innovation":11103,"▁Relig":11104,"aria":11105,"▁honourable":11106,"▁umfassende":11107,"▁Länder,":11108,"▁Wiederauf":11109,"utr":11110,"▁Where":11111,"▁Report":11112,"preise":11113,"▁Institute":11114,"▁Universität":11115,"▁definit":11116,"▁AR":11117,"▁enor":11118,"▁Kohäs":11119,"ibet":11120,"▁continues":11121,"▁stable":11122,"▁Gut":11123,"assung":11124,"▁financing":11125,"▁registered":11126,"-Sterne":11127,"▁out.":11128,"▁Drogen":11129,"▁balcon":11130,"▁chemical":11131,"▁kos":11132,"▁process,":11133,"ives,":11134,"okraten":11135,"▁ambitious":11136,"▁jene":11137,"▁Sor":11138,"▁helfen,":11139,"▁Fire":11140,"▁verlei":11141,"UN":11142,"▁support.":11143,"▁Erhol":11144,"▁Tim":11145,"▁unterstütze":11146,"▁Alban":11147,"▁bound":11148,"▁Trek":11149,"▁nutzen,":11150,"▁fern":11151,"reb":11152,"▁sched":11153,"▁thinking":11154,"▁appeal":11155,"▁Einrichtungen":11156,"▁Abgeordnete":11157,"yright":11158,"▁Poker":11159,"▁Beschäftigungs":11160,"▁highlight":11161,"▁Risiko":11162,"▁cook":11163,"aller":11164,"uzz":11165,"▁ECU":11166,"▁ep":11167,"ensions":11168,"▁city.":11169,"uste":11170,"▁participate":11171,"▁Today":11172,"▁entspann":11173,"ists.":11174,"▁Banken":11175,"▁Data":11176,"▁Verständnis":11177,"▁Tisch":11178,"▁sicherstell":11179,"▁relaxing":11180,"▁Bestandteil":11181,"▁stellen,":11182,"▁zeigen,":11183,"▁achieving":11184,"iche":11185,"▁Auffassung":11186,"isierte":11187,"klang":11188,"ador":11189,"-spe":11190,"▁Caf":11191,"▁vert":11192,"▁room.":11193,"ista":11194,"▁möchte,":11195,"▁freie":11196,"▁Forum":11197,"▁kept":11198,"ua":11199,"▁#":11200,"umn":11201,"▁sagte,":11202,"▁Good":11203,"▁condemn":11204,"-200":11205,"▁Cam":11206,"▁Greek":11207,"▁correspond":11208,"▁White":11209,"▁Hersteller":11210,"▁Kirche":11211,"▁wirksam":11212,"hy":11213,"▁self-":11214,"▁daraus":11215,"▁Auffass":11216,"anische":11217,"▁SD":11218,"▁Press":11219,"S,":11220,"▁Entwicklungen":11221,"▁Pool":11222,"▁compr":11223,"est,":11224,"▁erfre":11225,"▁Sorge":11226,"▁Apparte":11227,"▁minute":11228,"▁Bevölker":11229,"▁Worte":11230,"▁Anlage":11231,"▁Texte":11232,"▁Po":11233,"▁distin":11234,"▁Beim":11235,"▁items":11236,"▁vergleich":11237,"ointed":11238,"▁Latin":11239,"bieter":11240,"▁Bahnhof":11241,"ic.":11242,"▁urgent":11243,"abilities":11244,"▁geöffnet":11245,"▁compat":11246,"itten,":11247,"▁unten":11248,"▁elected":11249,"sb":11250,"ido":11251,"▁thre":11252,"▁Fert":11253,"▁speziellen":11254,"▁Bedürfnisse":11255,"▁surrounded":11256,"knü":11257,"omas":11258,"▁hoffe":11259,"▁sorgen,":11260,"SL":11261,"▁equality":11262,"▁experts":11263,"▁explain":11264,"▁yesterday":11265,"▁angesprochen":11266,"▁Priorität":11267,"ekt":11268,"gefähr":11269,"▁umwelt":11270,"log":11271,"▁Reis":11272,"▁analy":11273,"ras":11274,"▁Rent":11275,"▁privile":11276,"uses":11277,"olge":11278,"▁benach":11279,"rollen":11280,"line.":11281,"▁Ireland":11282,"▁Gefühl":11283,"▁trading":11284,"▁einfache":11285,"▁Jac":11286,"▁Nachdem":11287,"▁geschie":11288,"▁Definition":11289,"▁independen":11290,"▁erneuer":11291,"▁ap":11292,"▁Lord":11293,"produktion":11294,"▁Summit":11295,"▁pred":11296,"▁now.":11297,"eind":11298,"ula":11299,"▁rasch":11300,"▁britischen":11301,"▁Peter":11302,"▁wealth":11303,"testen":11304,"▁Niveau":11305,"▁accessible":11306,"▁Media":11307,"ase.":11308,"izz":11309,"▁Meeres":11310,"▁Führung":11311,"▁Datenschutz":11312,"governmental":11313,"▁Feld":11314,"▁sources":11315,"▁wählen":11316,"▁drug":11317,"▁temper":11318,"▁physical":11319,"handlungen":11320,"▁differences":11321,"▁surv":11322,"▁Klim":11323,"▁infrastructure":11324,"▁burden":11325,"▁exklus":11326,"▁attend":11327,"ombination":11328,"▁problems.":11329,"schläge":11330,"▁Schwed":11331,"▁zuge":11332,"ibel":11333,"erma":11334,"▁Architektur":11335,"▁(PT)":11336,"▁Katastrop":11337,"▁Gebieten":11338,"tellect":11339,"▁quot":11340,"▁Max":11341,"it,":11342,"▁reject":11343,"▁Schm":11344,"▁gestimmt.":11345,"▁Phot":11346,"verein":11347,"aket":11348,"▁print":11349,"▁Slow":11350,"hebung":11351,"▁entstand":11352,"▁Monat":11353,"▁translation":11354,"▁sorgfält":11355,"▁medium-sized":11356,"ef":11357,"▁fiscal":11358,"▁Weitere":11359,"▁Nik":11360,"ennis":11361,"▁philosoph":11362,"overy":11363,"grün":11364,"▁1995":11365,"▁Cre":11366,"▁organisation":11367,"▁Nam":11368,"▁moving":11369,"stattung":11370,"▁subs":11371,"▁arrival":11372,"▁Liberalisierung":11373,"OD":11374,"▁balanced":11375,"▁glass":11376,"entin":11377,"▁alt":11378,"▁adap":11379,"▁sagte":11380,"▁Farb":11381,"▁Betriebs":11382,"▁Located":11383,"SQL":11384,"▁Gaz":11385,"▁überprüf":11386,"▁dé":11387,"▁na":11388,"▁Herren,":11389,"▁Partnerschaft":11390,"▁III":11391,"▁beantwor":11392,"version":11393,"▁mittl":11394,"▁Gent":11395,"▁2010.":11396,"▁Leistung":11397,"A)":11398,"▁rig":11399,"▁safeguard":11400,"▁wunderschö":11401,"▁Day":11402,"▁36":11403,"▁consens":11404,"▁...\"":11405,"▁guter":11406,"-4":11407,"▁außerord":11408,"▁merely":11409,"grade":11410,"▁erweiter":11411,"▁micro":11412,"ashion":11413,"▁underg":11414,"▁Lake":11415,"▁article":11416,"obility":11417,"▁manchmal":11418,"schlossen":11419,"▁Unfortunately,":11420,"▁Bar,":11421,"▁failure":11422,"▁türk":11423,"▁angeboten":11424,"sec":11425,"▁mittels":11426,"wagen":11427,"▁sam":11428,"uting":11429,"▁reve":11430,"enden,":11431,"▁appar":11432,"▁income":11433,"▁Zeiten":11434,"▁Gegenteil":11435,"▁dagegen":11436,"▁entschieden":11437,"▁coffee":11438,"▁communities":11439,"▁hauptsächlich":11440,"mach":11441,"▁Arbeitsmarkt":11442,"▁ideale":11443,"▁preserv":11444,"▁spricht":11445,"▁pension":11446,"▁ermö":11447,"▁Front":11448,"▁Grundrechte":11449,"▁dete":11450,"▁ausländ":11451,"▁allgemeine":11452,"▁justice":11453,"eller":11454,"ternen":11455,"▁carefully":11456,"▁pun":11457,"▁sobald":11458,"▁assum":11459,"▁perfectly":11460,"▁Arbeitslosigkeit":11461,"▁someone":11462,"▁constantly":11463,"▁unemployment":11464,"▁Abstimm":11465,"▁möglichen":11466,"▁\"In":11467,"▁Erwart":11468,"▁Mutter":11469,"▁animals":11470,"zil":11471,"▁consists":11472,"▁situation.":11473,"▁asking":11474,"▁prevention":11475,"▁failed":11476,"-of":11477,"▁Square":11478,"▁anti-":11479,"▁putting":11480,"▁participants":11481,"agen,":11482,"▁Andre":11483,"▁sensitive":11484,"▁statements":11485,"▁Zoll":11486,"uble":11487,"räum":11488,"▁Austria":11489,"▁dar,":11490,"▁Market":11491,"▁ermöglichen":11492,"▁core":11493,"▁MEP":11494,"ancing":11495,"\"...":11496,"mögen":11497,"▁Beob":11498,"▁ausgewogen":11499,"ktop":11500,"▁pill":11501,"▁closed.":11502,"odurch":11503,"▁vorgeschlagenen":11504,"▁approximately":11505,"▁swe":11506,"▁Station":11507,"▁bringing":11508,"▁voice":11509,"technik":11510,"▁gewiss":11511,"▁programs":11512,"▁association":11513,"▁but,":11514,"qualität":11515,"▁released":11516,"▁glad":11517,"▁Unabhängigkeit":11518,"▁betonen,":11519,"ence,":11520,"▁Überzeug":11521,"▁debate.":11522,"▁braucht":11523,"gypt":11524,"▁Häl":11525,"▁Jeder":11526,"tritt":11527,"prüft":11528,"▁Nevertheless,":11529,"▁Kopf":11530,"wachstum":11531,"▁'s":11532,"reif":11533,"▁trend":11534,"▁Pic":11535,"auso":11536,"▁18.":11537,"▁jüngsten":11538,"▁assign":11539,"▁massive":11540,"▁Entspann":11541,"▁Syr":11542,"jection":11543,"▁fraud":11544,"▁Blog":11545,"▁eg":11546,"▁langen":11547,"iking":11548,"orough":11549,"▁Both":11550,"▁Trade":11551,"▁difficulties":11552,"iquid":11553,"▁Frühstücks":11554,"▁EN":11555,"▁Patienten":11556,"aker":11557,"▁Austral":11558,"▁grie":11559,"▁cool":11560,"▁submit":11561,"▁spot":11562,"▁proportion":11563,"▁nehmen.":11564,"▁norm":11565,"rier":11566,"▁blog":11567,"vereign":11568,"▁pointed":11569,"▁Vom":11570,"▁count":11571,"▁hands":11572,"▁areas,":11573,"▁sovereign":11574,"▁starke":11575,"▁Absicht":11576,"▁erzielt":11577,"▁Balkan":11578,"▁bestell":11579,"▁numbers":11580,"▁resulting":11581,"iefer":11582,"▁9.":11583,"▁Martin":11584,"gestellten":11585,"▁diesel":11586,"▁responsibilities":11587,"▁continuing":11588,"▁Ruhe":11589,"▁politisch":11590,"fung":11591,"▁Roll":11592,"▁Sur":11593,"▁Chem":11594,"▁Hauses":11595,"▁zurückge":11596,"▁hall":11597,"rahmen":11598,"▁id":11599,"▁Temp":11600,"▁Rumän":11601,"▁slight":11602,"▁Those":11603,"▁Enjoy":11604,"▁zugleich":11605,"▁herzlich":11606,"▁Sä":11607,"▁schöne":11608,"body":11609,"▁Eben":11610,"-Str":11611,"▁Los":11612,"▁Presse":11613,"▁you'll":11614,"]].":11615,"▁geworden":11616,"▁sector,":11617,"▁Ausführ":11618,"▁u":11619,"▁berecht":11620,"▁Militär":11621,"▁beob":11622,"▁250":11623,"▁conclude":11624,"▁betroffenen":11625,"▁wodurch":11626,"▁afford":11627,"ng":11628,"irk":11629,"▁medizin":11630,"schiede":11631,"▁contained":11632,"TP":11633,"▁bio":11634,"▁bereit,":11635,"▁Schne":11636,"▁outstanding":11637,"▁Pop":11638,"▁retain":11639,"▁booking":11640,"▁candidate":11641,"▁h.":11642,"▁properly":11643,"▁dig":11644,"▁Sun":11645,"▁4,":11646,"▁master":11647,"▁components":11648,"lichem":11649,"▁secret":11650,"ase,":11651,"▁Merk":11652,"▁(IT":11653,"▁rightly":11654,"▁vieler":11655,"▁luxury":11656,"▁JavaS":11657,"▁contemporary":11658,"▁re-":11659,"▁Repr":11660,"▁abst":11661,"▁Jo":11662,"▁prüf":11663,"▁terrace":11664,"▁genü":11665,"▁Mitglieds":11666,"▁Künstler":11667,"richtlinie":11668,"▁Links":11669,"▁gemeinschaft":11670,"▁Gesam":11671,"▁lov":11672,"▁Niederland":11673,"▁fuel":11674,"▁toler":11675,"2010":11676,"▁Maße":11677,"▁Chamber":11678,"▁charged":11679,"▁(The":11680,"▁sem":11681,"▁Revolution":11682,"▁speaking":11683,"▁Cypr":11684,"▁erklärt":11685,"▁stamm":11686,"pal":11687,"▁borders":11688,"▁Studio":11689,"E,":11690,"▁Eth":11691,"án":11692,"▁Beweis":11693,"▁capt":11694,"UM":11695,"ée":11696,"ime,":11697,"▁Today,":11698,"räft":11699,"▁persönliche":11700,"▁Teilnahme":11701,"▁Klimaanlage":11702,"reitung":11703,"▁Prakt":11704,"▁Koordinierung":11705,"▁Regulation":11706,"▁passed":11707,"▁verbessern.":11708,"▁Erklärungen":11709,"▁Diskriminierung":11710,"▁breakf":11711,"▁strengthening":11712,"üß":11713,"ellos":11714,"▁Zentralbank":11715,"▁nearly":11716,"▁Budget":11717,"▁therm":11718,"ura":11719,"olo":11720,"▁geword":11721,"▁leads":11722,"▁incorpor":11723,"▁beha":11724,"▁capable":11725,"▁jungen":11726,"sichts":11727,"▁Ve":11728,"▁Wür":11729,"▁chosen":11730,"▁Journal":11731,"information":11732,"▁echte":11733,"▁Pin":11734,"lossen,":11735,"▁School":11736,"▁einzus":11737,"▁Autor":11738,"▁dritten":11739,"▁Jose":11740,"▁wichtigste":11741,"==":11742,"entscheid":11743,"▁Weiß":11744,"▁Streit":11745,"▁2009,":11746,"▁Zuf":11747,"▁angep":11748,"▁authority":11749,"▁organised":11750,"elt.":11751,"ries":11752,"▁Bosn":11753,"bu":11754,"▁BM":11755,"▁amt":11756,"▁Fax":11757,"racht,":11758,"▁extended":11759,"▁Admin":11760,"▁Welche":11761,"▁Internationalen":11762,"▁vorbereit":11763,"▁password":11764,"75":11765,"stat":11766,"glieder":11767,"teilen":11768,"do":11769,"▁Telefon":11770,"▁Beschluss":11771,"▁Dort":11772,"▁Angriff":11773,"▁Schwar":11774,"▁waiting":11775,"▁Kaffe":11776,"▁attemp":11777,"ungsk":11778,"üssen":11779,"mlich":11780,"▁gut,":11781,"▁bestimmt":11782,"verbind":11783,"inning":11784,"▁Herren":11785,"-Kon":11786,"arbeiten,":11787,"haben":11788,"ausende":11789,"▁brings":11790,"umer":11791,"▁einzigen":11792,"▁requested":11793,"airs,":11794,"lete":11795,"▁Democrats":11796,"ieb":11797,"▁grammat":11798,"▁nar":11799,"▁seeking":11800,"▁verbessert":11801,"▁Erhöhung":11802,"losen":11803,"gänglich":11804,"▁Ebenso":11805,"▁Märkte":11806,"▁me,":11807,"▁Publik":11808,"ungsbereich":11809,"▁nachhaltige":11810,"meister":11811,"▁Nichtraucher":11812,"▁praktisch":11813,"gin":11814,"▁truth":11815,"▁parallel":11816,"▁Island":11817,"▁Europäer":11818,"▁gesetzt":11819,"▁lau":11820,"▁Ferienwohn":11821,"zig":11822,"istungs":11823,"äufer":11824,"▁zunehmend":11825,"▁asylum":11826,"management":11827,"▁vulner":11828,"▁Anlagen":11829,"ipping":11830,"▁southern":11831,"▁exercise":11832,"▁Dutch":11833,"▁Laufe":11834,"-Fraktion.":11835,"▁liability":11836,"uj":11837,"▁Regelungen":11838,"den,":11839,"ía":11840,"ipe":11841,"▁seitens":11842,"▁happened":11843,"▁consolid":11844,"▁claims":11845,"▁maxim":11846,"▁consideration":11847,"otenzial":11848,"lev":11849,"arbeiten.":11850,"▁Nutzer":11851,"▁Sud":11852,"▁acht":11853,"▁cult":11854,"▁multiple":11855,"▁withdraw":11856,"▁ma":11857,"▁Studien":11858,"uver":11859,"▁grenzüberschreit":11860,"▁hum":11861,"▁taste":11862,"setzen":11863,"▁ignor":11864,"▁explan":11865,"äten":11866,"▁bon":11867,"▁EP":11868,"▁Kor":11869,"OP":11870,"▁Via":11871,"▁fro":11872,"▁vide":11873,"▁Rich":11874,"▁Bill":11875,"▁themselv":11876,"▁qualifiz":11877,"CC":11878,"▁pick":11879,"▁Akte":11880,"▁Thanks":11881,"▁inhab":11882,"▁respekt":11883,"▁sieben":11884,"▁190":11885,"▁labor":11886,"verw":11887,"▁owners":11888,"▁Herausforderung":11889,"rant":11890,"▁database":11891,"Innen":11892,"▁п":11893,"edon":11894,"afft":11895,"▁reinfor":11896,"▁Royal":11897,"▁vielfält":11898,"▁vorgelegt":11899,"▁lag":11900,"issens":11901,"▁heat":11902,"▁dynamic":11903,"▁Belarus":11904,"▁Old":11905,"▁disch":11906,"▁{{":11907,"▁Problemen":11908,"▁eingesetz":11909,"▁contextual":11910,"▁immigration":11911,"▁Treffen":11912,"▁obviously":11913,"▁Kontin":11914,"▁sollen,":11915,"▁nationaler":11916,"▁besseren":11917,"/A":11918,"fest":11919,"▁regelmäßig":11920,"▁wishes":11921,"linge":11922,"▁remove":11923,"-how":11924,"▁trägt":11925,"▁Städte":11926,"▁primary":11927,"▁concep":11928,"werten":11929,"▁granted":11930,"▁ung":11931,"35":11932,"▁Rund":11933,"ova":11934,"▁Aufgrund":11935,"▁jen":11936,"▁Champ":11937,"fel":11938,"▁erg":11939,"▁Übern":11940,"stands":11941,"▁aktual":11942,"▁studies":11943,"▁Ideen":11944,"ufe":11945,"▁Graf":11946,"▁gewesen":11947,"ohann":11948,"herr":11949,"▁Two":11950,"▁Welt,":11951,"▁authent":11952,"▁Tai":11953,"▁kontext":11954,"▁verteid":11955,"zeß":11956,"unehmen,":11957,"▁Dublin":11958,"▁Großbritannien":11959,"▁names":11960,"▁sehen.":11961,"45":11962,"▁Jahrhunderts":11963,"▁Hälfte":11964,"aktionen":11965,"-cl":11966,"enntnisse":11967,"▁memor":11968,"▁Kooperation":11969,"▁klicken":11970,"▁ausreichend":11971,"▁Ban":11972,"decken":11973,"▁Besitz":11974,"karten":11975,"▁traditionellen":11976,"tellectual":11977,"phrase":11978,"▁emphasis":11979,"▁journal":11980,"rokrat":11981,"verse":11982,"▁presidency":11983,"yer":11984,"ending":11985,"▁arbeitet":11986,"▁write":11987,"▁Konk":11988,"atlant":11989,"▁fif":11990,"schätz":11991,"iform":11992,"iques":11993,"▁Wirt":11994,"selben":11995,"▁sinnvoll":11996,"racht.":11997,"▁Freizeit":11998,"▁Rules":11999,"endet":12000,"weisen.":12001,"▁terrorism":12002,"▁Sehenswürdigkeiten":12003,"▁Elemente":12004,"▁Hor":12005,"▁stands":12006,"quir":12007,"▁thereby":12008,"▁Financial":12009,"ague":12010,"▁deutsche":12011,"▁Berücksichtig":12012,"▁fried":12013,"▁habe.":12014,"kar":12015,"▁Verhältnis":12016,"▁meters":12017,"▁Mach":12018,"▁(v":12019,"▁diesbe":12020,"▁stehen,":12021,"▁Kategor":12022,"▁U.S.":12023,"ator,":12024,"embly":12025,"▁mutual":12026,"▁die,":12027,"▁Rem":12028,"▁Stück":12029,"▁48":12030,"uden":12031,"▁15.":12032,"▁Provin":12033,"▁Überprüfung":12034,"▁cle":12035,"comm":12036,"▁hyd":12037,"▁damals":12038,"▁Class":12039,"▁letter":12040,"▁Fotos":12041,"▁globale":12042,"▁Justice":12043,"▁Größe":12044,"olz":12045,"▁weiteres":12046,"▁ländlichen":12047,"▁sale":12048,"istenz":12049,"▁sorgen":12050,"▁Autob":12051,"▁Fortschritt":12052,"▁erfüllt":12053,"▁storage":12054,"▁Dach":12055,"▁hoffen,":12056,"▁voc":12057,"▁Kommissarin,":12058,"▁lern":12059,"▁amongst":12060,"▁Anpassung":12061,"▁kürzlich":12062,"▁einzelne":12063,"▁prepare":12064,"▁Veröffentlich":12065,"schirm":12066,"▁kost":12067,"▁Formular":12068,"▁klar,":12069,"▁changing":12070,"▁primarily":12071,"▁Rotary":12072,"▁Prüfung":12073,"▁Schif":12074,"handels":12075,"▁Vision":12076,"▁sprach":12077,"▁operations":12078,"▁17.":12079,"▁turned":12080,"▁Karten":12081,"▁society.":12082,"▁hatte.":12083,"mutz":12084,"▁Zweifel":12085,"rd":12086,"rot":12087,"▁Sek":12088,"▁Presiden":12089,"▁issues.":12090,"ler,":12091,"s)":12092,"▁Church":12093,"▁Teilen":12094,"▁technological":12095,"▁Tom":12096,"inde":12097,"ist.":12098,"trib":12099,"▁Flash":12100,"▁Riv":12101,"▁800":12102,"▁Gewinn":12103,"▁tourism":12104,"▁gespe":12105,"-Mitglied":12106,"▁satellite":12107,"▁service,":12108,"▁Que":12109,"artner":12110,"▁smaller":12111,"▁snow":12112,"ädt":12113,"▁unanim":12114,"▁Einklang":12115,"füllen":12116,"▁dealt":12117,"▁onto":12118,"▁Marken":12119,"▁AB":12120,"ermaßen":12121,"▁eight":12122,"▁Kong":12123,"abled":12124,"▁wait":12125,"▁Bio":12126,"▁alone":12127,"▁Unterkunft":12128,"▁territorial":12129,"▁dazu,":12130,"▁dur":12131,"▁5,":12132,"▁writing":12133,"▁qualified":12134,"▁griech":12135,"▁bran":12136,"▁selten":12137,"▁demokratische":12138,"▁Despite":12139,"▁systemat":12140,"▁imper":12141,"▁vielmehr":12142,"▁buildings":12143,"▁Irland":12144,"▁erw":12145,"▁Voraussetzungen":12146,"▁Follow":12147,"▁berühmten":12148,"▁OF":12149,"licit":12150,"▁update":12151,"▁i.":12152,"icon":12153,"▁Empfehlungen":12154,"▁(IT)":12155,"▁Jes":12156,"▁insurance":12157,"▁positions":12158,"▁inspir":12159,"ulated":12160,"▁Express":12161,"table":12162,"▁union":12163,"▁switch":12164,"endung":12165,"a\"":12166,"▁industry,":12167,"www.":12168,"unsten":12169,"▁leadership":12170,"▁gesellschaft":12171,"▁Sound":12172,"▁grand":12173,"rance":12174,"grundlage":12175,"▁Stunde":12176,"▁kleiner":12177,"▁junge":12178,"▁positiven":12179,"▁bureau":12180,"kreis":12181,"ringen":12182,"▁verbessern":12183,"hle":12184,"▁führenden":12185,"▁bleiben.":12186,"▁TV,":12187,"▁schneller":12188,"▁exceed":12189,"▁erscheint":12190,"altet":12191,"▁Kommissarin":12192,"▁Unterschied":12193,"splan":12194,"▁Schlusselwortern":12195,"kräfte":12196,"oot":12197,"▁blood":12198,"▁band":12199,"▁A3":12200,"▁finding":12201,"▁parad":12202,"▁Beihilfen":12203,"▁beauty":12204,"gelt":12205,"▁Fahrzeug":12206,"▁urge":12207,"▁Schlusselwortern,":12208,"▁Sein":12209,"▁Foundation":12210,"gien":12211,"▁leisten":12212,"äger":12213,"▁geänder":12214,"▁verk":12215,"▁Johann":12216,"▁festgelegt":12217,"▁component":12218,"ican":12219,"reiben.":12220,"▁named":12221,"DR":12222,"kor":12223,"iode":12224,"▁reason,":12225,"▁Anwendungen":12226,"▁systems,":12227,"▁zuverläss":12228,"▁Zahlungs":12229,"▁David":12230,"▁nötig":12231,"▁Germany.":12232,"▁Telef":12233,"▁rejected":12234,"▁120":12235,"▁Verfügbarkeit":12236,"▁Patent":12237,"öger":12238,"▁driving":12239,"86":12240,"bindung":12241,"▁Betr":12242,"▁bedarf":12243,"▁0,":12244,"ärkte":12245,"ategory":12246,"orgnis":12247,"▁ehemaligen":12248,"esign":12249,"▁schn":12250,"▁Mitteln":12251,"▁1980":12252,"▁president":12253,"▁completed":12254,"▁Freude":12255,"▁successfully":12256,"▁höchst":12257,"▁meist":12258,"cast":12259,"els,":12260,"▁nearby":12261,"▁Arm":12262,"▁Lou":12263,"▁Mitgliedern":12264,"▁country's":12265,"▁genannt":12266,"▁sprechen,":12267,"▁others.":12268,"itar":12269,"▁lock":12270,"ically,":12271,"▁dimension":12272,"▁Dadurch":12273,"▁Maria":12274,"-Be":12275,"ungsverfahren":12276,"▁würden.":12277,"äfen":12278,"got":12279,"▁Fac":12280,"▁Verk":12281,"▁discussing":12282,"▁earn":12283,"▁Director":12284,"▁Brazil":12285,"▁verbreit":12286,"-border":12287,"▁Aktionen":12288,"▁guide":12289,"▁Experten":12290,"▁Schaden":12291,"▁hervorge":12292,"▁derzeitigen":12293,"▁learning":12294,"▁Ep":12295,"endum":12296,"▁Vorbereitung":12297,"I)":12298,"l.":12299,"oler":12300,"▁Jean":12301,"▁ultim":12302,"vak":12303,"▁Bedro":12304,"▁Freunde":12305,"adow":12306,"▁Jack":12307,"▁Berücksichtigung":12308,"▁Know":12309,"▁finish":12310,"▁Wirkung":12311,"ington":12312,"▁finance":12313,"▁achievement":12314,"▁entre":12315,"▁2008.":12316,"▁Süden":12317,"▁verwe":12318,"▁gewisse":12319,"▁horiz":12320,"▁Munich":12321,"▁Programms":12322,"▁Mas":12323,"▁chain":12324,"▁Grad":12325,"▁GM":12326,"▁Rezept":12327,"mechan":12328,"▁weg":12329,"ours":12330,"▁penalt":12331,"▁Balt":12332,"utre":12333,"▁läuf":12334,"▁Präs":12335,"like":12336,"▁Roh":12337,"-the":12338,"kunfts":12339,"berecht":12340,"AB":12341,"netz":12342,"▁überzeugt,":12343,"▁instru":12344,"▁organization":12345,"▁Satell":12346,"▁Premier":12347,"TER":12348,"wood":12349,"▁Gener":12350,"vely":12351,"lair":12352,"elm":12353,"▁600":12354,"▁landwirtschaft":12355,"fers":12356,"fare":12357,"▁Kunde":12358,"ktivität":12359,"▁birth":12360,"▁Restaurant,":12361,"▁itself.":12362,"▁Botschaft":12363,"ст":12364,"▁crime":12365,"▁Afrika":12366,"ablen":12367,"▁Ereignisse":12368,"▁advertising":12369,"▁buffet":12370,"▁Win":12371,"▁sod":12372,"zust":12373,"▁Kombination":12374,"▁also,":12375,"▁models":12376,"▁Street":12377,"▁helping":12378,"▁EG":12379,"▁Export":12380,"▁configur":12381,"▁Before":12382,"▁Schwerpunkt":12383,"essor":12384,"▁Marketing":12385,"▁Kreat":12386,"▁welchen":12387,"ausschusses":12388,"▁lesen":12389,"oster":12390,"▁Phase":12391,"▁representative":12392,"▁Direkt":12393,"SC":12394,"ansion":12395,"▁question.":12396,"werb":12397,"▁engag":12398,"new":12399,"▁Glas":12400,"▁Holl":12401,"issionen":12402,"▁extreme":12403,"▁site.":12404,"▁volle":12405,"▁Wegen":12406,"▁outdoor":12407,"rist":12408,"-Ab":12409,"▁economy.":12410,"▁aktuell":12411,"uropäischen":12412,"▁Rub":12413,"▁16.":12414,"-Date":12415,"▁Company":12416,"heber":12417,"▁title":12418,"entwurf":12419,"▁below.":12420,"ics,":12421,"▁adequate":12422,"ayer":12423,"theit":12424,"going":12425,"▁subsidiar":12426,"▁courses":12427,"geiz":12428,"▁verf":12429,"▁transform":12430,"cluding":12431,"▁reviews.":12432,"▁Komment":12433,"▁bitten,":12434,"▁Angel":12435,"▁konkreten":12436,"▁übrig":12437,"▁Show":12438,"▁Vielleicht":12439,"▁Griechenland":12440,"▁sleep":12441,"gro":12442,"▁bilden":12443,"▁durchführ":12444,"▁spa":12445,"▁needs.":12446,"▁treffen":12447,"▁Zul":12448,"▁Registr":12449,"okument":12450,"▁wiederum":12451,"▁Zahlen":12452,"ors.":12453,"sph":12454,"▁fallen":12455,"▁vess":12456,"▁spending":12457,"systeme":12458,"▁suchen":12459,"▁erforderlich,":12460,"jährige":12461,"▁Prom":12462,"am,":12463,"▁Erwä":12464,"har":12465,"rest":12466,"▁13.":12467,"▁Herk":12468,"▁Geschäftsordnung":12469,"itime":12470,"▁Take":12471,"▁meetings":12472,"▁represen":12473,"züg":12474,"▁keines":12475,"▁houses":12476,"▁p.m.":12477,"▁figures":12478,"erry":12479,"iè":12480,"▁entlang":12481,"▁wild":12482,"▁fed":12483,"▁Hong":12484,"▁Fer":12485,"istry":12486,"▁co-":12487,"▁marked":12488,"▁kompliz":12489,"▁store":12490,"▁output":12491,"▁laut":12492,"▁moved":12493,"▁individuell":12494,"▁andererseits":12495,"termine":12496,"▁furnished":12497,"▁impl":12498,"-out":12499,"ema":12500,"▁Verpflichtung":12501,"▁fantastic":12502,"▁Austausch":12503,"ime.":12504,"▁conclusions":12505,"▁Gesetzgebung":12506,"km":12507,"▁Europa.":12508,"▁Karl":12509,"▁resolve":12510,"▁jemand":12511,"-I":12512,"▁Verbesser":12513,"sparte":12514,"▁rot":12515,"▁(9":12516,"▁Il":12517,"▁practices":12518,"▁kinds":12519,"▁schwierig":12520,"▁adj":12521,"▁Ta":12522,"▁sights":12523,"▁nochmals":12524,"▁feeling":12525,"x.":12526,"▁Master":12527,"▁audio":12528,"▁relatively":12529,"▁maintenance":12530,"▁dict":12531,"▁beiz":12532,"▁Fraktionen":12533,"▁Morgen":12534,"▁proud":12535,"▁Maßnahmen,":12536,"▁zeich":12537,"▁memory":12538,"isch.":12539,"▁river":12540,"ady":12541,"bahnhof":12542,"▁Hauptstadt":12543,"▁starken":12544,"▁vehicles":12545,"lichen,":12546,"▁hair":12547,"▁trial":12548,"owned":12549,"oftware":12550,"▁dog":12551,"▁fahren":12552,"ennung":12553,"▁unters":12554,"▁deiner":12555,"▁producers":12556,"V.":12557,"▁offensichtlich":12558,"▁diverse":12559,"▁Ton":12560,"▁reven":12561,"▁Haup":12562,"▁USA,":12563,"▁fördern.":12564,"▁pap":12565,"▁Fischer":12566,"ause,":12567,"▁steht.":12568,"▁fördern":12569,"▁reicht":12570,"▁Rock":12571,"▁reservation":12572,"▁seriously":12573,"▁plug":12574,"▁()":12575,"▁spezial":12576,"▁blue":12577,"▁latter":12578,"▁trotzdem":12579,"4)":12580,"vol":12581,"▁Valle":12582,"cont":12583,"▁Action":12584,"▁machines":12585,"▁appreciate":12586,"▁Alter":12587,"▁heavy":12588,"/C":12589,"rasch":12590,"▁Dafür":12591,"ört":12592,"▁Zusatz":12593,"nt":12594,"▁depart":12595,"▁Var":12596,"ifall":12597,"▁liefern":12598,"▁geist":12599,"▁copy":12600,"▁Genehm":12601,"▁Gästen":12602,"agt":12603,"▁halten.":12604,"▁begrüßen":12605,"▁Friedens":12606,"▁PR":12607,"▁Luf":12608,"▁Bör":12609,"▁fand":12610,"▁gepr":12611,"▁operate":12612,"iating":12613,"▁wähl":12614,"▁Risiken":12615,"▁geeignet":12616,"▁discharge":12617,"gese":12618,"enter":12619,"▁cold":12620,"▁House,":12621,"▁hoher":12622,"▁weight":12623,"▁causes":12624,"▁whatever":12625,"▁(5":12626,"▁decision-m":12627,"ettbewerbs":12628,"▁)":12629,"▁manufacturing":12630,"▁beginnt":12631,"atr":12632,"asse,":12633,"▁ziemlich":12634,"def":12635,"▁Franc":12636,"▁proposal.":12637,"▁centre.":12638,"▁crisis.":12639,"▁landscape":12640,"▁Küste":12641,"▁circumstances":12642,"▁repor":12643,"▁Spann":12644,"▁Aufgab":12645,"icherungs":12646,"▁Ziel,":12647,"▁Polen":12648,"▁versucht,":12649,"▁determined":12650,"car":12651,"▁falsch":12652,"▁story":12653,"▁Ausnahme":12654,"▁enterprises":12655,"▁whe":12656,"▁safet":12657,"▁packages":12658,"▁wollte":12659,"▁keeping":12660,"lechter":12661,"▁Hans":12662,"▁peop":12663,"versorgung":12664,"bestimm":12665,"▁point,":12666,"▁ziehen":12667,"ränkungen":12668,"▁Disc":12669,"▁Offen":12670,"▁obst":12671,"▁sets":12672,"▁od":12673,"▁temperature":12674,"uv":12675,"▁fill":12676,"füllung":12677,"▁Az":12678,"▁Turn":12679,"▁Exec":12680,"▁und/":12681,"urm":12682,"▁covers":12683,"▁Effizienz":12684,"▁User":12685,"▁Büro":12686,"▁Flexibilität":12687,"▁u.a.":12688,"region":12689,"▁Risik":12690,"beziehung":12691,"▁maß":12692,"▁Law":12693,"real":12694,"▁außergewöhn":12695,"itory":12696,"ismen":12697,"▁lös":12698,"▁helps":12699,"▁respective":12700,"ér":12701,"▁partn":12702,"▁others,":12703,"k.":12704,"▁wichtiges":12705,"▁Umweltschutz":12706,"▁anschließ":12707,"▁recognise":12708,"▁Amts":12709,"▁religi":12710,"▁cross-border":12711,"▁repeated":12712,"▁outcome":12713,"asten":12714,"▁corrupt":12715,"▁(I":12716,"lebnis":12717,"leisten,":12718,"▁delivered":12719,"imp":12720,"▁Männer":12721,"▁bodies":12722,"▁könnten.":12723,"▁Konsequ":12724,"kop":12725,"▁complic":12726,"▁zurück.":12727,"iest":12728,"27":12729,"▁beweg":12730,"▁comply":12731,"▁Umständen":12732,"▁regionale":12733,"▁(m":12734,"▁Profession":12735,"lause":12736,"▁Ländern,":12737,"▁crisis,":12738,"▁Malt":12739,"▁spielt":12740,"▁you're":12741,"▁dry":12742,"▁Häus":12743,"▁advance":12744,"▁corner":12745,"▁Obama":12746,"▁höhere":12747,"abling":12748,"▁eröffnet":12749,"▁genauso":12750,"▁district":12751,"▁Charter":12752,"▁Set":12753,"folgerungen":12754,"▁Yet":12755,"ierend":12756,"▁veränder":12757,"▁Touristen":12758,"V)":12759,"▁cloth":12760,"▁gewährleistet":12761,"ampagne":12762,"uy":12763,"▁thorough":12764,"allery":12765,"▁Grenze":12766,"ziehen":12767,"zahlung":12768,"▁Kranken":12769,"▁alter":12770,"▁structures":12771,"wareness":12772,"▁tasks":12773,"▁1000":12774,"▁Fremden":12775,"▁conditions.":12776,"▁erb":12777,"▁kommun":12778,"▁involving":12779,"▁Skype":12780,"▁italienischen":12781,"▁straight":12782,"hard":12783,"▁ye":12784,"unf":12785,"▁Korr":12786,"trächt":12787,"▁vast":12788,"▁Eisenbahn":12789,"vec":12790,"▁Altstadt":12791,"▁spectac":12792,"▁sicht":12793,"ary.":12794,"▁könnte,":12795,"▁previously":12796,"▁gül":12797,"▁vehicle":12798,"▁geleistet":12799,",00":12800,"▁gather":12801,"▁Burg":12802,"▁Baum":12803,"▁Cook":12804,"reiben,":12805,"▁planned":12806,"zin":12807,"▁criticism":12808,"nes":12809,"▁Pay":12810,"▁Gesicht":12811,"straße":12812,"▁Gästebewertungen.":12813,"▁weather":12814,"▁director":12815,"wegs":12816,"▁(s)":12817,"/S":12818,"▁zugänglich":12819,"▁umzus":12820,"▁action.":12821,"▁away.":12822,"▁Norden":12823,"▁sage":12824,"▁Indien":12825,"▁whilst":12826,"▁umfassenden":12827,"▁Refer":12828,"▁Monte":12829,"▁bekannten":12830,"▁unmittelbar":12831,"▁breat":12832,"utter":12833,"▁Termin":12834,"▁Temperatur":12835,"▁France,":12836,"▁charming":12837,"▁garantiert":12838,"ão":12839,"▁contents":12840,"EF":12841,"▁networks":12842,"▁Willen":12843,"▁Ferner":12844,"▁intellectual":12845,"usal":12846,"▁environment,":12847,"▁older":12848,"▁threaten":12849,"▁compliance":12850,"MS":12851,"oten.":12852,"lieb":12853,"▁gewährleisten,":12854,"▁util":12855,"▁koordin":12856,"▁matter.":12857,"▁a.":12858,"▁mobility":12859,"▁Alliance":12860,"▁ausgewähl":12861,"▁weltweiten":12862,"▁nehmen,":12863,"▁Wirtschafts-":12864,"▁minim":12865,"▁ca":12866,"▁hält":12867,"▁Realität":12868,"oke":12869,"▁conserv":12870,"▁flight":12871,"tragen.":12872,"▁Expl":12873,"▁und/oder":12874,"TE":12875,"▁kü":12876,"▁Recht,":12877,"▁Tax":12878,"▁Ungleich":12879,"▁attitude":12880,"26":12881,"▁notice":12882,"▁versucht":12883,"▁kurzem":12884,"▁relev":12885,"betrieb":12886,"▁Swedish":12887,"laufen":12888,"it.":12889,"itionen":12890,"▁Fluss":12891,"lagen.":12892,"▁solve":12893,"▁zusätzlichen":12894,"itage":12895,"▁MySQL":12896,"▁künftig":12897,"▁licens":12898,"'ll":12899,"▁residence":12900,"▁Britain":12901,"▁impression":12902,"▁girl":12903,"▁Award":12904,"▁dramat":12905,"▁Use":12906,"aschen":12907,"▁acts":12908,"▁1994":12909,"▁place,":12910,"▁historische":12911,"▁court":12912,"▁Vir":12913,"▁alarm":12914,"▁Heiz":12915,"▁nutzen.":12916,"▁Detail":12917,"▁Sens":12918,"▁Welcome":12919,"▁2011":12920,"▁Original":12921,"33":12922,"▁familiar":12923,"▁entered":12924,"▁Grupp":12925,"▁Gebiete":12926,"▁münd":12927,"▁favor":12928,"▁Wirklichkeit":12929,"dis":12930,"▁Mittelpunkt":12931,"▁Ren":12932,"▁dans":12933,"▁Liebe":12934,"▁ta":12935,"▁sofern":12936,"▁rare":12937,"▁felt":12938,"ubau":12939,"icking":12940,"▁grundlegenden":12941,"▁recommendations":12942,"%,":12943,"▁Hü":12944,"▁Manager":12945,"s.com":12946,"▁treated":12947,"ved,":12948,"fahren.":12949,"anges":12950,"äußer":12951,"▁Kann":12952,"▁Umgang":12953,"▁abgelehn":12954,"▁Proced":12955,"▁involvement":12956,"▁citizens,":12957,"▁purposes":12958,"▁Untersuchung":12959,"▁minut":12960,"▁advice":12961,"▁Nahrungsmittel":12962,"asen":12963,"▁Hindern":12964,"urger":12965,"▁voller":12966,"▁Signal":12967,"angebot":12968,"▁ausgestattet.":12969,"▁combating":12970,"politischen":12971,"chron":12972,"iced":12973,"▁Bericht,":12974,"▁extension":12975,"material":12976,"▁interior":12977,"▁dien":12978,"▁Wash":12979,"▁flat":12980,"isory":12981,"▁piece":12982,"▁renewable":12983,"▁steht,":12984,"▁lose":12985,"▁debate,":12986,"teren":12987,"▁verloren":12988,"▁Brussels":12989,"schlagen":12990,"▁shower":12991,"▁agreement.":12992,"leisten.":12993,"▁Like":12994,"▁wesentliche":12995,"tedly":12996,"▁use.":12997,"hindert":12998,"▁runs":12999,"▁Glück":13000,"▁obstac":13001,"▁important.":13002,"sprüche":13003,"▁AP":13004,"modell":13005,"▁Sov":13006,"▁läng":13007,"▁centre,":13008,"▁Umwel":13009,"▁Agrarpolitik":13010,"▁Tw":13011,"▁durchzuführ":13012,"▁helped":13013,"▁Comput":13014,"▁Angebote":13015,"▁bureauc":13016,"▁eigent":13017,"▁factors":13018,"▁GNU":13019,"▁enthus":13020,"▁weshalb":13021,"▁Dienstleistungs":13022,"ispiele":13023,"▁largely":13024,"päck":13025,"▁Ausland":13026,"elten":13027,"▁discrimination":13028,"▁Robert":13029,"▁Berufs":13030,"▁device":13031,"▁Greece":13032,"▁Ec":13033,"▁department":13034,"▁Auffassung,":13035,"▁Erinner":13036,"▁Unterschiede":13037,"▁Entwicklungsländern":13038,"▁schwierigen":13039,"kennen":13040,"▁cuisine":13041,"▁Schloss":13042,"ques":13043,"▁student":13044,"astronom":13045,"▁website.":13046,"ela":13047,"▁zuerst":13048,"andon":13049,"▁MS":13050,"▁one,":13051,"▁emphasise":13052,"▁erwähnt":13053,"▁Elect":13054,"els.":13055,"▁rank":13056,"▁kombin":13057,"▁Politiker":13058,"▁Delegation":13059,"station":13060,"apter":13061,"▁gestern":13062,"▁life,":13063,"▁consumption":13064,"▁schönsten":13065,"zza":13066,"▁Sad":13067,"▁agency":13068,"▁ermöglichen,":13069,"▁Erde":13070,"gesundheit":13071,"'A":13072,"▁2008,":13073,"rechn":13074,"▁Puert":13075,"igerung":13076,"▁Standort":13077,"fal":13078,"anger":13079,"▁SME":13080,"rochen":13081,"essene":13082,"▁telephone":13083,"▁shape":13084,"▁Ret":13085,"stehenden":13086,"▁Ohne":13087,"▁commitments":13088,"roph":13089,"▁Policy":13090,"metho":13091,"▁skills":13092,"-free":13093,"ances,":13094,"▁hervorragende":13095,"icip":13096,"▁Europeans":13097,"teen":13098,"what":13099,"▁(O":13100,"▁Friend":13101,"▁glauben,":13102,"sie":13103,"▁exclusively":13104,"▁Sund":13105,"▁Asia":13106,"▁evaluation":13107,"▁Ca":13108,"▁Regul":13109,"▁Räum":13110,"ämpfen":13111,"▁patient":13112,"▁Norm":13113,"▁change.":13114,"▁gewährleisten.":13115,"▁launched":13116,"eler":13117,"▁newly":13118,"▁niemals":13119,"ießen":13120,"isieren.":13121,"▁gesprochen":13122,"▁incent":13123,"▁Council's":13124,"th,":13125,"▁Diskussionen":13126,"▁illustr":13127,"friend":13128,"▁Instead":13129,"s...":13130,"▁zweifellos":13131,"▁Product":13132,"▁Eltern":13133,"▁tätig":13134,"▁serves":13135,"▁eigenes":13136,"▁England":13137,"▁protecting":13138,"▁Befug":13139,"▁drawing":13140,"ische,":13141,"▁determine":13142,"▁gewes":13143,"▁ausgezeichnete":13144,"▁individuals":13145,"tigt":13146,"▁darstellt.":13147,"▁überw":13148,"anging":13149,"▁consistent":13150,"how":13151,"▁schwar":13152,"ancy":13153,"urd":13154,"▁Agency":13155,"fähig":13156,"▁reserve":13157,"▁Minutes":13158,"▁location,":13159,"▁direkte":13160,"▁Landschaft":13161,"▁betreffenden":13162,"▁neuesten":13163,"▁Mall":13164,"▁Schuld":13165,"▁boat":13166,"▁issue,":13167,"▁inzwischen":13168,"▁Atom":13169,"▁Four":13170,"▁spring":13171,"▁gil":13172,"▁verändern":13173,"verletz":13174,"▁bekommen.":13175,"▁unterstützt.":13176,"▁14.":13177,"ieß":13178,"itäre":13179,"▁limits":13180,"▁Stahl":13181,"▁Methoden":13182,"▁underm":13183,"ktors":13184,"▁Gegend":13185,"▁beträcht":13186,"/1":13187,"▁Wolf":13188,"▁cer":13189,"▁getr":13190,"oben.":13191,"▁faced":13192,"▁institutions.":13193,"▁hospit":13194,"▁strugg":13195,"▁Kost":13196,"▁\"J":13197,"▁vergessen":13198,"institution":13199,"▁Luc":13200,"▁awareness":13201,"▁в":13202,"▁Agric":13203,"uss,":13204,"▁exem":13205,"▁SO":13206,"▁competence":13207,"▁betrachtet":13208,"una,":13209,"▁on,":13210,"▁ausgezeichneten":13211,"▁natürlichen":13212,"▁Grundsätze":13213,"▁stimmen":13214,"uens":13215,"cken,":13216,"▁registration":13217,"AV":13218,"dessen":13219,"▁cards":13220,"▁etc":13221,"▁page.":13222,"▁Perspekt":13223,"▁mel":13224,"▁opposed":13225,"▁Allgemeinen":13226,"▁Div":13227,"▁Prin":13228,"▁Gesetze":13229,"▁Wil":13230,"▁USD":13231,"▁fasc":13232,"▁Energy":13233,"▁inhabit":13234,"lege":13235,"▁advoc":13236,"▁2.0":13237,"ischung":13238,"▁gewalt":13239,"▁millions":13240,"▁Zusätz":13241,"▁cases,":13242,"örter":13243,"▁beaches":13244,"▁Farben":13245,"▁(10":13246,"rachten":13247,"▁Kapaz":13248,"▁sides":13249,"▁mur":13250,"schäd":13251,"▁Plaza":13252,"▁Konflik":13253,"fuhr":13254,"▁prohib":13255,"▁spanischen":13256,"▁Nachfrage":13257,"▁decis":13258,"▁Kyoto":13259,"▁represented":13260,"▁commission":13261,"▁behaup":13262,"▁well,":13263,"ismus,":13264,"nen,":13265,"▁i.e.":13266,"▁kommer":13267,"rote":13268,"schule":13269,"▁Ladies":13270,"▁grundlegende":13271,"cal":13272,"id,":13273,"▁monument":13274,"▁zeigt,":13275,"▁einerseits":13276,"weich":13277,"▁important,":13278,"▁Gedanken":13279,"organ":13280,"▁Town":13281,"lett":13282,"irol":13283,"▁abroad":13284,"▁controls":13285,"stood":13286,"▁cancel":13287,"▁controll":13288,"▁commun":13289,"ziehen.":13290,"kurs":13291,"▁phen":13292,"▁musste":13293,"▁Garden":13294,"▁significantly":13295,"▁beinhaltet":13296,"arl":13297,"▁intensiv":13298,"▁dich":13299,"täus":13300,"▁Parlaments,":13301,"▁Nahen":13302,"▁anwes":13303,"▁prove":13304,"▁Handeln":13305,"▁looks":13306,"▁Their":13307,"▁adul":13308,"▁detaill":13309,"▁ursprünglichen":13310,"rob":13311,"▁Ausgangspunkt":13312,"▁spät":13313,"▁Mangel":13314,"▁estim":13315,"uttle":13316,"▁Ungar":13317,"▁remaining":13318,"▁abol":13319,"unicip":13320,"▁Kroat":13321,"klärung":13322,"▁opposite":13323,"eminar":13324,"▁George":13325,"▁extraordin":13326,"▁Veranstaltung":13327,"▁sexual":13328,"-min":13329,"85":13330,"▁weiterge":13331,"▁Klar":13332,"▁GDP":13333,"▁Worten":13334,"▁faith":13335,"▁operational":13336,"▁valuable":13337,"▁leisure":13338,"▁menschlichen":13339,"uds":13340,"▁Opposition":13341,"▁Viertel":13342,"-Reg":13343,"▁(NL)":13344,"▁vous":13345,"▁coher":13346,"▁Spiele":13347,"▁Details":13348,"▁leaving":13349,"▁examples":13350,"▁gold":13351,"well":13352,"tele":13353,"▁feststellen,":13354,"miss":13355,"▁33":13356,"▁2007.":13357,"▁Harmonisierung":13358,"▁kommt,":13359,"▁seat":13360,"obe":13361,"CHT":13362,"▁Frid":13363,"▁Verd":13364,"▁Budge":13365,"wers":13366,"▁fab":13367,"▁Wähl":13368,"▁Pflanzen":13369,"▁sin":13370,"nehmern":13371,"▁Personen,":13372,"▁Jedes":13373,"▁certific":13374,"isierungs":13375,"▁Hostelsclub":13376,"cling":13377,"▁veran":13378,"reichung":13379,"▁Zuständigkeit":13380,"strategie":13381,"▁Allian":13382,"▁result,":13383,"▁Stabilitäts":13384,"▁Empfehlung":13385,"iess":13386,"▁beteiligt":13387,"▁unterbreit":13388,"▁cab":13389,"▁Schulden":13390,"lan":13391,"inational":13392,"▁Ath":13393,"▁Wahrheit":13394,"▁exceptional":13395,"▁Pia":13396,"▁zahlen":13397,"▁weapons":13398,"▁push":13399,"tragung":13400,"▁Kommun":13401,"rap":13402,"▁steel":13403,"TML":13404,"gence":13405,"▁(or":13406,"uts":13407,"▁Leitlinien":13408,"▁constructive":13409,"▁budget.":13410,"▁Schad":13411,"▁payments":13412,"▁Gard":13413,"▁activities.":13414,"▁volunt":13415,"looking":13416,"▁talks":13417,"▁Geschmack":13418,"lated":13419,"▁Massen":13420,"ario":13421,"▁mode":13422,"iring":13423,"▁gemacht.":13424,"ateful":13425,"formance":13426,"ania":13427,"raum,":13428,"▁mehr.":13429,"▁Year":13430,"▁India":13431,"▁künftigen":13432,"▁Secret":13433,"▁UNO":13434,"▁GU":13435,"▁soft":13436,"▁Edition":13437,"igu":13438,"▁remote":13439,"-Adr":13440,"▁höchsten":13441,"▁manner":13442,"/D":13443,"alleng":13444,"wald":13445,"▁Tiere":13446,"estr":13447,"▁soweit":13448,"▁Einkaufs":13449,"▁Inner":13450,"▁gebaut":13451,"ipel":13452,"▁si":13453,"▁Dauer":13454,"▁collective":13455,"▁Kollege":13456,"▁unterschiedlich":13457,"onymous":13458,"era":13459,"▁holidays":13460,"da":13461,"▁catalog":13462,"ünfte":13463,"pap":13464,"▁dark":13465,"enture":13466,"▁equally":13467,"▁involve":13468,"▁holding":13469,"▁vorhanden":13470,"▁jährlich":13471,"▁Kompetenz":13472,"▁deleg":13473,"▁Group,":13474,"▁settlement":13475,"▁Küsten":13476,"▁automatic":13477,"▁Einstellung":13478,"▁Arz":13479,"▁recip":13480,"▁(z.B.":13481,"gener":13482,"▁vergessen,":13483,"▁AD":13484,"▁verschiedener":13485,"▁addressed":13486,"▁Westen":13487,"▁creates":13488,"▁Kas":13489,"▁Therm":13490,"OW":13491,"ulating":13492,"▁Budap":13493,"gesellschaften":13494,"▁anspruch":13495,"▁Stimm":13496,"▁agencies":13497,"▁nob":13498,"▁creative":13499,"▁youth":13500,"▁eingerichtet":13501,"▁Nap":13502,"▁photos":13503,"▁temporary":13504,"inuier":13505,"▁Through":13506,"▁region,":13507,"▁Zustand":13508,"▁will.":13509,"▁Behinder":13510,"▁Voraussetzung":13511,"▁Einwanderung":13512,"▁Tschech":13513,"legt.":13514,"nischen":13515,"▁gelöst":13516,"▁Antworten":13517,"agg":13518,"▁beseit":13519,"▁institutions,":13520,"▁spaces":13521,"▁couple":13522,"-5":13523,"▁anstatt":13524,"▁Maastr":13525,"▁davon,":13526,"▁vereinfach":13527,"▁witness":13528,"▁cry":13529,"rain":13530,"▁uneing":13531,"▁Engine":13532,"ziplin":13533,"▁Service,":13534,"▁artists":13535,"▁Switzerland":13536,"pa":13537,"▁catch":13538,"steuer":13539,"laden":13540,"▁stone":13541,"▁werden?":13542,"▁Direct":13543,"gyp":13544,"▁acquis":13545,"azier":13546,"▁doesn't":13547,"▁Hohen":13548,"▁37":13549,"▁BSE":13550,"ighten":13551,"freie":13552,"▁Wild":13553,"▁magaz":13554,"▁Fenster":13555,"▁obligations":13556,"sc":13557,"▁reveal":13558,"izit":13559,"▁aircraft":13560,"▁Airbus":13561,"oe":13562,"▁bezug":13563,"▁Vice":13564,"▁Barcelon":13565,"▁trib":13566,"▁Geschäft":13567,"cohol":13568,"▁Update":13569,"▁Drittländern":13570,"▁Late":13571,"▁offenen":13572,"▁dritte":13573,"▁Brasil":13574,"▁hardware":13575,"▁riesigen":13576,"▁consensus":13577,"▁wettbewerbs":13578,"▁territory":13579,"heben":13580,"▁conducted":13581,"▁hill":13582,"▁leistungs":13583,"▁aufgeforder":13584,"▁aftern":13585,"▁Ware":13586,"▁constitution":13587,"29":13588,"én":13589,"antly":13590,"▁einzigartige":13591,"▁verpflichtet":13592,"▁iron":13593,"▁(and":13594,"actions":13595,"▁Ter":13596,"elt,":13597,"▁River":13598,"klass":13599,"er's":13600,"▁Eis":13601,"ciliation":13602,"▁diejenigen":13603,"▁verfügbar":13604,"▁übernehmen":13605,"▁Festlegung":13606,"▁because,":13607,"▁Monetary":13608,"▁proposal,":13609,"49":13610,"▁gets":13611,"ugos":13612,"▁race":13613,"▁Papier":13614,"▁consc":13615,"▁cars":13616,"▁testing":13617,"28":13618,"▁Word":13619,"▁children.":13620,"▁versuchen":13621,"▁Executive":13622,"ML":13623,"▁page,":13624,"▁Gründe":13625,"absichtig":13626,"▁Music":13627,"▁Polish":13628,"rak":13629,"▁breite":13630,"lles":13631,"...\"":13632,"zahlt":13633,"▁facilitate":13634,"▁(f":13635,"▁Gleichgewicht":13636,"p.":13637,"rate":13638,"▁Indones":13639,"▁ball":13640,"▁navig":13641,"▁Wal":13642,"▁Arme":13643,"▁geräum":13644,"▁900":13645,"▁devices":13646,"▁zugunsten":13647,"▁amounts":13648,"▁Meinungs":13649,"ès":13650,"▁verständ":13651,"▁up.":13652,"▁Tru":13653,"akten":13654,"▁Sanktionen":13655,"▁phenomen":13656,"▁Schule":13657,"ew":13658,"�r":13659,"▁mögliche":13660,"GB":13661,"▁DE":13662,"▁Verring":13663,"mitten":13664,"▁Methode":13665,"▁hit":13666,"▁PRO":13667,"ard,":13668,"iary":13669,"▁content,":13670,"▁kurze":13671,"▁Noch":13672,"▁bekomm":13673,"reibt":13674,"▁orders":13675,"TR":13676,"▁Network":13677,"▁WLAN":13678,"ky":13679,"▁Denk":13680,"einer":13681,"▁binding":13682,"zent":13683,"▁Event":13684,"▁Block":13685,"▁identify":13686,"▁caf":13687,"▁liv":13688,"▁supposed":13689,"räume":13690,"▁Time":13691,"▁knows":13692,"▁pleasure":13693,"▁gekommen":13694,"orter":13695,"▁patients":13696,"▁amaz":13697,"▁obligation":13698,"▁Vienna":13699,"▁drop":13700,"▁Himm":13701,"▁recommended":13702,"▁kulturelle":13703,"▁avec":13704,"▁ungefähr":13705,"▁challeng":13706,"▁foll":13707,"▁Struct":13708,"/L":13709,"▁Fälle":13710,"▁einfachen":13711,"▁Tagung":13712,"▁Kandidaten":13713,"▁mitten":13714,"▁sagt":13715,"▁Studie":13716,"▁Übereinstimmung":13717,"▁präz":13718,"▁Indian":13719,"▁irre":13720,"▁stylish":13721,"▁Regierungskonferenz":13722,"▁dem,":13723,"▁verstehen,":13724,"▁wissenschaftlichen":13725,"▁emission":13726,"▁metal":13727,"▁Apart":13728,"▁northern":13729,"hält,":13730,"rating":13731,"▁Krie":13732,"▁supplement":13733,"▁Informationen,":13734,"▁Strukturfonds":13735,"iox":13736,"▁zuständigen":13737,"▁Lu":13738,"▁ruhigen":13739,"▁zentralen":13740,"▁People's":13741,"▁Wachstums":13742,"▁hatten,":13743,"akete":13744,"▁Übersetzung":13745,"▁Nic":13746,"▁wechsel":13747,"▁(ES":13748,"▁Entwicklungsländer":13749,"▁obtained":13750,"▁unfor":13751,"▁rück":13752,"▁Beispiele":13753,"▁gefährd":13754,"▁außen":13755,"▁economies":13756,"▁parlament":13757,"▁dream":13758,"▁Umfeld":13759,"▁Geheim":13760,"▁rooms.":13761,"ker":13762,"▁termin":13763,"▁schwed":13764,"-time":13765,"igrants":13766,"▁sla":13767,"▁unmöglich":13768,"▁List":13769,"ausend":13770,"a)":13771,"far":13772,"▁Solar":13773,"▁Alternative":13774,"▁wären":13775,"▁Übersetz":13776,"▁applicable":13777,"▁Fähigkeit":13778,"gut":13779,"schau":13780,"schluß":13781,"wirklich":13782,"▁Mold":13783,"▁HD":13784,"▁Urspr":13785,"▁Bildungs":13786,"но":13787,"▁dinner":13788,"▁faster":13789,"▁Jer":13790,"▁abandon":13791,"▁presentation":13792,"▁universal":13793,"▁architecture":13794,"▁recover":13795,"▁recovery":13796,"ichte,":13797,"ur,":13798,"otte":13799,"▁grounds":13800,"▁programme.":13801,"▁besitzt":13802,"65":13803,"hnt":13804,"▁point.":13805,"▁Minderheiten":13806,"▁father":13807,"▁kontinuier":13808,"▁ehrgeiz":13809,"▁Vorbe":13810,"▁unacceptable":13811,"▁vorz":13812,"ohlen":13813,"▁informiert":13814,"▁Tatsächlich":13815,"ichten.":13816,"▁({{":13817,"▁consultation":13818,"organisationen":13819,"▁schlecht":13820,"▁früheren":13821,"▁tut":13822,"▁nation":13823,"-Ber":13824,"ml":13825,"▁pursu":13826,"▁Erwartungen":13827,"down":13828,"ruh":13829,"▁Protection":13830,"anne":13831,"lared":13832,"▁verwende":13833,"▁sodass":13834,"▁regulatory":13835,"▁fighting":13836,"▁unent":13837,"▁politics":13838,"▁Bor":13839,"▁Schn":13840,"▁außerordentlich":13841,"▁Ausführung":13842,"▁Safety":13843,"▁classic":13844,"▁eye":13845,"▁Viet":13846,"▁Bedenken":13847,"▁mother":13848,"▁react":13849,"▁depends":13850,"iour":13851,"▁KMU":13852,"▁Lim":13853,"▁hin,":13854,"▁Verbrechen":13855,"▁geschaff":13856,"griffe":13857,"Un":13858,"▁ticket":13859,"▁Bedeutung.":13860,"▁uneingeschrän":13861,"▁pharm":13862,"gä":13863,"▁Polit":13864,"▁setzen.":13865,"▁Automobil":13866,"▁Trag":13867,"▁Entlast":13868,"▁naturally":13869,"▁Subsid":13870,"▁zustimm":13871,"folio":13872,"hält.":13873,"▁Anze":13874,"odes":13875,"▁Dev":13876,"▁terrorist":13877,"▁Wird":13878,"ärke":13879,"struktion":13880,"▁Gewicht":13881,"▁versions":13882,"▁destru":13883,"▁fordere":13884,"▁Adresse":13885,"▁hundreds":13886,"▁Tarif":13887,"zeichnis":13888,"▁fragen,":13889,"▁jedoch,":13890,"▁protest":13891,"▁Brand":13892,"▁city,":13893,"▁verpflichtet,":13894,"▁tail":13895,"ating,":13896,"▁Menü":13897,"a's":13898,"▁Abschnitt":13899,"▁einzuf":13900,"ading":13901,"▁beachten":13902,"▁zählen":13903,"ade,":13904,"▁Bedeutung,":13905,"abilität":13906,"▁tob":13907,"▁Theater":13908,"ne.":13909,"▁Pflich":13910,"100":13911,"▁magnific":13912,"liste":13913,"spap":13914,"▁fashion":13915,"▁situation,":13916,"▁unverzüglich":13917,"erse":13918,"▁grateful":13919,"▁derartige":13920,"▁attract":13921,"▁Kreis":13922,"idel":13923,"▁deposit":13924,"▁incomp":13925,"▁Optim":13926,"▁bilateral":13927,"▁define":13928,"▁guaranteed":13929,"▁attacks":13930,"▁recognised":13931,"▁Kategorie":13932,"▁gehen.":13933,"▁personally":13934,"▁destination":13935,"▁visual":13936,"▁bottom":13937,"▁benötigt":13938,"▁bann":13939,"▁Anton":13940,"▁gewissen":13941,"▁Arbeitsplatz":13942,"▁nachhaltigen":13943,"krit":13944,"enden.":13945,"▁Shop":13946,"▁ermut":13947,"▁Pension":13948,"▁discovered":13949,"▁Brenn":13950,"▁destin":13951,"ussts":13952,"▁confirmed":13953,"▁Infl":13954,"▁group,":13955,"▁Boot":13956,"▁solar":13957,"▁abgeschlossen":13958,"▁impressive":13959,"▁geschützt":13960,"▁proof":13961,"▁geändert":13962,"▁Mountain":13963,"rechten":13964,"▁Bauern":13965,"▁derart":13966,"▁Europol":13967,"▁NE":13968,"▁umfassen":13969,"▁Satur":13970,"▁möchten.":13971,"▁Är":13972,"▁Beste":13973,"▁beitragen":13974,"▁album":13975,"worfen":13976,"▁bewahr":13977,"ates,":13978,"rovers":13979,"▁entfernt,":13980,"'re":13981,"▁AM":13982,"▁ergriffen":13983,"▁House.":13984,"▁Thomas":13985,"▁Nachricht":13986,"▁EU-Mitglied":13987,"▁notwendige":13988,"▁Ersatz":13989,"▁tatsäch":13990,"▁Camping":13991,"на":13992,"ailing":13993,"ilding":13994,"▁lovely":13995,"▁markets.":13996,"weisung":13997,"sa":13998,"ichern":13999,"▁category":14000,"▁Blut":14001,"▁multinational":14002,"andal":14003,"▁ster":14004,"acion":14005,"▁Slovak":14006,"▁invite":14007,"▁vorange":14008,"▁Poland":14009,"▁joined":14010,"ventions":14011,"meldung":14012,"▁liegt.":14013,"▁division":14014,"▁Congress":14015,"nen.":14016,"hrist":14017,"▁intensive":14018,"oub":14019,"▁anti":14020,"▁Anti":14021,"▁kurzen":14022,"gemeinschaft":14023,"▁österreich":14024,"▁pollution":14025,"▁welfare":14026,"▁Einheit":14027,"behörden":14028,"▁bedro":14029,"▁Amerika":14030,"arp":14031,"▁enthalten.":14032,"enkung":14033,"▁Food":14034,"▁verfolgt":14035,"▁2007,":14036,"▁Verfahrens":14037,"▁Armen":14038,"▁Umgeb":14039,"▁Verringerung":14040,"▁erfüllen":14041,"▁freiwill":14042,"68":14043,"▁U-Bahn":14044,"▁verdient":14045,"▁expenditure":14046,"▁protocol":14047,"▁ought":14048,"▁visible":14049,"▁gehen,":14050,"▁Ausstellung":14051,"▁Framework":14052,"▁Eigenschaften":14053,"▁refr":14054,"▁mitge":14055,"▁economy,":14056,"▁Hilfs":14057,"CE":14058,"▁Anfragen":14059,"▁species":14060,"▁Speicher":14061,"enken,":14062,"der.":14063,"▁Legal":14064,"▁stopp":14065,"▁noise":14066,"orgt":14067,"▁Fair":14068,"▁erlä":14069,"uminium":14070,"örd":14071,"▁Verbot":14072,"▁unternommen":14073,"▁schne":14074,"▁Strategien":14075,"▁improvements":14076,"▁Krankheit":14077,"▁\"c":14078,"▁acceptable":14079,"▁pas":14080,"▁Lt":14081,"▁century.":14082,"ergie":14083,"▁dining":14084,"level":14085,"ances.":14086,"che.":14087,"▁Whether":14088,"sichtigen":14089,"▁arms":14090,"▁welchem":14091,"▁eingeführt":14092,"▁Einbeziehung":14093,"ärken":14094,"▁Krimin":14095,"▁issued":14096,"▁Landwirte":14097,"▁independence":14098,"▁inhabitants":14099,"ergeb":14100,"deb":14101,"▁kurzfrist":14102,"▁Steu":14103,"C)":14104,"ete":14105,"▁(J":14106,"▁targets":14107,"-g":14108,"▁kontakt":14109,"▁Gentoo":14110,"▁Hof":14111,"▁Zyp":14112,"richtig":14113,"öp":14114,"iser":14115,"▁shops":14116,"▁calcul":14117,"▁verstärkt":14118,"▁symp":14119,"▁interessante":14120,"▁flights":14121,"▁Author":14122,"▁string":14123,"▁verehrte":14124,"ikas":14125,"▁Quark":14126,"▁vot":14127,"▁Verträge":14128,"▁bieten.":14129,"▁mechanisms":14130,"▁Find":14131,"▁Ziffer":14132,"▁Konzep":14133,"▁Road":14134,"▁Rome":14135,"▁übertragen":14136,"▁Radio":14137,"▁sac":14138,"▁Anliegen":14139,"kohol":14140,"▁\"Die":14141,"▁gespiel":14142,"i's":14143,"einen":14144,"▁Krisen":14145,"bach":14146,"kul":14147,"▁oral":14148,"▁Holid":14149,"idden":14150,"▁understood":14151,"▁legislation.":14152,"ausschuß":14153,"fänger":14154,"kur":14155,"▁camer":14156,"stellen.":14157,"▁muß.":14158,"▁domain":14159,"▁beeindruck":14160,"▁frequently":14161,"▁und,":14162,"▁NGO":14163,"▁30%":14164,"hot":14165,"▁antw":14166,"▁gezw":14167,"legungen":14168,"▁Muse":14169,"heben,":14170,"beweg":14171,"▁Abhäng":14172,"▁IB":14173,"▁delegation":14174,"▁somewhat":14175,"▁betrie":14176,"▁2010,":14177,"▁careful":14178,"▁Inseln":14179,"▁bemerk":14180,"▁Lager":14181,"▁Luxembourg":14182,"▁Pact":14183,"UNG":14184,"▁Access":14185,"neter":14186,"▁Dokumente":14187,"▁So,":14188,"▁maintaining":14189,"▁AV":14190,"▁requirements.":14191,"▁Klimawandel":14192,"▁corresponding":14193,"aret":14194,"▁schnelle":14195,"▁Kreuz":14196,"▁benefic":14197,"▁Veranstaltungen":14198,"▁direkten":14199,"▁problem,":14200,"▁figure":14201,"atre":14202,"▁ER":14203,"▁advantages":14204,"▁Player":14205,"▁gemacht,":14206,"G)":14207,"▁34":14208,"▁Gestaltung":14209,"▁Subsidiar":14210,"▁ende":14211,"crip":14212,"▁ethnic":14213,"▁drivers":14214,"▁(Be":14215,"▁Wesent":14216,"▁Aktien":14217,"▁verwand":14218,"▁Bucht":14219,"▁OR":14220,"ventionen":14221,"▁Besonders":14222,"▁Kilometer":14223,"ifications":14224,"▁rub":14225,"▁root":14226,"▁suffering":14227,"▁distric":14228,"▁staatlichen":14229,"▁Gründung":14230,"▁appoint":14231,"tendlich":14232,"▁wann":14233,"▁reichen":14234,"▁producing":14235,"▁Ra":14236,"▁geltenden":14237,"prochen,":14238,"▁depending":14239,"▁würden,":14240,"▁erleben":14241,"▁{":14242,"▁awa":14243,"märkte":14244,"aten.":14245,"▁erstellt":14246,"▁repeat":14247,"▁agreement,":14248,"▁Japanese":14249,"▁mir,":14250,"SA":14251,"▁delighted":14252,"▁fitness":14253,"▁Nos":14254,"▁Individ":14255,"▁hängt":14256,"▁Verbesserungen":14257,"code":14258,"▁Ausgabe":14259,"▁Problem,":14260,"▁money.":14261,"tung":14262,"▁input":14263,"▁Franz":14264,"▁Aktual":14265,"▁Bibliothe":14266,"▁accompanied":14267,"▁besuchen":14268,"▁currenc":14269,"itten":14270,"▁Ferr":14271,"▁skin":14272,"▁danger":14273,"fac":14274,"▁Konsens":14275,"▁lebens":14276,"▁journey":14277,"bürger":14278,"▁Hoffnung":14279,"▁trop":14280,"▁Technology":14281,"▁Life":14282,"▁worksh":14283,"▁festzu":14284,"▁handelt,":14285,"▁eingesch":14286,"▁pattern":14287,"zure":14288,"▁Gericht":14289,"▁zufolge":14290,"prochen.":14291,"kommunik":14292,"▁Zwei":14293,"▁funktioniert":14294,"▁nahezu":14295,"len":14296,"▁(e.":14297,"▁attraction":14298,"▁dienen":14299,"▁Inst":14300,"▁existence":14301,"▁compensation":14302,"▁mostly":14303,"▁cooperation.":14304,"▁Übereinkommen":14305,"▁Lö":14306,"▁facility":14307,"▁Dank,":14308,"▁Maastricht":14309,"▁apart":14310,"▁categor":14311,"vertre":14312,"▁38":14313,"▁preis":14314,"▁vote.":14315,"einamer":14316,"stoffen":14317,"▁höheren":14318,"▁healthy":14319,"▁showing":14320,"▁Bewegung":14321,"▁beträgt":14322,"▁Entfern":14323,"▁gezeigt,":14324,"usche":14325,"▁Beding":14326,"▁ordnungs":14327,"zellen":14328,"▁com.":14329,"▁Wirtschaftswachstum":14330,"▁westlichen":14331,"▁Spazier":14332,"▁scale":14333,"▁1970":14334,"▁Persön":14335,"▁restruct":14336,"▁solange":14337,"▁seeing":14338,"▁distingu":14339,"▁Sony":14340,"▁vollständige":14341,"gor":14342,"ag,":14343,"▁returned":14344,
[...]
