#version: 0.2 - Trained by `huggingface/tokenizers`
e n
e r
i n
▁ a
▁ t
▁ d
c h
e s
o n
▁t h
u n
i t
i s
▁ s
▁ w
a t
i e
o r
a n
▁th e
r e
▁ b
▁ o
a l
a r
▁ in
▁ f
i ch
▁ m
t e
i on
▁ e
▁a n
u r
a s
l e
▁ p
▁ c
▁ un
▁ h
u s
▁ S
en t
g e
▁o f
r o
▁ n
▁ v
in g
un g
▁an d
▁t o
▁ A
l l
e d
▁d ie
o m
▁d er
▁un d
▁ E
▁ I
i g
s t
i c
▁b e
▁ M
▁ is
▁ D
▁ T
▁e in
▁ B
▁ P
i r
▁ z
i m
▁ g
e l
u t
r a
t er
e m
i l
en ,
▁ W
e t
o l
at ion
d er
e it
▁ F
▁ l
a m
▁ re
▁ G
t en
h r
i es
u m
o p
▁ K
c t
▁ H
i d
s ch
▁ R
u l
▁ k
u f
▁ C
b er
i v
en .
l ich
▁ V
▁f or
a b
o t
ü r
is ch
ich t
i er
en d
▁T h
▁ on
▁d as
▁z u
▁ L
an d
er e
▁d en
l y
es t
es s
▁th at
o s
▁ U
c e
om m
e in
er s
▁p ro
▁a l
o w
▁w h
a ch
▁v on
▁ r
or t
▁ ge
▁ im
u ch
a d
▁s t
it h
▁ y
▁I n
▁w ir
k t
▁ N
i f
▁c on
in d
▁is t
g en
▁v er
▁ er
v er
▁w ith
▁a uf
▁w e
▁f ür
ur op
a y
i ll
▁d es
▁ (
▁ it
v e
▁m it
▁a re
t s
▁ Z
▁ 1
▁a s
c k
▁s o
▁ -
▁d e
d en
▁Th e
d e
▁n e
is s
▁y o
▁d ies
▁S t
a f
▁E urop
p p
at e
m ent
t ,
i k
t h
▁s e
q u
is t
▁ 2
0 0
▁U n
e ,
a g
isch en
i b
s ,
▁V er
▁al s
a k
▁ein e
us t
▁e x
t .
▁d em
f or
a h
▁th is
it y
▁ O
u g
s .
▁h a
un d
i al
▁A n
▁S ie
an t
▁ j
▁ or
an n
▁n icht
▁ J
▁w er
ar t
▁c o
ung en
n e
▁n ot
iv e
ü ber
s te
p e
▁s ich
ä n
▁a ll
▁ le
u b
f f
i en
te l
l a
▁R e
▁b y
w e
ro m
▁ha ve
en s
▁das s
ig h
▁a t
▁ "
▁ es
a in
▁a us
as s
al l
ul d
er n
▁D ie
▁yo u
▁s h
m en
u p
o d
▁w ill
s p
▁a b
om p
ie l
▁ über
a us
▁un s
u re
n en
▁P r
a ge
▁wh ich
▁m e
iss ion
te d
▁w as
z e
r an
▁a uch
▁S ch
l ie
ig en
▁f rom
a hr
h al
ar d
ung s
d u
o ch
▁ um
e .
▁B e
o uld
▁s ind
▁s ch
▁W e
▁ us
ter n
. .
t r
omm ission
▁P ro
o g
▁ ch
▁ i
id ent
' s
▁p r
▁Europ e
▁ ent
▁v or
▁wir d
▁E n
f er
▁h as
es ch
▁h ab
an g
sch af
i z
i p
ct ion
m er
p ort
en n
ö n
▁w or
it ion
s s
u d
g r
▁r es
o c
o us
▁ en
▁E r
ic k
us s
o k
▁P ar
▁w ie
▁d a
isch e
u e
o ur
t z
▁h e
ur ch
er r
▁c an
for m
▁m an
et z
ab le
▁a m
i ge
f t
i re
k eit
▁h at
▁E in
▁ ich
▁s ein
▁c omp
a p
▁A r
o st
b en
▁o der
am ent
▁o ur
as t
i a
o tel
c c
er v
▁z ur
p r
▁als o
b eit
▁Europe an
b e
is e
m e
▁s ie
om e
▁M it
r u
ation al
ic al
h eit
ul t
o ll
▁a d
is h
▁A us
er t
l o
es ,
at ed
or e
▁wer den
es e
o ut
a re
der n
▁ein er
▁k ön
id e
▁d o
ol it
r it
lich en
in e
h e
or d
te ll
h l
th er
▁W ir
▁2 00
▁G e
ar k
f ü
▁un ter
e ct
es .
▁wer d
ü n
p t
h er
▁Par l
ig n
ä t
▁n ach
▁ qu
a c
▁ein en
ä r
▁Un ion
▁be i
▁yo ur
h en
▁it s
v el
▁p art
o un
t ra
▁t e
▁D as
e ar
ut ion
▁a g
▁re g
t w
ation s
▁d urch
▁g ro
▁F ra
an k
i an
at en
a u
ak e
▁B er
s e
end en
schaf t
y ste
▁s u
▁s p
▁b ut
ug h
ar y
▁I t
▁w ur
em ber
▁g o
▁ ro
g lich
g er
▁A b
c ial
▁I ch
▁V or
ä s
▁th ere
le m
ic e
▁M r
igh t
p er
u te
▁ 3
c on
▁a pp
▁H err
ö r
h re
an z
▁C ommission
▁d ar
▁E U
im m
▁t ra
u al
▁w ar
r ie
▁1 9
c l
os e
▁w ould
▁s pe
▁m ö
ge b
an ce
a il
▁z um
o v
▁the ir
it e
i le
re at
ch te
er m
yste m
▁ein em
ch t
m p
h n
er en
▁g en
▁con t
▁b es
lich e
il d
ra m
y ,
▁be en
u ß
ch n
▁A l
on g
le g
▁m ore
▁Europ ä
▁a r
kt ion
ut z
▁T e
▁k ann
▁Th is
ü ck
a ck
▁D e
a ct
▁dies e
ü ss
▁L e
▁a cc
▁n ur
▁d is
os s
▁c omm
▁co un
▁C h
▁Un ter
at es
▁S p
on t
w er
o b
▁A uf
▁sh ould
▁G r
▁p l
am e
▁be t
ah l
▁H otel
▁wor k
▁ .
ier ung
▁on e
▁hab en
▁t im
l and
l ic
el t
▁ne w
y .
▁D er
▁ ,
st en
er ,
end e
▁ up
äs ident
▁c l
g es
ein e
▁S e
a uf
ier t
z u
▁so ll
g an
▁F or
ik e
▁J ahr
▁o ut
▁dies er
▁o b
a v
ig keit
ch e
▁Pr es
as e
▁K ommission
t o
l d
▁j ed
a ,
ä hr
re ich
▁p re
▁coun tr
g ram
▁D ies
▁in d
▁ver y
b ar
▁E s
▁p er
re e
▁in ter
▁z w
▁wh o
▁o ther
▁da ß
▁n och
ne h
▁pro du
it ies
▁m ust
form ation
n er
▁i hr
ten .
in k
on e
▁e v
▁s te
▁p e
▁the y
▁w eit
d ition
▁ne ed
▁of f
.. .
ge l
te t
p ro
p l
▁wur de
w o
i ent
r at
▁werd en.
ll en
▁n o
▁b er
on s
en z
▁me hr
ion s
▁in tern
▁on ly
▁y ear
▁f e
▁Pres ident
▁be c
▁su pp
▁con s
▁Pr äsident
em ent
▁st r
▁a ber
m it
ol og
▁f ind
ad e
▁U m
g lie
o in
▁ 5
el y
l in
▁w enn
▁ab out
▁l ike
▁p olit
te il
sch l
k e
) .
▁ 4
p os
▁kön n
ib le
at er
en ce
ent r
ch en
▁an y
h t
i ous
▁m üss
c ed
▁ Y
le ich
▁se hr
▁pro v
an ge
▁g es
▁Re g
vel op
g t
▁t ran
ung ,
al t
al ly
w end
▁uns er
n ah
b lem
▁e ff
c ess
am p
f e
ol le
j ect
▁al le
▁s ow
ie d
i ament
▁ ra
ü tz
ar beit
▁Ar beit
on der
▁f in
▁Parl ament
r ing
is m
▁kön nen
▁re c
▁th ese
▁s erv
▁s ol
le d
omm en
▁Mit glie
i o
▁d ire
us am
fü hr
ul ar
at z
▁M ember
▁v ie
ow n
f ahr
ers on
▁h in
p h
il ity
te ,
▁im port
icht ig
x t
▁dies em
a .
st it
ä l
▁M en
▁S o
sch en
i der
ir st
op le
st a
ing s
▁ge gen
▁ if
ing ,
än d
▁de velop
▁t r
f l
▁w el
▁s uch
f ol
▁re port
▁i hre
o ok
ing .
or s
w n
▁Europä ischen
ra g
f en
ier en
▁g r
it ät
▁the m
▁p ol
c es
u en
ment s
▁b is
▁s ub
▁l a
ate g
aus e
usam men
▁in s
sch e
if ic
▁re l
▁m y
▁Parl iament
h nen
▁Z eit
▁o ver
it u
▁M a
▁2 0
▁ist ,
▁in to
▁pe ople
lie ß
▁w ere
▁ge w
▁N e
) ,
▁we ll
st r
an s
iv en
c re
▁ge m
▁b est
▁ Ü
▁intern ational
m al
er g
▁A s
es ent
▁v iel
▁s ome
- S
at ive
▁c om
in n
▁mö chte
hal t
▁s ystem
▁wh at
en e
l ung
c il
ich er
▁in v
▁Mitglie d
con om
▁President ,
▁M ar
▁a ct
ü hr
um ent
▁d if
b s
▁h ier
▁m ark
▁O r
ar ge
▁h igh
at ur
f r
re i
h and
for e
▁C oun
▁ein es
urop ä
▁I m
ent ion
▁Ü ber
▁h otel
▁k n
o u
ig er
▁h er
▁b ed
u ll
▁countr ies
▁f irst
k te
▁l oc
▁th an
w or
▁in cl
▁us e
▁v om
▁m ost
olit ik
ver y
ie t
▁M e
z eit
k s
▁h el
▁N ach
ä ch
▁de c
s el
▁h is
▁ Q
▁l ie
ay s
▁gro ß
▁part ic
am en
ö glich
al e
▁müss en
▁v ers
a ce
▁und er
▁wh en
ed .
ation ,
▁pol ic
ro ugh
st and
▁werd en,
it z
re ch
▁tim e
pe ct
▁Coun cil
▁K on
it te
ation .
▁j ust
▁En tw
h m
un den
▁sow ie
▁d am
▁b as
k l
▁le g
▁n ow
▁H e
▁ag ain
▁e uropä
▁L and
▁supp ort
et t
än der
ib t
ste ll
t re
▁a ut
▁m ach
▁g u
▁Ber icht
igh ts
▁dies es
▁F l
▁I hr
etz t
we en
on d
▁m ake
stit ution
▁P l
▁e conom
▁h ow
▁ro om
st ütz
▁p la
▁R at
▁w o
▁man y
r y
▁bet ween
j e
▁C omm
ar m
▁as s
▁pro pos
ot h
▁f re
▁ 6
▁re qu
hal b
▁m o
gram m
▁f r
f ter
ab e
▁te chn
at ing
▁p oss
c y
▁p ar
ur s
▁zw ischen
ö s
w are
▁B ed
▁Ver b
b st
w ir
▁ber eit
▁im p
z ie
▁k on
▁Entw ick
▁wor ld
o ff
ub lic
▁mark et
is ter
▁p os
▁t ake
f ul
u er
re d
▁Mitglied sta
▁Men schen
▁import ant
▁En t
d r
e ver
is ten
c ted
▁f o
z ial
esch ä
▁bec ause
▁In tern
▁ist .
▁s el
le ar
at t
at h
▁s on
h ör
▁o p
▁uns ere
▁n ational
it ä
at ter
▁A ll
w ard
▁m in
▁go od
▁wh ere
al ity
is ion
ly ,
▁k eine
▁G es
▁ver b
▁h and
▁I hre
▁g reat
▁re m
o ,
d em
ver n
n is
ed ,
▁U S
▁t wo
▁a v
▁in formation
▁m ein
o ugh
▁M in
o te
or y
▁e mp
▁Pro du
al s
ra uch
ic t
a x
h o
ur n
r ä
i um
▁e very
▁p oin
tra g
n et
ö ff
▁ein z
▁w ay
▁h ad
▁e le
ag es
▁Gr und
▁con c
l ish
▁ end
t schaft
m in
ic es
▁b ie
am il
ro l
at s
▁pro blem
▁ev en
ess ion
ur es
▁th rough
la ub
af f
f ort
▁I f
ung .
▁is s
er .
a ut
▁19 9
▁ Ä
▁ [
a ir
▁th ose
l es
▁ge t
▁s a
for der
el s
s etz
id en
ur ing
ass en
▁Ar t
▁produ ct
▁and eren
▁an ge
▁s c
oun t
ere ich
▁ 7
▁F in
ce pt
▁A m
▁be f
uß er
hal ten
▁t ak
im mer
d ay
un kt
▁I hnen
▁im mer
isch er
ere in
▁or der
▁F r
▁m ay
ur r
▁Z usammen
um an
▁m ade
▁se e
▁S eit
▁be g
▁for m
l ick
ig ung
▁wird .
▁W enn
▁dis c
▁Fra u
ess en
r if
u es
it al
▁d ann
gan is
▁E x
▁1 0
▁ 8
sch ie
▁vie w
▁a c
▁kn ow
un ity
sp r
▁St ates
iv ers
▁g ibt
c om
▁be ing
▁dire ct
▁n um
erm an
▁H aus
▁B es
it ed
▁r est
▁f act
▁k e
▁Th ere
▁weit er
i or
we ise
▁W h
iv es
▁ '
sch ließ
▁be lie
▁partic ular
▁app ro
▁wie der
▁c ent
ist r
00 0
▁dam it
▁dif fer
▁dies en
ust r
y s
it t
g est
▁c ar
st er
▁M an
h ne
s icht
▁z we
▁tran s
▁g er
▁incl ud
▁o wn
v or
le x
▁O n
▁B ereich
▁g anz
te .
ten s
b al
a ur
▁G ro
▁bes te
▁pro cess
fol g
er k
icher heit
▁de f
▁ ...
ein s
▁res p
el n
f ach
le ,
in ess
▁D es
▁d el
ult ur
re ad
neh men
▁m on
al k
ever ,
▁K omm
1 0
ze ich
▁ge b
▁C on
ol d
ö ß
än dern
▁Dies e
▁r ight
▁b us
▁ag re
h en,
- P
▁g esch
all s
▁Mitgliedsta aten
▁A t
▁Europ a
p art
▁qu est
a z
▁m us
▁m ain
▁w ichtig
▁ex p
▁k ein
▁p h
▁b u
▁H and
▁m uss
äl t
▁unser er
h in
▁st and
iss en
o ol
et h
el d
▁Ge b
▁s itu
▁re al
▁hab en,
o y
▁comp an
ig t
▁ 9
ro und
ow er
i x
▁hel p
▁h ere
▁s m
schaf ts
ill ion
k ommen
▁son dern
▁Z u
ß nah
p iel
or g
▁Y ou
▁G em
▁de b
▁a fter
▁In ter
▁sein e
n ung
▁jed och
▁polit ical
ent s
en g
kt iv
in ce
te gr
- M
▁Europä ische
ach t
ru ck
▁aus ge
▁p ublic
▁pla ce
▁ ide
▁g ut
▁In formation
▁in cre
▁conc ern
g esch
ow s
mit tel
▁pro te
▁poss ible
▁B r
w .
el le
▁p erson
▁c re
▁B ar
▁B ür
▁reg ion
re is
än g
▁s im
▁Sch l
schie den
iss e
ir on
▁c lear
▁e tw
▁w ür
▁wird ,
▁s er
▁h uman
er al
▁s ay
öglich keit
ier en.
ä tz
▁co uld
er ation
▁develop ment
▁b ring
▁d r
▁sind ,
▁In d
▁he ute
is k
le ment
w eit
n der
i ,
▁num ber
sche id
▁cont in
▁Vor schl
▁s ame
fü g
b ens
▁of fer
y p
▁ne ue
▁econom ic
▁c urr
▁g leich
▁ est
- B
f ern
▁Te il
a j
▁o pp
▁St a
ert ain
▁with in
▁eff ect
▁st at
neh m
ge t
i ß
▁w en
▁St r
▁H er
▁r ights
k en
▁k omm
an ts
h en.
s atz
ze ug
v en
it i
▁Ä nder
▁f est
▁w ant
▁sind .
▁F ran
ent lich
▁do es
in nen
ke hr
▁s tell
▁av ail
▁F re
▁tran sp
▁1 5
▁sel bst
▁again st
in a
▁bereit s
up t
ä hl
▁m uch
h ip
▁m ich
▁f und
▁v al
w ay
▁b oth
iv id
▁d at
▁l ang
▁B et
ad t
wor k
la ge
an der
▁v is
we is
o .
entr al
▁pro f
▁H ow
- A
in ,
ich te
o ck
▁könn en.
ier te
▁ihr er
lo bal
▁f un
▁s ur
st ru
▁le vel
▁mö glich
▁v ar
▁H a
l er
▁f ühr
▁s ign
st änd
▁h ist
e p
lo y
▁I s
v iron
ä re
▁e qu
b es
ft ware
▁m ed
ust om
▁H in
▁europä ischen
at or
et .
▁o hne
▁W ie
▁p ra
▁n at
▁E ur
▁be k
▁prov id
▁V ers
▁con f
▁pl ay
ch ts
if f
u x
▁f ull
▁reg ard
▁and ere
b r
age ment
▁so cial
▁R icht
▁ne uen
▁c r
▁G erman
▁W elt
viron ment
o ver
er ung
▁b re
p f
le gen
ur g
p ar
▁differ ent
▁Entwick lung
▁K l
▁den n
▁zwe i
▁th ink
▁fin an
▁ex per
▁gro up
▁with out
▁le tz
ir m
▁st ill
w ick
ous e
▁1 8
ier ten
h a
▁year s
e ut
▁e igen
▁me as
▁Präsident ,
m b
▁ ens
un der
w ort
c ur
ra ft
▁M on
▁S icherheit
▁1 2
▁o per
▁cons ider
g ar
ent ly
▁ad v
- s
▁Fra ge
▁l ong
ol ution
▁th en
ction s
▁M us
▁G en
f ass
i qu
▁acc ess
ct or
▁gem eins
▁us ed
▁b o
▁pr iv
▁m od
▁F e
h or
▁o pt
l ine
▁l ast
▁S te
is ts
▁P art
ä ß
▁polic y
o hl
▁w oll
▁t erm
▁m ak
▁spe c
lich er
oll ow
▁f l
E R
▁ver schieden
▁ ers
ähr end
ßnah men
n ess
▁P erson
▁ge l
▁pr in
▁d own
▁hab e
ost en
▁go vern
▁at t
al en
▁s et
▁den en
▁unter stütz
▁agre ement
▁avail able
▁c ap
▁Bür ger
▁requ ire
con d
ung en,
▁b ack
im e
ut ure
onder e
v ed
h ol
ib ility
▁inter est
u de
ten d
ier en,
▁ab le
▁k le
ra ch
w ert
▁Jahr en
▁K ont
ur ther
z ahl
ab ility
▁spe cial
▁bus iness
in es
al th
▁da zu
y n
ge m
▁St at
ien ce
▁ein fach
v ers
i ze
f ic
ün d
ical ly
ien st
k un
t en,
▁D em
▁sm all
r icht
▁Mit tel
ä h
▁l ook
ers ,
af ür
is piel
▁quest ion
te m
▁T ra
t ing
▁c or
▁c ustom
▁we il
▁b en
read y
▁A ut
▁d ay
▁g est
▁f uture
▁hab en.
z us
▁belie ve
kt ur
r es
it or
▁z e
ter s
▁a ir
iv er
▁s om
▁all er
▁there fore
▁St and
- F
an te
w ar
ul ation
as on
▁resp ons
z ug
ah re
▁f ree
▁vie le
a kt
▁all en
or te
e ll
▁sein er
] ]
ers .
▁al ready
▁to day
▁dar auf
▁Th at
itte e
▁en vironment
r on
▁des ign
ese ll
ism us
▁hat ,
▁M öglichkeit
▁v oll
ü h
▁B ut
et ,
▁Z iel
le t
▁in st
▁pro ject
rit t
▁c ann
▁comp et
▁gr öß
▁Th em
▁e t
▁Fin anz
▁D aten
▁e ing
▁pr es
op e
▁ 0
▁R ah
▁Reg ion
▁T o
im in
▁propos al
it iz
▁s ag
it s
am m
▁L age
▁cann ot
v ing
▁f ac
w s
c r
▁bie tet
▁c ertain
ok rat
cur ity
▁p ers
▁are a
ess e
▁e as
▁f ollow
▁Pro blem
▁pre v
ö l
▁op en
ot her
▁a ch
l os
▁sch on
ge ben
ater ial
▁M ed
▁m ir
m ar
▁be fore
▁in t
l ä
ra ph
ation en
▁re du
▁s eit
▁An d
▁re pr
▁k l
▁ind ivid
▁M ein
▁bef ind
▁j etzt
▁pr esent
le ist
▁ne g
▁V erein
ah er
▁R o
▁S ystem
f ra
ah n
or n
un e
▁l if
▁ein ige
▁Re chts
▁h al
ol id
▁d afür
▁En erg
kl är
▁[ [
▁wor d
▁p ut
▁ &
as ed
b le
▁im pro
nah me
la gen
t ain
ir d
▁Gem ein
E N
▁Herr n
ungs ant
▁poin t
ent ial
▁T ran
is ierung
cc ess
fahr en
ult ure
re ib
i ber
▁P ol
▁R uss
▁in tegr
aj or
▁p le
il it
if ied
▁Rah men
e ich
▁finan cial
▁Komm iss
▁c ity
▁ch ange
▁me et
w elt
▁hist or
ies .
▁A mer
▁ öff
ies ,
▁act iv
gr und
▁d uring
▁j e
pr ess
o de
▁p ass
is ed
▁re v
▁Z immer
▁off ers
▁in stitution
▁c itiz
▁al lem
▁inv est
ier t.
▁zur ück
ä m
k omm
▁ihr en
pp en
▁comp le
o ve
▁ge f
▁pro m
▁pos ition
▁f ol
▁S erv
▁sa id
▁de ut
ich ter
▁J ahre
ra f
ia ,
iv ing
2 0
at her
▁g lobal
▁n un
▁l arge
▁mo dern
2 00
▁Un s
▁ach ie
▁200 9
▁en erg
- c
ab en
▁re f
▁s af
▁e l
▁Kommiss ar
▁ex amp
▁lie gt
▁as k
a um
ic s
▁Be i
▁ Ö
▁W or
abe i
▁qu ality
il t
n ov
▁app lic
▁m ajor
▁Aus sch
▁hat .
p unkt
▁m ember
▁co ur
▁co st
▁Intern et
hal ts
▁f amil
ant wort
gr ess
▁ent sp
▁c as
in s
at iv
▁F ür
▁pro gram
▁s ince
▁b esch
▁bes onder
e k
lich keit
▁str ateg
re it
▁deb ate
g end
i end
▁ne cess
ern ,
▁con dition
un ter
▁Al s
et her
▁ar t
▁f ar
▁G o
▁A d
▁en g
n isse
is l
▁uns eren
▁K in
as ch
bes ondere
▁P al
▁Ge w
it ive
▁co op
c ome
g ang
▁techn olog
▁Ein e
ges tell
il ities
v ention
▁S h
om at
▁ch ild
▁O ur
▁am end
▁con tr
▁wur den
▁comm on
▁wür de
▁W ith
▁Ma ßnahmen
▁S pe
▁B est
▁e ach
- T
▁ad op
an c
▁Unter nehmen
▁b in
ß en
iel d
am er
▁ch e
▁soll te
är k
▁m atter
h af
eschä ft
▁For m
▁m eine
▁G esch
ual ly
▁soll ten
▁Information en
t ig
▁P h
▁sol ution
▁G er
▁En g
▁stand ard
▁Arbeit s
- R
▁me ans
▁P olitik
om en
▁dat a
▁B o
▁aut hor
▁includ ing
▁st ay
op p
▁3 0
i pp
▁w ährend
▁b ud
re t
ge w
z en
- D
sch ied
▁etw as
l oss
▁all ow
- K
▁U r
c ip
ab lish
▁countr y
▁How ever,
w ays
an ,
▁fo und
▁W er
ie le
▁ /
▁are as
▁Un d
▁Vorschl ag
▁res pect
▁f ra
ort h
▁B ild
▁c olle
▁d och
▁st ud
ff en
▁so zial
▁R es
h ält
▁th ree
h äng
der s
b ed
▁g ive
str ument
▁ein ge
▁dem oc
▁re ce
1 .
▁ens ure
▁sein ,
v es
lin ie
ür lich
u ge
il y
al ,
▁er m
▁ne xt
iz ed
▁ad dition
▁f urther
▁tra dition
f ang
▁fe w
▁th ank
▁t un
▁disc uss
▁L änder
I n
▁ob ject
st imm
▁De ut
g leich
▁im m
▁bu ild
▁su ccess
▁f il
▁B l
in en
▁or ganis
▁c al
▁Unter stütz
▁D urch
▁se cond
▁cont rol
o f
▁F all
▁prov ide
g re
▁serv ices
i ate
ion ,
ze pt
▁and er
un de
eschä f
▁L ös
▁Comm ittee
▁g ar
o hn
we g
▁ein mal
▁ |
▁St adt
on ,
el f
▁ins besondere
zie h
z iel
▁p ay
▁d et
▁W ar
▁emp loy
▁( 1
▁Q ual
setz ung
l ungs
▁Q u
tr ä
▁l ink
p or
ch ten
▁st ar
▁est ablish
▁gro w
▁a ußer
▁d u
or m
▁R est
▁ver l
▁re ad
▁best imm
▁Ver füg
▁ab s
u le
rie d
as h
▁It al
▁Te chn
▁Z ug
kun ft
je kt
▁e ar
▁wir k
▁K omp
▁Gro up
in ing
▁that ,
▁be im
ut es
▁e m
▁serv ice
- m
▁p op
f alls
▁opp ort
▁in de
▁s k
▁Mar kt
ig in
r en
- E
▁find en
▁er sten
▁sh all
p end
▁Sch w
▁2 5
▁h o
▁er reich
▁Zusammen arbeit
▁necess ary
m a
un ic
▁d id
ultur al
▁sch w
▁Pro gramm
p olitik
▁1 4
i en,
▁ad d
▁t err
▁We bs
ord in
▁prin cip
▁b l
ru ct
' t
▁be gr
▁d rei
▁v o
▁a ction
▁z usammen
▁leg isl
▁ ä
▁ X
▁T ag
▁se curity
▁pra ct
▁Sp iel
t schafts
▁C l
b au
▁tak en
▁M ad
▁sim p
▁inv ol
A T
ig en,
▁er st
b o
▁he alth
al d
▁re t
ör der
▁ke y
▁Änder ungsant
ro ss
dr ess
ä d
▁ent wick
▁kann .
▁le ad
en k
▁ch ar
ord nung
b urg
stell ung
A N
be wer
is te
at te
h t,
are d
▁wh ile
▁T r
▁in form
ess er
▁b ro
ur z
▁wir tschaft
ge ther
ne ll
le ct
▁D ienst
icht s
▁sich er
▁re ason
▁1 6
c ing
z ess
▁ ir
ro du
▁loc ated
t es
▁situ ation
▁w ish
ra che
ktion en
▁De b
j oy
▁repr esent
▁N amen
▁p ower
ro p
▁D a
▁prote ction
▁g iven
gan gen
ar ch
le it
heit en
E S
I N
▁imp lement
▁C omp
▁Eur o
▁c ome
sch rif
and s
▁and ,
▁Parlament s
ear ch
i ation
▁re fer
▁L ändern
▁Reg ierung
▁b r
▁product s
▁S w
os ition
▁w rit
▁sein en
est s
▁G eschäf
▁V ol
ra d
▁R om
▁1 7
ain s
kt or
k ten
▁könn en,
il fe
▁b ar
ü f
all en
▁P ort
▁t re
▁The y
ie w
▁com b
wir k
▁D ar
▁Amer ic
m an
▁R ed
c o
▁al ways
▁O b
sch ein
▁k omp
▁B esch
▁B el
▁s ens
▁K olle
▁c ase
▁w äre
▁bet ter
ce ll
▁K ol
▁n et
▁st art
▁Un ited
ichter st
▁sh ow
ust rie
▁a kt
▁B eit
▁m ult
iv il
▁wh y
ett bewer
v oll
führ ung
k on
l ing
▁ge ht
ers tell
▁N utz
entr um
▁N ot
ial og
▁to o
▁( A
▁g laub
f re
▁energ y
▁comple te
▁d ank
wend ung
▁ge hör
ar te
▁w icht
▁Unterstütz ung
▁re le
▁Um welt
▁20 10
▁200 8
z ü
▁h ö
sp ro
ber eich
ä mp
re chte
▁h ope
i od
▁res ult
▁f av
▁L a
▁ch o
▁letz ten
- b
▁Comm unity
se qu
at ch
▁Energ ie
▁m uß
ier t,
l ess
▁iss ue
▁K r
ik an
b lick
▁Ent scheid
▁meas ures
▁Bed eut
re g
ob il
cl us
▁us ing
ier ungs
▁m ov
▁5 0
und heit
▁K o
▁cons um
▁b le
▁re ach
is ing
▁leg al
▁s ing
▁S k
▁ent fern
▁la w
▁se ctor
▁a round
r än
ge ,
▁1 3
ig ten
▁con ne
▁W as
▁transp ort
öl k
▁ev ent
▁curr ent
▁W el
▁S er
ab il
▁Le bens
lo ad
▁der en
▁re p
- G
▁produ ction
uch t
mar kt
▁Wh at
pf lich
▁v ote
▁G u
eit e
▁wel che
esell schaft
▁sein .
pe cial
et s
▁US A
b ild
erv or
at ely
ge d
it er
▁cl os
▁in ner
l ungen
▁sh ort
▁Er geb
▁n on
▁ra pp
▁be l
▁F amil
▁room s
▁F un
▁to ur
▁H ier
ward s
▁Mr s
▁bas ed
itä ten
s k
▁wh ether
▁groß en
▁K unden
▁groß e
▁m or
▁individ ual
a gen
alt ung
lich ,
▁S itu
ho f
▁l ess
▁l im
a pp
▁c rit
▁dif fic
▁cent re
ut en
▁ex tre
ün st
▁bec ome
▁to gether
ct ive
it es
▁W hen
ot t
schaf ten
▁ne ar
▁s l
▁A ber
▁Th ese
▁an other
▁1 .
▁particular ly
▁F ol
es en
▁govern ment
ed er
ic e.
ateg or
fer enz
▁Intern ational
▁d ist
▁st ate
o ten
▁Sch utz
ib ution
▁le a
▁2 4
- L
um en
▁res earch
k auf
▁tra de
▁f ield
ro s
▁A uch
▁z ahl
▁ind ustr
▁d abei
ß e
u pp
d ruck
▁B us
▁Ver trag
ic e,
- C
▁B ank
▁Rest aur
▁h im
if y
▁m en
▁Kin der
▁1 00
ad en
▁rapp orte
▁c are
▁work ing
▁Re gel
▁Be ispiel
▁bek ann
as ter
▁T ur
▁b ene
▁A ir
▁not wend
▁Ber ichterst
▁( S
▁j oin
▁B en
▁k m
▁c all
▁m et
▁da v
ern .
▁res olution
ro om
le .
▁h ervor
ich ten
wer k
i ar
ul es
▁wur d
in ed
c kt
▁200 7
▁öff ent
" .
as tr
▁U N
▁or gan
ik el
▁entsp rech
▁vis it
▁loc al
ish er
ar ante
ro ll
▁Z ahl
▁Re cht
▁spec ific
▁fr iend
en der
▁Pro ble
▁dar über
ät ze
▁er forder
▁Wir tschafts
O N
iqu e
▁compan y
igkeit en
w ach
▁rest aur
▁St ud
▁dec ision
v est
▁citiz ens
▁bre ak
▁a ff
▁S an
al le
▁res ul
h ö
▁be ach
▁sub ject
pecial ly
ur al
▁b ook
▁an n
▁gegen über
▁e ben
▁sch nell
▁jed er
▁ad dress
▁h off
ion .
t y
ord ing
▁G ä
▁t ax
▁E l
▁var ious
ä uf
▁b rauch
▁ex ist
▁co urs
▁Ne w
▁F ahr
▁en joy
eng th
▁r un
g aben
▁We g
f äh
lo ck
▁V iel
▁c ol
▁EU R
▁L ie
▁d i
▁exper ience
▁ges am
gem ein
▁how ever,
ü t
ig es
" ,
▁F ort
▁ ur
▁p age
▁Präsident !
▁sow ohl
▁ste p
▁W ahl
▁t yp
▁Haus halts
▁o ld
h ang
ver al
▁M ark
▁Fra gen
im ate
▁be w
e ign
5 0
▁bas is
ad ies
▁gu arante
sch utz
▁weit ere
▁prof ession
▁be h
▁a im
▁M al
▁n äch
t il
▁G ar
oc ument
▁diffic ult
o gen
ia .
ra um
▁eigen en
▁th ird
▁En de
▁o cc
▁d ort
▁Ihr er
▁nat ürlich
▁St ra
▁p ack
he b
▁P reis
▁be aut
▁com fort
▁it .
▁re ally
us e
▁mein er
▁bud get
▁Ch ina
ge ord
ück s
▁de al
is ation
te xt
▁s um
▁comm it
▁spe ak
▁n ie
▁ar beit
▁coop eration
▁polit ischen
▁Ha upt
▁kl ar
w and
▁P re
ent en
▁eff ort
ass er
▁d istr
▁in nov
▁Par k
ü d
▁pr ior
▁mon th
ing ungen
isch es
▁Geschäf ts
▁st aff
an gen
et en
sp l
▁need s
▁cr is
▁pro gramm
▁acc ount
▁g ent
▁per iod
▁Deut sch
u c
▁er folg
▁Ge gen
▁th ough
ch an
is en
▁For sch
▁to t
ge leg
▁te il
i .
▁or igin
3 0
▁Me hr
ung en.
cell ent
▁pro ced
▁m ot
ün ft
if iz
▁verschieden en
▁rapporte ur
▁1 1
▁wirk lich
▁T our
og raph
▁n am
▁fo od
- V
▁h och
g abe
▁to p
▁inner halb
z uf
▁n or
▁besonder s
ly .
o ber
▁Berichterst atter
ar n
▁Aussch uss
▁es pecially
▁neg ot
▁cre ate
▁d aher
gen ommen
A R
el ,
lich .
▁problem s
▁Z we
om ent
▁Min ister
▁pl an
▁T reat
▁t urn
b y
▁Al le
c .
ig ,
▁priv ate
st off
▁w ater
▁F est
▁R olle
in ter
t on
ens ion
▁per form
ist ic
- H
▁t reat
▁pr ess
I T
▁appro ach
▁person al
▁viel en
▁J an
y l
▁be tr
▁cl ose
▁L in
▁m illion
▁N atur
▁zw ar
▁ver wend
▁gen er
▁so c
ut er
du c
o or
e c
▁term s
▁re form
▁pro p
▁W ettbewer
▁fav our
▁Seit e
▁ent er
▁d ra
ol f
ass e
▁am ong
▁( P
▁j ob
h t.
▁Kolle gen
h men
▁international en
ro w
▁i hnen
i ol
▁its elf
z ip
▁som eth
eit en
▁T err
▁lang u
▁ ess
u gen
▁Kol leg
rie den
▁G ru
▁in iti
▁se veral
ben e
▁gen eral
▁D ire
▁st ruct
g lichen
iv al
▁do ub
▁W ind
▁C hr
▁inst all
▁A fr
▁res our
▁m aterial
in ation
im al
le b
at ure
me work
g en,
▁D isk
▁Richt linie
ts .
▁d ocument
tem ber
▁to wn
▁dire kt
▁ro le
▁incre as
▁So ftware
▁O p
▁we bs
ip t
▁Verb rauch
▁Ihr en
rit te
ut h
▁reg ul
▁n atur
än de
part ment
▁U hr
▁N o
▁en c
▁d ür
▁beste ht
▁W och
▁hin aus
▁g l
▁le t
▁in c
▁p at
w h
▁sing le
▁p ort
ks am
▁Str ateg
w är
▁Them a
▁m ar
ün f
ch er
e g
m os
▁aut omat
or en
▁dav on
h aus
▁who le
d ings
▁int rodu
führ t
iet y
▁( C
▁gew ähr
▁" S
▁auf ge
iv ed
▁K ü
▁sh e
▁ex cellent
▁pro gress
▁a way
b et
▁cour se
am t
▁ser ious
▁all es
▁pe ace
▁Zu kunft
- in
d .
▁l o
I S
▁Union .
▁k ind
ch es
▁beg inn
ts ,
▁c reat
red it
▁op in
▁me an
neh mer
▁gent lem
▁someth ing
ard s
▁wurde ,
zeich net
▁man agement
l ik
gr ic
▁s up
▁200 0
▁fun ction
▁kon n
enn t
ab ly
▁F isch
ue llen
▁Seit en
▁follow ing
la uf
h ens
▁under stand
itt le
▁t ro
▁We ise
▁l ist
▁mak ing
im a
▁partic ip
w ä
af fen
ation s.
th ing
- 1
▁erm öglich
▁ste ht
▁Tran sp
uch en
▁Ber lin
ity .
▁E mp
fe hl
▁cris is
▁H ouse
th ough
▁europä ische
c el
▁go ing
▁an s
▁cont act
▁Fra uen
▁ac cept
▁for ward
▁war en
▁an al
▁bene f
▁s ett
▁Fran k
pro du
▁Wor ld
▁m one
▁extre m
n ers
▁M y
▁Ges undheit
▁g ra
▁ers te
▁member s
▁Proble me
▁on ce
▁so ftware
▁gentlem en,
▁st ark
l ag
▁Re p
▁r ange
▁to wards
legen heit
ach e
▁b al
c a
▁wurde .
▁befind et
▁19 8
▁ex press
▁gen au
▁Un ivers
od y
u h
ur y
▁abs ol
▁d on
ot s
▁einz el
▁In vest
rie b
▁M illion
▁rec og
▁d est
▁contin ue
▁m ention
C H
ind ung
▁Zusammen hang
▁G leich
ck en
▁w alk
▁iss u
- 0
olog ie
▁h ät
▁p ost
fer ence
▁Ab geord
▁comm unic
re chen
▁fe el
▁ ident
ra el
▁( D
▁C ar
▁of ten
itä ts
▁N ov
▁un til
om b
▁l and
▁P e
▁m ilit
as st
▁K ar
em p
▁unser em
▁Gä ste
g än
▁Mad am
y r
▁A pp
hal ten.
out h
▁tim e,
▁we ek
2 .
wir tschaft
▁Art ikel
▁n utz
arm on
▁be iden
▁N ational
▁a id
st um
uf f
▁an t
sp rache
▁def in
▁R ück
▁fin anz
f ect
us ätz
ue ll
▁2 .
as ,
▁str ong
▁200 6
y pe
▁sag en,
▁D o
▁Ent schließ
v ent
tra ct
▁Sp an
▁Bedeut ung
▁C an
▁K ultur
äch st
▁M et
O R
y m
stimm ung
on n
id ence
en ces
▁bie ten
is ions
▁wel tw
le icht
ment .
▁opport unity
z immer
pl an
▁l ittle
at iven
ally ,
be i
uß en
▁Ver antwort
- f
ment ,
▁J ul
▁F il
▁r ather
▁ke ep
▁Dem okrat
▁b z
ar s
▁grow th
▁Se p
▁ste hen
ik a
r .
▁activ ities
▁m ind
schrif ten
im um
i j
hal f
oc us
▁h ard
f ull
▁Dies es
uf t
er ien
ap s
ity ,
▁B as
▁Fra ktion
ed om
▁che ck
pe kt
▁v e
▁Deutsch land
we il
▁qu ite
g o
▁ il
m äß
▁M o
▁W eit
▁lif e
▁Union ,
▁se em
▁f ast
m or
▁Sta aten
▁Serv ice
▁s w
A S
▁begr ü
▁Or ganis
▁Part ner
e an
is on
▁ph ot
▁i hn
▁t as
▁bz w.
ass en.
▁ele ct
▁s ug
▁Hotel s
▁S c
▁de v
ämp f
b our
▁ind em
ig t,
st ra
▁ch ang
is es
▁be half
▁Schl uss
f all
▁Commission er
ag n
ic le
ar ian
in o
enz en
le tz
age ,
rä ge
▁w omen
eth od
▁Des halb
▁qu al
omm end
▁le ast
▁C ent
▁tr y
▁child ren
▁f our
g enden
▁S tell
▁ges ag
mos ph
▁Dienst leist
ail s
▁b ig
▁eff ic
▁rel ations
▁sp iel
▁incl ude
ab häng
▁S a
▁sign ific
▁rem ain
▁n äm
▁wen iger
▁m ight
▁ver w
teil ung
▁l ab
wo hl
fü ll
▁incre ase
if ul
▁etw a
th e
▁Ch ar
ter ,
▁g ute
▁St ate
ure ,
▁So zial
on ger
iv ely
▁full y
ament al
▁ide al
▁d one
▁A ss
▁ver fü
▁pers ön
ond s
▁p ark
▁pos itive
▁er halten
▁zahl reich
ic a
▁wel come
iz ation
ein ander
▁A fter
en en
▁ag ree
id es
▁Er fahr
zeit ig
▁k urz
▁so gar
▁Pro jekt
▁p ur
▁Sep tember
▁cont ent
▁fra mework
▁ha ving
▁jed en
rat ic
▁l adies
▁direct ive
h under
▁condition s
▁b or
▁ad min
ä ge
re cht
ic ial
▁P at
et y
▁P unkt
▁n ah
▁G eld
▁an .
v ölk
▁P er
O M
▁e duc
▁al ong
▁r isk
sel f
- W
▁contin u
ific ation
sel ves
▁ar ch
äch lich
e llen
m et
▁H ilfe
g en.
ber eit
▁l og
▁p a
▁A ustr
bar en
au er
▁Situ ation
ra cht
▁iss ues
s weise
▁Pr iv
▁rec ommend
imm t
ran k
▁An ge
▁ab ove
▁ger ade
▁h our
eit s
▁T od
▁unter schied
▁kann ,
▁compan ies
t ag
▁In stitution
▁Million en
▁mach en
▁f air
op h
r ic
▁o th
ver b
le an
ese hen
f ast
▁adop ted
a i
▁nicht ,
▁examp le,
▁näm lich
ier e
os tel
▁s uf
ere cht
▁ess ential
▁net work
▁D ank
▁b itte
▁S al
▁Zug ang
ig en.
u z
t igen
▁T ats
▁T ür
▁str ength
▁We b
iber al
▁i hm
at is
▁st att
w ahl
▁f lo
age .
un st
▁sein em
▁ ü
m ost
ie f
▁tak ing
▁v iol
▁Le ben
ier ungen
fra ge
an st
ce ,
▁le d
▁char ac
▁4 0
▁ent ire
b ank
▁Be zug
▁mak es
▁me isten
▁to ol
▁cl ass
▁Dies er
st ant
le i
▁b ank
▁st re
▁transp ar
ag er
ure .
e um
▁cal led
▁ble ib
▁bed e
▁dar f
▁f lex
▁a gric
▁Uns ere
une hm
▁b ath
▁s end
▁polit ische
▁Ch in
▁ret urn
▁te xt
b are
ä um
▁con stru
lich es
re icht
▁ne ver
e x
ü l
▁provid ed
▁Jan u
ig r
▁K ap
▁f ocus
▁w esent
▁B uch
▁gen ann
w ord
▁tim e.
▁e ur
rif t
▁Z ust
▁In iti
▁l ine
at en,
ru ktur
▁g re
ün sch
▁a k
ig ital
▁200 5
▁eben falls
f ind
▁stell t
▁an ges
▁Re chte
▁g ib
▁n ame
▁w ahr
▁( E
▁F rei
am b
▁in strument
▁( F
▁O ne
▁loc ation
aus sch
▁famil y
v ement
▁Gr ün
▁fre edom
▁Ver kehr
▁Ver hand
▁att ention
s ide
ber g
▁Ges etz
▁Produ ktion
h enden
b on
▁An tw
▁Entwick lungs
▁p ot
ure d
▁Europ e.
▁G l
ide o
▁provid es
▁te le
▁re cht
▁r en
▁S el
wo hn
er st
ur f
▁dem and
▁I de
▁co ver
▁Te xt
rol le
▁h ome
▁respons ibility
▁se hen
A L
iss en,
at ives
▁Lös ung
▁ne u
▁beaut iful
▁del iver
▁E m
▁S ub
is ,
▁et c.
uf act
▁öffent lichen
ir c
▁N or
ik en
▁der zeit
▁appro pr
bens o
h an
▁on line
n ow
▁re la
▁t alk
▁rec ent
▁N icht
▁Jahr es
▁cours e,
rie g
ap an
▁Unter nehm
es ted
amp f
▁d om
▁per fect
▁d ue
zü glich
▁J ust
▁te am
▁import ance
▁( B
▁K osten
▁Ver w
▁H ö
▁Produ kt
▁Fl ug
▁m ass
▁r ules
▁s port
w ür
t a
ust ain
ä us
iv e,
▁B eschäft
issen schaft
▁Fr üh
gre if
▁Re i
▁y et
▁v ol
▁ihre m
▁he ad
▁Jahr hunder
▁An geb
▁Produ kte
le ase
zus tell
▁s ite
▁Europ as
▁bede ute
▁kn own
ile d
▁pr ice
▁" T
▁Pro f
▁T V
▁eas y
- O
▁h olid
▁kein en
schließ lich
r imin
ust ry
▁Commission er,
▁Gro ß
▁simp ly
▁J un
u k
▁200 4
▁Is rael
▁Member s
▁W es
z ogen
al .
led ge
▁m ethod
tel le
ver kehr
ä ll
sp olitik
▁le ft
s er
age d
forder ungen
▁z usätz
ation s,
dern ,
▁national en
b an
il f
▁C ont
cept ion
▁T re
for e,
ill a
▁Fun ktion
le men
und s
▁R ates
9 9
▁m oment
▁t able
▁t est
▁ro ad
▁I I
▁weiter hin
▁great er
it ing
un ächst
cr ipt
▁s al
▁ar r
▁s ure
▁er war
▁vers te
▁f ish
▁ra d
▁S itz
▁sch ließ
▁W ach
▁müss en.
ig .
▁he iß
▁environment al
h ib
▁Fort sch
astr u
▁j a
▁yo ung
▁( s
pt ion
▁Chr ist
ücks ichtig
▁A g
▁l ight
▁c entral
▁k osten
▁build ing
▁he art
▁ein igen
▁gu est
fr astru
▁st ärk
än ger
O S
▁custom ers
halt en,
spr uch
in ge
i ations
s en
▁mo der
▁C as
ter m
▁Des ign
un ities
A D
▁her aus
▁F ar
ig ent
▁f a
im es
▁ab ge
▁natur al
▁man ufact
▁B em
▁er klär
▁th ings
▁res erv
▁at tra
▁2 3
▁Le ist
▁f arm
▁an ,
if t
▁system s
▁b esser
▁ben ö
▁tot al
▁M or
an ces
▁mus ic
▁des halb
▁author ities
▁cap ital
▁m ax
un ch
full y
▁qu ick
▁un ver
ass en,
▁in fl
▁Pl an
ar f
▁W ohn
ür z
▁c la
▁t em
▁F ot
schl ag
en c
▁ver füg
▁democ ra
▁par l
▁wor den
lä ss
▁rela x
▁A pr
al er
▁Aus sprache
▁d essen
▁compet ition
i -
▁S port
▁auf grund
at ic
▁effect ive
ie ,
▁p ub
ot ing
▁inter ess
ce ed
▁ex tra
▁Be zieh
ne te
▁mone y
▁le arn
f te
▁val ue
▁program me
ance ,
▁achie ve
▁P ra
m .
▁l ar
▁as pect
▁techn ical
▁Go vern
▁M ay
▁meet ing
▁wicht ige
▁increas ing
n ing
▁so ur
▁wen ig
f in
s id
▁W ill
an t,
am es
äs ent
▁sh are
▁Bes uch
▁D ok
st ück
h ing
er ous
gestell t
at al
▁W ort
u elle
▁g ilt
an ze
▁requ est
▁Nov ember
ig ur
▁acc ording
▁v ia
▁bes ten
▁app ear
▁K unst
▁signific ant
▁erfolg reich
z entr
▁z .
▁Mit arbeit
▁Menschen rechte
▁be ispiel
▁part ners
▁An sicht
▁Ben utz
▁fund amental
us ,
▁l onger
▁nicht s
▁intern al
6 0
är en
▁Sch ul
▁fac ilities
▁examp le
▁N ä
ä ter
om fort
al ität
-P ro
▁B ro
▁v erein
▁en ough
ch ange
▁ob l
▁s etz
▁Be völk
▁V on
▁sol che
pl atz
▁" A
▁respons ible
tre ten
▁charac ter
j en
mal s
▁vers ion
pflich t
▁er n
▁dis k
/ 200
▁B rit
▁c aus
▁Mein ung
▁F irst
▁könn te
▁er ne
▁vor gesch
▁näch sten
▁S ol
E C
▁Men sch
▁F örder
▁Verbrauch er
▁of t
▁ind ustry
▁S uch
▁Ind ustrie
▁kon k
▁l ange
▁verb unden
▁min utes
i os
▁" D
▁prev ent
or ted
▁main tain
▁th ing
▁A uss
▁v ier
▁Pro gram
▁Gemein schaft
▁c ivil
▁I ra
ub lik
fr ist
he im
n ,
▁B ud
▁curr ently
▁Apr il
▁müss en,
in er
schl uss
▁all ,
▁e d
▁terr or
ian s
st adt
halt ung
▁ass ist
▁clear ly
I C
▁St ad
en ch
B .
ro ffen
▁Webs ite
▁woll en
▁we b
▁N ord
2 ,
▁s ustain
▁I r
▁pre c
▁F ern
ver ständ
▁Ab stimmung
▁d ays
▁Fe hl
dr ück
h as
▁W asser
▁Kl ima
ir t
▁il leg
h em
U S
▁is ,
▁C o
▁se le
el .
▁m ount
▁propos als
o id
▁Um setzung
▁ben utz
▁In sel
▁applic ation
▁B ü
▁Wir tschaft
▁z ie
▁Wach stum
▁St ruktur
▁fe atur
▁ver sch
un kte
▁m ess
ce p
▁Sel bst
▁A ug
▁st or
▁verb ess
▁bet re
te ile
▁for eign
▁B au
is c
▁l ow
ce .
▁vo ted
▁20 1
A P
▁extrem ely
or r
fass ung
z a
▁G re
▁ent scheid
ist ischen
af en
▁N etz
▁- ,
ra b
▁Verfüg ung
▁M ot
▁F rom
▁serv ic
▁D am
▁recog n
mb H
▁R aum
gr iff
▁c amp
▁19 7
▁l assen
▁we iß
. 0
▁A G
▁gemeins amen
▁c ultural
yste me
en cy
▁je weil
it en
▁200 3
▁it em
▁amend ments
▁cont ain
▁Er folg
▁k ont
- d
▁K ons
▁Grund lage
▁them .
▁D ruck
land ,
yn am
▁Or t
▁S oc
omm od
rit ten
i able
▁bed eut
l ang
▁wo hl
net en
▁Tran s
▁P f
ich tet
▁C our
▁viel leicht
▁Qual ität
▁w ind
▁saf ety
d am
▁hat te
▁pre p
▁l at
ob ile
h end
▁Vers ion
a ve
in zip
▁O ff
schaf t,
▁G mbH
pl ay
▁Ein z
te t,
▁Be k
▁up on
▁Treat y
e e
▁c irc
▁er ziel
▁us er
▁ex pect
▁ch arge
▁Mus ik
▁dem okrat
▁st y
▁w issen,
▁se par
▁Par te
iden cy
▁ch allen
▁Commission 's
u .
▁Ihre m
▁ge ben
land s
▁Aus wirk
▁Wie der
el y,
▁T ages
▁P lease
▁S on
or k
ach ten
▁be vor
▁z ust
▁l ot
▁Person en
▁T ro
▁K rit
am ous
▁er reicht
in ner
sch n
▁cor re
r i
▁f ünf
▁beispiel sweise
▁direct ly
▁prote ct
mit ted
▁l ive
in e,
te chn
ll er
id d
E L
on a
▁A ußen
sicht lich
wür d
▁ ö
▁Ein satz
▁comfort able
on str
ver t
en ted
b l
b ie
at ten
▁countries .
il der
▁f ight
▁ges tell
▁B y
▁p ool
ist an
and id
ag ing
▁K ön
▁propos ed
▁D aher
▁M är
cr ib
▁A ußer
▁Wind ows
- ,
▁D amen
▁wer de
mer ksam
▁guarante e
▁Te le
m s
▁situ ated
an ten
▁t arge
▁D ate
de ut
▁Her aus
▁opt im
▁e ith
▁Me er
▁B ook
▁E bene
öff entlich
▁An wendung
▁aller dings
▁prev ious
▁W ert
▁nor mal
▁an geb
▁sozial en
▁St re
▁weltw eit
i en.
um ,
▁ha pp
▁region al
ate .
▁ver st
▁eing es
m ut
▁ind ic
b est
▁war ,
geb ung
▁dar an
▁require d
▁cost s
▁cl ient
▁B lick
h es
pp e
ance .
▁Pro zess
▁Stat es.
▁stell en
v al
▁über n
▁F und
▁Rei he
▁b it
▁Er weit
w w.
▁m ag
▁Geb iet
▁M ore
▁L is
▁d '
▁kle inen
is e,
▁Ö ff
▁cre ated
▁S outh
il ater
▁aus gest
▁6 0
▁com es
▁st im
▁ha ppen
▁Pro t
T M
▁c lean
▁A ktiv
▁sur round
an a
st all
▁ple ase
l ier
▁Arbeit spl
et te
b ahn
▁2 1
o und
▁komm t
um p
▁Er klär
v ant
▁D en
▁app ly
▁so on
▁impro ve
▁am b
s h
▁Sch we
▁hö ch
▁Hin blick
▁M od
▁stat ement
T O
▁" E
▁W erk
c ent
▁resour ces
▁H och
h ab
- In
▁fin al
id ed
▁p ict
▁Nä he
▁Europ e,
▁ €
▁M ont
▁schw ier
spr äsident
▁In tegr
ire d
tr ie
▁acc ommod
▁fun ktion
▁mon itor
▁develop ing
un ik
▁view s
▁Fr ench
▁r icht
hör den
▁imm ed
omm en.
▁verschieden e
v in
b el
▁p ages
▁S u
as t,
▁A ff
loss en
▁sch aff
▁mö chten
▁al most
▁al tern
y mb
▁c ard
▁resul ts
▁Z iele
▁anal ys
R O
ö hn
ib r
▁v ill
el ess
er c
▁democ ratic
i kt
▁addition al
▁c ut
▁institution s
.. ..
or f
▁Ro om
ch sel
▁qu e
▁J apan
▁find et
us st
▁Ste uer
▁poin ts
▁sch rift
üss el
▁Disk uss
▁cl imate
▁f ile
la ck
▁p ow
ak ing
▁Pl atz
▁Invest ition
▁G esellschaft
▁gemeins ame
▁tra vel
▁Z entrum
I P
▁" W
▁es ,
▁reg ulation
▁rev iew
en nen
▁K ir
w ind
▁Änderungsant rag
s ystem
▁h ouse
▁E C
▁act ually
▁enc our
▁D och
▁Re chn
▁ex am
ul ate
▁Uns er
▁con tract
▁l ack
▁deut lich
▁k ommen
▁S üd
▁ak zept
pend ent
L )
. 000
im ent
il ar
ub e
▁t ats
▁h old
lie d
▁voll ständ
▁be tra
▁M ill
qu e
ipp ed
▁down load
▁Demokrat ie
▁appropr iate
▁d ialog
bar keit
▁R ad
▁Richt ung
▁Sicherheit s
▁sch ein
hin der
pr üf
▁holid ay
richt ung
▁Be g
▁b ess
▁Ar ch
ig ungs
▁off icial
s uch
d ing
▁en l
, 000
▁Aus druck
▁rece ive
▁all gemein
▁K le
▁" F
p re
▁Vorschl äge
▁2 7
▁develop ed
▁N ie
▁Americ an
I D
f rei
▁th us
er ra
tend ed
▁world .
▁conne ction
ad urch
▁ass oc
▁D at
▁Bed ingungen
▁German y
rech ts
▁Ergeb nis
▁profession al
- st
▁gesam ten
g esehen
▁I ran
ch s
f eld
at ory
au ber
▁Inter esse
▁contr ib
▁Verantwort ung
▁er wä
▁implement ation
▁vor ,
ö ll
▁tra ining
▁Stat es,
▁Ver tre
: 00
ish ed
an ced
▁pub lish
▁W est
▁sch ool
▁Kolleg innen
▁Port ug
▁quest ions
at ors
o od
▁sug gest
▁prop ert
▁r at
▁er k
▁c e
▁F rieden
atis f
an e
▁um fass
iel le
▁Antw ort
▁" B
ers eits
ste ad
▁equ ip
▁re d
te t.
▁L ond
im s
g n
j ähr
ie llen
lin ien
ach en
▁f amous
▁c op
▁einzel nen
▁tim es
▁wurd en.
ate ,
▁" M
▁un ique
▁st op
▁pos it
▁h on
▁h armon
part ments
a ß
▁hel d
▁P ak
▁w ide
or ge
▁An t
ens e
▁F ühr
▁P osition
tern al
▁Entscheid ung
▁through out
a ul
▁Gen eral
▁Mitglie der
▁gemeins am
▁b isher
▁effort s
cl ud
▁e benso
arbeit ung
▁le b
▁ans wer
▁D u
. "
▁Se e
▁H erstell
▁B innen
▁ex clus
▁emp has
l ändern
dern .
al led
▁con text
ind est
▁dra w
fäh igkeit
▁imp act
▁princip le
▁be hand
▁technolog y
▁Außer dem
▁De c
äs st
h aps
▁Auswirk ungen
▁ä ußer
▁D enn
▁tra in
or ,
▁Ver fahren
▁ple as
▁trans l
▁sp ace
▁look ing
▁A cc
▁sol id
▁e leg
t t
ip f
o x
▁f ive
je kte
g l
▁Te am
▁p ast
▁t ype
▁Z ur
▁l iving
um e
▁pot ential
or re
▁design ed
▁w ider
▁ 000
ä che
. 00
▁en able
▁jed em
▁countries ,
▁strength en
▁mach en.
▁Gemein schafts
ll ing
▁e ver
olog ical
▁P ap
▁brauch en
▁un ivers
▁N orth
ac y
w el
▁R is
▁con sequ
▁pro per
▁Deb atte
▁ *
▁tak es
▁W ähr
f il
k n
es h
omm er
g ing
▁international e
▁Z um
▁ac ross
▁D ialog
es ter
▁a ud
on om
▁wirtschaft lichen
▁Re form
▁colle ag
▁M il
z if
▁Verein igten
▁8 0
z w
▁Sta ats
▁rec ord
▁Best imm
▁s it
▁every thing
bar .
ig t.
▁l ik
▁benef it
▁me chan
b ru
▁to ok
▁certain ly
▁ear ly
▁se en
ing en
▁B re
pro chen
▁( T
n a
▁adop t
ste llen
▁e th
▁d ivers
ähl en
▁er hö
1 ,
ad a
▁aus .
▁comp lex
am a
▁hin ter
▁Tur ke
▁Strateg ie
geb en.
oin t
▁h om
▁project s
ted .
te mp
hand lung
▁contr ibution
te id
▁exist ing
▁dür fen
le is
▁report .
▁K os
▁weit eren
▁z uf
▁n ight
▁wichtig ,
▁gleich zeitig
umen te
on es
▁L et
▁L eit
▁se arch
▁webs ite
b all
on .
▁strateg y
▁eith er
ge gen
▁rel ig
ämpf ung
▁Terr or
▁a ktiv
▁J ug
▁s org
k r
▁K raft
fort un
▁ne ben
▁amend ment
- p
rän k
▁sp äter
air s
w ie
▁co ordin
l änder
▁Z us
▁legisl ation
ode ll
▁r ichtig
▁prof it
▁se i
▁vers uch
▁al though
▁auf ,
▁wurd en,
▁Commission ,
ess erung
▁In s
▁ne ues
▁chang es
▁H ol
▁Fl ugh
▁tradition al
▁woll en,
▁break fast
ck e
▁c ross
▁parl iament
▁Beit rag
o z
- h
▁jed e
▁know ledge
us h
▁opin ion
▁Fisch ere
▁concern ing
▁ers tell
▁s ide
▁l ux
▁Hand els
▁se a
▁absol ute
▁( 2
▁In form
▁v öll
un k
ab les
▁in tens
▁Tür ke
in t
▁bec om
▁a ware
▁Ver tra
▁Gesch ichte
▁den k
▁P C
l le
▁H igh
▁out side
st re
ungs ver
s erv
gen cy
n 't
▁Restaur ant
▁hal f
▁gegen wär
▁rel ated
ar i
▁Präsident in,
at ,
gel n
▁C D
ent ur
▁Ver pflicht
A M
▁bas ic
▁Parliament ,
▁ar g
▁for t
▁ex tens
▁m er
▁dem onstr
▁Diskuss ion
▁Eng lish
▁mov ement
▁be it
▁l os
▁lead ing
k ra
▁r und
▁Geb ie
▁comm unity
▁origin al
ar ten
▁Schluss el
ab l
z ös
▁c ulture
haf t
▁1 ,
▁Par is
E T
▁F uß
▁conf lic
ip l
▁ide a
▁Techn olog
m ark
▁polic ies
ran ge
▁( M
pr ession
st att
▁St abil
m en,
E D
▁On line
▁group s
▁enl arge
▁it ,
▁g ab
▁unser es
▁ass ess
ur t
▁Förder ung
aff ung
▁pra kt
▁join t
▁you ,
▁Verhand lungen
▁s pr
ter min
bild ung
▁invol ved
▁Famil ien
▁L uft
em b
▁K ampf
▁sch wer
s eit
▁d igital
▁milit ary
ha upt
▁I S
▁Bar cel
ü b
▁wicht igen
ä ss
▁ber ücksichtig
gr at
al ter
▁ver d
▁Fe bru
▁interest s
▁Min uten
▁Stand ard
▁L ink
end es
er b
iter ran
▁up d
▁unterstütz t
▁f ail
▁se c
▁av oid
▁includ ed
- t
aus ch
um s
pr ise
▁f irm
▁obl ig
▁cons ult
in .
gangen en
a ction
g ende
ges etz
▁so und
▁K ern
▁spe zie
▁ $
g ern
▁am ount
idd le
▁report ,
and ,
▁Sch ritt
f ace
▁this ,
▁entwick el
▁jed es
▁Vol k
▁E d
ist rat
l ant
▁adv ant
▁199 9
▁con clus
ir es
▁Aug ust
▁Im m
▁S up
l ös
qu is
▁( N
▁S ince
▁all ows
▁erwä hn
▁C or
▁gesag t
▁Bezieh ungen
▁includ es
ing t
▁Einz el
▁w a
▁durch ge
▁verfü gt
▁Kon ferenz
▁R el
▁Wettbewer bs
it ness
▁" P
▁Dok ument
g .
u ck
▁In strument
▁Pro z
▁year s.
▁trans fer
i as
▁comm er
ar ing
i ated
▁pr im
▁e mer
▁l ater
h ung
▁h ous
▁tr ue
ö st
▁gu ests
▁V is
▁we gen
sta at
A C
e ff
▁s atisf
▁sp end
▁re ich
▁standard s
▁L iste
▁L ux
al y
▁Inter essen
os ,
▁C he
▁K op
▁Th ank
▁p oor
▁Ab kommen
ot ion
▁ange m
▁war m
b ring
▁Änderungsant räge
ü hl
▁pl ann
▁Forsch ung
▁conf irm
j ahr
▁N ow
▁complete ly
our n
tra gen
▁sch ön
▁su it
▁Verb esserung
▁Abgeord neten
o le
▁cap ac
▁( H
▁vor lie
▁mo ve
▁dar stell
▁major ity
▁mach t
▁Pr ior
able .
igkeit ,
▁l ok
▁gem acht
f en,
▁Not wend
▁w under
▁regard ing
▁er laub
r ess
▁P ass
▁ich ,
▁ver antwort
p ite
▁opt ion
iss ab
▁Sie ,
▁B ad
▁solution s
▁do ing
▁kle ine
▁bro ad
▁j ud
▁Dam it
▁air port
if e
▁Vol ks
▁lim it
▁att ack
v ious
pe cted
▁for ce
ian ce
ges etzt
ymb ol
er ve
istr ation
▁p urch
▁ +
▁custom er
S E
▁war .
uc lear
▁Auf ent
de ck
▁need ed
▁un abhäng
ikan ischen
▁Ur laub
▁C ons
▁For der
▁H ome
▁" C
▁O ber
▁L issab
▁A ktion
▁mehr ere
▁hin sichtlich
▁bu ilt
▁Hand el
▁H ere
fl uss
p ut
▁aus ,
▁Ausschuss es
▁c ru
▁f ace
is iert
h ende
▁agric ultural
▁val u
▁Institution en
▁w onder
▁key word
▁h err
le ben
▁I T
▁bel ow
ab el
▁Frank reich
an o
▁invest ment
ge hen
▁citiz en
▁er heb
an t.
▁er r
▁I mp
▁Region en
▁langu age
▁Nutz ung
▁f ran
▁Bereich en
av a
▁sel f
▁S ant
▁eing er
▁g anze
▁econom y
▁hand elt
▁wichtig sten
▁industr ial
in e.
▁s un
- N
▁2 2
eln .
▁nach halt
▁ganz en
▁J ed
▁E ff
opp el
▁nat ure
▁Dienstleist ungen
▁Ver ordnung
▁wo bei
en !
y ing
▁U kra
▁Ge legenheit
▁Aus wahl
▁so uth
▁Z e
k o
▁Kont rolle
min ister
▁ger ne
av ing
u ted
▁Mus eum
▁featur es
s itz
▁tro tz
▁exper ien
d om
▁Ver anst
eln ,
▁h uge
▁mach en,
ip s
▁Möglichkeit en
geb en,
▁pop ular
▁Am end
o ft
ier s
l am
▁f ör
er weise
▁ ill
la v
▁Verb indung
▁gen ie
▁co de
▁glaub e,
fol gt
4 0
▁f all
und es
▁fr ont
▁Erweit erung
gr if
it ect
▁G ree
- term
▁S im
ge f
▁gar ant
ster reich
ent wick
iven ess
um b
▁not hing
▁be ein
▁ra il
▁dire ction
▁Binnen markt
, "
p ass
▁Cour t
z er
op s
▁Wir k
▁Bevölk erung
schließ end
our c
▁An fang
▁coop er
al ten
▁gr und
▁this .
▁them selves
▁mod el
ies en
▁employ ment
▁Sch affung
▁nah e
▁sp ac
▁ir gend
▁L es
▁ge hen
▁year s,
m öglichkeit
▁Angeb ot
▁polic y.
▁corre ct
▁Pl ay
▁v ict
w ander
▁U p
▁er füll
m ann
▁ev ents
▁r uh
ar ,
▁con grat
▁sa gen
os ed
▁mit tel
▁cont ains
▁a partment
▁rece ived
▁B itte
▁ve h
▁Re ise
▁off en
▁konk re
▁F ach
▁concern s
▁Cl ub
▁car ry
▁par ts
ien ste
▁Geb ä
▁G lobal
▁require ments
▁E -M
p id
▁2 8
än den
V D
me hr
▁Land es
▁Man agement
▁A ugen
▁In nov
▁Soc ial
▁effic ient
▁o il
▁pres ented
▁3 .
▁C entral
▁high ly
▁bekann t
▁he ut
▁Lie fer
▁W ein
▁Dar über
▁fr ü
ges amt
▁sc ient
▁seem s
▁success ful
ör per
▁Er st
itä t,
ugh t
▁einz ig
al ien
▁cl ick
▁entfern t.
▁f rei
▁comp rom
▁S ome
▁p ain
im ension
▁führ en
▁Am ster
▁ex c
▁Vor aus
▁ !
/ 9
as .
▁Z weit
▁m al
▁Rom an
▁ex change
▁ ut
ät igkeit
▁ein .
▁M ich
▁Be f
ist ische
▁völl ig
▁k ulture
▁l ässt
▁O f
▁H o
u el
▁are a.
hal te
▁Str and
▁P an
▁M aterial
▁M ic
▁Se cond
▁f urn
▁car ried
▁which ,
ut t
▁An zahl
▁P ost
ge .
▁wh ose
▁b lock
it ch
▁flo or
rag en,
▁Council ,
in ne
ate ll
l ies
▁h äuf
ch ter
▁work s
▁see k
▁Le g
▁communic ation
erk enn
▁negot iations
geleg t
▁year .
▁er inn
▁hist ory
a ktion
▁doub le
ab or
▁T erm
▁se x
-S t
▁gef ähr
ä llen
es ten
▁B alk
▁part ies
▁Zeit punkt
▁K rieg
▁e ig
▁ver g
-F ra
▁oth ers
▁an z
ap t
▁L at
▁sub sid
▁w om
▁5 00
▁p erm
▁s ent
▁d ang
ast ic
▁Transp ort
▁F irm
▁Woch en
ó n
▁bath room
▁co ll
▁Ver wendung
▁vorgesch lagen
▁Entschließ ung
b uch
▁Frei heit
iz ien
ir it
▁mount ain
O L
▁ex pl
▁F urther
▁Jug end
▁M ag
imm t,
w ill
▁über zeug
▁gro und
▁object ive
▁commer cial
I L
▁mein en
P E
▁S olid
▁groß er
▁gut en
ent al
▁tra ff
ä st
▁bor der
R E
▁hoff e,
▁sim ilar
▁mein em
▁te ll
▁s ix
c y,
r uf
▁fe hl
k a
▁Bus iness
▁ge geben
▁gehör t
▁L auf
▁Ber g
mittel n
▁disk ut
1 2
▁M ac
▁ob tain
▁act ive
or ganis
▁an zu
igh t.
m at
at ast
▁st ates
▁k ünft
▁C ol
▁z unächst
▁Türke i
▁M än
▁ne hmen
▁restaur ant
I M
it el
▁month s
▁commit ment
▁de p
▁eigen e
▁ex port
os en
stit ute
▁gesam te
ok oll
fic ient
▁str ess
▁reg ions
▁H am
un t
▁sh own
▁19 6
▁d re
▁at mosph
kl us
ach e,
ätz en
j ust
ig te
▁sozial e
ier enden
m m
os p
▁n uclear
a cc
▁p an
▁De velop
mer k
▁tas k
ay ,
▁Lis bon
rie ben
▁erreich en
▁vor hand
on e,
▁d ynam
▁Pres idency
▁for mer
l ad
f ält
▁We ll
▁S il
al u
▁De z
▁W ahr
be wert
▁R ot
▁G olf
▁L og
▁st änd
▁In de
▁D an
▁F erien
▁establish ed
a der
▁Kos ov
- Z
▁Be hörden
▁d ring
▁G et
▁equ ipped
▁Hin ter
is ted
e ch
▁gib t,
l ass
▁E le
▁poss ibility
we gen
▁lat est
▁tats ächlich
▁prom ote
▁ein deut
art ige
▁Art icle
lick en
▁opport unities
▁Mehr heit
bed ingungen
▁verwend et
▁Kommission ,
pro gramm
▁Besch l
n issen
▁m iss
mit t
▁9 0
y d
▁E igen
▁Z w
▁ =
▁ern st
▁Lissab on
▁st ation
▁Deb ian
▁W ährend
leg en,
▁B ra
▁Y ork
▁beh ind
▁soc iety
▁gleich en
ü hm
de ,
▁intern et
ig lich
▁gu id
▁ü br
▁an gen
s v
▁c ame
▁eng ine
▁Nie der
. com
▁so fort
▁de pend
▁Parliament 's
▁no te
weis en,
▁Ar g
▁S um
imm ing
▁le icht
▁you .
▁fund s
▁re in
for men
▁Fin ally,
▁Wettbewer b
▁ph ys
▁Rat spräsident
▁you '
g ra
w art
a pe
▁Sp ain
ä cht
rough t
▁D abei
rie f
▁äußer st
▁Rep ublic
un sch
▁T at
t ige
▁reg ister
wh ere
▁H ostel
tern ,
▁komp let
▁cho ose
▁2 6
ing. com
▁sch ö
▁wel com
▁7 0
▁lea ders
o o
▁atmosph ere
▁b i
▁Ein führung
▁provid ing
▁sum mer
▁prep ared
▁P ers
▁r ich
▁I N
▁Con vention
▁de ath
▁betr iff
▁soc iet
▁ask ed
▁Gru ppe
▁N et
▁Govern ment
▁A ud
▁Stell ung
▁simp le
f en.
▁( G
▁a f
▁Russ ia
v ision
▁ex hib
▁crit er
io .
▁betre ff
▁som it
▁größ ten
▁Sta at
ann t
▁high er
▁ex ternal
▁det a
▁Ergeb nisse
re hens
▁Amster dam
▁pro b
5 ,
▁sch le
▁Kr ise
▁an genommen
ak ter
▁word s
▁link s
▁ent ste
▁Program me
▁ à
sp rech
▁redu ce
▁Them en
▁us ers
▁Weit er
▁In stall
ur teil
▁ele kt
▁pre par
▁Kon fl
▁Kont akt
▁Kön ig
▁ver pflich
▁work ers
▁pr ices
ran g
▁Te x
omm en,
▁con du
▁year ,
qu are
▁innov ative
▁L oc
i ot
▁M acht
▁" L
▁friend ly
▁non -
▁dis play
▁ho hen
▁D on
▁um f
▁thank s
ien s
▁Jun i
▁be teil
▁t erra
▁G ra
ary ,
igr ation
▁rec ently
▁w id
3 .
▁En ts
▁sub mitted
ib ilities
▁z entral
ar a
▁l ay
▁A gr
▁emp f
▁3 00
▁unterstütz en
emp loy
ra chen
▁Inform ations
▁G ed
▁Verfüg ung.
▁O ct
▁Verein bar
▁ne igh
em in
amer a
ron ic
x is
▁g ives
itt ing
▁reg ular
opp ing
▁D i
alt ungs
▁Stand punkt
▁Komm unik
äl le
▁arch itect
▁disc over
▁sett ing
▁ver n
ission s
cre t
▁Gem eins
ul gar
fer t
üss e
▁agre ed
▁l assen.
▁per haps
▁dec isions
▁treat ment
ro at
i at
▁S icht
▁E ing
▁belie b
▁suf fer
▁c redit
▁sustain able
▁Komp rom
▁fo ot
if ft
▁incre ased
▁zw eiten
y ch
m ed
▁un e
▁Ge fahr
▁E rach
▁Brit ish
▁er schein
-A n
▁system .
▁im age
▁beginn ing
▁E-M ail
▁re gel
ind ustrie
▁led iglich
aussch uss
▁A kt
re c
verständ lich
▁b illion
▁mein es
res p
▁Ne ben
▁market .
▁is land
be k
isch ,
▁d raft
cht en,
▁C al
▁Mar ch
▁Bek ämpfung
▁D is
sp iel
▁lea ve
- w
ze uge
▁O st
▁Ma i
▁initi ative
▁St .
▁ann oun
▁Organis ation
t ent
▁Commission .
▁Dec ember
ok ing
ied r
▁Mitarbeit er
il le
▁add ed
ict ion
▁An wend
▁a mer
▁Auf gabe
v a
▁Ab end
ür f
▁des crib
▁us .
▁ob wohl
▁W TO
▁Integr ation
▁cas es
▁gro ss
▁Her zen
▁bestimm te
▁Russ land
ad em
▁com ing
▁ac cep
as t.
▁be zie
▁Erach tens
▁consider ed
igh t,
▁de cl
stell ungen
nehm en,
vor schriften
ier ter
E M
ie g
▁K e
▁zahlreich e
in i
▁inde pendent
o h
▁t en
▁cho ice
▁constru ction
▁Se ktor
ib l
3 ,
▁O kt
▁l es
▁Person al
us ion
sch w
▁ser ies
il os
▁bestimm ten
gr ünd
5 .
c es.
▁rep la
▁Transp ar
spr ün
▁ x
▁bo ard
▁educ ation
▁ander er
▁high l
▁Gew alt
▁R ess
▁W ohl
fra gen
▁Woch e
▁" G
r id
▁Über ein
▁C ity
c y.
g han
' .
▁zw eite
▁ze igt
ze hn
▁En ter
▁hät te
▁supp orted
- up
▁ä hn
▁tra ck
▁s or
reib en
a is
▁f al
▁people .
▁ges etz
▁dec ided
▁T age
hr en
▁sh ows
▁Solid ar
▁r ate
▁R u
▁D om
▁außer dem
▁n orth
▁er weit
▁Ital ian
▁Fil m
▁Dez ember
▁Op en
-Fra ktion
▁entfern t
▁As pe
▁rele vant
▁Änder ungen
s on
▁v irt
▁Verkehr s
▁b rought
▁Re al
▁admin istrat
▁wirtschaft liche
▁Lond on
▁pop ulation
h ere
▁Hö he
▁eff e
▁n ice
▁Afr ic
▁best ät
5 %
▁Wes tern
▁hour s
k ,
ge ber
▁ver öffentlich
n ern
▁d adurch
ism ,
8 0
over ,
▁Initi ative
▁or d
▁g ame
imm ung
▁( d
▁gem äß
nehm en.
ar ily
▁t w
▁A f
in al
ll a
▁restaur ants
ing er
an y
▁it 's
fahr t
▁dar in
▁ne uer
z ,
▁er ster
▁St ar
▁mention ed
▁l ic
▁re pe
▁ermöglich t
▁Priv at
icher ung
▁199 8
▁( L
▁high -
▁eur o
ter ne
gr upp
end ,
f onds
ä g
▁democra cy
▁fran zös
▁pro t
▁rem ains
x im
▁Bel g
▁N ur
▁einz ige
▁O per
▁cent ur
▁S l
▁aus reich
- l
▁m obile
▁Vertrag s
▁f ix
▁ent halten
1 1
f on
▁J e
▁creat ing
▁exp la
an ischen
merksam keit
▁de ep
und en.
▁solid ar
st ag
▁sol chen
▁grund leg
▁in stead
on se
▁produ ced
▁ex ec
▁impro vement
▁lar gest
▁eas ily
es tens
▁s us
conom ic
▁ho he
v iew
▁d ate
N G
g ab
▁bec ame
▁med ia
z .
▁s cre
▁ren ov
▁Auf merksamkeit
▁comp uter
▁200 2
▁wür d
▁future .
▁H ar
u is
ourn al
▁th ous
▁Gr and
▁B .
▁führ t
imm t.
▁relations hip
▁ver gangenen
▁rel ativ
▁reach ed
zustell en,
▁z. B.
▁sch ütz
or ten
▁ u.
h äl
▁N at
▁Unter k
▁be in
▁ch em
▁h ost
▁con ference
▁st ability
ct ors
▁S am
▁ob vious
▁Turke y
▁de termin
▁acc ord
er y
▁dis p
▁D et
▁b ody
▁Oct ober
▁gel ten
▁K re
▁ple ased
entlich keit
▁2 9
ber t
▁verb ind
▁Or gan
▁concern ed
▁C amp
▁Unternehm ens
trä ge
▁Kommissar ,
u it
y ond
an lage
▁Früh stück
▁200 1
▁l '
s :
▁res ol
▁don 't
▁Book ing.com
la re
itz er
▁hervor rag
S .
▁ ändern
b esch
as es
▁D own
▁unter st
▁quick ly
▁bedeute t
▁regard s
schn itt
▁spe ed
er ing
▁fil m
▁M art
▁alle in
▁Ne u
ter .
▁Europe 's
▁En d
▁p urs
▁fact ,
▁j ün
▁proced ure
▁Möglichkeit ,
▁med ium
▁Al t
rit ts
▁every one
glich e
▁R ights
▁se ction
▁supp ly
▁Bes tell
▁s ize
▁particular ,
komm ens
ik o
lich t
▁part y
▁ein schließlich
▁Parliament .
▁c ause
äm t
anz en
te x
▁Okt ober
▁tun ,
▁perform ance
- 2
▁kon zentr
fü hl
oll ar
▁he ar
▁l iberal
▁Schwe iz
uf en
▁Ser ver
▁min or
▁distr ibution
▁var iety
mäß ig
ähl t
et ary
▁g ain
▁new s
▁Lös ungen
o der
▁p ath
▁F ed
▁eig entlich
reib ung
asch inen
▁J une
▁gre en
▁Öff entlichkeit
c ement
▁Z eich
▁m il
▁K an
ap er
por ate
▁Famil ie
▁d ut
▁Fran ce
▁S m
▁P la
▁hand ,
k raft
▁pack age
le y
▁part ner
▁Booking.com :
▁L ast
▁kein er
▁St äd
▁Er zeug
E P
▁v ideo
▁b eschäft
ien en
▁K ing
▁ex act
▁here .
▁Gäste bewert
▁w ww.
▁possible .
▁mus s.
l änd
ib il
▁well -
▁Fol gen
▁Dem oc
▁lab our
▁C ap
▁cent ury
▁cre ation
et ing
at ely,
▁achie ved
as ons
▁B undes
for d
▁s an
▁acc oun
ennt nis
▁auch ,
▁legisl ative
▁w issen
▁E very
▁comm ittee
▁al ten
▁wür den
▁Reg ierungen
en te
▁t ä
zus ch
og raf
▁Transpar enz
▁comp on
▁Erfahr ung
▁Beschäft igung
▁W ider
af t
▁Fortsch ritte
us .
▁for der
▁histor ical
▁d ise
▁A dr
▁Span ish
b en.
▁princip les
▁Ange legenheit
▁Arbeit nehmer
▁app e
▁st a
▁rel ation
iterran ean
ourc en
it ial
▁le ider
an .
et imes
▁kle in
▁people ,
▁g ot
ition s
▁Land wir
▁K ur
▁befind en
▁b od
k ont
▁bes itz
▁pur pos
ier ende
▁G ipf
▁Bas is
▁V al
▁d iv
▁B ilder
▁agreement s
4 .
▁Emp fehl
▁D uring
▁ins gesamt
a uch
▁Tra dition
▁con ven
ategor ien
▁ag end
▁la unch
7 0
▁An satz
▁Ex per
▁g iving
▁Pr inzip
▁work .
- U
richt ungen
ent .
▁I st
▁schließ lich
▁comp rehens
or ed
▁cent er
w es
ie gel
▁p en
▁In n
ug g
lo b
▁wen ige
leg ung
▁sens e
nah men
▁die jen
if ik
▁Americ a
▁so ,
▁pre fer
öff net
▁con cept
▁ev alu
▁viol ence
▁H ung
▁good s
or .
▁E re
▁report s
▁Ma ßnah
▁m em
▁M ut
im men
fre und
▁dialog ue
▁Gesundheit s
▁fil es
p reis
▁Tats ache,
▁M ult
▁said ,
▁st ra
▁Auf trag
▁employ e
m ission
▁Lebens mittel
▁4 .
ne y
▁programm es
4 ,
▁fe ll
kt ,
▁erreich en.
▁ne hm
g round
in !
▁ein ,
▁market s
▁infl u
en a
▁Lin ux
▁un mittel
▁ab gesch
▁auf z
▁bud ge
es te
▁häuf ig
▁ber ühm
is e.
▁press ure
▁S he
▁b rit
▁p al
spro zess
▁Mär z
ategor ies
▁Benutz er
olog y
▁S ign
▁ab .
b en,
▁Union 's
▁Schw ier
▁C ost
ot es
▁Ver l
loss en.
ic les
▁Pre ise
▁val ues
▁object ives
▁Af ghan
▁a ge
▁C O
▁w orth
) :
▁polic y,
▁consum er
▁w est
▁Ver änder
▁star ted
ach s
▁hö her
▁lim ited
▁b ra
c er
is p
▁c a.
▁Unter such
▁fre und
▁high est
▁govern ments
▁discuss ion
um mer
▁resp onse
ill s
▁ihr es
▁Man y
▁nicht .
▁anges ichts
▁ob serv
▁B ulgar
▁Ira q
ungs -
▁Bet rieb
komm en,
▁g rat
▁th reat
▁form s
frastru ct
str eng
▁O l
▁Bestimm ungen
▁Al though
▁ex tend
▁ro und
ene w
op er
▁Al p
▁Vor sitz
▁per fe
ie ws
▁ ult
g esellschaft
▁kann st
▁n iedr
▁ver m
▁ble ibt
▁geb en,
▁effect s
▁( R
▁dafür ,
▁M ann
▁G al
▁be züglich
▁akt uellen
▁Fl or
O T
▁integr ated
▁Jul i
▁r ule
▁writ ten
▁use ful
▁M eine
a ign
lä uf
us ch
▁st ock
ous ly
setz ungen
▁statt find
▁allow ed
-m ail
▁Y our
▁d ein
▁f isher
▁aspect s
▁w on
ism .
▁Fl ü
▁w eder
▁Erklär ung
▁199 7
▁num erous
▁sp irit
kt .
▁H el
▁An frage
! !
▁c y
z we
▁ur sprün
▁dar in,
arbeit en
▁e mb
▁z eit
▁se lect
▁( in
▁europä ischer
op eration
s ych
▁w an
▁ze hn
▁det ail
▁Bem üh
▁m ut
▁b ad
▁( "
▁F ree
▁Janu ary
he ad
▁aff ect
▁help ful
▁E ast
▁D VD
▁re ality
leg en.
▁sch l
▁son st
▁p over
▁Rep ublik
▁gar den
mosph äre
▁Janu ar
iz ient
▁Cent re
k rä
or der
ul s
▁interest ing
▁Sw ed
at .
▁Mic ros
▁cons ist
R )
c es,
▁mor gen
▁acc omp
▁M obil
▁Beg inn
▁pop ul
▁Barcel ona
▁Sch ließ
▁N r.
▁con stant
▁Ko h
zuf ühr
w a
▁stat t.
end s
▁S telle
▁produ ce
▁e her
▁erne ut
▁B ahn
▁inde ed
▁te ach
▁l auf
arbeit et
▁un employ
▁D inge
▁Med ien
▁occ as
▁cru cial
v is
▁Zeit ,
▁He ute
ent ,
▁offer ing
▁aus drück
ü st
▁Z entral
▁ausgest atte
▁dr ink
▁be yond
▁bet on
▁Ere ign
le hn
▁accommod ation
▁Aktiv itäten
▁H al
▁pay ment
ilos oph
▁Be teil
u ert
▁p erman
▁Ar mut
▁leg it
▁k am
▁capac ity
▁h ar
▁wir ,
▁T est
▁ ign
▁M os
able ,
▁D r
gr enz
▁integr ation
itu de
▁An forderungen
▁entsprech enden
▁St unden
▁und ert
▁notwend ig
▁begrü ß
▁pa id
n o
r ich
▁m is
▁equ al
p olit
er o
▁V illa
sta aten
▁k rit
▁w issenschaft
▁" R
ic ,
▁find en.
▁human it
atast rop
▁A re
▁v an
ilater al
▁Ber uf
▁be m
▁Sp rache
zeich nung
▁Fehl er
▁pract ical
on e.
▁f ig
spr icht
ma ßnahmen
▁In nen
ated .
▁hin zu
▁l ower
▁öffent liche
▁Flugh afen
▁konn te
▁Notwend igkeit
I A
bo ard
▁Schlussel wor
▁W inter
▁sup er
▁bal ance
▁Gru ppen
▁ent hält
i ability
p ret
▁lang frist
f alt
▁S inne
▁pla ces
mor e,
▁Spe zial
▁Part y
▁Entscheid ungen
ir men
e v
te uer
ess en,
▁m orn
▁suf ficient
6 ,
▁Agr ar
amm lung
▁altern ative
ur b
▁Bed ürf
weis en
p ark
- to
▁Tages ordnung
▁T H
▁2 ,
▁k il
▁H ous
m öglich
on y
n iss
▁frü her
▁ver hin
U R
▁re asons
▁ge eign
▁fe ature
on nen
an geb
▁Nach bar
ste in
komm en.
▁J ava
end .
me id
▁arbeit en
ive au
▁equip ment
▁prov ision
▁in frastruct
▁Restaur ants
▁D r.
▁P unkte
▁l as
▁redu ction
▁e y
é s
▁W unsch
S T
cript ion
▁D ritt
▁we ak
▁A k
▁meas ure
▁step s
▁sh ip
▁K redit
oc ol
▁min imum
p age
▁o l
▁" H
{ {
leg t
▁Her z
▁V ölk
▁propert y
▁to mor
▁Pr üf
▁er hält
▁fre qu
ir l
▁L as
▁" I
▁pr äsent
▁soll .
ik ,
▁genann ten
l iz
stell en,
▁p ie
▁G ast
der ,
▁jün g
▁vor her
▁mod ified
▁E ven
▁ander em
▁kosten los
d ienst
▁5 .
▁effic ien
est ic
▁Pal est
▁congrat ulate
▁S ite
▁imp lemen
▁dr ive
▁P ublic
▁H uman
▁r ates
▁S ommer
▁T ier
1 9
▁M ass
▁le is
▁partners hip
v ere
▁stud y
▁ch arm
ür ger
▁Se curity
▁b ild
▁l oss
▁Mitgliedsta at
l im
▁Vor schriften
▁V en
▁off ice
▁writ ing.
h old
schaf t.
e hm
▁lie gen
▁sour ce
▁B ot
isch em
ag es.
▁Bericht s
▁r enew
▁qu iet
▁tr ip
▁hotel s
▁refer ence
▁te x
▁cla im
▁gehör en
▁rel ating
be zogen
▁p assen
▁ge k
▁g ran
m ö
▁pa ar
▁k ur
letz t
▁fund ing
▁pract ice
wert ung
fr ont
▁Met ho
▁bed room
▁Änder ung
it e.
p ose
▁s yn
▁Prot okoll
r upt
D F
▁woll en.
▁go es
▁histor ic
▁sk i
▁G est
▁w r
-R e
▁Gr enzen
▁wichtig er
▁rest r
▁mess age
▁crit ic
▁unterstütz en.
uff et
▁typ es
▁M c
▁Ver gangen
▁max imum
▁well .
▁betriff t,
▁z unehm
▁St ock
m ,
rif f
frastru ktur
▁K n
▁Amend ment
▁circ um
ur es.
▁terr itor
c le
▁requ ires
6 .
▁Be handlung
▁G as
sch reit
▁ex ception
▁Finanz ierung
▁Bürger innen
▁an imal
▁Ger ichts
▁Präsident en
änder t
ic o
ur es,
▁Er d
id e.
▁ele ment
▁denk e,
th eless
▁At mosphäre
▁illeg al
- con
▁soll en
▁start ing
ü s
▁C op
▁Vertre ter
▁f ul
-O ff
I I
▁Ital ien
▁Sitz ung
schl oss
▁g as
▁bes ondere
grif fen
▁re con
▁das ,
▁camp aign
▁Gebä ude
▁sp rech
▁Firm a
▁accord ance
▁h op
il fen
▁Lin ie
▁em ail
▁Nat ürlich
▁ser ver
▁will ,
▁All er
en gen
ik er
▁M ess
▁L ang
▁Air port
▁un bed
▁mus s,
▁( 3
il en
bar ,
v olle
▁hat ten
▁in itial
▁Min der
▁Ko ordin
▁Wh ile
▁schrift lich.
▁g ünst
▁level s
▁ra pid
T )
▁d ed
▁ urg
1 5
▁se chs
▁P et
-M it
▁bu y
▁W ass
▁manufact ur
iz in
L A
▁sub st
▁Investition en
▁mit t
▁Al tern
▁S af
▁E ss
▁A c
m en.
▁D av
▁Ge f
▁soll te.
▁Techn ologie
▁19 4
s o
ie ll
▁Ber at
▁There fore,
▁pl at
▁Comp uter
▁oper ating
▁men sch
ü g
b re
ted ,
▁off iz
▁Mill iar
ain t
▁ex tent
legen heiten
ver fahren
▁I d
acht ung
leg ation
▁begrü ße
▁war um
▁a ctions
▁s ämt
▁Ver teid
▁L assen
▁mechan ism
- -
▁level .
se e
▁ad vert
ord n
▁" N
▁job s
stitution al
leis tet
▁d .
▁Vergangen heit
c ies
▁M and
▁rem ov
än gt
▁prov isions
▁world w
▁Con ference
} }
▁addition ,
ok er
▁fish ing
▁richt ige
▁b ill
▁beg in
▁Gre en
▁dam age
▁zahlreich en
▁happ y
stand en
ot o
▁G el
▁assist ance
▁sta at
ist ics
▁ein geb
' ,
▁zu ,
▁Terror ismus
land .
▁bet roffen
▁cas e,
haf te
▁Jahrhunder t
▁offer ed
▁caus ed
b us
ä chen
▁entwick elt
▁gen utz
P S
▁un er
▁Menschen rechts
▁da ily
▁benö tig
▁An streng
▁Um gebung
▁F äh
▁wel ches
▁könn ten
▁us ,
▁consum ers
ug s
▁inter ested
▁b ur
▁resp ond
▁jeweil igen
▁er halten.
▁sele ction
fol ge
w esen
▁organ iz
▁H off
etz en.
▁b an
as c
▁J ohn
▁require ment
▁Bereich e
▁B u
▁Red e
▁ein heit
▁hal ten
▁prob ably
hand el
sche iden
▁comprehens ive
1 3
▁mot or
▁app lied
" )
▁Aut o
▁Ver gleich
▁prior ity
sch ö
k i
ch en,
▁scient ific
▁ele ction
▁Regel n
▁Pro jekte
▁heiß t
un a
▁Aufent halt
▁col our
ann ten
▁sein es
▁s ymbol
ziel le
▁coun ter
▁gestell t
S t
▁größ te
▁say ing
▁D oppel
ern en
I V
▁e hem
lie gen
▁Go og
▁P H
▁k o
▁ge e
▁c andid
▁ar range
▁b ald
ors itz
▁val id
▁an im
▁S oll
▁O ption
▁c ert
▁Down load
▁se ason
▁g ere
▁w at
▁G esell
▁Op fer
▁Mon aten
▁außer halb
▁h ör
▁ref lect
-b ased
▁h or
be zieh
st ,
▁System s
i ately
▁r ul
▁Fern se
▁zust änd
▁E as
▁ex erc
▁sp rechen
ities .
▁be trä
▁neigh bour
▁s ort
▁us w.
s am
▁Mensch en,
▁1 1.
▁app rec
▁world ,
▁bef ür
▁S upp
▁Ind ustr
▁Frank f
▁I re
ru it
▁t ät
ust ausch
▁zum indest
▁applic ations
io ,
▁tour ist
b ack
▁cl ar
▁Stra ßen
▁Präsident schaft
▁ste ts
▁som etimes
▁dist ance
▁( K
▁Z ivil
▁G ene
▁schaff en,
▁entsprech end
▁Micros oft
up ts
▁w ays
▁dar um
▁Or d
▁gem ein
▁el se
sequ ent
f igur
▁bring en
▁V iele
▁Med iterranean
z entrum
▁B al
▁be ant
- re
r al
▁des pite
▁en orm
▁process .
▁matter s
▁" K
▁S M
m and
▁det ails
gän z
▁be ge
pr ü
atal og
kon om
▁gen ug
k ünft
▁s il
▁a ward
▁N AT
kun f
erst ör
▁D ann
▁long -term
▁influ ence
▁hon our
▁ver ab
▁are a,
ü ckt
ünst ler
▁histor ischen
▁ver kauf
ick et
▁Grün den
▁gen u
glie d
▁c ast
▁E t
reich en
▁sec ure
/ 0
▁rem ember
▁se hen,
▁D el
zeich n
▁Da zu
▁sh op
ient s
▁l ost
▁co up
am in
ut ive
▁M odell
b ook
-in -Off
▁hand el
▁Sw iss
▁Vers uch
▁in f
▁f ant
▁S .
▁V ideo
▁A C
▁Russ ian
▁EU .
▁Serv ices
▁m ann
▁today .
▁mean ing
▁pre m
ic y
ar en
▁invest ig
▁Aff airs
▁ann ual
▁ver tra
▁vill age
org ung
▁er greif
▁hab e,
▁servic es.
schein lich
▁b lo
▁l ate
▁heut igen
▁sl ow
2 )
▁e -mail
▁sub stant
▁E st
i ant
▁read y
kt ive
▁Ein wander
▁hal te
▁co hes
▁he av
▁Bür gern
▁Univers ity
u e,
▁Reg ierungs
▁absolute ly
is t,
h .
▁Develop ment
▁Land wirtschaft
▁V oll
ge hend
per atur
▁D rit
▁cr imin
▁N un
▁auf .
▁bess ere
▁Is lam
▁them ,
▁aff e
▁hotel .
▁Kap ital
▁St art
qu em
8 ,
hält nis
n it
▁Pre m
▁sw imming
▁U K
▁Bild ung
▁persön lichen
▁advant age
n am
p ack
▁benef its
▁b ase
1 )
▁Hin sicht
rat s
▁N ationen
▁in sp
▁spe zif
▁grow ing
▁EU 's
▁fol genden
▁dec or
p ool
▁größ er
▁In halt
▁cl ub
▁schein t
▁un s,
▁l ands
▁s av
▁st age
▁compet it
▁F lex
▁an erk
▁fin ally
▁though t
g y
▁try ing
▁De f
D E
ün sche
▁Ver fass
▁aus schließlich
▁Pra xis
▁publish ed
▁v ital
▁geb en.
1 6
5 -0
führ t.
I ON
stand ing
▁Further more,
g ül
▁over all
ca pe
▁Arbeits los
ag es,
▁eff izient
▁ver urs
▁Ein ige
▁there fore,
▁Auf gaben
▁Ges pr
▁pur pose
n d
▁j ähr
▁br and
bar er
▁F ällen
▁w es
▁Ihr es
▁spec if
▁Kosov o
h ilfe
▁f ire
▁our selves
▁techn ischen
▁G old
▁E igent
▁view ,
d ate
▁S onder
▁über haupt
if en
▁day .
und en,
▁deut schen
-V er
k omp
o om
▁sie ht
voll en
▁T agen
in ian
▁bleib en
▁zu künft
▁to o,
▁vor gesehen
▁nutz en
ated ,
ie .
▁it alien
▁analys is
▁verfü gen
en ken
▁K auf
▁arg ument
▁President -in-Off
▁separ ate
▁19 5
um in
ib e
unter nehmen
▁colle ction
▁stärk er
▁off ens
▁W issen
▁EU ,
▁Jul y
▁strateg ic
ier tel
au en
▁system ,
▁world 's
▁E ind
▁your self
▁moder nen
▁exp ert
p rech
▁go al
▁Sp rach
▁H ilf
▁Ma ß
▁that .
▁h ostel
▁res ort
▁vollständ ig
▁wieder hol
▁sim pl
▁c red
spr ü
▁C y
▁A gre
▁Aller dings
tem pt
▁material s
▁dis app
▁wr ong
lie fer
▁Ö sterreich
ach t,
at o
äst in
▁Heraus forder
▁acc ession
▁Ge org
l ast
v o
I F
▁f ahr
▁he ard
▁erforder lich
▁K rank
▁Gr öß
▁stre et
▁polit ic
▁stat us
▁g am
▁ge ze
▁( w
▁gib t.
▁wan ted
möglichkeit en
▁circum st
ü gen
im at
▁Bemüh ungen
S S
▁On ly
▁monitor ing
▁ehem al
itä t.
▁O pt
ur ance
ly mp
▁zu dem
w ise
▁Agre ement
▁3 5
▁T al
▁w ine
en er
▁M iss
en ze
▁distr ib
2 5
ter e
▁An g
▁occ up
▁verst är
▁I ts
▁k ürz
▁today ,
▁Dire ctive
▁F alls
▁zw eit
/ /
▁c ell
▁comprom ise
▁L iberal
▁allgemein en
af fe
▁ab ility
ifiz ierung
m ens
h otel
▁ele ments
9 ,
▁l isten
▁sal es
▁priv aten
▁Ob wohl
▁"T he
ho od
▁ein setz
ä gt
ir a
▁l ies
▁An trag
▁Komprom iss
▁Tro tz
▁15 0
▁tele ph
▁verl ang
▁Second ly,
▁NAT O
▁l änd
▁d ipl
▁elect ronic
▁würde .
▁G laub
y mp
▁way ,
▁l ove
▁flex ible
Q L
ä te
▁unter b
▁Ukra ine
▁Council .
S P
ion e
▁W ann
▁ab ,
b ad
▁Aus gang
▁countr y.
▁gesag t,
l ose
▁(F R)
▁fr esh
spro gramm
▁ausge zeichnet
▁Am b
▁dat ab
ös en
s icherheit
▁in n
▁d eine
▁T or
▁ch ance
▁pla ced
j a
ck er
▁word en.
aly se
▁T ätigkeit
▁An erkenn
▁s inn
▁Er k
▁t it
▁Pe ople
▁Zimmer ,
u ber
▁enter pr
▁vor .
▁G od
▁ rom
z y
▁Fre iz
om et
▁Gr enz
▁end lich
▁h ot
el y.
▁Sch ritte
▁Aspe kte
▁j em
▁spe ct
▁Chin ese
▁park ing
▁Le ute
os .
▁v oting
at tet
▁g erecht
▁bring en.
▁Ö l
ob by
▁l änger
▁Forsch ungs
▁conc entr
ag raph
u ern
▁sp ok
. m.
▁neg ative
▁pl ant
und red
▁f ear
▁h ol
▁Me x
▁lux ur
um m
▁Vertra uen
▁produ z
▁nat ür
▁aut om
1 7
ur en
▁M er
▁M ün
▁möglich ,
▁rem ind
g t.
▁ge ht,
▁way .
▁Fol ge
▁eth n
▁Ver kauf
and e
g rad
▁sh opping
k osten
▁ge forder
▁an c
▁Pr ä
▁gel ang
ar es
▁k aum
it e,
▁d ram
▁main ly
▁form ul
▁D ub
▁Herr en!
ab kommen
▁Gu est
▁größ ere
▁j un
ig ungen
▁automat isch
▁More over,
▁to uch
▁countr y,
▁rights .
▁re ag
▁letz te
▁Aussch uß
▁ar m
av ig
▁walk ing
▁wh om
▁Be weg
hr te
▁Über wach
▁Ges amt
ab r
▁G rie
▁pro ceed
▁affe cted
▁occ ur
▁um fang
▁regul ations
▁oper ation
▁eleg ant
- e
a w
▁be ide
▁dar .
me er
▁Milliar den
▁Ress ourcen
▁aus zu
▁p o
▁k omfort
lichkeit en
▁work ed
lin es
▁Zwe ck
▁B ade
2 3
▁U s
▁Erfahr ungen
etz en
▁Hostel s
▁co ast
ul y
▁A cht
▁talk ing
▁consequ ences
▁fol gt
f ür
▁disc rimin
▁f alls
ive .
▁be zahl
▁Sch iff
and .
▁A L
▁comm ent
- de
▁friend s
▁Präsident in!
b t
▁rights ,
▁Qual itäts
▁enlarge ment
▁child r
▁redu ced
▁S lo
▁Zwe if
▁be gan
än ge
▁bo x
ärk ung
▁s ites
▁B on
▁w ünsch
ben en
▁ent spricht
▁F alle
▁soll ,
m us
▁S ache
▁zusätz liche
▁encour age
grupp e
▁w atch
▁increasing ly
▁Goog le
ss ystem
▁in tended
* *
wer te
▁sty le
▁Imm obil
8 .
▁aus führ
▁product s.
▁conf idence
stru ktur
▁express ed
▁contrib ute
ze ch
s ätze
▁comp l
▁An nahme
▁Bes onder
▁D ro
▁st abil
▁Entschließ ungsant
9 .
▁B ur
▁L icht
▁c os
▁Sch wer
▁in tell
g ere
e hen
▁open ing
▁betr ifft
geb ie
ak te
▁now ,
g t,
▁Nach t
▁199 0
▁a partments
▁instrument s
▁Ver sch
rei ber
▁c alls
▁guid el
izien z
▁administrat ive
▁spezie ll
▁An n
▁exp ens
c ul
▁I P
▁St il
ion en
▁t al
▁soll te,
▁milit är
h am
▁elekt ron
▁unbed ingt
ver läss
▁saf e
ateg ie
▁H is
▁suit able
▁struct ural
▁Ele kt
▁setz en
ic es.
▁Wer te
▁pers pect
t lich
ent y
▁Stell en
or s,
▁L iber
▁er sch
fol ger
▁Frage ,
▁D re
▁S ing
▁m ill
▁Kollegen !
▁Ein fluss
l as
▁n immt
A .
E )
▁power ful
▁Ag entur
▁ens uring
im b
% .
▁P aul
▁un fortun
reich e
▁doub t
IN G
9 0
h et
▁struct ure
ästin ens
▁her z
▁angem essen
▁med ic
▁at tempt
▁fell ow
▁" V
▁Rechts vorschriften
▁surround ing
▁K örper
ra y
▁spe ech
▁N ah
▁Als o
fol gen
str umente
ä her
▁V ide
▁unterschied lichen
▁vor aus
▁Ne ws
▁ch ann
▁nam ely
▁Ser b
▁Gar ant
▁dring end
▁bew usst
▁find en,
is ely
gew öhn
qu al
▁redu z
n .
▁commit ted
8 )
▁A N
▁any thing
igh ted
▁Durch führung
▁challen ges
▁L ab
▁mor e.
▁S pr
ze ugen
▁Aut om
▁z usam
▁ver z
▁her unter
▁Er n
▁pict ures
▁m id
ese arch
▁mind estens
c raft
2 4
in u
▁H aft
▁An spruch
id e,
a el
▁f ine
▁An y
▁gest al
▁was te
▁C ard
▁Gen eration
▁in tend
▁A gend
▁Arch ite
▁betra chte
▁p oll
▁introdu ced
▁market ,
h ilfen
▁agric ulture
▁immed iately
p :
b ü
▁Spiel er
ify ing
▁hoch wert
a ktiv
am ber
▁automat ically
re ise
▁W ik
▁im pos
a e
z ul
▁b lack
▁nach dem
iv ity
▁n ö
▁ch urch
▁qu ant
pos it
▁sport s
sv orsitz
▁mehr eren
com ing
▁Z imm
▁Best and
▁Bem erk
ium ,
ück w
▁a gen
▁gesch ütz
A G
▁S inn
▁and ers
▁Id ent
▁Ver halten
▁A rab
▁comm itte
▁Vor teile
▁An der
▁proced ures
▁lar ger
▁wonder ful
▁E ach
▁Arbeitspl ätze
ig ran
▁ausge w
▁Bet rie
▁Region al
▁support s
it ure
ws er
▁entsprech ende
▁I M
▁F akt
▁Ex p
▁( 200
▁extens ive
ra w
▁plat form
▁Bo ard
i us
▁ange ze
▁h undred
▁work ,
b um
▁get ting
▁refer red
▁dom in
▁f ert
r aten
▁e c
zimmer ,
▁er leb
ran s
▁activ ity
c an
▁O lymp
▁rev iews
art igen
b ung
▁m ap
▁mus eum
▁Zw ischen
fl äche
▁sum mit
▁rele ase
I G
▁k it
▁ra ised
▁traff ic
▁ded ic
▁Hinter grund
st ieg
▁M ost
▁er h
la w
▁e uch
▁r is
hn en,
▁deta iled
k ünd
p s
▁us ually
m ack
i ón
▁Ein richtung
ident ial
▁Konfl ikt
id ge
▁ser ve
▁Proz ent
▁Zweit ens
▁demokrat ischen
▁aim ed
▁T em
am s
▁kont roll
▁C zech
▁Re v
▁B ay
▁f rag
ol a
▁( n
▁Verw altung
▁e hr
▁de ad
▁W issenschaft
▁prote cted
▁Cost a
▁Schl af
▁colleag ues
I E
▁E v
▁N ahr
ud em
▁ge d
▁global en
▁sc en
▁restr ict
▁Ein sch
▁glaub e
▁C r
▁Ass oc
▁K ind
▁ag o
▁m and
▁Acc ording
on ym
▁transpar ent
▁D ol
▁20 20
▁geb racht
s ichtig
▁C ast
p: //
▁v ac
ing u
▁fac ilit
▁ein zu
▁Mot or
▁w ants
teil t
▁m ic
▁r ural
▁dec ide
▁fl ow
▁moder ne
haf ten
▁servic es,
▁gef unden
▁Mitgliedsta aten,
▁act ual
▁tool s
▁eindeut ig
u ppen
it ation
lag en,
ich en
olog ischen
▁besonder en
▁ ..
▁ent w
▁national e
▁6 .
▁un be
▁con ver
▁sich ,
▁wo od
▁Be w
▁Zeit raum
ü ste
▁Kon zept
▁Res erv
I R
▁akt uelle
▁b ind
ver age
▁criter ia
qu ality
sp unkt
▁play ed
ly ing
▁m ix
▁K omfort
▁budget ary
▁for ces
▁document s
▁con vin
wo gen
▁Tur k
iz ing
▁Ab schluss
▁becom ing
ities ,
je cted
▁institution al
▁Z udem
ul ierung
▁spac ious
h op
▁co ff
▁M iddle
▁Z unächst
▁zwe if
7 ,
iz enz
ank en
▁Anerkenn ung
ach t.
▁sub -c
enn en,
▁crit ical
▁dis pos
▁E conomic
ck s
▁T ab
▁ge legen
▁beste henden
▁F irmen
▁rem ark
▁tomor row
frei heit
▁Grie chen
▁re chts
▁pl us
▁w inter
▁un c
▁C ode
▁Parte ien
▁Lage ,
▁G reat
▁exact ly
▁Well ness
▁soll ten.
▁fe ed
▁targe t
▁S and
▁dank e
▁Pro te
▁sc r
▁S ach
▁for est
im me
▁Sal z
▁Lux em
▁o ben
▁run ning
▁K ore
▁cor resp
▁represent atives
▁O ut
▁Vor bereit
▁K enntnis
▁ex pected
▁vor ge
▁Ein kauf
b rit
▁O ther
▁T ar
▁Hol z
▁mult ip
▁prov ider
▁introdu ction
▁sele cted
entwick lung
▁Zust immung
▁s etzt
▁Netz werk
n el
▁möglich erweise
leist ungen
▁er folgt
▁An pass
entr ale
▁Pat ient
v ed.
sp ort
▁ear lier
▁ab zu
▁change d
nah m
o on
geb iet
pr äsident
▁i P
▁Beit ritts
ar .
▁table d
ch t,
▁öff entlich
la us
▁notwend igen
▁unterstütz en,
▁Wettbewerbs fähigkeit
ure au
▁Mit te
▁ide as
▁med ical
▁we ap
▁Bel ar
az z
▁bedeute t,
▁be quem
o ß
u ard
ib ly
ch en.
▁( W
▁m ad
ro k
▁G ran
▁conflic t
▁R esearch
f äll
▁Mit teilung
▁Unterk ategorien
▁serv ed
▁War en
▁challen ge
▁employe es
▁M ilit
▁darauf ,
▁ ?
▁un it
▁S om
▁sub-c ategories
▁weiß ,
▁I '
us ed
▁B i
▁s üd
▁A p
▁rapporteur ,
▁exp and
▁ab häng
/ E
-c alled
▁finanz iellen
▁g lob
▁Ver fassung
▁sp read
fl ü
▁jeder zeit
▁V ill
▁represent s
b a
m eld
▁wesent lich
7 )
▁T un
stit ut
e ks
l es,
lemen te
▁c uis
sel v
ö m
▁thous ands
▁Verw altungs
▁Inde ed,
▁man aged
brit ann
le br
▁comp ut
▁elect ric
ad o
and en
▁k ennen
▁B a
▁Wahl en
▁ac qu
u ,
▁Home page
▁C lick
▁aus ger
1 4
▁a de
▁Auf nahme
▁g raph
eit her
▁compet itive
zeich en
▁play ers
/ 2
▁Le hr
▁here ,
▁def end
alle l
▁lik ely
ra gen
sp rach
▁r ies
▁exp lo
▁Cent er
h ouse
▁Verpflicht ungen
▁transpar ency
▁sol d
▁fre ien
▁selbst verständlich
▁sc ope
r um
▁3 ,
▁Ira k
▁4 00
▁stell en.
▁M oment
gr öß
▁crimin al
▁prec isely
▁Sw itzer
b as
ists ,
▁c entr
▁F ound
▁K y
▁zu g
▁In frastruktur
▁exhib ition
▁Kü che
▁zu letzt
▁comp ens
▁bel ong
br uch
▁Anstreng ungen
iz es
▁Schließ lich
iv es.
▁P ack
gestell t.
▁tem por
▁l isted
▁ge führt
▁Verb ind
▁im press
alt ungen
▁Sch engen
▁Fre m
▁substant ial
▁so -called
▁Bre ak
▁w in
▁dem ands
ze p
▁accep ted
▁lif e.
▁comp ar
▁Enter prise
▁ent it
▁information .
cl ude
▁Solidar ität
▁w achs
folg end
at ik
▁appro ved
▁begr enz
▁Kle in
▁visit ors
▁R ein
▁Be c
zeit en
▁emp fehl
▁wind ow
D P
▁zu .
ic es,
▁W affen
▁durchge führt
▁Ab s
▁k auf
etz ung
▁support ing
in c
▁P rag
▁gem üt
7 .
▁b rief
b it
▁l assen,
ang s
▁sa ve
▁Grund satz
▁lea der
▁pres ence
f u
▁spiel en
▁r ise
▁behand elt
ann te
▁dest ro
▁wahr scheinlich
▁T op
▁g ave
erv ice
z one
▁n ütz
▁ver tre
▁dar um,
f un
▁dar unter
▁d age
▁implemen ted
▁H ause
▁not ,
▁Schl üssel
it a
ut ,
▁gen ommen
▁Vereinbar ung
- 20
▁Bo den
d ed
▁S ü
T A
▁gew ünsch
▁offens icht
sch uld
▁development .
6 )
▁S P
▁jeweil s
▁solidar ity
▁w ent
▁d an
n er,
- y
▁recog nis
kr ise
▁m atch
ol den
▁impro ving
▁gr enz
▁specif ically
▁P ower
▁conven ient
s "
kon ferenz
▁phot ograph
is .
▁He il
▁Verein ten
▁Se hens
▁gesch affen
h ,
▁b ott
▁E AD
▁process ing
▁beste hen
▁einger ichte
▁A v
▁7 .
ch mal
▁Be griff
▁gleich e
▁CO 2
▁sicher lich
f ten
▁produ c
n ungs
▁Ange legenheiten
▁Afghan istan
▁d ah
▁Krit erien
▁r u
▁vor zu
▁know ,
▁aut h
gem äß
p enden
▁I C
▁read ing
▁Groß britann
att le
▁Agend a
st ände
▁K rä
▁Ab schließend
▁pl ants
▁Heraus forderungen
▁H y
kt iven
ück en
leist ung
-T e
▁typ ical
▁farm ers
o ted
▁Ph il
▁entw eder
le iste
geb aut
▁Ital y
▁all oc
▁erwar ten
▁K al
▁Span ien
▁Schwier igkeiten
▁inter pret
▁Br uss
▁m obil
at a
▁supp lier
▁mach ine
▁Such e
or es
▁ref uge
ad es
▁( 4
▁Wh y
on en
-S ystem
gem eine
▁komm en.
▁L ib
▁un tern
port ion
▁competit iveness
-P l
L E
▁deal ing
▁Ber eit
▁tun .
▁sh o
▁L ag
▁Ne ver
▁pers ons
ikan ische
▁t ack
▁Klima wand
▁Entw urf
▁inc or
f .
▁IS O
temp or
▁link ed
▁del ay
▁el imin
bour g
▁opt ions
▁cover ed
▁to o.
▁reg ret
▁wel cher
qu ate
▁p sych
▁for get
▁consider able
cl ub
▁particip ation
ha gen
▁Char akter
▁N I
▁Besuch er
sp er
-st ar
▁Afr ica
▁we eks
let ter
z ähl
▁ch ines
▁Pl en
etz en,
▁phot o
▁würde ,
▁h osp
gew icht
iel t
▁F ore
▁R h
p unkte
▁komm enden
▁komp lex
führ t,
▁S ow
▁g ern
▁Europ a,
▁def ic
▁He alth
▁einges etzt
ish ing
urop a
▁zu vor
▁process es
▁exclus ive
ro ad
▁ge gründ
▁Te ile
▁wh ite
▁Eng agement
▁er halten,
▁su c
▁O ver
▁ent gegen
▁k lare
▁Aus gaben
▁genie ßen
de .
ün schen
▁peace ful
oss ible
▁Portug al
▁Un fortun
amp ag
▁Rom a
- 3
▁pleas ant
fahr ens
d ie
▁techn ische
▁stim me
▁B os
▁H altung
fahr en,
▁19 3
▁tr ust
wor ks
▁con tra
▁D istr
▁ é
▁K urz
▁Install ation
führ er
▁par agraph
▁Un abhäng
▁mor al
▁j ur
▁Mad rid
ige m
▁M ir
alt en,
▁Nutz en
▁st imm
▁rel ate
▁will ing
ome ter
▁ref le
▁Ver ständ
r ichten
s -
il er
▁( b
▁per cent
▁method s
▁pow ers
urop ean
gr uppen
▁s auber
stru ction
▁flex ibility
M U
▁PH P
m od
▁Ab satz
▁D ienste
▁o ber
▁Le ider
▁col or
▁( the
ist en,
auf trag
g a
s pe
▁aus z
▁s itting
▁auf genommen
▁opp osition
▁Pro v
▁with d
i h
▁tra ve
▁word s,
ir us
ak es
▁str ict
▁Kommunik ation
al es
d es
▁Men ge
▁K arte
in der
ame ter
▁En vironment
▁teil weise
▁Sp a
▁ent ry
in ary
▁fact or
1 8
sche ch
s et
▁Haus halt
▁get an
l ung,
▁war en,
▁Christ ian
for sch
▁ad just
and a
▁M io.
wach s
▁r uss
▁Fischere i
h erstell
ste chn
▁Währ ung
▁Innov ation
4 -0
▁to ld
▁W ander
▁In halte
l assen
k ap
be w
▁Me ter
z z
id ing
▁ver ring
▁durch aus
▁A ct
▁us es
▁Aus bildung
▁m ail
ia 's
▁sch em
▁reg istr
▁An teil
y a
▁al te
ber icht
▁opp os
▁beh av
▁s le
den k
▁Ar ten
▁Stabil ität
se ktor
▁la w.
unehm en.
▁ver folg
▁bring en,
▁Über gang
clud ed
▁3 2
▁gra du
▁l ines
▁übern achten
▁Un der
▁nie der
▁efficien cy
▁room s,
▁perman ent
▁min ister
▁ent scheiden
▁führ en.
g ree
▁Viel en
▁res ist
▁or ient
▁Zeich en
R A
▁M el
et ten
e b
▁lie be
▁posit iv
▁G N
▁f it
▁dank en.
▁M ount
▁Stat us
▁H armon
de te
cre te
▁mot ion
p ann
▁B il
▁areas .
▁dom estic
▁des ire
▁U l
▁It 's
▁him self
▁Richt linien
u an
w an
e h
ed ia
▁ver treten
▁becom es
▁Group .
5 )
▁B lack
▁entire ly
st änden
/ or
k arte
▁follow ed
▁As pekt
prüf ung
▁versuch en,
▁Or igin
▁pro s
▁ange geben
▁environment .
esch rän
▁Parte i
▁assess ment
▁Febru ar
▁wer t
▁my self
▁ständ ig
▁play ing
▁President-in-Off ice
▁Re formen
▁m ission
▁gest immt,
▁Gr ünd
d aten
▁V ien
▁K enn
▁- -
▁impro ved
um än
pl es
▁be kommen
▁ins ide
▁sup erv
re gel
▁T ool
▁comb at
▁K il
ck now
▁adv anced
▁f le
▁absol ut
ester day
▁konkre te
▁met res
▁eas ier
I B
▁play er
▁Bec ause
▁König reich
▁s ays
ge hen.
im it
▁client s
▁19 .
▁im ag
leit et
it ter
▁ele ctions
▁deliver y
▁be zeichnet
isch en,
▁hin zuf
▁plann ing
▁pl ans
▁ander es
▁4 5
▁G ot
▁pr ä
▁fr üh
ium s
▁initi atives
f älle
▁l ives
▁E isen
▁Rat svorsitz
▁region .
▁Erst ens
▁mö chten,
▁pol ice
▁f ühl
▁h tt
ve y
ha ber
op ol
▁On ce
▁open ed
▁ver urteil
stoff e
i ro
▁N on
kn own
▁occas ion
▁z ul
il ing
▁st ated
▁Sehens würd
▁im ages
ac cept
▁mich ,
▁condu ct
▁( EN
▁clos ely
▁kl ass
u ed
▁sich er,
▁a cknow
▁B ran
yste men
▁hel fen
▁parliament ary
▁At lant
▁experien ced
▁anc ient
▁Kon z
▁found ed
fer tig
▁serv ice.
▁ch air
-H otel
-S ch
E A
▁M ail
▁wen igen
▁organis ations
▁Gew ähr
p la
▁hat te,
▁ag o,
▁King dom
▁s ong
▁St raf
▁R oy
▁concern ed,
9 )
▁näch ste
▁negot iation
▁and /or
ativ e,
▁sur pr
▁erreich en,
gram me
▁Sp rachen
▁Bar ros
▁denn och
ä ck
▁prom oting
üt ze
or ing
ick ets
▁As yl
▁ge ograph
w asser
▁möglich st
▁War um
re ck
▁Mon ate
▁l ength
▁zuf rieden
▁acc ident
▁B and
il es
▁ste hen.
▁discuss ed
▁Mo dern
te te
▁Gar ten
▁EAD S
▁dang erous
▁p et
C O
]] ,
▁Bus h
▁d ro
bo x
▁K licken
▁Me chan
▁Auf bau
▁ 00
re m
▁v ere
▁lo ad
▁lok alen
▁( c
▁prom otion
▁information ,
▁50 %
zustell en.
▁An ges
▁Febru ary
▁gegen seit
organis ation
as ing
▁O sten
sch ul
r t
▁ce lebr
▁fac ing
▁Gipf el
▁(P L)
en ?
▁Ch ance
▁conne cted
▁differ ence
▁Denn och
▁Entschließungsant rag
▁s ession
▁sector .
▁assoc iated
▁Flü cht
▁m 2
▁hotel ,
▁Fre und
▁F le
fin ition
▁rail way
▁tele vision
▁def ence
▁get roffen
▁gesch lossen.
▁be ar
▁Ein haltung
▁stud ents
▁H all
▁All gemein
▁Sant a
au ern
▁" O
▁d ish
▁Priv ate
heit ,
▁f ruit
▁room ,
▁Flex ibil
ch ten.
ho ben
▁ausdrück lich
▁issu e.
▁citizen s.
il den
▁pover ty
hr ase
▁saf eg
un kten
▁fest geleg
g esell
▁St off
id s
▁" s
▁vor geleg
▁Nach folgend
T he
ärk ten
▁fre ue
▁A lex
▁humanit arian
n ter
▁Vor teil
▁finanz ielle
▁bring t
▁umf asst
as k
▁again ,
schrif t
is ieren
▁un to
▁199 6
▁tä glich
▁m iddle
▁L am
▁sign al
EN T
▁P fl
C ,
▁acc ur
▁end gül
▁un accept
▁In f
▁Gemeins amen
▁con dem
▁say ,
ma ß
is ierten
▁F en
go vern
ö der
▁2 1.
▁komm en,
▁Stra ß
▁f äll
▁3 D
▁coll abor
h äus
▁imp ossible
▁hät ten
ick s
S )
et ze
▁N ations
▁how ever
▁gener ally
▁Komp on
m el
▁Viel falt
▁establish ment
▁( V
▁immed iate
ag s
▁dar an,
▁implement ing
▁unterschied liche
▁Herstell ung
z og
ill ing
ik al
▁verab schied
▁un ge
▁de gree
▁rad io
a ult
tr y
▁M ö
▁comb ination
▁Mein ung,
en :
if fer
▁ex cept
▁benö tigen
▁Organis ationen
führ ten
▁N ote
▁Krit ik
▁amer ikanischen
▁Th en
▁are ,
▁Ste in
▁so le
▁ind ire
▁g ram
▁vor be
de ckt
▁ev idence
▁C om
▁bes uch
▁St imme
▁aus gesch
l ern
▁man age
▁Hotel ,
▁gew ähl
ian o
▁Ir ish
▁comm ents
▁ful fil
▁D orf
▁B ern
▁Immobil ien
as te
▁Sup er
▁place .
▁understand ing
k te,
▁redu cing
▁Kolleg en,
▁announ ced
▁Unternehm en,
or am
▁S aint
▁prop ose
▁recogn ition
ies en,
▁Nahr ungs
▁Acht ung
ige ,
c ia
k rieg
▁übernachten ?
or ient
▁persön lich
▁den ke
▁Um fang
it ze
▁St rom
▁A K
▁Ham burg
▁s and
▁r ent
▁M P
▁sh ared
▁Res ort
▁discuss ions
▁Komp et
g u
ü nen
ran ken
we chsel
▁tr uly
▁erforder lichen
C .
▁W o
▁Jahr zehn
amen te
▁J etzt
ist or
se hen
▁field s
▁dank en,
▁s atell
▁comp la
▁er leich
l es.
▁a u
▁F inn
▁tra gen
▁app lies
a ub
▁ex cess
▁b ir
▁soll en.
▁soll ten,
▁back ground
▁agend a
r is
▁m ist
▁H ard
i am
st ad
▁Auss icht
▁effe ktiv
▁a head
▁verste hen
leit ung
▁Viel zahl
▁O S
▁c ur
ick en
licher weise
▁qu ar
▁perm it
är m
▁purch ase
▁ad apt
▁Währ ungs
▁A partments
▁scre en
▁D ue
▁Stand ards
▁avail ability
▁fisher ies
▁Völk er
▁St ärkung
▁ent ertain
▁dut y
▁w all
ück e
▁for mal
▁Kommission .
▁E lement
▁Stellung nahme
▁W ald
▁da uer
▁tra g
▁poss ibilities
w urf
ch e,
▁Berichterstatter in
▁berücksichtig t
g ment
▁men u
▁vict ims
ut in
▁Ein igung
▁v otes
▁on e.
▁con stit
zw ischen
k an
ig ung,
▁g ames
▁j etz
en hagen
▁Se hr
▁(1 9
it ious
▁konn ten
▁ent h
▁members hip
d oor
it ors
et ter
▁ein iger
▁um gesetzt
▁Off ice
▁Arbeit en
▁hin gew
▁10 .
▁cohes ion
j o
▁auf merksam
▁ph one
▁level ,
▁W all
▁opin ion,
▁Gleich zeitig
▁ •
▁könn te.
▁call ing
▁Sch ön
- J
▁Produktion s
▁le ben
▁sp l
▁beg ann
and o
▁is ol
▁re ception
▁market ing
▁genie ß
gestell t,
▁G ott
▁er zeug
▁industr y.
▁Pol ize
▁Supp ort
le id
▁mon etary
▁C olle
▁fix ed
▁mit einander
enn en.
▁(EN )
▁there ,
▁today 's
▁Wor k
▁Pr ime
g ers
omb in
E O
▁Tour ismus
op t
▁N ame
▁übr igen
▁Land ,
isc al
n ach
att form
▁darüber ,
▁Zust änd
▁Bed arf
▁other wise
▁trans ition
re ,
▁del ic
▁even ing
▁We ge
▁great est
▁ur ban
▁ äl
ier ,
olog ische
▁s n
ien te
▁20 %
asch ine
as il
▁T yp
▁Son nen
▁Gästebewert ungen
ar ischen
zeich nete
▁exp end
▁S T
▁int ention
oun ts
▁un a
ste lle
il s
▁Pak et
▁Be ach
▁gen eration
▁hin weisen,
▁ent deck
▁V o
ere chn
▁Date ien
ment al
um .
▁P a
sch er
▁ü b
▁Ge ist
▁att ach
▁Fun ktionen
▁unabhäng ig
▁F onds
▁An gaben
▁sch affen
▁conne ct
▁vern ünft
▁Frankf urt
▁h ilf
-s ized
6 4
▁ger ing
▁genutz t
▁richt igen
war en
▁e .
rimin ierung
▁An w
▁W i
f s
▁un less
▁la ws
r üst
▁Ver letz
▁c ities
▁Date i
▁Parlament ,
▁allow ing
▁nie mand
▁erwar tet
▁M ain
▁again .
▁schö nen
ut ch
▁do or
▁tre ff
▁T itel
il ot
▁L o
ire less
iert es
▁E ar
▁Daten bank
▁entit led
. S.
b and
er ver
ü ll
▁introdu ce
▁Che ck
▁er fahren
▁benutz t
ak en
▁D igital
▁R and
▁enorm ous
m on
▁A partment
▁install ation
▁notwend ig,
▁d ivid
▁gegenwär tig
ch em
G O
▁en ables
▁con crete
y le
▁so .
tempor ary
▁(D E)
ich ert
▁relig ious
n y
▁Turk ish
▁kon stru
▁inter vention
ö ss
gen ommen.
ühr en
) ;
▁F el
▁conclus ion
▁M un
▁M aschinen
▁8 .
▁German y,
z t
▁v ision
▁Webs eite
▁s quare
▁möglich .
▁Break fast
un ion
▁Ber ichte
▁Teil nehmer
▁Palest inian
▁genu ine
▁h arm
tz eit
jähr igen
▁bem ü
▁über all
▁M ik
▁con v
▁product s,
▁v ul
▁20 .
▁adopt ion
▁S onn
▁con vention
▁N ether
▁Les ung
▁dan ach
▁defin ition
▁Rechn ungs
▁First ly,
▁kit chen
▁O s
▁Ch anc
ä gen
▁bank s
▁An alyse
wer ke
▁form at
ist isch
▁ro ck
▁Stra ße
▁ris ks
▁weiter er
ber e
▁on es
▁appro xim
uch e
▁Zug riff
▁Mich ael
▁Veränder ungen
▁0 .
▁komplet t
rauch er
▁sur face
▁Forder ung
▁business es
ter t
▁d ient
5 00
▁as yl
▁kulture llen
▁sign ed
▁appear s
: 0
▁pros pect
▁Anges ichts
▁W and
▁Technolog ien
▁S eine
v iel
il st
▁Inter ess
▁fol gen
▁morn ing
▁there .
▁aim s
▁Regel ung
▁Kommission s
▁possible ,
as ts
▁future ,
▁TH E
▁technolog ies
▁vorlie genden
U T
▁beste ht,
- r
▁Ver st
▁un f
▁Wel t.
▁Global isierung
▁ �
▁th en,
pl ätze
▁c amera
▁Just iz
▁sämt liche
▁Ide e
▁ze igen
▁keiner lei
▁Afric an
▁g ing
▁j our
o oth
▁h y
än gen
or a
theless ,
▁k ons
rä gen
örder t
▁ear th
▁C ustom
▁Leist ungen
re u
al ys
▁R os
art en,
▁Re c
or den
▁L ive
▁aus ges
▁attra ctive
▁Gerichts hof
▁grenz über
▁C ub
▁l iter
▁Rechn ung
al a
▁coordin ation
ate ver
▁admin istration
▁Prior itäten
▁se ll
▁htt p://
tern .
-y ear
▁all .
▁rom ant
tz entrum
▁dedic ated
▁We chsel
▁for ced
ür k
▁Hin weis
▁the or
▁region alen
▁Ver y
▁decl ar
▁clos ed
▁ö k
ein ,
▁war en.
p erson
▁führ en,
e y
▁K urs
▁Mein er
▁Forder ungen
verkehr s
▁Pak istan
▁I D
▁ex pression
▁Mittel meer
L AN
▁z entrale
▁100 %
▁fol gende
▁Beit ritt
▁M esse
oun ge
▁inst alled
▁ra ise
▁Initi ativen
▁rel iable
▁US B
h e,
▁rev olution
▁Kin dern
g as
▁Re ich
▁P DF
iet en,
▁Kont roll
▁ha upts
▁C H
in es,
▁ver meid
▁tot ally
▁verantwort lich
qu ar
▁S yn
▁development ,
▁ein ver
▁besch rän
▁deb t
▁for dern
▁M at
▁develop ments
▁pict ure
▁strong ly
ä den
▁t ief
▁auf zu
▁Fore ign
▁2009 .
u e.
▁p ure
ge hen,
wohn er
▁che ap
▁suc ceed
▁Fed eral
an lagen
▁d iss
ar r
es :
act ive
wir t
▁on .
▁problem .
▁L izenz
▁re ch
▁Er hö
▁befür wor
▁convin ced
▁comp ared
▁Produ kten
▁Ur s
▁qual it
▁M ond
▁An other
▁inform ed
▁m m
id a
▁en h
▁mot iv
ar ies
▁comb ined
▁accomp an
▁Fest ival
▁b orn
▁heiß t,
st ücks
▁Cont rol
▁ber u
▁est ate
▁colle ct
ach tet
▁pr ison
▁französ ischen
▁S ysteme
▁establish ing
▁reform s
▁wir ks
ab y
av es
▁def ined
mit tag
▁Leist ungs
▁curr ency
▁Austr ian
▁m agn
▁em issions
▁sp ent
rag en.
▁I hnen,
▁10 %
▁p or
▁B ack
▁größ eren
▁big gest
▁höch ste
▁Hal b
▁describ ed
b rauch
▁re produ
▁available .
d i
▁main ten
▁gen et
▁Th ird
▁Cas ino
▁dipl omat
▁for th
▁guidel ines
je kten
▁ausgest attet
▁sc ience
f le
▁bein hal
▁diejen igen,
▁g olf
art a
▁any one
▁p our
▁o w
▁eng l
▁entwick eln
▁gew inn
▁gr unds
▁C roat
▁langu ages
▁ve get
3 )
A ,
▁Eind ruck
hör de
m as
our ce
itz en
▁worldw ide
on ial
▁verein bar
▁effect ively
ut or
▁For men
▁Chin a,
▁spe zielle
▁zusätz lich
▁be ige
om in
▁Geb rauch
▁clos er
▁gegenwär tigen
▁K andid
▁R ob
▁B is
-B ahn
▁word en,
▁me ant
x ,
▁Ver z
▁M indest
▁verbunden en
▁law ,
▁grunds ätz
▁H afen
ist ik
▁pat ent
i ov
▁Besch reibung
▁en for
pr inzip
▁3 1
▁continu ed
▁d ir
▁Überwach ung
ig sten
▁grat ul
▁but ton
▁V an
▁fre uen
▁par a
ator en
▁ab gest
▁dis aster
▁ >
▁opt imal
▁wäre ,
▁an bie
▁polit ischer
▁groß es
▁schaff en.
▁prior ities
▁W ien
▁P PE
▁Be wertung
▁fest ,
isten ce
▁reason able
▁verw enden
▁Tats ache
▁Re aktion
ile ,
-Pro gramm
af r
▁He imat
ath ed
▁p aper
▁gut es
▁H aut
▁a verage
▁day ,
am ing
▁international er
ere i
▁Ver trie
▁gr ant
▁Spe cial
▁t ried
▁z erstör
▁ber uf
▁herr sch
▁out ,
an cial
part ner
▁He ad
▁beg l
▁m üs
▁legit im
▁dra wn
- 00
c ap
▁se ctors
ro ff
▁system s.
▁12 .
st ät
▁er f
▁fun ctions
C D
▁ste ig
▁la id
▁voll kommen
▁Eng l
▁Deut sche
▁An s
am mer
▁comm and
▁g esehen
▁sol cher
▁Stad tzentrum
▁Eas tern
lo ok
for dern
▁so gen
▁Con stitution
▁Fot o
▁B ol
in es.
▁un able
▁l iber
▁se ven
▁O pp
▁Assoc iation
▁Techn ik
ibr ary
▁F itness
▁G anz
▁con tex
▁reg ime
iot he
▁Beteil igung
▁wesent lichen
▁erinn ern,
▁destro y
vor schlag
: 30
▁( z.
2 2
▁sa w
er ap
▁Gr unde
▁Ansicht ,
▁Qu est
le un
▁T it
▁D ollar
▁ro b
▁n either
te ten
▁famil ies
ä ne
ö se
▁ge ht.
▁Ver mitt
▁Pal ace
sp ar
ag o
▁Verteid igung
▁D imension
▁guarante es
▁ex pos
▁gr ünd
bal d
▁verb esser
▁n äher
▁erlaub t
▁Se a
▁k orre
▁cor porate
▁begl ückw
lös ung
it ts
▁Tod es
ü ter
▁inter face
ibl iothe
an im
heit s
fl ug
▁ä uß
▁ro ute
▁Br üssel
▁sicher zustellen,
▁S en
▁er gänz
ö sch
▁Gegen satz
j et
wind igkeit
▁In strumente
▁innov ation
▁Rel ig
ar ia
▁honour able
▁umfass ende
▁Länder ,
▁Wieder auf
ut r
▁Wh ere
▁Re port
pre ise
▁In stitute
▁Univers ität
▁defin it
▁A R
▁en or
▁Koh äs
ib et
▁contin ues
▁st able
▁G ut
ass ung
▁finan cing
▁register ed
-S terne
▁out .
▁Dro gen
▁bal con
▁chem ical
▁k os
▁process ,
iv es,
ok raten
▁amb itious
▁j ene
▁S or
▁hel fen,
▁F ire
▁ver lei
U N
▁support .
▁Er hol
▁T im
▁unterst ütze
▁Al ban
▁bo und
▁Tre k
▁nutz en,
▁f ern
re b
▁sch ed
▁think ing
▁appe al
▁Ein richtungen
▁Abgeord nete
yr ight
▁P oker
▁Beschäft igungs
▁highl ight
▁Ris iko
▁co ok
all er
uz z
▁EC U
▁e p
ens ions
▁city .
us te
▁particip ate
▁Tod ay
▁entsp ann
ists .
▁Bank en
▁Dat a
▁Verständ nis
▁T isch
▁sich erstell
▁relax ing
▁Bestand teil
▁stell en,
▁ze igen,
▁achie ving
ich e
▁Auf fassung
is ierte
kl ang
ad or
-s pe
▁C af
▁ver t
▁room .
ist a
▁möchte ,
▁fre ie
▁For um
▁ke pt
u a
▁ #
um n
▁sag te,
▁Go od
▁condem n
- 200
▁C am
▁Gree k
▁corresp ond
▁Wh ite
▁Herstell er
▁Kir che
▁wir ksam
h y
▁self -
▁dar aus
▁Auf fass
an ische
▁S D
▁Pr ess
S ,
▁Entwick lungen
▁P ool
▁comp r
est ,
▁er fre
▁S orge
▁App arte
▁min ute
▁Bevölk er
▁W orte
▁An lage
▁Tex te
▁P o
▁dist in
▁Be im
▁item s
▁ver gleich
oin ted
▁Lat in
bie ter
▁Bahn hof
ic .
▁urg ent
ab ilities
▁ge öffnet
▁comp at
itt en,
▁un ten
▁ele cted
s b
id o
▁th re
▁F ert
▁spezie llen
▁Bedürf nisse
▁surround ed
kn ü
om as
▁hoff e
▁sorg en,
S L
▁equ ality
▁exper ts
▁expla in
▁y esterday
▁anges prochen
▁Prior ität
e kt
gef ähr
▁um welt
l og
▁Re is
▁anal y
r as
▁R ent
▁priv ile
us es
ol ge
▁ben ach
ro llen
lin e.
▁Ire land
▁Ge fühl
▁tra ding
▁einfach e
▁J ac
▁Nach dem
▁gesch ie
▁De finition
▁inde penden
▁erne uer
▁a p
▁L ord
produ ktion
▁Sum mit
▁pre d
▁now .
ein d
ul a
▁r asch
▁brit ischen
▁Pe ter
▁we alth
tes ten
▁N iveau
▁access ible
▁Med ia
as e.
iz z
▁Meer es
▁Führ ung
▁Daten schutz
govern mental
▁F eld
▁sour ces
▁w ählen
▁dr ug
▁tem per
▁phys ical
hand lungen
▁differ ences
▁sur v
▁Kl im
▁infrastruct ure
▁bur den
▁ex klus
▁at tend
omb ination
▁problem s.
schl äge
▁Schw ed
▁zu ge
ib el
erm a
▁Archite ktur
▁(P T)
▁K atastrop
▁Gebie ten
tel lect
▁qu ot
▁Ma x
it ,
▁re ject
▁Sch m
▁gest immt.
▁Ph ot
v erein
ak et
▁prin t
▁Sl ow
heb ung
▁ent stand
▁Mon at
▁transl ation
▁sorg fält
▁medium -sized
e f
▁f iscal
▁Weit ere
▁N ik
enn is
▁ph ilosoph
o very
gr ün
▁199 5
▁C re
▁organis ation
▁N am
▁mov ing
statt ung
▁sub s
▁arr ival
▁Liberal isierung
O D
▁bal anced
▁gl ass
ent in
▁al t
▁ad ap
▁sag te
▁Far b
▁Betrie bs
▁Loc ated
S QL
▁G az
▁über prüf
▁d é
▁n a
▁Herr en,
▁Partner schaft
▁II I
▁beant wor
vers ion
▁mitt l
▁G ent
▁2010 .
▁Leist ung
A )
▁r ig
▁safeg uard
▁wunder schö
▁D ay
▁3 6
▁cons ens
▁... "
▁gut er
- 4
▁außer ord
▁mer ely
gra de
▁erweit er
▁mic ro
ash ion
▁und erg
▁L ake
▁art icle
ob ility
▁man chmal
schloss en
▁Unfortun ately,
▁Bar ,
▁fail ure
▁t ürk
▁angeb oten
se c
▁mittel s
w agen
▁s am
ut ing
▁re ve
end en,
▁app ar
▁in come
▁Zeit en
▁Gegen teil
▁dage gen
▁ent schieden
▁coff ee
▁comm unities
▁haupts ächlich
m ach
▁Arbeits markt
▁ide ale
▁pres erv
▁spr icht
▁p ension
▁erm ö
▁Fr ont
▁Grund rechte
▁de te
▁aus länd
▁all gemeine
▁just ice
ell er
ter nen
▁care fully
▁p un
▁so bald
▁ass um
▁perfect ly
▁Arbeitslos igkeit
▁some one
▁constant ly
▁unemploy ment
▁Ab stimm
▁mö glichen
▁" In
▁Er wart
▁Mut ter
▁anim als
z il
▁cons ists
▁situ ation.
▁ask ing
▁prev ention
▁fa iled
- of
▁S quare
▁ant i-
▁put ting
▁particip ants
ag en,
▁And re
▁sens itive
▁statement s
▁Z oll
ub le
rä um
▁Austr ia
▁dar ,
▁Mark et
▁ermö glichen
▁c ore
▁M EP
anc ing
" ...
mö gen
▁Be ob
▁ausge wogen
kt op
▁p ill
▁clos ed.
od urch
▁vorgeschlagen en
▁approxim ately
▁s we
▁St ation
▁bring ing
▁vo ice
techn ik
▁gew iss
▁program s
▁assoc iation
▁but ,
qu alität
▁rele ased
▁gl ad
▁Unabhäng igkeit
▁beton en,
ence ,
▁Über zeug
▁debate .
▁brauch t
gy pt
▁H äl
▁J eder
tr itt
prü ft
▁Never theless,
▁Kop f
wach stum
▁ 's
re if
▁tr end
▁P ic
aus o
▁18 .
▁jüng sten
▁ass ign
▁mass ive
▁Ents pann
▁S yr
je ction
▁fra ud
▁Bl og
▁e g
▁l angen
ik ing
or ough
▁B oth
▁Tra de
▁difficult ies
iqu id
▁Früh stücks
▁E N
▁Patient en
ak er
▁Austr al
▁g rie
▁co ol
▁sub mit
▁sp ot
▁pro portion
▁nehm en.
▁n orm
r ier
▁bl og
vere ign
▁poin ted
▁V om
▁coun t
▁hand s
▁areas ,
▁so vereign
▁stark e
▁Ab sicht
▁erziel t
▁Balk an
▁bes tell
▁number s
▁result ing
ie fer
▁9 .
▁Mart in
gestell ten
▁dies el
▁respons ibilities
▁continu ing
▁Ru he
▁polit isch
f ung
▁R oll
▁S ur
▁Ch em
▁Haus es
▁zurück ge
▁h all
ra hmen
▁ id
▁T emp
▁R umän
▁sl ight
▁Th ose
▁En joy
▁zu gleich
▁herz lich
▁S ä
▁schö ne
b ody
▁E ben
-S tr
▁L os
▁Pr esse
▁you' ll
]] .
▁gew orden
▁sector ,
▁Aus führ
▁ u
▁b erecht
▁Milit är
▁be ob
▁25 0
▁con clude
▁betroffen en
▁w odurch
▁af ford
n g
ir k
▁med izin
schie de
▁contain ed
T P
▁b io
▁bereit ,
▁Sch ne
▁out standing
▁P op
▁re tain
▁book ing
▁candid ate
▁h .
▁proper ly
▁d ig
▁S un
▁4 ,
▁m aster
▁compon ents
lich em
▁se cret
as e,
▁M erk
▁( IT
▁right ly
▁viel er
▁lux ury
▁Java S
▁con temporary
▁re -
▁Re pr
▁ab st
▁J o
▁pr üf
▁terra ce
▁gen ü
▁Mitglied s
▁K ünstler
richt linie
▁Link s
▁gemein schaft
▁Ges am
▁l ov
▁Nieder land
▁f uel
▁to ler
20 10
▁Ma ße
▁Ch amber
▁charge d
▁(T he
▁s em
▁Rev olution
▁speak ing
▁Cy pr
▁erklär t
▁st amm
p al
▁bor ders
▁Stud io
E ,
▁E th
á n
▁Be weis
▁cap t
U M
é e
im e,
▁Tod ay,
rä ft
▁persön liche
▁Teil nahme
▁Klima anlage
reit ung
▁Pra kt
▁Koordin ierung
▁Reg ulation
▁pass ed
▁verbess ern.
▁Erklär ungen
▁Disk riminierung
▁break f
▁strengthen ing
ü ß
ell os
▁Zentral bank
▁near ly
▁Bud get
▁th erm
ur a
ol o
▁gew ord
▁lead s
▁incor por
▁be ha
▁cap able
▁j ungen
sicht s
▁V e
▁W ür
▁ch osen
▁J ournal
in formation
▁e chte
▁P in
loss en,
▁Sch ool
▁einz us
▁Aut or
▁d ritten
▁J ose
▁wichtig ste
= =
ent scheid
▁We iß
▁St reit
▁2009 ,
▁Z uf
▁ange p
▁author ity
▁organis ed
el t.
r ies
▁Bos n
b u
▁B M
▁am t
▁F ax
rach t,
▁ex tended
▁Ad min
▁Wel che
▁International en
▁vor bereit
▁pass word
7 5
st at
glie der
teil en
d o
▁Tele fon
▁Beschl uss
▁D ort
▁An griff
▁Sch war
▁wa iting
▁K affe
▁at temp
ungs k
üss en
m lich
▁gut ,
▁bestimm t
verb ind
inn ing
▁Herr en
-K on
arbeit en,
h aben
aus ende
▁bring s
um er
▁einz igen
▁requ ested
air s,
le te
▁Democ rats
ie b
▁gram mat
▁n ar
▁seek ing
▁verbess ert
▁Erhö hung
los en
gän glich
▁E benso
▁Mär kte
▁m e,
▁P ublik
ungs bereich
▁nachhalt ige
me ister
▁Nicht raucher
▁prakt isch
g in
▁tr uth
▁par allel
▁Is land
▁Europä er
▁ges etzt
▁l au
▁Ferien wohn
z ig
ist ungs
äuf er
▁zunehm end
▁asyl um
man agement
▁vul ner
▁An lagen
ipp ing
▁south ern
▁exerc ise
▁D utch
▁Lauf e
-Fraktion .
▁l iability
u j
▁Regel ungen
d en,
í a
i pe
▁seit ens
▁happen ed
▁cons olid
▁cla ims
▁max im
▁consider ation
oten zial
le v
arbeit en.
▁Nutz er
▁S ud
▁a cht
▁c ult
▁multip le
▁withd raw
▁m a
▁Stud ien
u ver
▁grenzüber schreit
▁h um
▁tas te
setz en
▁ign or
▁ex plan
ä ten
▁b on
▁E P
▁K or
O P
▁V ia
▁f ro
▁v ide
▁R ich
▁B ill
▁them selv
▁qual ifiz
C C
▁p ick
▁A kte
▁Thank s
▁in hab
▁res pekt
▁sie ben
▁19 0
▁lab or
ver w
▁own ers
▁Herausforder ung
r ant
▁datab ase
In nen
▁ п
ed on
af ft
▁rein for
▁Roy al
▁viel fält
▁vor gelegt
▁l ag
iss ens
▁he at
▁dynam ic
▁Belar us
▁O ld
▁d isch
▁ {{
▁Proble men
▁einges etz
▁context ual
▁imm igration
▁Tre ffen
▁obvious ly
▁Kont in
▁soll en,
▁national er
▁bess eren
/ A
f est
▁regel mäßig
▁wish es
lin ge
▁rem ove
-h ow
▁tr ägt
▁Städ te
▁prim ary
▁con cep
wer ten
▁gran ted
▁un g
3 5
▁R und
ov a
▁Auf grund
▁j en
▁Ch amp
f el
▁er g
▁Über n
stand s
▁akt ual
▁stud ies
▁Ide en
uf e
▁G raf
▁gew esen
oh ann
h err
▁T wo
▁Wel t,
▁auth ent
▁T ai
▁kon text
▁ver teid
ze ß
unehm en,
▁Dub lin
▁Großbritann ien
▁nam es
▁se hen.
4 5
▁Jahrhunder ts
▁Häl fte
a ktionen
- cl
ennt nisse
▁mem or
▁Ko operation
▁k licken
▁ausreich end
▁B an
de cken
▁Bes itz
k arten
▁tradition ellen
tellect ual
p hrase
▁emphas is
▁j ournal
rok rat
vers e
▁pres idency
y er
end ing
▁arbeit et
▁writ e
▁Kon k
at lant
▁f if
sch ätz
if orm
iqu es
▁Wir t
sel ben
▁sinn voll
rach t.
▁Freiz eit
▁R ules
end et
weis en.
▁terror ism
▁Sehenswürd igkeiten
▁E lemente
▁H or
▁stand s
qu ir
▁there by
▁Fin ancial
ag ue
▁deut sche
▁Ber ücksichtig
▁f ried
▁hab e.
k ar
▁Ver hältnis
▁me ters
▁M ach
▁( v
▁dies be
▁ste hen,
▁K ategor
▁U .S.
ator ,
emb ly
▁mut ual
▁die ,
▁R em
▁St ück
▁4 8
u den
▁15 .
▁Pro vin
▁Über prüfung
▁c le
c omm
▁h yd
▁dam als
▁Cl ass
▁let ter
▁Fot os
▁glob ale
▁Just ice
▁Größ e
ol z
▁weiter es
▁länd lichen
▁s ale
isten z
▁sor gen
▁Aut ob
▁Fortsch ritt
▁erfüll t
▁stor age
▁D ach
▁hoff en,
▁v oc
▁Kommissar in,
▁l ern
▁among st
▁Anpass ung
▁kürz lich
▁einzel ne
▁prep are
▁Ver öffentlich
sch irm
▁k ost
▁Form ular
▁klar ,
▁chang ing
▁prim arily
▁Rot ary
▁Prüf ung
▁Sch if
hand els
▁V ision
▁sp rach
▁oper ations
▁17 .
▁turn ed
▁Kar ten
▁societ y.
▁hat te.
m utz
▁Zweif el
r d
ro t
▁Se k
▁Pres iden
▁issu es.
l er,
s )
▁Ch urch
▁Teil en
▁technolog ical
▁T om
ind e
ist .
tr ib
▁Fl ash
▁R iv
▁8 00
▁Gew inn
▁tour ism
▁ges pe
-Mit glied
▁satell ite
▁serv ice,
▁Q ue
art ner
▁small er
▁s now
äd t
▁un anim
▁Ein klang
fü llen
▁de alt
▁on to
▁Mark en
▁A B
erma ßen
▁e ight
▁K ong
able d
▁wa it
▁B io
▁al one
▁Unter kunft
▁territor ial
▁dazu ,
▁d ur
▁5 ,
▁writ ing
▁qual ified
▁grie ch
▁b ran
▁sel ten
▁demokrat ische
▁Des pite
▁system at
▁im per
▁viel mehr
▁build ings
▁Ir land
▁er w
▁Voraus setzungen
▁F ollow
▁berühm ten
▁O F
lic it
▁upd ate
▁i .
ic on
▁Empfehl ungen
▁(IT )
▁J es
▁ins urance
▁position s
▁insp ir
ul ated
▁Ex press
t able
▁un ion
▁sw itch
end ung
a "
▁industr y,
w ww.
un sten
▁leaders hip
▁g esellschaft
▁So und
▁gr and
ran ce
grund lage
▁St unde
▁kle iner
▁jun ge
▁posit iven
▁b ureau
k reis
ring en
▁verbess ern
h le
▁führ enden
▁bleib en.
▁TV ,
▁schnell er
▁ex ceed
▁erschein t
al tet
▁Kommissar in
▁Unter schied
spl an
▁Schlusselwor tern
krä fte
o ot
▁blo od
▁b and
▁A 3
▁find ing
▁par ad
▁Bei hilfen
▁beaut y
gel t
▁Fahr zeug
▁ur ge
▁Schlusselwor tern,
▁S ein
▁Found ation
g ien
▁le isten
ä ger
▁ge änder
▁ver k
▁J ohann
▁fest gelegt
▁compon ent
ic an
reib en.
▁nam ed
D R
k or
io de
▁reason ,
▁Anwend ungen
▁system s,
▁zu verläss
▁Zahl ungs
▁Dav id
▁nö tig
▁German y.
▁Tele f
▁re jected
▁12 0
▁Verfüg barkeit
▁Pat ent
ö ger
▁dr iving
8 6
b indung
▁Bet r
▁bed arf
▁0 ,
är kte
ateg ory
org nis
▁ehemal igen
es ign
▁sch n
▁Mittel n
▁198 0
▁pres ident
▁comple ted
▁Fre ude
▁success fully
▁höch st
▁me ist
c ast
el s,
▁near by
▁Ar m
▁L ou
▁Mitglie dern
▁country 's
▁genann t
▁sprech en,
▁oth ers.
it ar
▁l ock
ical ly,
▁d imension
▁D adurch
▁Mar ia
-B e
ungsver fahren
▁würd en.
ä fen
g ot
▁F ac
▁Ver k
▁discuss ing
▁ear n
▁Dire ctor
▁Bra zil
▁verb reit
-b order
▁A ktionen
▁gu ide
▁Exper ten
▁Sch aden
▁hervor ge
▁derzeit igen
▁learn ing
▁E p
end um
▁Vorbereit ung
I )
l .
ol er
▁J ean
▁ult im
v ak
▁Bed ro
▁Fre unde
ad ow
▁J ack
▁Berücksichtig ung
▁K now
▁fin ish
▁Wirk ung
ing ton
▁fin ance
▁achie vement
▁ent re
▁2008 .
▁Sü den
▁ver we
▁gew isse
▁hor iz
▁Mun ich
▁Programm s
▁M as
▁ch ain
▁G rad
▁G M
▁Re zept
me chan
▁we g
our s
▁pen alt
▁B alt
ut re
▁l äuf
▁Pr äs
l ike
▁Ro h
- the
kunf ts
bere cht
A B
n etz
▁überzeug t,
▁in stru
▁organ ization
▁S atell
▁Prem ier
T ER
wo od
▁Gen er
vel y
la ir
el m
▁6 00
▁land wirtschaft
f ers
f are
▁K unde
ktiv ität
▁bir th
▁Restaur ant,
▁itself .
▁Bot schaft
с т
▁cr ime
▁Afr ika
abl en
▁Ereign isse
▁advert ising
▁b uffet
▁W in
▁so d
z ust
▁K ombination
▁also ,
▁mod els
▁Stre et
▁help ing
▁E G
▁Ex port
▁conf igur
▁Be fore
▁Schwer punkt
ess or
▁Mark eting
▁K reat
▁wel chen
ausschuss es
▁l esen
ost er
▁Ph ase
▁represent ative
▁Dire kt
S C
ans ion
▁question .
wer b
▁eng ag
ne w
▁Gl as
▁H oll
ission en
▁extre me
▁sit e.
▁v olle
▁We gen
▁out door
r ist
-A b
▁econom y.
▁akt uell
uropä ischen
▁R ub
▁16 .
-D ate
▁Comp any
he ber
▁tit le
ent wurf
▁below .
ic s,
▁ade quate
ay er
th eit
go ing
▁subsid iar
▁cours es
ge iz
▁ver f
▁trans form
clud ing
▁review s.
▁Komm ent
▁b itten,
▁An gel
▁konkre ten
▁übr ig
▁Sh ow
▁Viel leicht
▁Griechen land
▁sle ep
g ro
▁b ilden
▁durch führ
▁sp a
▁need s.
▁tre ffen
▁Z ul
▁Reg istr
ok ument
▁wieder um
▁Zahl en
or s.
sp h
▁f allen
▁v ess
▁spend ing
s ysteme
▁such en
▁erforder lich,
jähr ige
▁P rom
am ,
▁Er wä
h ar
r est
▁13 .
▁H erk
▁Geschäfts ordnung
it ime
▁T ake
▁meet ings
▁repr esen
zü g
▁kein es
▁hous es
▁p .m.
▁fig ures
err y
i è
▁ent lang
▁w ild
▁f ed
▁H ong
▁F er
ist ry
▁co -
▁mark ed
▁komp liz
▁st ore
▁out put
▁la ut
▁mov ed
▁individ uell
▁ander erseits
term ine
▁furn ished
▁im pl
- out
em a
▁Verpflicht ung
▁fant astic
▁A ustausch
im e.
▁conclus ions
▁Gesetz gebung
k m
▁Europ a.
▁Kar l
▁resol ve
▁jem and
- I
▁Verb esser
sp arte
▁ro t
▁( 9
▁I l
▁pract ices
▁kind s
▁schwier ig
▁ad j
▁T a
▁s ights
▁noch mals
▁feel ing
x .
▁M aster
▁aud io
▁relativ ely
▁mainten ance
▁d ict
▁be iz
▁Fra ktionen
▁Mor gen
▁pro ud
▁Maßnah men,
▁ze ich
▁mem ory
isch .
▁r iver
ad y
bahn hof
▁Haupt stadt
▁stark en
▁veh icles
lich en,
▁ha ir
▁tr ial
own ed
o ftware
▁d og
▁fahr en
enn ung
▁unter s
▁dein er
▁produc ers
V .
▁offensicht lich
▁divers e
▁T on
▁re ven
▁Ha up
▁USA ,
▁för dern.
▁p ap
▁F ischer
aus e,
▁ste ht.
▁för dern
▁re icht
▁R ock
▁reserv ation
▁serious ly
▁pl ug
▁( )
▁spe zial
▁bl ue
▁l atter
▁trotz dem
4 )
v ol
▁V alle
con t
▁A ction
▁mach ines
▁apprec iate
▁Al ter
▁heav y
/ C
r asch
▁D afür
ör t
▁Zus atz
n t
▁de part
▁V ar
if all
▁lie fern
▁ge ist
▁cop y
▁Gene hm
▁Gä sten
ag t
▁hal ten.
▁begrü ßen
▁Frieden s
▁P R
▁L uf
▁B ör
▁f and
▁ge pr
▁oper ate
i ating
▁w ähl
▁Ris iken
▁geeign et
▁disch arge
g ese
ent er
▁c old
▁Hous e,
▁ho her
▁we ight
▁caus es
▁wh atever
▁( 5
▁decision -m
ettbewer bs
▁ )
▁manufact uring
▁beginn t
at r
ass e,
▁zie mlich
de f
▁Fran c
▁proposal .
▁centre .
▁crisis .
▁lands cape
▁Kü ste
▁circumst ances
▁re por
▁Sp ann
▁Auf gab
icher ungs
▁Ziel ,
▁Pol en
▁versuch t,
▁determin ed
c ar
▁fal sch
▁st ory
▁Aus nahme
▁enterpr ises
▁wh e
▁saf et
▁pack ages
▁woll te
▁keep ing
le chter
▁H ans
▁pe op
vers orgung
best imm
▁poin t,
▁zie hen
ränk ungen
▁D isc
▁O ffen
▁ob st
▁set s
▁o d
▁temper ature
u v
▁f ill
füll ung
▁A z
▁T urn
▁Ex ec
▁und /
ur m
▁co vers
▁Eff izienz
▁U ser
▁Bü ro
▁Flexibil ität
▁u. a.
reg ion
▁Ris ik
bezieh ung
▁m aß
▁La w
re al
▁außer gewöhn
it ory
is men
▁l ös
▁help s
▁respect ive
é r
▁part n
▁oth ers,
k .
▁wichtig es
▁Umwelt schutz
▁an schließ
▁recogn ise
▁Am ts
▁relig i
▁cross -border
▁repe ated
▁out come
as ten
▁cor rupt
▁( I
leb nis
leist en,
▁deliver ed
im p
▁Män ner
▁bod ies
▁könn ten.
▁Kon sequ
k op
▁comp lic
▁zurück .
ies t
2 7
▁be weg
▁comp ly
▁Um ständen
▁region ale
▁( m
▁Prof ession
la use
▁Ländern ,
▁crisis ,
▁M alt
▁spiel t
▁you' re
▁d ry
▁H äus
▁adv ance
▁cor ner
▁Ob ama
▁hö here
ab ling
▁er öffnet
▁gen auso
▁distr ict
▁Char ter
▁S et
folger ungen
▁Y et
ier end
▁ver änder
▁Tour isten
V )
▁cl oth
▁gewähr leistet
ampag ne
u y
▁th orough
all ery
▁Gr enze
zie hen
zahl ung
▁K ranken
▁al ter
▁struct ures
waren ess
▁tas ks
▁1 000
▁Frem den
▁condition s.
▁er b
▁komm un
▁invol ving
▁Sk ype
▁italien ischen
▁stra ight
h ard
▁y e
un f
▁K orr
trä cht
▁v ast
▁Eisen bahn
ve c
▁Alt stadt
▁spect ac
▁s icht
ary .
▁könn te,
▁previous ly
▁g ül
▁veh icle
▁ge leistet
, 00
▁g ather
▁B urg
▁B aum
▁C ook
reib en,
▁plann ed
z in
▁critic ism
n es
▁P ay
▁Ges icht
stra ße
▁Gästebewert ungen.
▁we ather
▁direct or
weg s
▁(s )
/ S
▁zu gänglich
▁um zus
▁action .
▁away .
▁Nor den
▁s age
▁Ind ien
▁wh ilst
▁umfass enden
▁Re fer
▁Mon te
▁bekann ten
▁unmittel bar
▁b reat
ut ter
▁Term in
▁Tem peratur
▁Fran ce,
▁charm ing
▁garant iert
ã o
▁cont ents
E F
▁net works
▁Will en
▁Fern er
▁in tellectual
us al
▁environment ,
▁ol der
▁thre aten
▁compl iance
M S
o ten.
lie b
▁gewähr leisten,
▁ut il
▁ko ordin
▁matter .
▁a .
▁m obility
▁All iance
▁ausgew ähl
▁weltw eiten
▁nehm en,
▁Wirtschafts -
▁min im
▁c a
▁h ält
▁Re alität
ok e
▁cons erv
▁fl ight
trag en.
▁Ex pl
▁und/ oder
T E
▁k ü
▁Re cht,
▁T ax
▁Un gleich
▁att itude
2 6
▁not ice
▁vers ucht
▁kurz em
▁rele v
bet rieb
▁Swed ish
lauf en
it .
ition en
▁Fl uss
lag en.
▁sol ve
▁zusätz lichen
it age
▁My SQL
▁künft ig
▁lic ens
' ll
▁res idence
▁Brit ain
▁im pression
▁g irl
▁A ward
▁dram at
▁U se
as chen
▁act s
▁199 4
▁place ,
▁histor ische
▁cour t
▁V ir
▁al arm
▁He iz
▁nutz en.
▁Det ail
▁S ens
▁Wel come
▁201 1
▁Origin al
3 3
▁famil iar
▁enter ed
▁Gru pp
▁Gebie te
▁m ünd
▁fav or
▁Wirk lichkeit
d is
▁Mittel punkt
▁R en
▁d ans
▁Lie be
▁t a
▁so fern
▁ra re
▁f elt
ub au
ick ing
▁grundleg enden
▁recommend ations
% ,
▁H ü
▁Man ager
s. com
▁tre ated
v ed,
fahr en.
ang es
ä ußer
▁K ann
▁Um gang
▁abge lehn
▁Pro ced
▁invol vement
▁citizen s,
▁purpos es
▁Untersuch ung
▁min ut
▁adv ice
▁Nahrungs mittel
as en
▁Hin dern
ur ger
▁voll er
▁Sign al
angeb ot
▁ausgestatte t.
▁comb ating
polit ischen
ch ron
ic ed
▁Bericht ,
▁extens ion
m aterial
▁inter ior
▁d ien
▁W ash
▁fl at
is ory
▁pie ce
▁renew able
▁ste ht,
▁l ose
▁debate ,
ter en
▁verl oren
▁Bruss els
sch lagen
▁sh ower
▁agreement .
leis ten.
▁L ike
▁wesent liche
ted ly
▁us e.
hinder t
▁run s
▁Gl ück
▁obst ac
▁import ant.
sprü che
▁A P
m odell
▁S ov
▁l äng
▁centre ,
▁Um wel
▁Agrar politik
▁T w
▁durch zuführ
▁help ed
▁Comp ut
▁Angeb ote
▁bureau c
▁e igent
▁fact ors
▁GN U
▁enth us
▁wes halb
▁Dienstleist ungs
isp iele
▁large ly
p äck
▁Aus land
el ten
▁discrimin ation
▁Ro bert
▁Beruf s
▁dev ice
▁Gree ce
▁E c
▁de partment
▁Auffass ung,
▁Er inner
▁Unter schiede
▁Entwicklungs ländern
▁schwier igen
ken nen
▁cuis ine
▁Schl oss
qu es
▁stud ent
astr onom
▁webs ite.
el a
▁zu erst
and on
▁M S
▁on e,
▁emphas ise
▁erwähn t
▁E lect
el s.
▁r ank
▁k ombin
▁Politik er
▁De legation
st ation
ap ter
▁ges tern
▁lif e,
▁consum ption
▁schön sten
z za
▁S ad
▁a gency
▁ermöglich en,
▁Er de
ges undheit
' A
▁2008 ,
re chn
▁P uert
iger ung
▁Stand ort
f al
ang er
▁SM E
ro chen
ess ene
▁teleph one
▁sh ape
▁R et
ste henden
▁O hne
▁commit ments
ro ph
▁Pol icy
met ho
▁sk ills
-f ree
anc es,
▁hervorrag ende
ic ip
▁European s
te en
wh at
▁( O
▁Fr iend
▁glaub en,
s ie
▁exclus ively
▁S und
▁As ia
▁evalu ation
▁C a
▁Reg ul
▁R äum
ämp fen
▁pat ient
▁N orm
▁change .
▁gewähr leisten.
▁launch ed
el er
▁new ly
▁nie mals
ie ßen
is ieren.
▁ges prochen
▁inc ent
▁Council 's
th ,
▁Diskussion en
▁ill ustr
fr iend
▁In stead
s. ..
▁zweif ellos
▁Produ ct
▁El tern
▁tät ig
▁serv es
▁eigen es
▁Eng land
▁protect ing
▁Bef ug
▁draw ing
isch e,
▁de termine
▁gew es
▁ausge zeichnete
▁individual s
t igt
▁darstell t.
▁über w
ang ing
▁consist ent
h ow
▁sch war
an cy
ur d
▁A gency
fäh ig
▁res erve
▁Min utes
▁loc ation,
▁dire kte
▁Land schaft
▁betreff enden
▁neues ten
▁M all
▁Sch uld
▁bo at
▁issu e,
▁in zwischen
▁At om
▁F our
▁spr ing
▁g il
▁ver ändern
ver letz
▁bek ommen.
▁unterstütz t.
▁14 .
ie ß
itä re
▁lim its
▁St ahl
▁Metho den
▁und erm
kt ors
▁Ge gend
▁beträ cht
/ 1
▁W olf
▁c er
▁ge tr
ob en.
▁fac ed
▁institution s.
▁hosp it
▁str ugg
▁K ost
▁" J
▁verg essen
in stitution
▁L uc
▁a wareness
▁ в
▁A gric
us s,
▁ex em
▁S O
▁compet ence
▁betrachte t
un a,
▁on ,
▁ausgezeichnet en
▁natür lichen
▁Grund sätze
▁stim men
u ens
ck en,
▁reg istration
A V
d essen
▁c ards
▁et c
▁page .
▁Pers pekt
▁m el
▁opp osed
▁Allgemein en
▁D iv
▁Pr in
▁Ges etze
▁W il
▁US D
▁f asc
▁Energ y
▁inhab it
le ge
▁adv oc
▁2. 0
isch ung
▁gew alt
▁mill ions
▁Z usätz
▁cas es,
ör ter
▁beach es
▁Far ben
▁( 10
rach ten
▁Kap az
▁s ides
▁m ur
sch äd
▁Pla za
▁Konfl ik
fu hr
▁pro hib
▁sp anischen
▁Nach frage
▁dec is
▁Ky oto
▁represen ted
▁c ommission
▁beha up
▁well ,
ismus ,
n en,
▁i. e.
▁komm er
ro te
sch ule
▁L adies
▁grundleg ende
c al
id ,
▁mon ument
▁ze igt,
▁ein erseits
we ich
▁import ant,
▁Ged anken
or gan
▁T own
let t
i rol
▁ab road
▁control s
st ood
▁can cel
▁cont roll
▁comm un
zie hen.
k urs
▁p hen
▁mus ste
▁Gar den
▁significant ly
▁beinhal tet
ar l
▁intens iv
▁d ich
t äus
▁Parlament s,
▁Nah en
▁an wes
▁pro ve
▁Hand eln
▁look s
▁The ir
▁ad ul
▁deta ill
▁ursprün glichen
ro b
▁Ausgang spunkt
▁sp ät
▁Man gel
▁est im
utt le
▁Un gar
▁remain ing
▁ab ol
unic ip
▁K roat
klär ung
▁oppos ite
emin ar
▁Ge orge
▁extra ordin
▁Veranst altung
▁sex ual
- min
8 5
▁weiter ge
▁Kl ar
▁G DP
▁Wor ten
▁fa ith
▁oper ational
▁valu able
▁leis ure
▁mensch lichen
ud s
▁Opp osition
▁V iertel
-R eg
▁(N L)
▁v ous
▁co her
▁Sp iele
▁Det ails
▁le aving
▁exam ples
▁g old
we ll
te le
▁fest stellen,
m iss
▁3 3
▁2007 .
▁Harmon isierung
▁komm t,
▁se at
o be
CH T
▁Fr id
▁Ver d
▁Bud ge
w ers
▁f ab
▁W ähl
▁Pfl anzen
▁s in
nehm ern
▁Person en,
▁Jed es
▁cert ific
is ierungs
▁Hostels club
cl ing
▁ver an
reich ung
▁Zuständ igkeit
str ategie
▁All ian
▁resul t,
▁Stabil itäts
▁Empfehl ung
ies s
▁beteil igt
▁unterb reit
▁c ab
▁Schul den
l an
in ational
▁A th
▁Wahr heit
▁exception al
▁P ia
▁zahl en
▁weap ons
▁p ush
trag ung
▁Komm un
ra p
▁ste el
TM L
gen ce
▁( or
ut s
▁Leit linien
▁constru ctive
▁budge t.
▁Sch ad
▁pay ments
▁G ard
▁activities .
▁vol unt
lo oking
▁tal ks
▁Gesch mack
l ated
▁M assen
ar io
▁mo de
ir ing
▁gem acht.
ate ful
form ance
an ia
raum ,
▁mehr .
▁Y ear
▁Ind ia
▁künft igen
▁Se cret
▁UN O
▁G U
▁so ft
▁E dition
ig u
▁rem ote
-A dr
▁höch sten
▁mann er
/ D
all eng
w ald
▁T iere
est r
▁sow eit
▁Einkauf s
▁In ner
▁geb aut
ip el
▁s i
▁D auer
▁colle ctive
▁Kolle ge
▁unterschied lich
onym ous
er a
▁holid ays
d a
▁c atalog
ünf te
p ap
▁d ark
ent ure
▁equ ally
▁invol ve
▁hold ing
▁vorhand en
▁jähr lich
▁Kompet enz
▁de leg
▁Group ,
▁sett lement
▁Kü sten
▁automat ic
▁Ein stellung
▁Ar z
▁rec ip
▁(z. B.
gen er
▁verg essen,
▁A D
▁verschieden er
▁address ed
▁Wes ten
▁creat es
▁K as
▁Th erm
O W
ul ating
▁Bud ap
gesell schaften
▁an spruch
▁St imm
▁agen cies
▁n ob
▁creat ive
▁yo uth
▁einger ichtet
▁N ap
▁phot os
▁tempor ary
inu ier
▁Th rough
▁region ,
▁Zust and
▁will .
▁Be hinder
▁Voraus setzung
▁Einwander ung
▁T schech
leg t.
n ischen
▁gel öst
▁Antw orten
ag g
▁bes eit
▁institution s,
▁spac es
▁coup le
- 5
▁an statt
▁Ma astr
▁dav on,
▁verein fach
▁w itness
▁c ry
ra in
▁une ing
▁Eng ine
zip lin
▁Serv ice,
▁art ists
▁Switzer land
p a
▁c atch
ste uer
l aden
▁st one
▁werden ?
▁Dire ct
g yp
▁ac quis
az ier
▁does n't
▁Ho hen
▁3 7
▁B SE
igh ten
fre ie
▁W ild
▁mag az
▁Fen ster
▁oblig ations
s c
▁reve al
iz it
▁air craft
▁Air bus
o e
▁be zug
▁V ice
▁Barcel on
▁tr ib
▁G eschäft
co hol
▁Up date
▁Dritt ländern
▁L ate
▁off enen
▁d ritte
▁Br asil
▁hard ware
▁ries igen
▁consens us
▁w ettbewerbs
▁terr itory
he ben
▁condu cted
▁h ill
▁le istungs
▁aufge forder
▁af tern
▁W are
▁con stitution
2 9
é n
ant ly
▁einzig artige
▁verpflich tet
▁ iron
▁( and
a ctions
▁T er
el t,
▁R iver
kl ass
er 's
▁E is
cil iation
▁diejen igen
▁verfüg bar
▁über nehmen
▁Fest legung
▁bec ause,
▁Mon etary
▁proposal ,
4 9
▁ge ts
ug os
▁ra ce
▁Pap ier
▁cons c
▁car s
▁test ing
2 8
▁W ord
▁childr en.
▁vers uchen
▁Exec utive
M L
▁page ,
▁Grün de
ab sichtig
▁Mus ic
▁Pol ish
ra k
▁bre ite
ll es
... "
zahl t
▁facilit ate
▁( f
▁Gleich gewicht
p .
r ate
▁Ind ones
▁b all
▁n avig
▁W al
▁Ar me
▁ger äum
▁9 00
▁dev ices
▁zug unsten
▁am ounts
▁Mein ungs
è s
▁ver ständ
▁up .
▁T ru
ak ten
▁San ktionen
▁phen omen
▁Sch ule
e w
� r
▁möglich e
G B
▁D E
▁Ver ring
mit ten
▁Metho de
▁h it
▁P RO
ard ,
i ary
▁content ,
▁kur ze
▁N och
▁bek omm
re ibt
▁order s
T R
▁Net work
▁W LAN
k y
▁D enk
ein er
▁bind ing
z ent
▁E vent
▁B lock
▁ident ify
▁c af
▁l iv
▁supp osed
rä ume
▁T ime
▁know s
▁pleas ure
▁ge kommen
or ter
▁pat ients
▁am az
▁oblig ation
▁Vien na
▁d rop
▁H imm
▁recommend ed
▁kulture lle
▁a vec
▁un gefähr
▁ch alleng
▁f oll
▁St ruct
/ L
▁F älle
▁einfach en
▁Tag ung
▁Kandid aten
▁mit ten
▁sag t
▁Stud ie
▁Überein stimmung
▁prä z
▁Ind ian
▁ir re
▁sty lish
▁Regierungs konferenz
▁dem ,
▁verste hen,
▁wissenschaft lichen
▁em ission
▁met al
▁A part
▁north ern
häl t,
rat ing
▁K rie
▁supp lement
▁Information en,
▁Struktur fonds
io x
▁zuständ igen
▁L u
▁ruh igen
▁zentral en
▁People 's
▁Wachstum s
▁hat ten,
ake te
▁Über setzung
▁N ic
▁we chsel
▁( ES
▁Entwicklungs länder
▁obtain ed
▁un for
▁r ück
▁Be ispiele
▁gefähr d
▁a ußen
▁econom ies
▁parl ament
▁dre am
▁Um feld
▁Ge heim
▁room s.
k er
▁term in
▁schw ed
-t ime
igran ts
▁s la
▁un möglich
▁L ist
aus end
a )
f ar
▁Sol ar
▁Altern ative
▁w ären
▁Über setz
▁applic able
▁Fäh igkeit
g ut
sch au
schl uß
wirk lich
▁M old
▁H D
▁Ur spr
▁Bild ungs
н о
▁d inner
▁f aster
▁J er
▁ab andon
▁present ation
▁univers al
▁architect ure
▁rec over
▁rec overy
ich te,
ur ,
ot te
▁gro unds
▁programm e.
▁besitz t
6 5
hn t
▁poin t.
▁Minder heiten
▁f ather
▁kont inuier
▁ehr geiz
▁Vor be
▁unaccept able
▁vor z
ohl en
▁inform iert
▁Tats ächlich
ich ten.
▁( {{
▁consult ation
organis ationen
▁schle cht
▁früher en
▁t ut
▁n ation
-B er
m l
▁purs u
▁Erwart ungen
d own
ru h
▁Prote ction
ann e
la red
▁verw ende
▁sod ass
▁regul atory
▁fight ing
▁un ent
▁polit ics
▁B or
▁Sch n
▁außerord entlich
▁Aus führung
▁Saf ety
▁class ic
▁ey e
▁V iet
▁Bed enken
▁m other
▁re act
▁depend s
i our
▁K MU
▁L im
▁hin ,
▁Verb rechen
▁gesch aff
grif fe
U n
▁t icket
▁Bedeut ung.
▁uneing eschrän
▁ph arm
g ä
▁P olit
▁setz en.
▁Autom obil
▁T rag
▁Ent last
▁natur ally
▁Sub sid
▁zust imm
fol io
häl t.
▁An ze
od es
▁De v
▁terror ist
▁Wir d
är ke
stru ktion
▁Gew icht
▁vers ions
▁dest ru
▁forder e
▁Adr esse
▁hundred s
▁Tar if
zeich nis
▁f ragen,
▁jedoch ,
▁prot est
▁Br and
▁city ,
▁verpflich tet,
▁t ail
at ing,
▁Men ü
a 's
▁Ab schnitt
▁einz uf
ad ing
▁beach ten
▁z ählen
ad e,
▁Bedeut ung,
abil ität
▁to b
▁The ater
ne .
▁Pf lich
1 00
▁magn ific
l iste
sp ap
▁f ashion
▁situ ation,
▁unver züglich
ers e
▁gr ateful
▁der artige
▁at tract
▁K reis
id el
▁de posit
▁inc omp
▁Opt im
▁b ilateral
▁def ine
▁guarante ed
▁attack s
▁recognis ed
▁Kategor ie
▁ge hen.
▁person ally
▁dest ination
▁vis ual
▁bott om
▁benö tigt
▁b ann
▁An ton
▁gew issen
▁Arbeitspl atz
▁nachhalt igen
k rit
end en.
▁Sh op
▁erm ut
▁P ension
▁discover ed
▁Br enn
▁dest in
usst s
▁confirm ed
▁In fl
▁group ,
▁Bo ot
▁sol ar
▁abgesch lossen
▁impress ive
▁geschütz t
▁pro of
▁ge ändert
▁Mount ain
rech ten
▁Bau ern
▁der art
▁Europ ol
▁N E
▁umf assen
▁S atur
▁mö chten.
▁Ä r
▁Bes te
▁beit ragen
▁al bum
wor fen
▁bew ahr
at es,
ro vers
▁entfern t,
' re
▁A M
▁er griffen
▁Hous e.
▁Th omas
▁Nach richt
▁EU -Mitglied
▁notwend ige
▁Er satz
▁tats äch
▁Camp ing
н а
ail ing
ild ing
▁lo vely
▁market s.
weis ung
s a
ich ern
▁c ategory
▁Bl ut
▁mult inational
and al
▁s ter
ac ion
▁Slo vak
▁inv ite
▁vor ange
▁Pol and
▁join ed
vent ions
meld ung
▁lie gt.
▁div ision
▁Con gress
n en.
hr ist
▁intens ive
o ub
▁ant i
▁Ant i
▁kur zen
gemein schaft
▁ö sterreich
▁poll ution
▁wel fare
▁Ein heit
be hörden
▁bed ro
▁Amer ika
ar p
▁ent halten.
enk ung
▁F ood
▁ver folgt
▁2007 ,
▁Ver fahrens
▁Ar men
▁Um geb
▁Verring erung
▁er füllen
▁frei will
6 8
▁U -Bahn
▁verd ient
▁expend iture
▁prot ocol
▁o ught
▁vis ible
▁ge hen,
▁Aus stellung
▁Fra mework
▁Eigen schaften
▁re fr
▁mit ge
▁econom y,
▁Hilf s
C E
▁An fragen
▁spec ies
▁Spe icher
enk en,
der .
▁Leg al
▁st opp
▁no ise
or gt
▁F air
▁er lä
umin ium
ör d
▁Verb ot
▁untern ommen
▁sch ne
▁Strateg ien
▁improvement s
▁Krank heit
▁" c
▁accept able
▁p as
▁L t
▁centur y.
erg ie
▁d ining
le vel
anc es.
ch e.
▁Wh ether
sicht igen
▁ar ms
▁wel chem
▁einge führt
▁Ein beziehung
är ken
▁Kr imin
▁issu ed
▁Landwir te
▁independen ce
▁inhabit ants
er geb
de b
▁kurz frist
▁Ste u
C )
e te
▁( J
▁targe ts
- g
▁kont akt
▁Gent oo
▁H of
▁Z yp
r ichtig
ö p
is er
▁sh ops
▁cal cul
▁verstär kt
▁s ymp
▁interess ante
▁fl ights
▁Aut hor
▁str ing
▁vere hrte
ik as
▁Qu ark
▁v ot
▁Ver träge
▁bie ten.
▁mechanism s
▁F ind
▁Z iffer
▁Kon zep
▁Ro ad
▁R ome
▁über tragen
▁Rad io
▁s ac
▁An liegen
ko hol
▁"D ie
▁ges piel
i 's
ein en
▁Kr isen
b ach
k ul
▁or al
▁H olid
id den
▁under stood
▁legisl ation.
aussch uß
f änger
k ur
▁c amer
stell en.
▁muß .
▁dom ain
▁beein druck
▁frequ ently
▁und ,
▁N GO
▁30 %
h ot
▁an tw
▁ge zw
leg ungen
▁Mus e
heb en,
be weg
▁Ab häng
▁I B
▁de legation
▁some what
▁betr ie
▁2010 ,
▁care ful
▁Insel n
▁be merk
▁L ager
▁Luxem bourg
▁P act
U NG
▁A ccess
ne ter
▁Dok umente
▁So ,
▁maintain ing
▁A V
▁requirement s.
▁Klimawand el
▁correspond ing
are t
▁schn elle
▁Kre uz
▁bene fic
▁Veranst altungen
▁dire kten
▁problem ,
▁fig ure
at re
▁E R
▁advant ages
▁Play er
▁gem acht,
G )
▁3 4
▁Gest altung
▁Subsid iar
▁ ende
cr ip
▁ethn ic
▁dr ivers
▁(B e
▁W esent
▁Akt ien
▁ver wand
▁B ucht
▁O R
vention en
▁Besonder s
▁Kil ometer
ific ations
▁r ub
▁ro ot
▁suffer ing
▁distr ic
▁staat lichen
▁Gründ ung
▁app oint
tend lich
▁w ann
▁reich en
▁produ cing
▁R a
▁gelten den
pro chen,
▁depend ing
▁würd en,
▁er leben
▁ {
▁a wa
m ärkte
at en.
▁erstell t
▁repe at
▁agreement ,
▁Japan ese
▁mir ,
S A
▁del ighted
▁f itness
▁N os
▁Ind ivid
▁h ängt
▁Verbesser ungen
c ode
▁Aus gabe
▁Problem ,
▁mone y.
t ung
▁in put
▁Fran z
▁Akt ual
▁B ibliothe
▁accompan ied
▁bes uchen
▁curr enc
it ten
▁F err
▁sk in
▁dang er
f ac
▁Kons ens
▁le bens
▁jour ney
b ürger
▁Hoff nung
▁t rop
▁Technolog y
▁L ife
▁work sh
▁fest zu
▁handel t,
▁eing esch
▁pat tern
z ure
▁Ger icht
▁zuf olge
pro chen.
komm unik
▁Zwe i
▁funktion iert
▁nahe zu
l en
▁( e.
▁attra ction
▁d ienen
▁In st
▁ex istence
▁compens ation
▁most ly
▁cooper ation.
▁Überein kommen
▁L ö
▁fac ility
▁Dank ,
▁Maastr icht
▁a part
▁c ategor
ver tre
▁3 8
▁pre is
▁vote .
ein amer
stoff en
▁höher en
▁health y
▁show ing
▁Beweg ung
▁beträ gt
▁Ent fern
▁geze igt,
us che
▁Bed ing
▁ord nungs
ze llen
▁com .
▁Wirtschafts wachstum
▁west lichen
▁Sp azier
▁sc ale
▁197 0
▁Pers ön
▁rest ruct
▁sol ange
▁see ing
▁dist ingu
▁Son y
▁vollständ ige
g or
ag ,
▁return ed
▁D al
in strument
▁N ice
▁prov ed
▁besch leun
▁entwickel ten
▁s ad
▁F ull
▁Gesetz es
3 9
fl ächen
▁bekann t,
▁Aud io
un ning
ifiz iert
▁contra d
▁je gliche
▁Sch atten
▁spectac ular
bed ing
ul f
▁compan ies.
▁Fre it
▁standard s.
▁increas es
▁Nach richten
▁control led
▁D ynam
en kt
▁experience .
mäß igen
▁Ord nung
▁Quest ion
▁Viet nam
ub ring
▁effect iveness
▁Nor men
l us
bereich e
▁high- quality
in ts
▁Ge päck
- 9
▁199 2
ak s
▁sh ap
▁aut onom
▁Bed ien
▁invol ves
▁Werk zeug
▁Jed e
▁s ah
▁D ass
il led
▁ermöglich en.
▁M em
▁ag o.
▁str eng
▁Ver mögen
▁Außen politik
▁k orr
if orn
▁other .
▁Arg ument
- Q
▁nach zu
▁Deut schen
in uten
bring en
▁Ver pack
▁us ual
▁ph ase
▁Gen au
▁accoun ts
▁behav iour
▁ow ner
▁Ch ild
dem okrat
▁N az
▁technolog y.
▁T auch
ô tel
▁E xt
ab we
▁sm ooth
▁childr en,
we ile
be auftrag
mittel t
▁present s
▁erforder t
▁repla ced
ä umen
▁E qu
▁6 ,
▁cas e.
▁perform ed
▁verhin dern,
▁Bestell ung
▁chines ischen
in a,
▁pal ästinens
▁sie he
▁unter zeichnet
▁Des wegen
▁S ymbol
▁Ma j
▁U R
▁Amend ments
grenz ung
▁c m
▁Schweiz er
▁Autob ahn
2 1
p g
p et
▁( 8
▁r ational
▁ro ll
uver än
b ett
▁n ights
▁T O
▁ra w
▁Plen um
▁g one
▁V ict
▁quality .
▁Pal ästinens
▁Terr asse
▁profit ieren
▁veröffentlich t
▁organ ized
▁bild et
isch -
▁sorgfält ig
z on
▁con fer
▁educ ational
▁Maßnah me
/ M
▁requ ests
▁L E
▁arbeit en,
▁Berat ung
▁Ausführ ungen
▁Korr upt
н и
▁l ake
▁Buch ung
U L
if est
▁Mil ch
▁heut ige
▁V ier
▁Sta aten,
st .
▁K at
mäß ige
enn zeichnet
▁though ,
une hmen
▁prepar ation
▁spezif ischen
st ud
▁T ibet
ath ol
▁oper ator
▁Mo z
p ol
▁gen der
▁sch lä
▁demand ing
▁I b
ot he
▁An merk
▁resour ces.
h i
▁erheb lich
▁e chten
▁n ine
▁Be am
▁appro val
▁Red ner
▁passen ger
▁Kon gress
▁Als o,
▁vol ume
- und
▁Hung arian
D S
n ational
▁h under
▁A .
▁wid ely
▁d raf
▁V ize
▁pl enty
▁car bon
▁concern ed.
▁basis .
u ese
▁f em
▁Kohäs ion
▁e dition
würd igkeit
▁Kommunik ations
▁focus ed
ur laub
▁t ie
▁T erra
▁muß ,
▁Leg isl
trä gen
▁S ar
qu ellen
▁exp licit
▁def ault
▁end ,
▁visit ing
▁Israel i
▁angem essene
▁er kennen
▁Garant ie
ies en.
e ben
▁de als
▁J a,
▁P ot
pro zess
▁bed auer
▁hand ling
▁Gelegenheit ,
leg t,
▁Z ert
▁mitt ler
och en
▁up ,
▁abhäng ig
ere icht
▁N ation
▁ne un
▁go als
▁gee ig
▁custom s
▁er l
▁pr est
▁pl en
dem ark
▁18 0
▁demonstr ate
▁expert ise
oun ter
▁position .
V ,
▁inc ident
▁Soll ten
▁c able
▁Aff airs,
▁ordnungs gemäß
o den
▁invest ments
▁B ord
▁beste hende
▁gegeben en
▁Barros o
▁wor ry
▁res pected
▁wäre .
▁expens ive
p ers
▁Kon text
▁dat a.
▁B IP
▁prec ise
▁bezie hen,
▁definit ely
▁D ipl
▁" d
pro blem
▁priv acy
▁Stock hol
▁compat ible
ne imit
▁Bes orgnis
▁Alex ander
n ö
▁M ur
▁facilities .
3 4
▁C urr
▁obl ige
▁virt ual
▁Mc C
▁an gesch
▁T y
▁Pol ic
▁speak ers
▁Wohl stand
g ess
▁ins pe
▁Des cription
- se
▁l aden
▁h alten,
▁expl ore
▁unc ertain
▁tim es.
▁gr ün
▁Tra ining
▁decor ated
▁f an
▁W art
▁ange ht,
▁nun mehr
▁ursprün glich
▁divid ed
be hörde
▁vis a
▁2006 ,
b sp
▁f ü
us ted
▁project .
▁Cl ient
▁Res pekt
neimit tel
▁V iew
teil en,
▁Zimm ern
▁find e
▁pro sper
ik .
▁Ad obe
▁destru ction
▁Med ik
▁b ilater
is iert.
änd ler
▁Fe uer
▁dür fen.
▁manufactur ers
hr ten
d ,
▁err or
▁Mün chen
c as
▁p ed
▁pro c
▁j a,
och ter
▁Mar ina
▁letz tlich
▁situ ations
▁contain ing
or en,
▁L iter
▁Part ners
p le
▁mor e,
▁Soll te
▁grundsätz lich
▁Aus maß
▁do .
▁North ern
▁Krieg s
/ P
ver trag
-V ers
▁diesbe züglich
▁un iform
qu er
▁sp ür
▁project s.
T S
l i
▁V ater
▁Bezieh ung
führ te
▁jud icial
it ra
▁s ud
▁b in,
▁Z ür
igen ce
con dition
▁business .
▁Pro ject
1 60
C P
▁is rael
id ad
▁Ins besondere
-to -
▁G iven
ul in
▁unter scheid
▁compan ies,
cre en
▁Stud enten
▁trans atlant
▁Flug zeug
▁Room s
▁cred ibility
▁str onger
loy ment
ah nen
▁en han
" ).
▁Pl ug
▁geforder t
ness ,
▁cut ting
▁E M
▁An bieter
glich keit
▁off ic
▁Deutschland ,
▁vis itor
▁attra ctions
▁um ge
▁verl assen
schaf fung
▁wirtschaft lich
▁Pap er
▁Aus bild
▁Ch air
▁Zu ge
}} )
▁gew öhn
▁erhö ht
▁St ift
t y,
▁nur ,
▁7 5
▁var i
▁Salz burg
▁Wi -F
▁(1 )
rüst ung
▁polic ies.
▁t ar
▁l abe
▁top ic
en. ..
▁Reg ime
▁par t,
▁al cohol
▁luxur ious
▁f uer
ät igung
▁dec lared
▁Entwick lung,
▁Em ail
▁I ll
▁Zweit en
at i
ie ten
▁le id
▁em otion
▁satisf ied
▁vict im
▁theor et
as che
erecht igkeit
▁Balt ic
▁N ob
▁ent schied
▁adop ting
▁E duc
▁problem s,
▁bek räft
▁China 's
▁directive .
▁entwickel t.
▁question ,
▁mar itime
▁t ru
er in
▁exc iting
▁übrig ens
▁vis ited
▁zurück zu
▁Can on
. ,
▁J ames
▁Follow ing
▁B ang
eth eless
▁award ed
▁horiz ont
S D
▁Rechts staat
▁regular ly
▁unfortun ately
ul ich
gel öst
▁meas ures.
▁alle ,
-G en
te in
▁ass ure
▁Selbst verständlich
▁Ear th
▁Bet rag
▁art icles
▁Änderungsant rägen
▁send ing
▁Struct ural
▁d ign
▁er hol
▁lang sam
▁flo od
▁N iger
▁deut sch
▁leg end
▁di agn
▁entscheid ende
▁(e. g.
b or
is ieren,
▁T sch
▁With in
▁vorhand enen
▁Veröffentlich ung
▁In t
▁le gen
▁wichtig .
▁bre it
▁tre ten
▁sprech en.
ch st
▁mult i-
▁K ab
▁recht lichen
▁Rechnungs hof
▁H en
▁repla ce
▁in klus
▁E Z
-E uropean
▁view .
▁Vorschl ägen
▁einheit lichen
▁" m
▁Fra gen,
▁people 's
▁Aut omat
▁Beit räge
_ mar
▁an wend
▁re action
▁divers ity
▁in j
▁gesch lossen
▁Ur heber
▁Fernse h
▁quar ter
▁Ver g
▁issu es,
▁gestell t.
▁foll ows
▁M ode
▁part ly
▁Stad t.
▁E gypt
▁The or
▁pr ice.
ar ische
▁arr ive
▁rech tzeit
m aschinen
▁komm t.
▁day s.
▁security .
forsch ung
▁br ut
▁unf air
▁St aff
▁Re gen
▁erfolgreich e
▁ste henden
▁d. h.
t y.
▁Sp aß
▁Intern et.
ump ing
is ation,
▁2 2.
▁Kons ult
▁tack le
▁K ais
▁ange wand
ac ión
örder ung
▁bew ält
▁Th urs
ath em
▁entsp rechen
▁I' m
▁lie ß
▁Red _mar
▁2006 .
▁empfehl en
▁Red_mar quis
▁fäll t
▁Ver lauf
▁Er wachs
▁Don ner
o ul
y e
▁7 00
▁dispos al
▁P unkten
▁K er
▁sus pend
▁on going
r iers
▁h il
▁v en
ieren der
▁Führ ungs
- pro
▁Arbeit ,
▁ident ified
▁emer gency
▁P age
▁An schluss
▁ass ume
▁US S
6 7
▁M B
är kt
▁Sch rift
-S ta
▁thous and
▁L etz
ian a
n i
▁ upp
ich ern,
▁P ub
▁Ger äte
▁protection .
▁ändern .
f it
▁together .
▁Puert o
▁demonstr ated
▁dise ase
▁con stitutional
mer z
▁individ uellen
ro wn
ic kt
▁C lear
▁ge leiste
▁eing ereicht
-D E
▁Per haps
c are
er zeug
ber ge
▁brit ische
▁angegeben en
ü ne
ien ted
▁vor genommen
knü pf
▁BM W
▁p oten
▁k ing
▁( for
▁2000 ,
▁A uge
▁disc ip
▁K ub
▁Sch äden
o fern
enc es.
▁luxur i
▁Haft ung
▁Hotel .
▁priv at
▁inst ance,
-L e
▁democra cy,
▁Portug uese
▁80 %
f a
▁d im
im edia
▁groß züg
▁beste hen,
ätz e,
▁iP h
I X
▁eas tern
an w
▁ge halten
▁support ,
▁m ac
hör igen
ierung ,
ul ous
▁Struktur en
▁pan oram
W F
re p
▁besch lossen
▁bestimm ter
▁konk ret
▁Ratspräsident schaft
il ,
▁Red uz
- 8
▁K u
▁exper iment
▁Gegen stand
▁liberal isation
▁Sov iet
▁Material ien
▁http:// www.
r or
▁intell igent
ar kt
▁star ts
▁Engl isch
pr ene
▁de cre
gr enzen
▁th r
▁compet ent
▁fl u
▁happen ing
▁S atz
▁st il
▁Ex change
▁lie gt,
▁H TML
▁Minister s
ens wer
▁renov ated
▁F A
▁spiel en.
▁ident ity
▁mad e.
in sel
▁B ug
▁Rat ,
▁appe ared
m ess
▁be wer
▁individ uelle
▁rep ly
▁Führ er
gän ge
at iver
ig a
▁M erc
▁V AT
▁( 7
▁beglückw ünsch
▁l ots
▁recommend ation
▁Provin z
▁W ho
▁V ene
▁art istic
▁success .
g ung
p ot
at es.
▁other ,
i )
▁a men
▁a rab
▁S AP
▁Sch e
▁Park platz
au ,
n or
▁W ünsche
▁Bereit stellung
▁b attle
▁P en
▁russ ischen
▁AK P
▁security ,
▁Sing le
d ienste
it im
▁In stitut
weit e
▁lic ense
▁poss ibly
▁Schw imm
▁sens ible
erv ice,
▁change ,
▁Bade zimmer
/ B
▁every day
▁enjoy ed
р а
▁can 't
▁Fund amental
▁be absichtig
▁V el
ze ll
gän ger
▁Verbraucher schutz
▁L aut
-Adr esse
▁Aus stell
▁beg innen
▁technolog y,
▁Ph ilosoph
s eite
▁w ünschen
▁I ,
▁mount ains
D A
ö konom
an en
▁C up
▁Is ra
▁ens ures
▁Gemein de
/ s
ik a,
▁trans action
▁cos y
▁happ ens
▁S av
▁compan y.
▁centur y,
▁7 ,
▁S omm
zeich nen
▁stor ed
▁Erweit er
▁Mall or
▁erheb liche
▁Ern ähr
▁s amm
▁S ong
be handlung
▁Verb reitung
▁199 3
▁Ob jekt
▁verwend en,
▁decision-m aking
ü ler
▁bo ost
▁Rechts grundlage
▁cour age
▁part ial
▁d ates
▁M obile
ent lichen
fre ien
▁prepar ing
▁arrange ments
▁se ien
▁else where
▁über ein
▁mus ical
▁With out
▁itself ,
▁wom en,
▁Genehm igung
▁experien ces
▁(d ie
-Sterne -Hotel
c ale
v an
▁Am ong
▁bew ähr
▁continu ous
▁J ap
▁Treat y.
▁be hinder
▁w är
stand ards
▁30 .
▁aus einander
▁3 1.
▁Invest ment
▁erfolgreich en
d orf
uch ten
▁pr ü
▁bed s
▁order .
▁Schl uß
▁san ctions
it o
ed s
▁E L
utz er
▁zusam men.
A F
or ama
▁Ü br
▁groß em
c i
▁countr ys
▁enh ance
▁er öff
▁Z usam
▁war ten
▁ultim ately
▁tob acc
▁Ste uern
▁Amer ikan
▁Ess en
▁" the
▁Le on
▁Thurs day
▁Verhand lung
▁Zusätz lich
▁Vers and
▁gef ördert
▁applic ations.
r ical
▁T ät
▁Wor ks
▁reserv es
▁perfe kt
t own
▁M ission
▁entscheid en,
▁d' A
▁de ter
▁bl ind
▁educ ation,
▁magnific ent
▁t ests
▁ge plan
▁(A pp
▁ с
▁Bel ast
▁un its
ot ive
▁Ver n
▁AN D
▁S amm
▁Me ister
I ,
wie gend
▁sole ly
f ragen,
ograph ic
asst .
▁einges tell
▁F ried
iti ative
▁Gespr äche
in os
▁O der
wer ks
▁Comm on
▁M ov
▁R am
▁de lla
▁not .
ium .
▁non -s
▁Con c
▁fern er
▁a fr
▁Ne ue
▁restrict ions
▁Dol om
▁entertain ment
▁h yp
▁ab ziel
▁Ang st
ul pt
zie llen
▁Fr on
w est
▁legit imate
l if
▁Vor gehen
▁wes tern
▁K om
▁E ch
▁l it
▁Th us,
se hen,
▁S C
▁R ule
▁consider ing
▁verantwort ungs
▁Holid ay
▁r id
ze igen.
▁wat ers
▁H istor
▁good .
▁Zus ch
▁Mus lim
▁Prinzip ien
▁Gespr äch
as er
-A r
▁display ed
-min ute
▁str en
▁emer ging
▁sor gt
▁Rumän ien
▁nach drück
▁Tra in
▁month s.
▁politic ians
▁Hostelsclub .
▁no ted
▁bis lang
▁fest ival
▁z one
▁Vorschlag s
▁gra v
▁Plan ung
▁upd ated
▁sus p
▁elektron ischen
▁e. g.
e ter
▁l obby
ichte t.
▁societ y,
▁Verl ust
s hip
▁W ichtig
▁G ang
oss en
▁unver gess
▁Fuß ball
m ir
ro c
▁str ik
▁staff .
bel ang
▁Su ite
▁G B
▁Ver ordn
▁war n
▁Emp fang
lehn ung
▁Schwed en
▁rev ision
▁object s
▁arbeit en.
▁carry ing
▁Fäh igkeiten
3 2
wend et
▁all es,
▁n ations
▁sign s
-P rodu
▁exp ansion
▁meas ures,
ing en,
▁L ok
par te
▁verwend en.
▁vor rang
▁strateg ischen
▁collabor ation
▁to ile
▁ex ists
▁benutz en
▁Drit tens
c ision
▁S at
▁Kon zer
▁programm e,
▁genann te
▁did n't
▁So hn
▁übern ommen
▁entscheiden der
ot ic
▁gesch ehen
▁function ing
▁schlä gt
▁an belang
tell en
▁einzig art
ro ck
▁We i
teil s
▁JavaS cript
▁Bemerk ungen
▁H om
á s
le isten
▁pre ced
▁who ,
▁Verbind ungen
a ire
▁repor ted
est ra
▁J ob
äl sch
▁PPE -DE
▁l ibrary
pp ed
zie hen,
▁Grund ,
▁bro wser
.... ..
▁c am
▁sh ock
▁apply ing
▁kos tet
/ F
▁su ite
▁respect ,
▁amer ikanische
▁But ,
▁konn te.
▁unfor get
▁In c.
▁activ ely
ival ent
▁accoun t.
I .
n ummer
▁def ect
▁engine ering
▁bestät igt
amp le
R oom
▁opin ions
▁impos ed
- 7
▁Problem s
▁Bl ue
▁four th
▁govern ance
▁Prof essor
▁betreff end
▁passen gers
▁St utt
▁Kap itel
▁2005 ,
▁Ac adem
▁Konk urr
us ter
▁forder t
▁T ip
▁tr ifft
▁Room s,
▁sagen :
re l
▁Agric ulture
ag entur
▁ ·
on ic
▁inter pre
▁peop les
▁solution .
▁subst ances
▁in g
▁ö konom
3 7
▁dr iver
▁oper ators
▁sk ill
m ore
▁Er stellung
▁sim ult
▁bo ot
la im
▁hab it
▁Part nern
▁Regierung sche
ach ing
▁me at
ign et
▁official s
▁Th ail
▁Ch o
▁AC P
▁extraordin ary
▁H ost
▁prov en
▁kon front
▁Str as
▁r ental
▁Ch arta
▁minor ity
ib en
▁le ichter
▁Minister präsident
▁contribution s
▁beit ragen,
▁contex t,
p rechen
or en.
▁character istic
▁Frühstücks b
▁St or
ug en.
▁6 4
▁Bet racht
f ällen
m ung
▁Tra vel
▁communic ations
▁Char les
▁( In
▁Aus flü
▁Problem e,
r im
▁satisf action
▁genü gend
or b
▁Eff e
▁R ab
▁Or ient
▁W ater
▁G olden
▁for um
▁st ake
bed arf
▁Kü hl
L O
▁M ade
▁L ook
▁man ual
▁Ad dition
▁declar ation
▁S icherung
: 5
r y,
ent h
▁Sch on
▁um geben
▁Pro p
▁vor anz
▁T ochter
▁B ett
▁Nach halt
w ise,
▁W omen
▁slight ly
st es
▁abs ence
▁sug ges
▁Kir k
▁P fer
ach te
▁ge ziel
▁Mr .
▁sol ches
▁necessary ,
▁lok ale
▁Zyp ern
▁Pl attform
loss enen
▁democra cy.
▁amb ition
▁Vereinbar ungen
e ing
eschä tz
▁art ist
if ies
▁quality ,
▁schütz en.
-re lated
iz er
▁weit gehend
▁(1 99
▁delic ious
▁perspect ive
▁S ind
▁spec ified
▁thing s,
▁Erhol ung
▁c ul
produ kte
jen igen,
▁Pf licht
▁T reib
▁g ese
▁Ge hm
▁Grund s
▁ent rance
▁Mr d.
▁There fore
▁Untersuch ungen
▁pl ays
▁pre -
▁tradition elle
d s
r ück
▁re lie
est .
▁An stieg
▁läuf t
▁ ice
▁aus geb
▁necessary .
▁tra demark
rech ter
▁Treat y,
▁mittl eren
▁Sk i
▁book s
▁stre ets
▁J ung
wend ungen
▁imp ose
▁führ te
▁event ually
▁offiz iellen
▁fert ig
▁to urs
▁P utin
▁Be ge
l ink
schl äg
▁condition s,
▁spok e
▁b urn
▁H aving
▁über wach
▁app ointed
▁colleag ue
▁Augen blick
I K
▁fil ter
▁don e.
▁40 %
▁well- known
ge hens
▁r ight.
act ory
▁Sp ace
ym pt
▁in mitten
▁P otenzial
▁will kommen
-P r
e ktor
▁Fest pl
fun ktion
▁Hard ware
an b
▁D ritten
ile .
▁Wider spruch
▁Wash ington
l ight
▁record ed
▁l ernen
▁St ill
▁Ser ie
US S
▁Arz neimittel
E .
-V ert
m o
▁res ident
▁ro of
▁in .
▁W äl
all ,
▁Mich el
k ultur
is ation.
▁comp lement
▁Kon figur
ichte te
▁lab el
ro v
▁F rie
▁person en
▁spok en
▁l unch
▁comp let
▁setz en,
un ction
▁akzept iert
▁(ES )
▁Bürger ,
▁25 .
f angen
▁me .
▁hin weg
▁ey es
ie gen
an i
▁in fr
▁regard ed
▁nar row
▁sur ve
▁A qu
▁rece iving
▁Übergang s
▁n örd
▁L i
▁ins ist
▁school s
▁G ö
▁Besch wer
le ute
▁Form at
▁Verletz ung
▁G i
▁C F
▁Frau en,
▁übern immt
▁französ ische
U )
▁5 5
▁t ast
▁kn app
ichte t,
▁Schluss folgerungen
6 6
▁off ices
et s,
▁en abling
forder ung
▁stay .
▁Third ly,
▁K a
ann er
▁Notwend igkeit,
▁einzig artigen
▁Eing ang
ar tet
▁e ast
▁do ,
▁authent ic
b rech
▁Sch le
▁sie ,
▁Kommissar !
▁b atter
▁mess ages
▁wunderschö nen
▁Vict or
▁Vize präsident
▁con stitute
p on
y ll
ul ations
▁on line.
▁cas h
▁exec ution
▁bas iert
▁ele ctor
▁all zu
▁real istic
▁Far be
-E r
▁diskut iert
▁niedr ig
▁s aving
▁j ung
▁acknow ledge
ip her
▁Er füllung
▁Al ger
▁Gewähr leistung
▁gl ück
▁för dern,
LA F
ad a,
▁Mit tag
▁man ag
▁Sonn tag
reu ung
▁Aus stattung
▁hotel 's
P C
▁t end
▁Donner stag
▁W issens
▁R ena
hl en
▁letz ter
▁refuge es
▁co al
▁sehr ,
▁viel es
▁Her bst
▁letz tendlich
▁expect ations
▁Vor aussch
▁At tra
▁Verz öger
ol i
▁MEP s
▁P fe
▁Unter nehmer
eschä d
▁dr ugs
▁Pro di
zü ge
▁P il
ab et
▁Reduz ierung
u ite
ro g
▁tex ts
▁propos es
▁An alys
▁( 0
ne x
▁found ation
▁Res olution
▁admin istr
▁Krä fte
▁indic ated
▁remov ed
▁Zwe cke
▁entste hen
iz za
att en,
▁character istics
techn ologie
▁kil omet
ü gen,
▁P SE
▁Dom in
▁beschäft igt
▁Cons ult
ro ,
▁erst mals
ES CO
▁Situ ated
▁democ rat
▁Ab kommens
▁5 %
▁rep ut
▁decis ive
in ux
▁M ak
ugh ter
▁Comm itte
▁sozial er
▁Dar um
▁erfüll en.
▁gain ed
T C
▁F ass
▁k reat
▁bek ommen,
▁encour aging
▁K ünst
fl ow
▁klar en
▁Polize i
▁char ges
▁Mik ro
▁W ählen
▁ge zogen
▁auf genommen.
e hen.
▁de pendent
▁j apan
▁fed eral
▁kil led
lause )
n iveau
▁Arbeitspl ätzen
▁w rote
▁comp osition
politik ,
▁mil es
▁Swed en
bezieh ungen
▁S n
de hn
▁resolution ,
oc kt
▁deb ates
lichkeit ,
▁resul ts.
▁Stad t,
▁defic it
▁sicherstell en,
ier n
▁sch we
mb uds
▁angen ehm
▁min i
▁hil ft
▁st ütz
▁( und
▁pl astic
▁direct ives
▁m unicip
▁g ap
▁Min i
ö d
op olit
▁könn ten,
▁form ed
▁Chin a.
▁foot ball
en "
▁w ireless
▁l iquid
▁ans wers
re geln
▁over come
▁Ger ade
u es,
▁6 5
▁bevor zug
▁advert is
ud es
j pg
▁art ic
▁pie ces
▁we ist
▁staff ,
▁b erechn
▁entwick eln,
▁Krank heiten
▁acknow led
ie ten.
▁le gt
▁Wel tw
▁Kop enhagen
▁Glaub würdigkeit
-E n
▁install iert
▁bezie ht
▁tw enty
▁zukünft igen
em it
▁indire ct
▁B ased
▁App le
▁gel angen
h ilf
▁H under
ad vant
▁bre iten
▁ret ail
▁Cont ent
▁rad ical
▁tran qu
▁webs ites
▁Bud d
▁Trotz dem
x y
▁Ident ität
▁Im age
▁compar ison
▁Satur day
▁v ary
▁verwend et.
Ü ber
▁bre ach
ob b
▁Liefer ung
▁P or
▁mand ate
▁Ge fahren
▁Or te
▁sc al
▁exc urs
▁Minder heit
▁K abel
la ut
8 8
a ue
un ktion
res ident
os ing
▁Am t
▁Ger ät
▁Bro wser
▁umfass end
ur teilung
▁ob ser
▁just ified
▁führ ende
▁exam ine
▁( *
▁leis ten.
▁durch schnitt
aus piel
▁J os
▁inv ited
▁custom ers.
▁akt ive
▁hom e.
▁gek ennzeichnet
▁Eigent um
▁Verein fach
▁Investition s
▁E mb
▁belie f
▁purs ue
▁Wider stand
▁an gesehen
▁F a
▁H at
▁fe e
ut age
ud i
be ll
wer ts
▁(Be ifall
iv a
▁optim ale
▁t on
▁lik ed
▁vorgesehen en
▁upp er
9 5
▁All tag
▁infl uen
br id
-cl ass
zure ich
ian ischen
▁direct ive,
▁Wer bung
▁ex it
▁institution ellen
▁maintain ed
▁attemp ts
▁volunt ary
▁Late Room
▁st ation.
▁möchte .
▁Mobil ität
hand elt
▁verfüg baren
к о
▁des cription
▁her gestellt
ol es
▁Re f
▁Comm unic
▁con cluded
▁Pr äsent
▁(E L)
▁position ,
▁veh ic
▁z ählt
▁G ames
▁se he
mit glied
dr ückt
▁beg leit
▁group s,
k ore
▁to ,
▁W etter
▁solution s.
▁nah m
▁Son ne
▁Nether lands
▁ge legen,
▁Um satz
▁strateg ies
▁entre prene
▁bar s
▁beein trächt
▁sh ares
▁Ziel en
▁vac ation
▁an schließend
▁über sch
▁inter v
▁superv ision
р о
uch s
▁Wer ke
▁Freiz üg
▁des ired
▁vor schlagen
▁ac adem
▁Zür ich
d ire
r ik
▁function al
▁präsent iert
▁lau tet
▁E S
▁dire cted
-con dition
ie ller
▁propos ing
▁bedeut ende
it ale
▁C atal
▁Kont rollen
▁(C hrist
▁Apparte ment
dr ich
▁S terne
▁the me
▁Kl ass
▁und oub
▁j ener
▁Pl at
▁Mill enn
/2 000
▁Jose ph
▁F ein
▁ab zusch
▁Er lebnis
▁dis advant
▁künft ige
▁an g
▁D res
▁entwick eln.
aler ie
is es.
▁f as
▁l ösen
▁r é
▁tax es
▁"S t
it able
pos ition
▁entwickel t,
D ER
op en
-Te chn
▁Entlast ung
ö ch
ens wert
▁ren owned
u en,
▁ange hör
▁Je w
▁as p
▁pay ing
▁care er
▁Fahr zeuge
▁budge t,
▁verhin dern.
▁man ip
▁ra c
▁trans mission
▁Sor gen
▁w elt
▁gener ated
▁wissenschaft liche
▁oblige d
# 160
▁Ab fall
▁Rück kehr
#160 ;
ak e.
▁great ly
▁hospit ality
▁lie ber
▁(w ith
▁or ,
▁Russ ia,
▁größer es
▁centr es
w ater
▁hard ly
▁excess ive
▁k ern
ungs system
▁Par is,
▁(2 )
▁Gef äng
▁K amera
▁Pol y
▁Berichterstatter ,
▁Fle isch
-Gen eral
u ven
▁Vor der
▁gew ählt
▁Übern achtung
hr t
▁design ,
▁Ger ichte
▁gehör t,
N A
▁hier bei
▁verurs acht
▁Phil ipp
eit er
▁geb rauch
▁look ed
▁prevent ing
▁V ort
▁ver lie
▁part ies.
▁rel ative
▁ref ers
▁pool ,
▁St ability
▁Schön heit
▁de fe
▁Ver hält
▁ermöglich t,
▁illeg alen
o ured
an spruch
igkeit en,
▁Mitglied schaft
▁Tai wan
▁T R
▁R uf
▁week end
v iertel
ard o
▁furn iture
▁W ed
▁K laus
ug ang
▁Er gänz
▁com pe
▁erklär en,
z usammen
ot en,
▁have ,
▁man che
▁gen ere
▁themselv es.
▁ge he
staat lichen
▁pain t
▁dat a,
▁ein st
▁r ate.
▁Im port
▁Slo ven
▁Bedro hung
▁E X
▁par ents
▁News letter
▁w enden
her ,
▁bisher igen
▁act ing
▁simult ane
▁production .
▁Pass wort
au x
▁o u
▁Pro jekten
▁can cell
gre g
▁(A 5-0
▁UN ESCO
▁Social ist
▁Tra um
T V
em ark
▁K orre
▁conf ig
▁contact s
▁sug ar
g s
▁We ise,
▁contrib uted
▁Anw ender
: 4
▁Män nern
▁super ior
▁Vide os
▁no vel
▁kle ines
▁Vorschlag ,
▁jur is
▁fasc in
▁erforder lich.
▁arr ived
comm unic
▁Ital y,
▁welcom es
p fl
el te
if ferenz
▁Vor gehens
▁imp lic
▁un zureich
ent ions
▁leg ally
▁spezif ische
▁inklus ive
▁ge pl
▁Sch nell
re in
igkeit .
▁Kommission spräsident
▁region s.
▁negot iating
▁bit ten
i ang
▁an gest
▁g ard
▁sub sequent
trag en,
▁( RO
for dern,
▁prin ting
▁personen bezogen
▁M ü
dem okraten
▁Weit eren
▁vorgeschlagen e
▁unter such
▁Gehm inuten
▁s en
▁Al b
1 ⁄
I CH
▁M A
▁val ley
▁wat er,
▁mur der
er ie
▁beste ht.
▁Gesch windigkeit
▁Gleich stellung
▁Sa ison
▁S ob
ce an
▁year 's
▁speak er
niss e,
▁t ank
▁gewähr leisten
▁Mitgliedstaat en.
l ings
▁Chin as
▁D än
ess en.
▁des erv
▁O ste
▁2004 ,
▁h es
▁I V
▁fin ished
▁Gen ießen
▁sh adow
▁Qual ity
▁transport ation
▁R od
▁As ien
▁As ian
▁199 1
▁Politik en
▁Kore a
é ,
un ruh
▁V alen
ist an,
▁rec y
▁Text il
▁langfrist ige
▁Merk mal
te ch
ere ,
▁De ck
▁M iß
et ic
▁C OM
▁er ör
▁" Z
▁Webs eiten
▁ ere
ed e
▁4 4
▁hand le
▁th erap
▁an hand
▁Se v
▁origin ally
h at
is ed.
▁auf gebaut
▁inter nen
▁anerk annt
▁electric ity
▁" ...
▁period .
oph istic
▁Mor oc
▁cop yright
▁ergreif en,
ystem s
n utz
▁over view
itu ation
-F orm
▁introdu cing
▁growth .
y an
▁C R
ain ed
sp olit
▁Ab schaffung
▁colle cted
▁Do es
mitteln .
d auer
▁E uch
▁H ot
▁bei .
stand ard
▁Haushalts plan
▁remain ed
▁sogen annten
e. ..
▁Vor stellung
▁Sh ould
▁C AP
▁Volks gesundheit
w affen
▁B ab
▁conc er
▁non-s m
ie le,
▁G üter
▁Energ ien
▁D or
▁G ame
▁S E
▁l äß
ger ,
▁Con f
▁D ikt
geb racht
-Str ategie
▁Sch rif
▁sustain ability
▁spl end
▁t emp
▁b ird
ver sch
gr unde
▁sp ons
▁ges te
zie le
▁Cons umer
ussts ein
▁C ivil
öff nung
▁function ality
▁Berlin er
▁Description :
▁C ulture
▁N av
▁Play a
▁Roman ia
o "
am .
▁Ein fl
▁n ord
▁poin ts.
▁Gro ss
▁(S V)
▁port ug
▁enthalten en
- 6
g al
▁zukünft ige
a al
v ar
▁An kunft
▁Beschl üsse
▁Sund ay
- friend
em m
▁bet ont
▁Webs ites
nit ten
▁ ]
▁All es
▁cover ing
▁B all
el be
▁St amm
we chs
▁at trib
▁pol y
▁mensch liche
▁Ans ichten
▁configur ation
er er
▁Erzeug nisse
kont rolle
▁Auf sichts
▁rep air
▁field .
▁resolution .
▁ed itor
▁so ught
▁brauch en,
in y
▁P os
▁comp act
trie ben
▁Ex istenz
▁prüf en,
▁4 2
▁198 9
in o,
▁se qu
▁bed au
wir ken
▁bro ws
▁Kompon enten
▁Secret ary
th and
folg ung
▁besonder er
▁refle cted
▁ausges prochen
▁sch äd
▁Fahr rad
▁Gesell schaften
▁resour ces,
▁Verhand lungs
▁firm ly
▁militär ischen
▁Möglichkeit en,
▁Finanz ierungs
▁moment ,
jen igen
ugg age
▁mod ule
or se
gel assen
▁ange künd
▁mult ilateral
verb rauch
sprech en.
polit ische
▁S ammlung
▁z ivil
tr it
▁Fot ograf
▁pow er.
▁is lam
▁con ce
▁enhan ced
or ation
▁incl usion
▁incre d
▁research ,
▁facilities ,
▁organiz ations
enk en.
usal em
▁Markt es
ipf el
▁s enden
way ,
▁einge halten
▁treat y
▁ord inary
w issen
▁vorgesch lagen,
▁F ünf
▁k itch
▁atmosphere .
a ustausch
▁ и
st al
▁zu grunde
▁ent standen
▁bleib en,
▁darstell t,
▁pre t
AT ION
ommer ce
▁Premier minister
▁in ev
▁war rant
▁Mein es
▁sure ly
▁direction .
▁ing red
b il
▁L ern
▁del iber
▁histor y,
▁him .
▁indic ate
ing ly
▁gel ungen
▁Qu ad
▁comb ine
enc es,
ränk ung
▁ag gress
▁bed ank
-M od
-A us
▁control .
▁Bevölker ungs
o -
on st
▁regard less
▁ann ivers
▁langfrist ig
ann t.
fl äch
izien te
▁über wind
▁compan y,
▁verfüg bar.
▁dish es
▁v it
▁Met ro
▁erklär t,
y ner
▁Wohn ung
▁propert ies
▁Cor porate
▁st ations
hol ders
▁teil en
▁suffer ed
ier ra
▁ar ran
▁[[ D
▁umfang reiche
▁Luxem burg
ent liche
▁P ac
op f
▁us ed.
fü gt
▁br ight
▁vorlie gende
▁h art
▁R E
▁X P
▁wirtschaft licher
▁Weg ,
stra fe
▁P S
sch iff
▁growth ,
▁conflic ts
▁vulner able
3 6
d urch
▁c ra
▁off ene
▁stand ing
▁transport ,
▁Fahr t
iv ely.
▁St immen
▁First ,
▁Chanc en
▁qualit ativ
ed y
▁Sch üler
▁25 %
▁cooper ation,
arbeit et.
▁States '
▁pr ices.
▁Haupt bahnhof
oz i
▁restaurants ,
U P
▁M ah
▁inform ieren
▁rapid ly
▁Bemerk ung
▁hat ten.
▁syn th
▁tim es,
▁ende av
U B
an agement
▁well ness
▁cost s.
are ,
▁19 60
▁Met all
▁ è
ach sen
▁gemeinschaft lichen
▁N avig
▁Ver arbeitung
▁group s.
bek ämpfung
▁H alt
▁L ith
ag on
▁EU -B
▁hervorrag enden
▁(RO )
▁pr ime
▁Über legungen
▁Intern et,
▁reach ing
▁prakt ische
▁ähn lich
it es,
▁Ein wohner
st en,
▁EZ B
ö tz
▁L '
▁L it
ach er
▁( see
▁he im
▁rest ric
▁jetz igen
os is
▁tim et
▁staat liche
▁Tab ak
ugos lav
▁en jo
▁transpar enc
eit igung
▁L obby
▁vor gese
▁bekann t.
k ampf
▁ver folgen
▁where as
▁America 's
▁S zen
▁re chten
ier a
▁Terr itor
▁interess ant
▁militär ische
pla ce
3 8
ist ischer
▁perfe kte
▁show ed
fin anz
▁Fakt oren
▁satisf y
▁romant ic
▁L ohn
▁Ab lehnung
▁real ise
- 10
▁K en
▁C oll
▁z it
▁Me eting
▁gegründ et
▁Zusam mens
pp ing
▁zurück zuführ
▁Ge werk
▁ho hem
▁enc ounter
▁schrift lich
▁entwickel te
ad d
▁gewünsch ten
▁conne ctions
▁t ill
as ters
▁F els
▁H it
▁turn ing
▁Städ ten
r ates
▁Ar t,
▁stell te
weil en
▁R io
▁bek ämpf
▁N ummer
qu enz
▁Vor lage
▁Art ik
▁fil led
wahl en
▁transfer red
▁Abhäng igkeit
▁c rop
▁mehr fach
arm a
▁Res erve
▁proced ure.
▁B rief
bit r
▁contr ary,
▁gener ate
j unkt
gr enze
▁polic ies,
▁Cap tain
▁wider sp
▁Aufent halts
▁Bef ür
i xt
▁( a
hl t
ence .
eld orf
▁r ight,
ger äte
▁Geschäf te
▁wom an
▁hochwert ige
es "
▁s ophistic
um ber
▁bank ing
▁23 .
al ing
▁A S
sparte i
▁m igration
il m
ist ent
▁repr äsent
▁Trans fer
▁cast le
▁en ger
▁t ested
▁handel t.
je ktiv
▁alloc ated
▁H els
icht en,
la c
ain e
▁strateg ische
▁s qu
▁resolution s
▁Bet reiber
▁Entscheid ungs
▁C ON
rieb en.
us t,
▁Ham as
▁gross e
▁geze igt
den ken
▁An lass
▁inde ed,
▁erh ielt
p read
▁einfach er
▁Spe kt
▁hor se
▁Repr esent
▁m at
▁k ünstler
▁Geb urt
▁erziel en.
▁wom en.
g ner
▁ex ternen
▁pass ion
▁Prot ocol
▁t ab
gel aden
ES T
▁Islam ic
▁be .
ra cy
▁ver schaf
be f
crib e
▁Pass ag
▁v ig
▁über aus
ES S
▁.. ...
▁f u
▁believe ,
▁B ö
▁Seit e.
▁besch rieben
▁schütz en
-- --
▁lands cap
▁F R
▁en em
ement s
▁dec ad
res erv
▁Konsequ enzen
▁ §
▁H ann
▁or ig
▁Berlin ,
▁le aves
▁geword en.
information en
ie val
▁month s,
▁hostel s
or ous
▁A u
▁Sie d
▁pro min
▁weit er.
▁tradition s
▁forth coming
▁Welt krieg
▁a er
end ar
▁2005 .
▁chann el
ü mer
▁die d
et a
▁Ein richt
ahr t
▁b omb
▁special ist
▁T ok
▁man aging
▁mach t.
▁Rich ard
j an
▁st ret
▁mil k
▁ähn liche
▁Johann es
st ab
-P resident
▁reflect s
▁Pia zza
▁undoub tedly
▁r ising
▁ch amp
▁erk ennen,
▁festgeleg ten
ück sichtigen
▁cal m
▁Par ad
▁min imal
▁t ickets
▁be urteil
▁St att
out ique
▁any where
wart en,
▁Ein stellungen
▁present ,
▁Famil y
ksam keit
▁erweit ert
▁Hoff n
▁O mbuds
▁j enen
▁( wh
▁führ t.
▁organis iert
▁Will kommen
▁aus ser
▁pow er,
▁sugges ted
k et
▁rel iability
▁won ach
▁recon struction
▁Amb iente
u age
▁in eff
oun try
▁anz ub
▁korr ig
▁S olution
▁R out
▁st olz
org ungs
▁et abl
▁entscheid end
▁bedeut end
it arian
al us
▁var ied
▁Position en
▁unter lie
one y
▁Br un
▁th es
▁Fre unden
▁erst klass
wirk ung
▁verbess ern,
iov is
O C
▁überprüf en,
▁se vere
▁sh ipping
▁Schl ag
▁unabhäng igen
▁st uff
kt ure
▁ver he
ag en.
▁Program men
iv als
▁le it
▁Komp lex
▁ant icip
▁th umb
▁" n
▁hand eln
▁hoff entlich
▁town s
▁in ade
▁dis abled
▁hon est
▁Frid ay
f t,
▁he aring
▁cooper ate
ers '
besch reibung
h ir
y th
ess ,
läss lich
wesen heit
▁G ay
ix el
▁a .m.
▁reason s,
▁Män gel
▁natür liche
▁energ y,
▁nieder länd
▁(App lause)
▁Y ugoslav
▁z iel
ess ions
▁gen ehm
▁stat istics
▁Groß teil
▁Flor enz
▁portug ies
der ung
▁H on
sp artner
▁Be wer
▁Ma z
▁International e
▁Kontin ent
▁Profession al
▁symp ath
▁T anz
ul se
▁J a
ü chte
▁S achen
▁24 .
▁Leit ung
▁w alls
et o
▁ch a
▁univers ity
▁n one
▁to .
▁less ons
▁Lux us
▁distrib uted
▁Wei hn
▁pret ty
y ss
▁Fall ,
▁health ,
▁Hand lungs
▁Allian z
▁infr inge
T H
▁person nel
▁resist ance
▁Aus einander
ap ital
▁strateg y.
▁Urlaub s
▁dec ades
an ter
ne cess
▁me al
lin ed
▁mult i
▁Mark e
▁bran ch
n bsp
▁contract s
▁Gemeins ame
▁Sektor en
▁every where
▁mon opol
▁Gef angen
▁unforget table
▁f ax
▁ent deckt
▁market s,
▁children 's
▁Kont akte
▁industr ies
eff izienz
▁Ol iven
▁over looking
▁zurück ,
▁transport .
M A
ut ral
ru pp
glich er
ions hip
▁Sil ver
▁Pla ce
7 7
▁T ausende
ul en
ak zept
▁Gr ünen
herstell ung
▁CH F
s e.
ch t.
▁for .
▁Mar c
▁gu ard
▁belie ves
▁organ ic
▁Strateg y
val u
▁komplet te
▁Y es,
▁inf o
▁auf s
▁All ah
▁ernst haft
▁trave ll
▁hier für
▁Ä ußer
▁erlä ut
▁19 th
▁human itäre
fert igt
▁ ält
-1 9
▁wirks ame
▁Konz ern
-the -
▁E V
▁I F
▁Re ferenz
▁Le iden
▁event uell
▁address es
▁genieß en.
▁anwes end
▁in e
▁to ward
use um
f ield
re ifen
▁m ith
▁Cop enhagen
▁Option en
w ähl
▁sich ere
▁Jahr en,
▁ges undheit
▁Al kohol
stand en,
▁zie hen.
▁Wik itra
▁adap ted
▁S old
▁Aus blick
-s cale
▁Ph än
▁Bild ,
on i
▁company 's
ak ers
ühr en.
▁lauf enden
▁air -condition
▁interess iert
▁underg round
utz utage
▁ber ücksichtigen
▁max imal
▁neighbour ing
▁K och
▁st ru
▁ro ut
▁Fr ist
re ffen
ame ters
p ay
we ge
▁sh aring
▁Sch auspiel
▁need ed.
▁imm igr
▁fem ale
▁Comm un
▁rest ore
- or
▁Be ide
▁ent täus
▁appro ve
▁offen bar
▁Herk unf
▁(Beifall )
▁2003 ,
▁contin ent
▁Wi-F i
▁v ic
▁loc ation.
▁kein em
▁W ould
▁R ail
▁C e
ach ts
geb ä
pro gramme
-A l
▁Ad d
▁Freizüg igkeit
b aus
m aschine
▁B our
▁Bild schirm
quis ite
▁B ru
▁Über blick
aut en
▁histor y.
▁Schwar z
ay a
▁le iden
▁sh arp
▁employ ment,
age ments
▁Pro cess
ian ,
▁sp ann
▁ed ge
▁concentr ate
k ret
▁aus gesetzt
▁Sp itzen
ble me
▁V ul
▁dis ag
▁ber uh
▁princip le,
▁D .
▁g allery
▁cy cle
▁W E
▁mehr ,
▁akzept ieren
▁Lat einamer
▁Sad dam
▁Wikitra vel
▁Ver teilung
▁protection ,
find en
▁welcom ing
▁einheit liche
▁G erechtigkeit
▁beach ,
un ge
▁techn iques
▁Den mark
häus er
▁panoram ic
ot yp
▁stim ul
▁m ächt
é t
▁A st
▁I ron
▁( U
▁So f
▁fra me
▁document ation
▁Ein kommen
▁end ors
▁cre w
▁Er schein
▁end orse
▁unterstütz t,
▁never theless
m an,
▁man ager
▁rul es.
▁em pt
▁Di am
▁hin gegen
▁Sw imming
▁tour ists
▁juris d
▁p rag
ig ger
▁ge pf
▁über rasch
▁gesch rieben
& B
it ate
▁frü hen
▁K öl
oc op
▁Politik ,
▁v .
▁M äd
▁region s,
▁sag en.
▁job s.
e hen,
▁K ürz
▁Mon itor
▁approach .
ü gen.
▁V ie
▁cal c
▁normal erweise
▁Straß burg
▁d ollar
▁l ounge
▁des wegen
▁form .
▁competition .
icht ung
▁se a.
▁Le ip
▁prov ince
▁2004 .
▁fas zin
[ [
f o
as ion
▁sel ber
▁9 5
▁necess arily
▁tobacc o
▁ge geben,
▁Arbeit geber
▁recogn ized
▁umfang reich
▁pictures que
k ö
ver anst
▁komm e
▁Fran zös
▁Sk y
pl ans
▁Veränder ung
▁beg onnen
▁cr imes
▁Prakt iken
▁h et
- on
p en
▁glaub en
▁Som it
▁g olden
ste ,
▁cl in
▁infl ation
jahr es
▁garant ieren
▁Voraussch au
v i
▁z ähl
▁sup erb
▁mittler weile
c ol
▁tra um
▁met ro
▁Sam stag
▁Ungar n
▁Des k,
▁0 7
▁Wel thand
▁production ,
▁Minister ,
▁therm al
▁jud ge
▁hingew iesen,
▁Lou is
▁b ug
▁manufactur er
▁Ander e
end e,
▁cont rovers
▁gesetz lichen
� n
st ens
▁de i
▁sch afft
▁hinzu ge
▁E F
▁management .
▁Frei heiten
▁Now ,
▁gew innen
▁erst re
▁hour s.
▁Ide al
▁sel ben
▁b uch
▁S ich
▁be we
▁ist :
▁women 's
freund liche
c ow
ction .
▁produz iert
k re
▁Lie b
B C
▁c in
▁un ten.
▁de gre
▁do ctor
▁Grund lagen
▁selbst ,
▁Sc ience
▁arrange ment
än z
▁sett ings
▁geänder t.
w ig
▁ver ändert
▁Be aut
▁Q uellen
▁F isher
ier .
▁ver schl
▁guest s.
▁Mitarbeit ern
▁Gefahr ,
▁D aten,
▁( e
▁te ile
▁gew onnen
▁ep is
▁W icht
▁Min ute
▁beach .
▁traff icking
mitt lung
tre ten.
▁wind ows
▁R oth
▁Bl u
▁normal en
▁Expl or
▁C S
▁We il
▁Öff nung
▁highl ights
▁türk ischen
/ i
e per
▁ind ustrie
I O
▁ver h
▁Er sten
ode x
▁Ke y
▁Lab our
▁F ang
ak e,
▁te a
▁3 9
▁Ä gyp
▁weap on
▁erstell en
▁un necess
▁A str
ah e
▁dank en
▁subsid ies
▁trave lling
▁auf bau
▁Wähl er
ik i
▁J .
h ers
sequent ly,
▁Sing ap
athed r
▁Ne xt
▁permit ted
: 2
é es
▁b ul
lin e,
▁ste uer
▁dist ort
▁elekt r
▁interpret ation
▁MP 3
ier te,
▁Tät igkeiten
u i
ur o
▁M ie
▁Kolleg in
f allen
u led
▁ein sch
▁Al bum
▁deut lich,
PE G
▁w ides
or ies
▁H aben
▁invest ors
▁Res ult
▁T icket
▁8 ,
▁besch lossen,
i ad
ber at
▁tra ged
▁schw eren
▁legisl ation,
▁gross en
▁Er haltung
▁lie fert
▁14 0
▁group .
▁Frie drich
f t.
▁b la
▁F an
▁Aktion splan
▁hör en
▁in com
▁le ast,
▁H IV
▁J on
▁Punkt ,
▁etc. )
▁Spain ,
▁A ben
▁Ver gn
olog ien
▁zu ges
leit er
▁Belg ian
▁in fe
acht en,
▁Bulgar ien
▁R ic
▁er folgen
▁refer ring
▁Außen minister
▁unmittel barer
-Vert rag
▁t ort
▁begr ünd
ches ter
▁Vor haben
▁activities ,
▁Sub st
▁Mehr werts
▁leb en,
ifik ation
zog en.
z ur
gen ommen,
▁supp lied
▁loc ations
gebie te
▁F öder
▁st ick
▁überzeug t
▁Frankf ur
▁in con
- off
▁K amer
▁hold s
▁gegenwär tige
h üt
mit glieder
▁digital en
▁Gaz a
it es.
▁c ategories
▁h ung
uf fer
▁Ver lag
ction ,
-E in
▁Tele kommunik
▁Elekt ro
▁p ilot
▁un gar
▁cons ent
atur es
▁Verfüg ung,
▁lauf en
h ous
▁Pl us
▁Katastrop hen
▁m üß
▁ver hindert
teil t.
▁Hels ink
f ox
▁komfort able
w issenschaft
▁prof ile
▁examp le.
▁Rezept ion
▁Re ad
▁Pl äne
▁equ ivalent
u um
▁dann ,
▁resour ce
▁Ho he
▁Satell iten
▁lay out
▁Wiederauf bau
▁adul ts
▁B A
▁g eschätz
▁l iable
▁nachdrück lich
b ran
▁N ero
▁gut .
K T
in burg
▁un us
umen te,
rieden heit
▁Nor mal
▁ändern ,
▁minut es.
▁A ch
▁darstell en.
▁week ,
aß t
▁v irus
▁A ven
▁den ken
▁good ,
▁day s,
▁present ing
▁eng aged
▁upd ates
▁anbelang t,
▁mar g
/ N
▁( 6
fäh igen
▁enor me
▁Vice -President
▁geeig nete
p aket
▁e at
▁an p
▁is lands
▁Al ters
▁ausge führt
▁Zahl ung
gesetz t.
▁l ived
▁Be ll
▁Aut onom
▁se a,
▁Re z
▁ol ive
▁d abe
is es,
▁Reg ister
y 's
▁( oder
▁comp os
▁S ierra
st ark
▁P L
▁W a
▁" f
▁wor st
us ing
▁F al
▁Mod elle
▁enable d
▁Atlant ic
▁ung laub
z enten
▁ein bezogen
▁se lling
▁deep ly
▁Be wert
ness .
äum t
▁Bulgar ia
▁länd liche
w id
▁c art
ad en,
▁Euro zone
▁Wesent lichen
▁I R
▁Bes eitigung
▁Kaffe e
ag og
▁enter ing
▁dür fte
▁occur red
▁klass ischen
▁amaz ing
p an
▁m aler
ing s,
▁conc ert
▁Hoch schul
▁Bör se
y on
▁such en,
▁nat ure,
▁question s.
▁comb ines
▁d ial
▁F uss
▁geograph ical
u hl
ad en.
▁rapporte urs
▁(H -0
▁Eas y
▁UR L
h ungen
▁sl op
▁unabhäng ige
▁Got tes
▁ec ological
▁p ast,
▁Mon ten
▁griech ischen
í n
un te
▁un w
▁B org
▁K atalog
▁pract ice.
▁learn ed
▁Jer usalem
ü m
▁B ig
▁stre am
E X
uf ficient
tw ick
▁Or t,
▁term s,
▁Dar stellung
▁confirm ation
▁Drit tel
et en,
▁for got
▁sich eren
weis ungen
▁Sicherheit spolitik
▁Hö chst
▁Rei hen
ar c
et ch
bar es
▁Kon zentr
▁Sta ates
▁Imp lement
k ir
l or
▁ar ising
▁Er m
▁intend s
sp rachen
▁firm s
lös ungen
▁Regierungsche fs
w all
▁S ymp
▁Zu verläss
▁Energ ies
▁Version en
▁perm ission
ü cht
▁An hör
▁ge prüft
▁Im mer
▁Min ut
▁ger inger
▁political ly
▁add s
▁Em issions
ibl en
▁Befug nisse
▁Kroat ien
▁be ,
▁employ ment.
▁defin iert
▁Registr ierung
- and
▁Z auber
-W e
▁norm ally
▁er sta
ze g
▁fund ament
▁require d.
▁Gal ile
▁fest gestellt
▁meet s
▁fant ast
▁C la
iz e,
V O
▁Kont o
▁ful f
▁v ine
▁ab schließ
wer ken
äch er
▁list ings
▁erreicht .
▁Mag az
▁st unning
ck en.
▁Aus gleich
▁Res idence
▁Bon us
▁Nachhalt igkeit
▁p ast.
▁un ited
▁F ü
▁lat er,
▁EC B
▁verhin dern
em on
erm ann
arbeit ungs
▁besch ließ
▁aud iovis
▁herr lichen
▁Ander erseits
▁Prag ue
ag t,
▁integr ierten
H O
▁k ämpf
ograph y
▁richtig ,
▁expla ined
▁M ake
▁C lin
▁Erinner ung
▁dabe i,
▁an zus
pp er
▁Be arbeitung
he iz
▁health .
▁Zivil gesellschaft
e hmen
ir s
▁O N
▁Sch icks
ru ckt
i "
ichte ten
▁bekann te
-w ide
▁T ennis
▁Wirtschafts politik
▁stärk ere
▁kü mm
▁ev ident
▁bar ,
▁so unds
▁J ur
bestimm ungen
▁Perspekt ive
▁d up
▁D rei
ass e.
▁neg ativen
▁prom pt
▁fra ge
atast roph
▁concep ts
- th
/ W
▁lie gen.
▁bie tet.
▁nat ure.
▁O bst
▁represent ation
▁Ab lauf
gel tlich
▁so ul
▁rel ates
▁restaur ant,
ib an
ough t
▁Sicherheit ,
▁Budap est
wirklich ung
▁er lang
▁Sch nit
▁Veranst altungs
m iet
▁er wor
lie ben
▁sp here
▁Ad v
▁Früh jahr
▁clean ing
stre am
ag d
▁10 ,
▁Franc is
▁Sie g
▁verabschied et
▁in her
▁Ha ve
▁Serv ice.
▁iPh one
▁d oppel
re .
▁W är
▁comp uls
▁tra gen,
▁berücksichtig en.
▁cult iv
- a
▁mach t,
▁recht liche
▁ein stimm
▁k amen
▁C o.
▁hier zu
4 7
▁e ignet
▁So uverän
▁disapp ear
▁Prä z
T .
it é
lic ation
▁dise ases
ien sten
▁ind oor
▁project ,
▁wiederhol t
es c
ant as
▁erhö hen.
▁ruh ig
▁urg ently
z esse
ar g
▁über nehmen.
ktion s
▁Rat ifizierung
▁business ,
▁schne llen
▁S QL
▁matter ,
▁versch är
il a
ire ,
▁13 0
▁enthus ias
ian s,
ep ing
zwe if
athed ral
▁pun ish
m acht
▁V IP
▁con vert
▁ver standen
▁( p
▁De partment
▁resul ted
▁rechtzeit ig
▁conf idential
▁Dar f
▁old est
▁S &
▁app ell
▁ar bitr
▁Intern al
▁helpful .
▁Arme e
▁E .
▁derzeit ige
▁Wirt schaft,
▁anspruch s
▁plen ary
G E
▁D A
▁for ts
▁he il
/9 8
▁wides pread
▁who le.
▁O t
▁Kon vent
les en
▁Schul en
▁virt ually
▁contr ast
▁period ,
▁caus ing
▁S ter
▁1 st
ph a
▁inde x
▁pack aging
▁plan et
▁exec utive
▁Schlaf zimmer
▁Modern isierung
ist ical
▁Re vision
anz ig
▁dr ast
▁last ing
▁Bürger beauftrag
▁Them a,
▁Sm all
▁ Š
as s,
uf en,
än en
▁Be vor
▁3 50
fäh ige
s e,
▁ о
▁un nö
▁fil ms
/ der
▁ge geben.
▁mus t,
▁unent geltlich
▁D ritte
▁er wer
▁produ ces
▁Wer be
▁Beschreibung :
n ische
▁Kl asse
▁18 9
▁N ok
▁wo hnen
▁Car l
3 1
▁consider s
▁event s.
▁Us ing
i op
▁Stoff e
ah me
oc al
▁mov ie
▁Tre ff
▁beein fluss
b ro
▁S L
och e
▁water .
▁entscheid enden
c or
▁ex ch
▁Reg ulierung
▁eng age
▁abgest immt
р е
reich en,
▁(s ie
▁betriff t.
ie den
ra ,
ak a
cl es
▁accept ance
▁iP od
▁Vereinfach ung
▁Proz esse
▁bra chte
▁Korrupt ion
▁b ieten,
▁S ir
▁rec ording
hol der
▁Qu elle
▁Zahl ungen
▁begrüß t
▁Urs achen
▁Mond ay
ge fühl
▁L ic
▁Im per
▁Fed eration
▁n ative
▁C P
▁Z y
▁has ,
raf t,
▁sit e,
▁Dan ish
▁O '
▁Ber eits
▁Benutz ung
▁Konz ert
▁E benen
▁US -
mittel n,
▁freedom ,
▁relax ation
-Pro jekt
▁anz up
▁Last ly,
▁S org
▁Ferienwohn ung
K )
▁D ring
rä ger
setz en.
▁environment ally
▁Berlin .
▁syn chron
▁strict ly
▁ ört
str ateg
▁Pr im
▁Con stitutional
▁Verteid igungs
g äng
▁pro xim
▁Med izin
▁week .
▁Ratspräsident ,
▁maß geb
▁an halten
iz ation,
▁Wir ksamkeit
gram men
▁gew id
▁order ed
▁Ven ed
▁S enkung
end em
▁st immt
▁Nach mittag
▁Graf ik
▁Schif fe
4 8
▁ent r
ord an
▁4 -star
▁Katastrop he
▁abgelehn t
un ft
▁S earch
▁affect s
▁Kohäsion spolitik
▁in folge
▁us e,
▁reich halt
▁c ott
▁put s
▁Sob ald
▁Dän emark
▁K DE
▁J oint
▁bei ,
ger ät
▁public ation
os c
▁rec re
▁Plan eten
▁bedeut enden
lo v
▁Vermitt lungs
at on
▁M aus
▁L ud
▁An h
▁Arg entin
▁Loc ation
▁sh uttle
oll en
▁ro ugh
▁Ch ic
▁kon sequent
al ten.
▁D üss
▁aff airs
▁Cas a
▁schem e
- ch
▁with .
-S oftware
▁incl us
▁Cypr us
▁n om
par atur
▁Tr ib
▁br idge
abr ik
ies sen
▁real er
▁Preis en
▁authorities .
▁90 %
▁einver standen
st ock
▁be unruh
▁D in
▁G a
▁G PS
▁St ör
▁ent halten,
▁ut most
k ons
▁Ur teil
▁Lt d.
er es
▁s ink
▁hel fen.
▁op ens
▁individ ually
▁energ y.
-St unden
▁Wür de
t okoll
▁to urn
▁H ill
▁r ide
▁ass ets
▁Ed inburg
▁Wochen ende
ape ut
kap az
▁vermeid en,
▁m ort
▁Mit entscheid
▁Fil ter
▁imag ine
▁Lith uan
re me
▁in quir
▁einz ur
▁pres erve
▁acqu ired
▁Ver wirklichung
▁angemessen en
▁prü fen
т о
▁eigen er
▁imm igrants
▁profession als
▁Park plätze
▁Initi ativ
▁argument s
▁S W
▁ein s
-B ereich
▁Port o
▁parliament s
▁harm ful
▁C anc
T ,
▁Ber ichten
▁re iter
▁gro wn
▁programm ing
▁top ics
▁akzept ieren,
▁Lond on,
▁zusam men,
f akt
k ter
l ers
es k
▁f ly
▁zu gest
▁ad mit
▁ass et
▁along side
r iere
▁S z
▁Kon struktion
▁request .
▁miss ing
▁sav ed
▁Stras bourg
▁be zieh
gen z
ub l
air s.
▁Qu art
▁Ag ain
▁ro utes
▁ges amm
▁offiz ielle
▁pro sec
▁An nehm
▁essential ly
-U nter
▁Übr igen
il .
▁L abor
▁ver ank
lung en,
▁difficult y
zentr en
▁suggest ions
P ress
o ter
▁ q
▁acc eler
▁Get rän
- pr
▁Re isen
AL E
▁Elekt ron
▁Organ e
▁C ru
▁link s.
▁Croat ia
▁Nik on
▁t rat
▁L ind
▁er a
▁sp ite
▁Se x
▁coordin ated
▁anzu zeigen.
▁B erechn
▁Custom er
▁Tip :
▁Bes ides
▁cap abilities
▁lif t
sequ ently
▁fair ly
▁Jahrzehn ten
▁diplomat ic
a ders
▁D usch
▁fre m
▁hal b
▁Menschenrechte ,
▁angen eh
▁Presiden cy,
▁C ross
▁L ight
▁management ,
ID S
▁st ärken
rie be
ink el
▁ir ischen
▁gewähr t
D .
r ig
▁c ater
▁tre es
▁Kultur en
u cc
ig ung.
ür ze
▁up grad
▁Caf é
▁targe ted
▁Präs enz
▁M .
▁9 ,
▁disp ute
▁pure ly
▁so eben
▁Al m
▁new ,
▁sag t,
▁town .
▁house hold
▁su ites
▁bewusst ,
▁harmon isation
▁prakt ischen
▁Sud an
is tern
▁M ED
id es,
▁add ing
▁beh err
▁Alp en
▁wachs enden
▁t ap
▁C reat
▁her itage
▁see ks
istr ibution
m ail
w ass
att ung
▁Ha ar
-D aten
▁Do ha
▁D ör
▁P ut
▁Stockhol m
- day
▁H uss
arbeit et,
▁Zu kunf
haf ter
- n
▁Er richtung
▁wesent licher
▁culture ,
▁Frankreich ,
▁Sam s
▁Auftrag s
▁Nether land
ung al
▁R oss
▁Auf zug
▁explo it
▁ ©
▁Le vel
▁T us
vor schläge
▁reserv ations
▁Ged ank
▁arm y
▁Z erstör
▁Ex tra
▁interest s.
▁rapporteur .
▁Bes uchen
in s,
▁K h
heb en.
▁hous ing
▁z ut
▁l ists
ace ut
▁stud io
▁w ünsche
▁L ine
ub en
wär ts
▁b uchen
▁T ests
▁B lair
▁supp lies
alen der
▁sud den
▁he ating
au te
▁her um
▁konn ten.
▁Freiheit ,
▁w ines
▁E ure
▁T ickets
▁L ounge
▁action ,
▁Tr end
▁Mo der
▁denk en,
▁treff en,
kont roll
▁mac ro
▁e en
▁n omin
▁sh ips
str ö
▁Str ände
▁War craft
app ro
ber n
▁st ation,
▁äl teren
oun ted
▁thumb n
in anz
od ge
▁best and
▁dep enden
▁Environment ,
P L
▁P ier
▁ver letz
ühr en,
▁know -how
▁darf .
▁qu er
▁Ha upts
▁Christ mas
▁Vertre tern
▁Cor por
▁bedroom s
▁w ed
▁T el
▁He im
öl f
▁Situ ationen
▁negotiation s.
▁treff en.
: 1
▁c ultur
▁1 10
▁16 0
▁Bü rokrat
ra chte
▁government ,
▁p f
▁B aby
lag er
▁Steuer ung
▁Staats -
▁Ents te
▁t ip
▁D ir
▁St ärke
ss ysteme
▁4 7
tes te
▁Up d
▁( Z
▁special ized
St ar
▁sav ings
▁for ,
▁An bet
▁ar med
▁W alk
▁langfrist igen
▁F unds
▁Acc ount
▁clar ify
▁Mex ico
O B
▁a st
▁R A
▁L or
▁wo oden
▁typ ischen
uell ,
▁Zugang s
▁kauf en
▁gradu ally
▁L ong
▁Aus bau
ähr t
▁convention al
▁polit isches
▁vers ichern,
▁Regierung ,
▁bel g
▁ö st
▁programm es.
V IS
▁S now
▁stimm en.
verw altung
u est
▁is .
▁W .
▁get roff
▁prin ted
▁enough .
qu et
▁Beschl uß
▁bem üh
ir tschaft
prü fen
▁Jap an,
I ER
u ous
▁serv ing
▁Konflik te
w enden
▁n ight.
▁Er fordern
▁19 50
▁every body
▁korre kt
os a
ien ces
▁said .
▁software .
▁Demokrat ie,
▁29 .
▁undert aken
D ie
▁cl imb
▁fl ag
▁Komp lett
▁akt iven
▁2000 .
▁instru ctions
r up
am i
wor ld
▁kon zip
▁Min ib
▁clear ,
▁forward .
▁insp ired
5 5
▁P ed
▁Re chten
▁Sch rit
▁pres iden
▁event s,
▁Adr i
▁zeich net
▁L ear
▁USA .
▁subject s
▁verlang t
▁in ,
▁F OR
▁im pr
▁tax ation
▁oft mals
▁the ory
▁Sub ject
▁committe es
afr ika
▁incorpor ated
▁Aufgab e,
▁obstac les
▁Academ y
▁in akzept
▁A U
▁E ver
▁C ann
ran sport
▁Arbeit er
tre ten,
ij k
1⁄ 4
m ot
iss ance
▁se ctions
▁Aus arbeitung
▁nam e,
▁Can ada
▁Sm art
▁re ly
▁such en.
▁mind ,
▁Sc ot
▁recogn ize
▁Restaurants ,
w in
▁Par ameter
▁wirk liche
▁Will iam
▁ed it
▁erhö hen
▁stattfind en
▁In tell
▁Pal m
▁cours e.
▁teach ing
▁humanit ären
▁Freit ag
▁con vers
▁citizens '
▁gestal tet
▁n ennen
ra ul
ach ter
▁eur os
▁vermeid en.
ond s,
uk lear
▁Beteil igten
▁k op
▁J ud
▁stru kture
ver hält
geben en
▁immed iat
▁extend ing
▁tele communic
▁effe ktive
▁bon us
ist iken
ag a
▁project s,
▁Jed och
ing t,
▁B ah
▁Ver he
M .
▁g al
▁public .
▁Ass embly
▁26 .
5 -00
▁C EO
ce llen
▁sch reiben
▁Sp l
sch ön
führ ungs
▁Über tragung
AN D
▁erhö h
▁Nachbar n
▁partn ers.
▁be aring
▁R ap
ram m
ific ial
▁signific ance
▁cut s
▁Rat schlag
▁Con sequently,
▁R enn
end o
▁mach te
▁aud ience
▁subst ance
▁Phot os
aceut ical
▁Ent deck
▁trans actions
▁r ender
gend es
iod ivers
ig ende
▁pr ize
-S p
system s
▁Industr ial
▁ra in
-c ountry
▁Deb atten
▁Bedürf nissen
▁E hr
▁he ll
▁city 's
▁balcon y
▁Fire fox
8 9
gesch ichte
▁sophistic ated
d ring
▁ab use
▁Con dition
▁stay ed
▁" U
▁europä isches
▁med ieval
▁verst ärk
▁Weiter entwicklung
niss es
▁Altern ativ
s orge
▁man ,
▁schwier ige
▁Flücht linge
ur .
▁IM F
▁gewähl ten
▁hilf reich
▁se i,
▁Jahr en.
▁201 2
▁beein fl
▁expl os
▁konzentr ieren
▁be ibe
▁cor por
▁stud ied
▁viol ations
▁manufact ure
▁dep th
▁tourn ament
▁Ch ines
▁team s
▁amendment s,
▁complic ated
▁P sych
▁H u
▁Balk on
▁Child ren
ed ing
icht linie
▁' E
▁f ließ
▁S em
ig ious
▁D ifferenz
▁K äufer
ck ,
är er
▁integr ierte
bereich en
▁together ,
h is
▁p od
▁Ein en
▁Des ktop
▁diskut ieren
- line
▁S ort
be g
led .
▁X ML
-Sta aten
y t
▁f ram
▁T enden
▁Z war
▁Member s,
▁interest .
▁Gel der
▁beschrän kt
t ime
▁pl ötz
▁gleich ermaßen
▁col umn
▁Bestimm ung
▁Wass ers
▁particip ating
b art
▁E conom
etz ugang
▁At t
▁28 .
▁Generation en
▁W under
leg te
üb ung
▁consult ing
▁Eigent ums
▁Malt a
▁v illa
▁zu gesch
▁philosoph y
▁Ein wohn
▁refer endum
-Pro zess
ack s
▁Vers orgung
▁seem ed
▁conclus ion,
▁G AP
▁" b
schaf ten.
▁Kir chen
▁offiz iell
▁aftern oon
▁N u
▁succeed ed
▁angep asst
▁Konkurr enz
▁O x
▁consider ably
▁h erstell
▁G all
▁Industrie ,
▁fle et
nes day
▁he ct
▁Portug al,
d at
i y
▁wor se
leg ten
amb od
▁60 %
▁chann els
4 4
O F
re form
▁f ans
▁ch rist
▁dut ies
▁Monten eg
▁C lean
gr ession
▁estim ated
j ud
▁Th ree
▁L ad
ible .
▁ra ising
vers ammlung
▁Mod ul
▁empf ohl
gor ith
▁Sch reiben
▁Vor rang
▁aber ,
gesetz t,
▁hosp ital
fle isch
con ne
▁dam al
▁"F ind
▁Mos k
▁auf ger
▁4 3
▁Abend essen
Ã 1⁄4
▁F ord
ot ,
▁[[ C
▁constru ct
▁k ill
▁20 th
zahl ungen
▁italien ische
▁accur ate
▁Vorder grund
ot ten
▁import s
▁fre ut
▁12 .00
zustell en
-to -d
▁p ump
ig aret
rom e
▁" in
▁annivers ary
- eff
▁T ief
▁vor n
zieh ung
▁angeze igt
▁imper ial
▁worksh op
if ahr
▁fact s
▁illeg ale
▁S A
▁en vis
▁fre ely
▁re cess
▁App lik
▁Pf lege
▁Glaub en
▁gil t,
ub b
ard in
▁b ik
▁f ach
sp ace
▁gu ided
ber ichterst
▁stat t,
▁eing eschrän
▁authorities ,
▁vorgeleg ten
' ve
▁ge legt
▁available ,
▁27 .
▁tä glichen
▁Note :
▁enfor cement
▁Gesetz geb
▁meaning fully
be völk
▁famil y.
▁stärk en.
▁be z
▁" p
▁eff iziente
▁Vers ammlung
▁integr ate
▁Ko oper
▁head ing
▁moment an
▁vollständ igen
▁Binnenmarkt es
ess ed
ug t
▁le isten,
▁sh ift
▁char akter
▁Americ ans
▁Wand el
ic s.
▁Dre h
▁s telle
▁S tern
▁M ärkten
▁L esen
▁strateg y,
▁R enten
▁An reg
-friend ly
7 1
▁unter nehmen,
▁community .
▁fab ric
is ed,
▁c lo
▁ver mut
▁mann er.
▁Verfass ungs
▁S S
▁ein seit
▁Aus weit
▁princip al
teuer ung
▁ski ing
▁an ste
▁Che f
▁Afric a,
▁Fremden verkehr
f unk
▁Wer den
▁basis ,
gen ie
▁t ritt
▁B R
ver handlungen
▁appear ance
▁schl imm
▁investig ation
▁agend a.
opp elt
▁aid .
▁class ical
▁broad cast
▁Rechtsstaat lichkeit
▁T amp
em ble
▁process ed
▁0 8
asch in
▁Aktiv ität
▁Dan ach
▁resol ved
▁enjo ys
▁res c
▁prom ise
▁beginn en,
▁Außen -
▁Steuer zahl
▁Kreat iv
ä ge,
st able
▁gestal ten.
▁provider s
▁sched uled
▁List ings
▁V arian
▁do ors
▁Über nahme
recht lichen
▁Anbet racht
▁K am
ard .
teil ungen
b urger
▁Flugh af
▁Dan iel
▁70 %
▁Sm ith
▁Site "
▁un ab
em ed
▁re ward
▁mit "
▁"W e
▁Reserv ierung
▁L änge
▁international ly
▁prom ised
▁angen ehmen
irl pool
▁tra gen.
▁weltw eite
berg ,
▁constit utes
▁hingew iesen
▁kontext uellen
" ),
e le
▁Inter governmental
▁leb end
▁günst ig
▁ehemal ige
▁Cast le
▁attach ed
▁gewes en,
ar at
-c omp
▁Gre ens
i ation,
▁C all
▁An k
▁Finanz krise
▁vill ages
▁süd lichen
▁Spazier gang
änder ungen
wirk en.
▁NI CHT
▁benach teil
▁K ein
▁sp re
▁effect .
▁contr ary
▁beit ragen.
▁Instrument s
▁worldw ide.
z io
▁s .
▁B av
▁k g
▁C N
and in
▁ge führt.
▁se g
▁An ders
▁ent halt
▁pain ting
igh ter
av i,
reis en
▁period s
▁farm ing
▁geschie ht
▁b ike
▁Zus tell
▁Distr ibution
▁Schnit ts
▁P ast
▁profession elle
▁that 's
ver l
▁govern ing
▁grammat ically
▁hunder t
▁Ombuds man
▁E hre
ot al
▁sol ch
▁fra gen
▁Kais er
▁encour aged
▁Währungs union
▁Page "
▁Düss eldorf
▁g astronom
▁ver anst
▁sch reck
▁man chen
ark et
▁term ,
▁pass ing
▁einge hen.
▁Aud itors
▁ult imate
▁elimin ate
▁W asch
ein richtungen
▁check s
▁erhält lich.
т е
▁( t
▁war ning
rä ge,
▁export s
▁zul äss
▁entdeck st,
▁gespe ichert
▁depart ure
▁(sie he
E E
▁d essen,
▁th row
▁R ett
▁ges p
▁irgend wel
▁describ e
▁accomp lish
▁grammat isch
ion s,
▁F oot
▁Be achtung
▁weak en
P G
▁m igr
em ost
ort s
▁sch ritt
▁Oper ation
in ely
▁l uck
▁over look
▁jeden falls
▁tw ice
▁v ent
▁ge führt,
▁not es
▁Kon junkt
▁Verkauf s
▁G R
▁geb racht.
/i >
▁H an
▁gen aue
▁0 1
▁"F inde
▁keyword /
▁Vermögen s
▁K ategorien
lich e,
be c
▁kilomet res
▁Ratschlag :
O K
z um
▁t schech
▁m ere
le ib
▁J av
▁näch ster
▁Mont ag
▁Schlussel wort
▁keyword/ phrase
▁an erkenn
as is
▁le ct
fahr er
-B en
▁elect rical
▁Schlussel phrase
▁Leg itim
▁schaffen, /i>
▁hinzuf ugen.
▁contextual ly,
▁kontext uell,
▁mit" ......
▁Schlusselwort /der
ig l
▁M essen
▁D C
▁aufge zahlt
▁Wed nesday
▁h idden
ic ing
▁Ver ab
▁Be gründ
▁ele v
▁Gro w
▁sufficient ly
▁destroy ed
▁über prüft
▁Eur o.
tember aub
wär tige
▁Volk es
▁Um struktur
-S erver
▁Vertra ges
▁Lib y
▁surpr ised
▁splend id
we hr
gar ten
▁bar riers
c at
▁f oss
▁T onnen
▁3 %
▁opp on
▁zusammen ge
▁bege ister
▁H ab
iz a
▁gemeins ames
▁lay er
▁Ausweit ung
sprozess es
▁assign ed
mutz ung
▁rub ber
g i
▁f at
▁D ra
▁K und
▁approach ,
▁bo asts
▁c lock
▁A y
▁An onymous
▁beste hen.
j u
▁th ick
clud es
▁minister s
▁f �r
▁Re paratur
▁Le ban
way .
ability .
▁enjoy ing
▁Kinder ,
▁langu age.
▁Prem ium
▁Jew ish
t im
▁re cept
▁hin ein
▁her be
▁Hand y
▁ed ited
nter prise
▁safet y.
th ers
se hen.
▁voll en
▁prefer red
on ia
ar z
▁proposal s.
▁responsibility .
▁L CD
ial e
▁address ing
▁Prof .
het or
▁landwirtschaft lichen
ic i
▁l ingu
▁var iable
▁won 't
▁ausger ichtet
▁t ennis
▁An im
form ular
▁fe wer
▁4 6
▁ers etzt
▁inst ance
▁behand eln
▁explo itation
-En twick
▁thumbn ail
= "
c ific
ite te
▁progress .
▁Mand at
▁percent age
▁th res
ed ded
hab ilit
▁gegebenen falls
ö pf
▁R ichter
▁pers u
▁obser ve
▁direct ory
▁organ ise
▁(H U)
schö pf
▁Vien n
▁d rag
▁G är
▁L ED
▁Ein er
▁Per formance
▁Term s
▁pro pr
▁con j
▁another .
▁experience ,
▁statt gef
▁Rights ,
▁W ol
▁F ont
▁C .
▁( mit
▁werden :
▁par ameters
ro w.
▁con front
▁Et ik
▁restruct uring
▁V ER
▁ver wirk
▁Pro zeß
▁res idential
▁Ma ur
▁rul es,
▁R SS
▁se as
▁adv is
möglich e
▁consc ious
rep ublik
b .
▁stay ing
▁Valle y
-Ber icht
▁gespiel t
▁non-sm ok
s amen
is iert,
▁b ürger
▁o v
▁kosten lose
▁hyd ro
▁G ibt
▁An meldung
▁link en
▁finanz iert
i ation.
▁ är
▁sur vey
▁Bo x
▁Tru ppen
" :
▁sch lagen
▁aff il
▁supplier s
▁k enn
▁ge tragen
▁event ,
▁Lin ien
▁Sow ohl
z imm
ch o
▁Cont act
▁code cision
▁SME s
athem at
▁genere ll
▁Se lect
raf t.
▁strugg le
▁aus schließ
aur ant
▁betra chten
▁Mos cow
▁V ista
pect ive
▁Eur ost
▁befind et.
▁invol ved.
▁head quar
▁j u
▁Über sicht
▁Ex ternal
▁verwend eten
▁r öm
▁st ip
▁Commission '
▁where by
▁befind en.
▁S ource
▁beg un
▁br ill
▁Energie effizienz
wach sen
▁communic ate
denk en,
▁d ual
▁T s
▁V irt
▁viol ation
zeichn ungen
▁ch ief
▁part ies,
▁Ent schlossen
▁him ,
▁verfüg en,
▁Sim ilar
▁palästinens ischen
▁labe lling
le ments
▁P ad
▁O LAF
iz ite
▁200 2,
reg ierung
▁trade ,
▁for ec
ad ic
▁[[ S
▁(D ie
▁erzeug t
▁v ibr
▁N a
▁ha z
la ß
▁Sch alt
▁Er reichung
be ut
▁12 ,
▁Aut os
ell ow
ativ es.
▁F ast
▁part ition
tw och
ator ium
▁des ktop
▁may be
ants ,
▁dest o
▁neighbour hood
▁entspricht .
is a
▁D usche
▁des ir
▁Be zeichnung
▁Sp itze
▁mult ilater
▁mar ine
▁frequ ent
▁genu inely
▁coast al
▁compl iment
▁Head s
F OR
▁re ass
▁Nok ia
▁Er halt
▁Rahmen programm
t ies
▁t ree
▁inter view
▁Vis it
▁Ext rem
at ers
an a,
re iz
▁I WF
▁P akete
ss on
ru ppe
▁Pe ters
▁mag net
▁b read
▁1 %
▁Ein fach
▁He kt
rif ft
▁(A 4-0
g art
ers atz
▁ab ges
▁schw ere
▁Zimm ers
▁for emost
▁200 1,
▁15 %
▁P od
▁Zeit .
▁To gether
▁initial ly
at om
▁N äh
▁erk enn
andin av
/ c
▁Europ as,
▁Ver zeichnis
ux e
▁Jes us
▁Himm el
▁Maj or
° C
itä ten.
st äd
▁O m
▁As ht
▁beg ins
▁0 9
▁aid ,
▁guarantee ing
▁scr ipt
▁dig itale
▁thres hold
▁for tz
▁Ne hmen
▁Sc ott
▁erschein en
▁object ives.
▁lös en.
▁a temberaub
an forderungen
re ten
▁with ,
▁under lying
▁Stre cke
it ative
▁B uss
▁Bar s
▁Uns icherheit
f an
▁end ed
▁highl ighted
▁Hotel s,
▁Leit er
▁be hält
▁G ü
▁6 8
▁geb oten
▁Ö k
schrif ten,
▁zuständ ig
ach en,
▁Parl amente
ma ßnah
AR E
▁ständ igen
▁wünsch en,
▁Cook ies
▁(wh ich
▁dram atic
▁Überzeug ung
6 9
▁A T
ig end
▁don e,
/200 1
▁welcom ed
▁Mult i
▁Trek :
▁ent schloss
igkeit s
▁ind igen
▁ber aten
▁angeze igt,
wirt schaften
▁reput ation
▁t enden
▁spiel en,
▁Pac ific
▁l ädt
iz ation.
▁Di agn
▁Cop yright
▁Entspann ung
s burg
▁be wegen
se kret
▁own ed
sk i
D ,
▁w inning
▁b ought
▁me ter
▁Wirtschafts krise
▁charac ters
▁brief ly
▁aufgeforder t,
iv al,
ke y
▁belie ved
spro gramme
▁Gre m
▁Oper a
▁Tun is
sph äre
▁z er
▁rec all
▁join ing
▁million .
▁un zähl
▁dis cl
▁moment .
▁unfortun ately,
▁R uß
ach ed
ien e
▁inv ent
▁Dem onstr
IN E
▁mention ed,
▁Rh ein
gä ste
al te
▁Einsch ätz
▁Q uell
▁offer .
ativ es,
▁Spe isen
▁Educ ation
as s.
▁4 9
üh le
▁qu i
▁Situ ation,
▁Dialog s
▁Dokument en
▁Inde x
▁f esten
▁h ence
▁P ie
▁up grade
▁innov ativen
▁Mal ays
▁enter prise
▁erlaub en
▁Todes strafe
ô te
-L ös
▁Häus er
k ammer
ä sch
op ard
▁vor über
weis e,
▁general ,
pid em
▁Brasil ien
ich te.
▁ein führ
id as
▁access .
-st yle
▁ult ra
läuf ig
▁m .
ute t
▁Person en.
▁Russ ia.
▁behav ior
id enz
▁featur ing
▁Partners hip
▁y ield
▁we ,
zie ll
▁proced ure,
▁corrupt ion
▁B irm
▁sch ick
▁arran ged
in stitutional
▁ch apter
olog isch
▁Eur os
iqu e,
▁culture .
o is
▁er geben
▁ange wendet
▁Ph ys
▁state .
▁Slow ake
l ay
▁M igr
kl ar
▁rest ored
▁schein en
▁valu e.
▁song s
metho den
▁EU-Mitglied staaten
▁Unter richt
▁Me g
nis ,
▁Hin weise
-s h
▁teil nehmen
▁Arch iv
▁gezw ungen
an gel
pl us
▁op enn
▁Ar t.
▁24 -Stunden
▁drink s
▁kontakt ieren
▁d ate.
▁s ight
hal le
▁Inter vention
▁integr iert
AR T
▁ev ol
▁determin ation
▁reality .
▁Sams ung
▁D ur
▁R uh
▁Ar c
▁Invest oren
▁poor est
▁vide os
/ 4
▁t ang
▁in halt
ann t,
ke pt
▁Zusammen halt
stra hl
▁be mer
▁Z one
▁So ft
▁besonder es
t irol
▁l ohn
▁Benutz ern
▁P ilot
▁was ,
▁Se veral
▁Pan oram
▁en ge
▁short ,
▁profession ellen
▁equip ment,
▁hochwert igen
▁grenzüberschreit enden
ut .
sch ritt
▁Be fehl
▁prop ag
▁Bran chen
▁R unde
▁tra il
▁first ly
▁Soc iety
ll o
▁pract ice,
▁Dom ain
▁Mechan ismen
. de
▁M igration
▁Fl äche
voll ständ
▁har bour
▁G elt
▁Rel ax
▁Fakt or
▁voc ational
▁Schad ens
▁Ein es
wick lung
▁standard s,
▁einge hen
▁201 3
▁oblig ator
▁( ein
ap el
tra um
▁mittel alter
▁engine er
P ,
ch mark
▁S ah
▁st raf
▁mod ules
▁represent ing
▁vess els
▁K unden,
▁auf fordern,
▁D ingen
▁P ir
▁( th
▁hervor heben,
▁mone y,
▁civil ian
▁measure ment
▁s itz
▁ent decken
▁Lehr er
▁An sprüche
▁ins ufficient
▁end .
▁Ergeb nissen
▁Schwe llen
iegel t
▁mad e,
▁Colle ge
▁unter nehmen
▁inv o
▁Entfern ung
E /
▁ev olution
str äger
▁surround ings
▁Relig ion
verein bar
▁Dring lichkeit
▁m ouse
ob en,
▁ergreif en
▁reduz iert
▁Herkunf ts
▁ver p
▁er led
▁M aschine
uf en.
▁Mittel ,
▁Nutz ungs
▁Ins gesamt
▁reag ieren
▁chines ische
▁Instead ,
f eind
ing s.
▁Verein igte
bring en.
▁owners hip
▁gespe icher
et r
▁Produ kte,
▁entste ht
▁müs ste
▁schwed ischen
▁I G
▁Z ins
▁er fahren,
▁( wie
▁Zu cker
gang en.
▁Americ a,
▁Fahr er
▁umfassen der
sp ir
▁tr ips
spe zif
▁enor men
7 %
n ik
ch ant
▁produ cer
f indung
ä le
▁par ameter
▁emp find
▁Region ,
▁Gew äss
gang en,
▁Emp loyment
asst ,
▁W urz
▁oper ates
▁fehl t
▁dict ators
▁Hü gel
▁Krimin alität
▁Re icht
▁dam ages
▁Min istry
▁Pet itions
▁ausländ ischen
▁f örder
▁un s.
▁man gel
▁bus y
▁small ,
▁dev oted
▁Th erap
▁Kon ver
cr imin
-m ade
bo den
▁bew uß
▁movement s
▁berühm te
h ost
▁control ,
▁tax pay
▁anal og
or gen
▁in nen
▁for ce.
ont o
▁[[ K
▁ho hes
▁hop es
▁keines wegs
▁Nach druck
▁food ,
▁IB M
▁In tens
▁term .
▁Landwir t
▁verurteil t
/1 99
▁erinn ert
▁to ugh
▁er we
gesch windigkeit
▁trade .
▁Dat um
▁vertre ten.
i :
é l
▁L ay
ord s
arbeit er
stell ung,
▁Bas el
▁kostenlos en
▁de le
▁up load
▁1999 ,
▁des k
▁Z un
▁Z ut
▁ent s
▁restric ted
am men
▁O K
▁Ch ief
▁Mar ok
▁Tour ism
-of -the-
▁breakf ast,
B A
am ed
▁C ab
▁aus s
▁Gesch enk
▁conven ience
3 00
le ger
▁er warten,
▁we isen
ak ul
▁J azz
pl ays
▁par ent
▁befind en,
▁Den ken
▁Vene zu
▁ ....
▁um gehend
w rit
▁comm od
str ich
▁el der
ber ger
▁erst es
angeb ote
▁gee hrte
▁ök ologischen
▁v acc
▁Aus nahm
▁Durch setzung
▁town ,
▁mein e,
▁Bereich ,
▁second ary
▁schrift liche
a ug
sch uss
▁Sie mens
▁Grün buch
schn itts
▁proceed ings
- old
im atis
▁O EC
ert o
▁Se ction
▁Or der
▁führ t,
▁Miss brauch
a ñ
г о
▁E he
▁E valu
▁- B
▁dipl om
▁AL DE
anb ul
▁K art
▁allem ,
▁amend ing
▁Co operation
▁freund lich
▁willing ness
▁Stift ung
o te,
▁d än
▁e uropa
us s.
▁T ipp
▁H ände
▁L aden
lie fert
me iden
▁av iation
▁text ile
▁click ing
▁Wahr ung
▁cert ified
al ts
▁con stra
▁" pro
▁Ge gner
▁gest immt
▁network .
▁Ed el
▁erinn ern
▁Wissenschaft ler
▁fascin ating
▁to x
▁or ch
her ber
▁fest gestellt,
▁design .
▁Hindern isse
▁spre che
▁p atch
▁8 5
▁Form ulierung
▁zie hen,
▁tex t.
▁gesellschaft lichen
oler anz
▁be halten
am br
▁man ifest
▁Y o
▁Ne uer
ator .
▁art ificial
▁road s
ube hör
▁Arg ent
▁zweit er
g ie
▁L ot
▁man geln
ac y.
▁schließ t
▁id yll
ubau en.
▁E D
st il
▁mark s
▁first ,
eng leich
▁schließ en
▁Lebensmittel sicherheit
▁Las er
dienst leistungen
▁ersch ien
▁remark able
▁K ampagne
our se
▁kurz er
fac es
▁H af
olog y,
▁about .
▁fact ory
antwort ung
ari at
▁Volk spartei
▁c u
▁Ob ject
▁Kön nen
▁US- amer
O V
m oking
on z
ra hm
men te
ger ichts
▁out s
ämp ft
▁unterschied licher
▁tem pl
verletz ungen
▁R ass
▁k an
▁C itiz
▁Unter halt
▁what so
▁lang er
▁Park ,
▁Em issionen
K A
le in
OT EL
▁inn ere
stad t,
▁coher ent
▁con vey
gebä ude
▁Vor stellungen
av al
▁darf ,
▁appropr iations
▁das s,
▁sm art
▁favour able
▁Kunst stoff
sch rank
▁sich .
▁order ,
eit ern
▁post al
▁Kultur ,
▁Afric a.
▁Amerikan er
es telle
th aus
▁Ab bau
▁Bet reuung
▁notwend ig.
p oint
▁a fra
▁gr ünen
▁bleib t.
▁h iking
▁ein ig
▁diffic ul
▁verwend et,
▁Trans l
gl ück
regel ung
l ist
l assen,
▁B onn
gen öss
▁(in cluding
▁elektron ische
d en.
o ßen
h ä
ü ge
в а
▁st ruktur
▁up -to-d
-S pe
rop ol
▁music ,
▁Innen stadt
beschreibung :
▁S ark
▁g ym
▁cas ino
▁Unternehm en.
in et
▁Kons erv
▁Gene va
ect or
▁Bes atz
▁inform al
-H aus
▁tex t,
B S
▁ ärm
un es
ungs los
AN T
▁express ly
▁Korre ktur
at er,
▁f ur
▁un ber
▁N ear
▁Zur ich
▁Vis a
▁to wer
▁D est
▁Mit twoch
best and
▁report ing
▁amendment s.
▁schütz en,
▁Chair man
s eiten
▁System ,
▁Z ahn
▁reason s.
sk a
▁angeb oten.
▁ermöglich t.
▁remark s
▁repeated ly
. )
c z
for e.
▁Mus ter
▁Not es:
▁affect ing
▁magaz ine
▁we ar
▁inter ne
▁book ed
▁berücksichtig en,
▁In kraft
▁special ly
▁government .
▁Jugend lichen
▁tr ends
▁neg ativ
▁besch ränk
▁correct ly
▁breakf ast.
ion s.
th otel
▁es cape
▁B ureau
teil en.
▁terr ible
▁dür fen,
▁ruh ige
oin ts
▁Y outh
▁Gesch le
▁t onn
▁re bu
ot ograf
os es
▁sp anische
sprech en,
▁fif th
▁w ave
▁ent schlossen
▁ad ult
▁per pet
oph ob
▁dep loy
▁Finn ish
▁vor an
▁eur oz
▁whe el
▁inspe ction
▁much ,
▁br id
▁11 ,
NG L
un s
▁Commission er.
apt op
▁Weiter hin
▁endgül tige
▁acquis ition
▁ge liefer
▁State .
▁fisher men
▁Vertrie b
w ith
▁st age.
▁sub sequently
▁erziel en
▁Fischere ip
▁err ors
▁mix ed
▁Chanc engleich
en ergie
▁ger ingen
▁ide ally
▁wirk lichen
▁Wind ow
▁Sport s
▁stimm en,
-or iented
ne id
▁ag ent
▁Vor red
ou ver
▁Krit er
▁pan el
▁teleph one,
▁öffentlich er
▁Bran che
▁Nob el
gest altung
▁cla use
▁erstell t.
P M
▁ge äußer
▁ar men
▁Y O
▁oper ated
trie b
▁Cal iforn
g eschäf
sch icht
hal t,
▁verbind et
▁klein ere
▁tar iff
P .
i ates
▁C orn
▁big ger
▁fal sche
▁Landwir tschafts
▁ein heim
ere ien
▁deb ating
▁fl ash
▁gelang en.
▁W en
▁bekomm t
▁Bibliothe k
▁V in
▁" t
▁should ,
▁Zeit plan
▁m ont
ock et
▁minor ities
▁umzus etzen.
▁C AN
▁Auf hebung
▁(D as
▁SD L
k el
om s
aus gaben
▁one 's
ht ml
▁star ten
lad en.
▁conver gence
Г ¤
al in
▁k new
▁L AN
ild et
zahl en
▁repla cement
▁agen c
▁ icon
▁b ay
▁b icy
▁C 5-0
ger icht
ov en
▁eleg ante
▁prospect s
▁p ull
▁k örper
▁Sch äd
▁star s
▁charge .
▁vor sie
▁De posit
ett ing
▁Ste p
▁famil i
▁f lie
om an
▁aut or
ability ,
▁verl äng
▁health care
▁port folio
▁R ing
he il
zug s
▁webs ite,
ym met
▁Spr ing
ar s.
em en
ein richt
▁Dies en
▁Verb rech
▁med iterran
▁pred ict
ü ben
at tern
ose x
▁Sp iegel
▁gre if
änger ung
▁Dokument ation
▁qu ote
ink en
▁dec lare
▁Vorsitz enden
▁' S
▁prof ound
▁konn te,
▁umfang reichen
gebie ten
▁pharm aceutical
▁s ail
▁D J
▁R amb
la u
▁only .
▁Ent schäd
-F l
▁South ern
e bene
▁da vor
▁first ly,
▁einge hen,
g ent
n ism
ç a
▁b aby
▁gest ärkt
▁ref used
▁Stutt gart
▁se i.
▁Re chen
▁ar ray
▁economic ,
▁level s.
gew inn
▁geword en,
o 's
▁st ages
▁hoff en
▁gewähr leiste
▁she et
▁verkauf t
iè re
▁elector al
p es
▁B it
▁comp osed
▁port s
▁genau er
▁Bereit schaft
▁explan ation
-Vers ion
Г ј
st ä
▁stat es,
▁bro ader
▁"S ch
▁Know -how
▁for dern,
our met
f amil
▁announ cement
▁eingesetz t.
▁appoint ment
▁th er
ält igung
▁regul ation.
▁Turke y,
▁m ental
ist ory
▁Aus beut
▁institution elle
▁Sa al
▁garden s
▁gemüt liche
▁Wär me
▁E leg
▁tax i
▁Frei handels
▁Helsink i
▁C at
▁In tel
▁zw ölf
▁Comp an
▁erforder liche
ri age
" ;
▁s ide.
▁K ürze
▁C olog
af e
ire .
w ände
as i
▁res um
oc a
▁Ch a
ho le
▁dr iven
▁d ance
▁p ace
alt y
▁verb ring
▁disc ount
▁Schl acht
▁transl ated
▁eth ical
▁angenommen en
▁bezie hen
▁liter ature
▁entspann en
▁M ol
ber ,
▁Zimmer beschreibung:
▁Grow th
el and
etz t.
▁günst igen
kap ital
▁l oy
▁In genie
▁sa una
▁famil y,
▁erklär en
▁competition ,
▁lässt .
▁Olymp ic
- tra
P )
an s,
▁m outh
▁M is
▁k olle
▁geb oren
▁Luft fahrt
▁angeze igt.
▁tatsäch lichen
▁Polic y,
н е
▁employ ed
▁Sa udi
▁Cons erv
stad t.
I ES
iss en.
be griff
▁find s
▁lie gen,
▁empf angen
▁decl ine
▁transition al
b i
▁V .
uch er
▁Con ne
▁scr ip
▁fühl en
▁uneingeschrän kt
D EN
▁H old
▁National park
▁Su iten
▁grant ing
▁Al uminium
▁ger ichtet
▁Budge ts
it als
▁des erve
are l
▁A dress
▁5 4
ene ver
▁Bet rifft
▁consum ers.
▁c row
▁work ers,
▁Umwelt fragen,
▁Imm un
▁Vis ual
' s,
▁ein her
▁Er arbeitung
▁Entwicklungs hilfe
▁Belg ien
▁colour s
▁safet y,
▁Souverän ität
E G
el le,
▁inform ieren.
▁Unterk ünfte
▁Subject :
m ie
m end
▁t ables
le hr
▁B ier
▁g ift
▁da uert
▁Well ,
▁g aller
▁Vers icherungs
orre ct
-Mit tel
rans fer
▁Anze ige
P A
m äh
▁Sow jet
▁B ou
▁us age
▁spe kt
ha ust
▁Port al
▁state ,
▁of ,
qu ote
▁Jahr ,
▁cour ts
▁NE W
▁vine y
l imin
▁J u
▁can cer
▁inst antly
▁focus es
▁valu es.
▁concentr ation
▁Apparte ments
▁compuls ory
▁V it
▁ass embly
▁Auss age
▁b ag
▁T ie
▁T imes
▁K im
▁wh enever
▁5 2
▁sc ene
▁etwas ,
▁parlament arischen
▁R auch
▁ar ise
▁Fre edom
▁Su ites
▁los ing
▁prest igious
▁B ünd
▁An aly
▁Abgeord net
▁log ical
▁attra ktiv
▁Er öffnung
▁Tool s
or i
▁W ireless
▁trag ic
▁L ernen
▁down .
▁[[ B
▁erg ibt
▁behinder ten
▁unus ual
▁l ively
▁bed s.
▁product ivity
▁Mac edon
▁expos ed
▁R ural
▁fe es
▁How ever
▁öff nen
▁Arbeits zeit
▁Dire ktor
▁2003 .
▁Wik ic
▁Schicks al
▁in tr
ul der
▁Be z
▁19 30
▁Ste igerung
▁zurück kehr
▁Pe ace
▁reserv ed
▁erstre ckt
▁mach iner
▁Kl ang
▁pool .
▁arab ischen
▁surve ill
il y.
af e,
▁sich ern
▁pre ven
▁mass age
p ft
ie v
▁spe ll
schl üssel
▁schle chte
▁Publik um
k üste
▁ `
ro us
▁U fer
▁typ isch
▁erheb lichen
▁Las ten
▁stret ch
▁S ystemen
st ätigkeit
▁us ers.
▁durch zus
▁programm es,
▁rat ification
▁günst ige
▁ersta un
b em
r ight
▁l ine.
▁einz usch
▁regul ation,
▁b ü
te enth
▁M id
▁ge hab
ure ment
▁Ind ik
▁entsprech en.
▁Prof il
▁Mont age
▁benefic ial
▁b ot
▁Th us
pr int
ismus .
▁gehör t.
▁loss es
▁Thail and
▁Betrifft :
7 3
▁w age
▁su ited
▁Ch ile
▁sub t
▁verb oten
▁Best ätigung
▁Rück gang
▁centur ies
. org
▁an f
iz iert
▁Der zeit
▁selbst .
▁account ing
▁constru cted
▁manufact ured
▁contrad ict
▁deserv es
b ind
at em
sp f
▁global isation
▁purpos es.
▁kern el
is en,
▁en gen
▁vers p
▁product .
▁gest atte
▁mechan ical
▁eingerichte t.
▁compe te
b lock
p akt
▁w inn
▁M ix
▁F uer
we iß
▁vo te,
▁Werk zeuge
▁consequ ence
ne uer
▁" ,
▁ref und
▁el ig
▁Bei j
▁Eigen schaft
▁B &B
▁new spap
▁per ce
▁kon figur
▁Mensch en.
p at
t al
▁h ors
▁Emp fänger
▁Ober fläche
▁scient ists
▁club s
▁bemü ht
▁W ett
▁re den
▁techn isch
ator s,
▁thing s.
▁besitz en
▁gepr ägt
▁G ute
▁H yd
me ll
▁ste igen
▁sun ny
▁Erzeug er
▁Barros o,
▁beherr sch
E/ NGL
▁Ein kommens
▁Comp et
▁Americ a.
▁Versuch ,
en ne
▁al p
▁Me ilen
▁beg leitet
▁17 0
fil m
▁Ins pe
▁tw in
▁Journal isten
▁h äl
ts /
▁adv ise
▁Sh ang
▁Sa una
▁sogen annte
▁Therm al
▁for ests
▁wir kt
▁Gemein schaften
▁deut liche
▁hop e,
▁rob ust
st one
ad r
▁könn t
▁mus sten
iling ual
▁NGO s
▁Or ts
▁stat es.
▁größ ter
▁record s
▁Privat sphäre
▁Betrieb ssystem
▁Vertrie bs
u le,
le uch
▁B uen
fr on
▁problem los
▁Dem okraten
▁tradition ell
▁Zur ück
▁as iat
▁verb ringen
▁ausgestatte te
▁läß t
ess .
▁min eral
▁cost s,
▁peace ,
▁leb en.
▁ausgesch lossen
▁vorbereit et
▁H ör
-E x
▁subject .
▁job s,
rieb en,
▁surpr ising
▁Repr äsent
▁nob ody
▁Zuverläss igkeit
▁der selben
str öm
-S ervice
kl asse
▁sur prise
▁Kü che,
▁candid ates
▁angewand t
f ,
▁b lieb
ac ter
▁[ 12
▁benötig en,
il de
▁s ample
os law
▁sty le.
cent er
▁einsetz en,
aktiv itäten
▁appar ent
▁cancell ation
▁A ust
▁M und
ad ,
▁St orn
▁class es
▁erreicht ,
▁Flugh äfen
niss e.
▁D ER
▁Auf lösung
▁Um stände
ätz en,
▁opp ose
▁Kan ada
m 2
▁F assung
▁um so
▁hier ,
▁sc ulpt
▁Geb ühren
▁ref use
▁abs urd
▁refer ences
voll er
zeichn en.
▁Urs ache
utor ial
▁Engine ering
▁konfront iert
▁Explor er
s. "
▁bet roff
▁ste am
▁fre ige
▁w ächst
▁e ure
as p
▁ab stra
▁pers ec
▁present .
▁listen ing
▁a qu
▁camp s
▁gemüt lichen
▁sen ior
ol ar
▁l ib
▁con form
schl iess
▁Bar on
▁je glicher
▁prec ious
▁Sim p
▁deter ior
l assen.
hal t.
▁ad m
ac y,
▁Air lines
▁o vers
il ation
▁Z imb
▁exclus ion
w ann
in ity
▁K G
▁ist ?
ikan ischer
▁Nord ic
▁niedr igen
▁zug ute
W G
y o
▁S H
ies e
qu elle
▁special ists
▁And alus
▁matter s.
▁short -term
T ra
▁B ow
▁ge lungen,
▁N RO
▁N izza
/L inux
▁Frühstücksb uffet
▁ex cluded
▁tr igger
▁gesch mack
▁Do uble
▁Frem d
▁Ägyp ten
str asse
▁Kon vention
▁ade qu
▁Mechan ismus
▁GM O
▁Klar heit
▁Liter atur
f ör
l ife
ie geln
▁f iel
▁de pr
▁verb unden.
▁question s,
▁block s
▁Gemeins am
▁gegründ et.
▁prosper ity
▁V oy
▁Z in
▁zur zeit
▁trans national
▁stärk sten
ürz t
▁Prozess es
▁Vertra uens
▁Def ence
6 -0
u ct
ar on
▁G ül
▁De leg
▁econom ically
▁Pal ette
▁architect ural
and em
▁Bü cher
▁Unter drück
▁need .
▁applic ation.
▁(S t
▁zie ht
▁popul ation.
act or
▁equip ment.
▁red und
▁hom es
▁Lang uage
▁Serb ien
▁eigent liche
▁Mäd chen
▁t ub
▁A F
▁l ibr
▁ver kehr
hn en.
▁einfach ,
▁build ing,
▁diskut ieren,
▁chair man
▁reven ue
▁Millenn ium
au en,
▁terror ism.
unk te,
▁freund liche
bü ro
▁S ri
▁g eschäft
▁Aus richtung
▁Prot est
▁"W ir
▁Innov ationen
ess el
▁" .
▁fund s.
▁enc ry
▁head s
▁purch ased
▁Verab schied
/ 99
om ents
ann el
▁gel ten.
▁funktion ieren
▁getr enn
O G
▁pe ak
▁pla in
reg ular
▁Ist anbul
▁a w
▁ge h
▁ren omm
▁stock s
▁1. 5
▁Verbrauch ern
▁Mensch heit
▁Gipf elt
herr sch
▁empt y
▁gemeins amer
bereich .
▁interess anten
▁zweit ens
▁o h
▁F arm
▁can ,
▁Liefer anten
▁threat s
▁gegenseit igen
▁üb lichen
k ing
in i,
or ters
▁h orr
▁H yp
▁Reg ard
▁Rat s
▁mus ikal
▁Is lands
- Über
a id
▁d oll
▁F utter
▁L uk
est y
▁Sc ient
▁ursprün gliche
▁cell s
+ +
/ O
▁ch ose
setz en,
4 00
and t
▁less on
▁versch wind
▁akzept ieren.
▁Anwend ungs
▁Bil anz
▁M ischung
▁B od
▁le ts
ast ing
▁clear .
üb t
X I
at in
▁St raft
▁beg onn
▁negot iated
▁N OT
▁Problem .
▁tro ops
▁Team s
T F
▁H ein
▁Se ktors
▁better .
▁Gu ests
▁gewünsch te
▁anbie ten.
▁Akte ure
▁Konjunkt ur
▁ д
▁st ädt
pro jekt
▁Wieder herstellung
▁Eff ekt
▁chem ische
▁green house
▁p oker
▁r ichtet
▁respect .
▁elect ron
▁colleag ue,
▁joint ly
▁ausführ lich
on te
▁n utr
▁be fore.
den s
▁sh if
▁Arbeit .
▁research .
▁Sozial demokrat
▁strengthen ed
▁Arg umente
▁complet ion
▁Vor stand
aut omat
▁sc ann
▁komp et
▁ce iling
▁tomor row.
▁subsidiar ity
▁Welthand els
▁C L
urop e
▁ne utral
▁le ichte
ific ation,
hör ige
▁rapporteur 's
▁focus ing
mö glichen
▁Heiz ung,
▁A SE
▁Or ch
▁pres idential
▁Gl ückw
▁Funktion ieren
▁tem peratur
platz ,
▁Centre ,
▁Zun ahme
▁be er
▁sicher gestellt
▁tre as
greif en
▁begrüß en,
▁un known
ähr ung
▁field ,
▁Fortsch rit
▁GU E/NGL
o ir
o ben
▁ @
iv ate
▁L anz
▁In haber
▁Bet roffen
▁ir ak
üt ter
▁erfolg en.
▁content .
▁freedom s
▁Cap ital
▁wunderschö ne
7 6
k om
al on
▁del ight
▁access ,
▁rat ified
▁jüng ste
▁t ruck
▁Or ten
▁bas ically
▁term s.
▁konzentr ieren,
▁undert ak
▁spect rum
▁Liber alen
▁österreich ischen
▁z un
▁werden ;
ex p
▁afra id
h el
r ise
л ь
▁E sp
▁R .
▁aus zus
▁Er folge
▁Le id
ason ic
▁second ly,
▁Can ad
▁Ev ents
sp ann
▁woll ten
▁Jug oslaw
▁Kommissions vorschlag
▁cle an,
л и
ne ider
▁bathroom ,
▁beteil igten
▁prem ium
▁Nichtraucher zimmer,
▁Är z
7 4
▁h af
▁co ckt
▁And ,
▁Präs id
nism äß
▁In halts
spro zeß
▁gener ous
▁Kre bs
▁verstär kte
▁sand y
▁Dynam ik
▁m ater
▁un bek
▁ref urb
▁Univers al
: 3
ic a,
▁G T
sch if
▁nam e.
▁list .
▁sonst ige
un n
▁s ach
▁P ent
▁Aspe kten
▁compr ises
▁k oh
▁exp ense
▁Geb ühr
▁Ser ies
▁Ass ist
▁eindeut ige
▁sovereign ty
▁penalt y
▁ Č
as es,
ic ient
▁D im
▁ver meiden
▁ob s
▁fe et
▁afr ikanischen
▁sind :
▁President .
▁bereit gestellt
▁verl ieren
▁software ,
▁Austr ia,
▁See le
komp et
▁Non -S
zusammen arbeit
in vest
▁so il
teil t,
ific ation.
rä umen
▁gest alten
▁Pat r
K W
▁H i
▁C irc
▁r ichten
▁thank ing
rimin al
▁heraus ge
▁Sant i
7 8
as es.
▁E B
▁ge arbeitet
▁qu ie
▁sur f
▁bro ken
▁nachhalt ig
▁Bew usstsein
l ow
▁d okument
▁an stre
▁Arbeit nehmern
▁zentral er
▁Ern st
▁Betr ug
▁Komment are
▁Adri atic
▁Fernse hen
▁diesel be
▁Verabschied ung
▁w ahre
▁geb ill
▁proposal s,
▁citizens hip
▁spirit ual
▁feed back
▁implic ations
& #160;
p ra
▁M ind
▁prom ises
▁Mallor ca
kö mm
▁Ob jekte
▁lange m
▁train ing,
▁später en
▁geöffnet .
-Ben utzer
y b
etz t,
oll y
▁her .
▁amend ed
▁negot iate
▁heraus rag
▁comput ers
▁herrsch t
▁Haup tz
▁T en
im en
produ kt
▁geeign eten
n ight
▁ на
▁K eine
be ing
▁over wh
▁ange w
10 .
▁Sup erm
▁undert ake
▁Hinweis :
▁Philosoph ie
▁dete ct
N ET
▁B le
▁bu ying
▁Kompet enzen
▁Div ision
er ted
▁B ach
ot on
ad el
▁nütz lich
k al
▁ident ifiz
▁Design er
▁durchge führt.
▁berecht igt,
S M
▁T ieren
▁sum m
▁progress ive
▁Exper ience
▁expand ed
▁eg al
v on
st oß
▁4 1
raf ts
▁sens it
▁Mobil tele
▁committe e,
▁belong s
▁adjust ment
▁Budd h
▁vermut lich
▁Chancengleich heit
c s
c ard
▁re ib
▁Un til
oc ation
acht ungs
AR D
▁Erd be
▁Betrie be
ubring en.
R e
▁D ist
▁g if
▁r anging
▁2 nd
▁Sek unden
▁Fischereip olitik
к а
▁auf treten
ret t
▁vict ory
am ar
▁end s
▁official ly
- )
▁E IB
▁F uj
rei ze
▁18 th
▁Le ague
▁gestell t,
▁Hoch zeit
▁Non-S moking
▁über s
▁ander en,
▁sicht bar
▁explicit ly
k as
l ,
▁b oy
▁c at
▁ein iges
▁com o
▁pass iert
▁exam ination
▁ausländ ische
▁a rom
▁b att
ün den
▁dis cre
ull y
▁hand eln.
▁prof its
▁Kle id
▁Räum e
1 ]
W e
leich ter
▁real ize
▁bring t.
▁weak ness
▁spl it
▁Slow en
▁s eminar
▁e ase
▁sp ir
▁EU -
ühr t
▁9 9
▁em bar
▁Mot iv
▁Hung ary
▁Individ ual
▁M ethod
▁K ohl
▁R og
▁Einzel heiten
▁emer ged
▁konzentr iert
▁komplex en
▁endgül tigen
▁privile ged
n ot
er t.
▁B E
▁Gesch lechter
▁turn s
▁State ,
▁vol um
▁gam e.
▁Jos é
w ing
▁m erk
▁un gewöhn
▁auf einander
▁sol o
▁ger inge
▁relig ion
▁airport .
▁medizin ische
▁H P
▁check ed
▁univers ities
▁Ele v
besch l
▁Anmerk ungen
▁Präsent ation
▁Gefäng nis
▁whatso ever
▁d ate,
ro up
▁ver teilt
▁sp are
▁eleg anten
▁verantwort lich.
▁hervorrag end
is ten.
▁Mit t
ally .
▁Klimaanlage ,
▁Admin istrat
▁c ens
▁C ert
▁wird ?
▁brauch en.
▁partn ers,
▁gr ass
▁imp orted
▁beginn en.
▁Institution en,
▁Russia 's
▁Wh ich
▁fol g
ca ution
▁gül tig
▁navig ation
▁Zerstör ung
k ind
▁über prüfen
▁acc um
▁far ,
ling en
▁Prof it
▁fall ing
▁Log istik
▁mittl ere
/ G
ion es
▁K lin
▁favour ite
▁Sup erv
▁wachs ende
▁angeboten en
ass o
▁Entwick ler
▁port al
▁wahr en
-O r
▁höch ster
▁Democ ratic
▁Mex iko
▁s enten
▁Br ü
▁organ ize
▁Rechn er
▁Eindruck ,
▁vor schlag
▁en rich
▁regard ,
▁program .
k und
▁son n
gew iesen
▁diesel ben
k unden
▁ :
▁st age,
▁Aus übung
▁zw ing
▁Gast freund
azz o
▁wert volle
▁Proced ure
in a.
▁be ef
▁M ahl
ile t
▁continu ously
▁Tradition en
▁W M
▁N ichts
ver kauf
▁bis schen
reit en
▁empf ie
S I
r and
▁w al
us hing
▁not ified
▁0 6
▁Gu ine
reif en,
k ov
▁P un
▁Fort setzung
▁Wert pap
▁Spezial itäten
os e,
▁sh ot
▁sch icken
▁Zimmer .
▁terror ism,
▁circumst ances,
hy th
▁supplement ary
▁P as
▁k ünst
▁Bank ,
▁deshalb ,
-h our
▁Sark oz
qu est
lie genden
▁langu ages.
abl es,
▁Pan orama
▁unters ucht
▁jurisd iction
▁Men gen
▁bef assen
▁Wohn ungen
▁Here ,
▁Dres den
▁Autonom ie
▁D ampf
▁Auss agen
▁Niederland en
▁phenomen on
á r
st en.
▁R eit
▁C ome
▁U t
▁( h
▁Se c
▁down town
▁einge gangen
▁file .
▁Kern el
▁dictators hip
le ucht
▁agreement s.
▁schwer wie
▁Bosn ien
▁Nichtraucher zon
▁Roh stoff
▁Friend ly,
▁Erwachs ene
▁k lick
▁coun cil
▁fac es
▁Fac ilities
▁inev it
▁be haupt
▁sch uld
ap se
▁think ,
▁design s
▁Plan et
▁Erfolg s
▁komfort ablen
▁Mar co
▁stor ies
▁endgül tig
▁Spekt rum
k atastrop
▁K m
▁ge be
▁Eur o,
▁Pal ac
▁Wohn zimmer
▁p ays
▁F igur
▁R ang
▁An gabe
ute il
▁Ch ance,
cur ities
▁typ ically
▁Mil ose
▁behaupt en,
U C
▁f ein
▁just ify
▁Problem atik
▁= =
liefer ung
▁Comm er
wander ung
▁T ank
fahr ts
-c ent
▁M agn
▁hät te.
▁track s
▁Garant ien
el led
▁con ciliation
ge ld
ver halten
ver folg
▁Belg ium
▁aufz unehmen.
r ent
▁K atal
▁R EA
▁where ver
▁Gro ßen
▁distin ction
▁o m
▁im bal
▁1 :
▁inter active
▁hand .
▁fil es.
▁hör en,
in strumente
▁P V
▁ge ograf
▁he utzutage
ha i
▁shop s,
▁hes itate
bevölk erung
▁o s
▁M eld
▁Inter pret
▁decision .
▁empf ängt
▁remov al
▁Mittelmeer raum
▁Infl ation
nor men
sekret är
n amen
▁V i
▁Pr int
▁Al bert
je kte,
▁attention .
▁Kenn zeichnung
n s
▁K unden.
est het
oc ratic
▁Doppel zimmer
▁überein stimm
limin ary
an o,
▁ein be
▁system atic
▁Region .
▁press ing
▁sil ver
▁maxim ale
▁Leip zig
▁unnecess ary
▁spekt akul
O .
▁T ues
▁region aler
▁prec ision
sv olle
▁Sand str
▁zu gelassen
▁bein ahe
▁academ ic
g eschäft
▁weiter entwick
▁Süd tirol
▁anbie ten
▁Kapaz ität
▁Rez ession
▁V ent
ant es
▁eigen ständ
▁Ph oto
▁found ations
▁schein t,
▁schle chter
adem ie
ok ol
▁arr est
▁as ide
▁co d
▁tra ce
▁negotiation s,
▁stamm t
▁(3 )
▁inter med
rat t
▁Ex hib
▁circ uit
▁enlarge ment.
▁klein eren
▁Andre as
verb indung
▁demokrat isch
▁contrib uting
▁effizient er
▁eigent lichen
▁GNU /Linux
ü ch
et schen
▁ha us
ac kt
▁modern er
▁hät te,
▁Mod ule
▁aktiv ieren.
▁Tamp ere
▁K ör
auf nahme
▁Br ut
▁mod ify
▁geplan ten
ill er
od ox
schaf ter
▁organis ierten
▁Monteneg ro
m ärkten
z unehmen.
▁I .
▁K enntnisse
ein heit
▁Ver ts/
▁aus üb
▁viel seit
▁trans formation
▁finan ced
-T V
▁Europas .
b e,
ig er,
▁Balk ans
▁bü rokrat
▁b id
▁D IN
▁ins ert
▁organis ieren
▁Ven ice
schätz ung
▁T ob
▁W ünschen
ct u
▁er inner
▁pl atz
▁pla cing
▁announ ce
▁countrys ide
▁Konver genz
p ie
▁p il
▁le ather
▁would ,
▁more over,
stät ten
▁Isra el,
▁D ivers
▁K it
▁he ight
ht t
▁anzu wend
▁fal se
c end
▁T os
▁C omfort
▁O d
▁Ab schluß
ph one
verständ nis
▁proxim ity
▁t ag
▁th ir
▁D ocument
▁F ok
▁über ras
▁De cl
▁Spiel en
bring en,
▁ausreich ende
▁unanim ous
▁Beam ten
g io
▁religi ösen
6 %
il y,
ows ki
▁occas ions
▁vereinbar ten
/ K
н ы
▁S icher
▁organis ierte
▁Verl ängerung
▁cy cl
▁Finn land
-of-the- art
▁W atch
▁auf nehmen
▁An wesenheit
▁Aus ge
▁pre caution
-M ed
▁Col omb
k ost
▁s ympt
▁weiter zu
▁erwähn ten
bring ung
▁expend it
▁gepr äg
▁incent ives
nbsp ;
h me
▁ent ge
▁ver größ
▁se ats
iz ar
net .
▁Iran ,
fert igung
) )
k örper
▁c ir
im ents
▁Pr est
▁my th
▁bie tet,
▁car te
▁restaur ant.
z icht
▁B und
▁for ce,
▁de lete
ah ,
▁get ö
▁Änder ungs
▁Tag ,
▁Kern kraft
▁Ire land,
sph ase
ch ar
am per
▁r ing
▁dis m
stell ungs
▁Enter tain
▁b ond
▁b iodivers
▁gel ern
▁eing ereich
▁mind .
▁lik e,
▁Agentur en
▁Galile o
▁re iz
▁ge kauf
▁lie genden
▁Ha iti
▁Entscheid ung,
▁Natur al
▁inn eren
▁komplex e
▁pursu ant
▁A mp
▁K lick
▁An künd
über greif
▁3 60
▁Se gel
▁Ü b
▁Jan e
zog en,
▁trop ical
▁Vened ig
k le
▁S emin
▁mit teilen,
▁Is ol
▁importance .
▁kitch en,
n ame
AS S
▁Dat ens
▁Paris .
t age
▁se cre
▁Pr ize
fahr zeuge
▁Pl ätze
▁veröffentlich t.
▁sonst igen
▁einsetz en
▁engl ischen
▁an nehmen
▁An dr
▁18 8
▁autom otive
▁Ferienwohn ungen
▁m oments
▁conf ident
-b as
bet rag
▁Cal a
▁renew ed
▁dah in
▁Verts/ ALE
▁( as
▁( ex
▁our selv
▁inter ven
▁beg ünst
▁' A
▁Volks wirtschaften
▁Democ rat
-Re zept
▁heav ily
▁F ace
▁unter liegen
▁ins ofern
▁Ne ph
▁fol der
OR T
▁Bil dern
▁beeinfl usst
s um
▁eigen em
▁spec ify
reg ionen
▁log ic
best ände
▁coordin ate
▁consist ently
▁Geträn ke
▁( der
▁sk y
▁keep s
▁societ ies
▁jähr lichen
▁V il
ach en.
▁Be hörde
▁pl ate
elt a
▁integr al
▁material s,
▁Vis um
mann ,
▁border s.
▁observ ed
▁begrenz t
▁Kooper ations
▁all mäh
▁" die
▁ch ron
zeit raum
▁bereit .
▁Geb ur
bo ot
▁furn ish
▁Net ze
v ic
▁ch ocol
▁bes orgt
▁event .
▁betre ffen
▁contract ual
▁Verteidigung spolitik
etheless ,
con f
▁sign ing
ig enden
▁ein druck
▁F ans
▁Besch ränkungen
▁angen ommen.
▁impos ing
-spe ed
▁Auf ruf
▁Gu ide
▁Fel der
/ 3
C on
in th
▁S ymb
▁Th yss
▁Ver t
▁space .
▁Heil igen
▁reveal ed
▁Fre il
▁k re
▁con version
▁Rat es,
▁hervor ,
▁Projekt s
▁evalu ate
▁S i
▁W W
▁De ep
▁Ex cellent
▁ke en
part y
▁II .
lim ited
▁motor way
▁dign ity
▁S ix
ür ft
▁r ufen
▁at tended
▁Pr äm
▁EU -E
pro of
▁bar .
▁cancel led
▁N o.
ub s
▁sh el
▁Gr iff
▁ign ore
▁erb aut
▁beh oben.
▁erwähn t,
▁S ab
ens ive
▁wieder her
▁erreich bar.
▁benutz en.
▁accommod ate
krä ft
▁beruf lichen
▁spät estens
iv ely,
ac ted
▁applic ant
▁Wer ten
▁Bild ung,
▁zeit genöss
▁medizin ischen
es is
▁D IE
▁H .
▁co ach
▁über ein,
▁[[ J
▁Vo gel
▁Sold aten
▁Inkraft treten
T EN
▁S ho
▁R ind
s, "
▁" h
tr as
▁7 5%
▁Ukra ine,
crip t.
ag u
▁Be wohner
eng ünst
▁Fran ce.
▁fl ows
▁Stat istiken
▁Edinburg h
g es.
ä uß
▁d rit
ungsver trag
le y,
▁ein gel
▁rev ised
▁GmbH ,
▁unterst reichen,
▁gratul ieren.
▁s q
▁the atre
▁my ster
▁kosten frei
▁durchzuführ en.
le ts
olog ischer
▁[[ T
▁demonstr ates
▁Anwend ungsbereich
st het
▁R F
▁dar stellen
▁fr on
▁product ive
wel ve
▁apprec iated
▁Prä vention
O ,
▁A er
▁V ari
▁Ver folgung
sp rodu
▁suggest s
▁D rag
▁C ad
▁Ar ena
▁sens e,
ograph ie
▁risk .
▁potential ly
▁ähn lichen
▁themselv es,
y st
▁d ating
▁L ibrary
▁ch amber
▁US ,
▁det r
▁geist igen
▁favor ite
k i,
ten se
▁tro ub
▁ständ ige
▁geeign et.
** **
▁Entschlossen heit
k u
▁s ake
▁ass emb
▁fre ight
▁cr ash
▁Buch st
▁frequ ency
▁kontroll iert
▁Krie ges
▁horizont al
d isk
f te,
▁P az
ad ed
▁post pon
▁auth ors
▁Wien er
▁Citiz ens
▁- >
fl üss
oth ing
▁process es.
ants .
▁AG ,
▁Turke y.
▁girl s
▁OEC D
in j
▁S eminar
▁pl ural
gel ung
-Date ien
▁einstimm ig
▁M are
▁Ein blick
▁meas uring
▁Tun es
it is
▁den en,
ens ion,
ze igen
▁poss ess
äum e
▁darstell en,
▁bezahl t
▁industrie llen
z i
▁R ö
▁Pro ph
▁200 2.
▁cal endar
▁pack age.
▁publish ing
▁belieb igen
ampag nen
▁präz ise
▁municip al
▁Zusammens etzung
ü re
▁K inn
▁fund s,
▁undert aking
▁betrie ben
▁Ausbild ungs
h att
▁T aten
▁H äfen
▁An hang
▁cons ul
▁food .
▁teach ers
▁Schwimm bad
▁gese hen,
▁(Christ ian
m es
▁Entwicklung .
▁fol glich
▁Gew inner
▁Wachstum sp
▁durchführ en
w as
in ental
▁k id
▁r ating
▁Fe ed
▁gelegen en
▁Swimming pool
▁M ug
▁R ac
▁you !
▁Be urteilung
ss icherheit
▁str ike
▁fre e.
▁glaub würd
▁2007 -20
▁langu age,
▁Erzeug ung
▁K ell
▁this :
öß e
▁X V
▁Ob vious
▁zust ande
▁Altern ativen
▁Größ en
▁occup ied
▁mist ake
▁conv ince
▁Refer endum
▁P oint
▁techn ischer
▁Bar n
burg ,
▁ir regular
Q U
▁be fore,
▁K od
▁L aur
▁tra ined
weit en
gestell te
itäts prinzip
▁Offen heit
▁Author ity
ab eth
▁pol nischen
▁Ass ozi
▁Govern ance
▁scr utin
▁erneuer baren
▁hervorge hoben
▁beiz ut
▁Treib haus
in o.
te am
▁S CH
▁l ens
▁Er laub
▁komp at
▁cho ices
▁cho ice.
- room
▁M ap
▁gef rag
▁War s
▁Techn ical
▁bar rier
umm ern
▁Jac ques
▁Cho ose
k ong
▁to ll
▁D ich
▁Be hör
▁own .
▁befind et,
wirk en,
▁ober en
▁prison ers
▁ergänz t
▁afford able
▁eingestell t
▁t urb
id es.
▁mit ,
▁Commission ers
▁erlaub t,
st uff
▁L ob
▁Tra ck
▁einge tragen
▁vol lem
▁erfüll en,
▁Gesell schaft,
▁dah er,
▁s ide,
ig o
▁M öglich
▁pass ende
▁san ction
▁Huss ein
▁in struction
ll i
▁se ver
▁ent hält.
▁Ziel setzungen
-E U
▁Jun ior
▁jetz t,
▁Ausbeut ung
▁Lanz ar
▁Tues day
▁f oun
▁v iable
▁K ne
▁sich ern.
▁Sh opping
▁Mic ro
▁stattfind en.
▁w inner
▁Coun try
▁saf e,
▁approach es
▁hom e,
▁En s
form at
▁resul t.
▁statt dessen
▁connection ,
▁Don 't
▁Muse en
▁S ternen
▁F eder
▁Geb ir
▁schwier ig,
▁purch asing
3 %
▁st range
▁ch at
▁Ein nahmen
▁Le ft
▁per ipher
▁fest zustellen,
reib ungen
▁flex ibel
▁floor .
▁detail s.
▁jem als
▁Rub rik
▁entschied en,
▁detr iment
ö ne
en ade
ab ly,
ver teilung
▁her kömm
wir r
▁Germany 's
р и
▁b ere
▁L ar
ill on
▁not ably
▁Ch ir
ider s
▁Sa una,
▁Pic ard
▁ärm sten
▁S end
▁S ien
od a
▁Kü chen
/ T
ib iot
▁ent hält,
uell er
▁Deutschland .
▁benutz en,
▁sit es,
▁Georg ien
▁Erk rank
▁conver ted
l er.
▁f lav
▁E tw
▁B ath
▁Fre uen
l t
ed ge
▁St ufe
tr itts
▁inter action
▁andere ,
▁Rechts vor
▁prom oted
▁educ ation.
▁f igur
▁M ary
▁k ämpfen
▁pr ices,
▁Ge ben
▁develop ers
▁car rier
▁Programm e,
▁Berichterstatter s
▁tele fon
▁Konsult ation
▁T orre
▁B atter
end et.
▁ex terne
▁Ber ge
▁Iran ian
7 2
▁B aden
▁er adic
▁ex haust
▁ident ification
▁geforder t,
▁pill ar
F T
▁St ich
tr ess
-P olitik
▁Stud ios
▁Vermitt lung
st rom
ad s
▁An reiz
se h
▁serv ers
▁denn ,
▁adv enture
▁Ital ien,
▁pract ically
bereich ,
▁breat ht
▁Ergänz ung
6 00
v ie
▁ver schie
ant o
▁part -s
▁ag ents
▁Min eral
▁(C N
▁Get re
▁Inner halb
▁Vorgehens weise
▁H as
▁3 .0
▁Rolle .
ers te
▁ge hol
ate ur
og a
▁September ,
ic ular
▁st roll
▁fe as
▁option al
▁Serb ia
▁parad ox
ib t,
▁4 50
-r un
▁sched ule
weis t,
▁technolog ische
▁(K OM
▁kost engünst
ion ed
▁Lat v
▁Olymp us
P ro
▁m ild
▁ge heim
▁who le,
▁Schutz es
▁Stud ent
▁music .
▁umge kehr
▁c up
▁H änden
▁dem onst
▁Fin land
▁doub ts
-We bs
- hand
g es,
▁dis asters
▁weit aus
alt ung,
▁indic ates
Ã ¤
▁z us
▁He ll
▁zwe ier
▁agreement s,
▁Pal ma
▁viol ent
EC T
▁konzentr ieren.
▁committe e.
▁24-Stunden -Rezept
al t,
▁dass elbe
uropä ische
▁7 2
▁Ro ute
▁Qual ität,
▁Sol che
▁ernst hafte
▁relationship s
▁controvers ial
▁Zin ss
in ians
är enz
▁Frage :
telle kt
▁low est
AC K
gro up
▁amen ities
u en.
▁2 %
▁te uer
▁ro le.
▁view s.
▁Tr ink
▁state -of-the-art
▁finanz iell
▁Nieder lass
▁erleb t
▁C ockt
▁Ch ange
▁Frage .
▁erstell en.
/9 7
▁erweiter ten
▁spezial isiert
D I
lich sten
ad os
▁ch ambr
▁Them en,
▁relax ed
▁bege g
des ign
gien e
▁Pub lish
▁Aben teuer
p m
ed ition
ik a.
ierung .
▁geb racht,
▁exam ined
▁E-Mail -Adresse
▁appar ently
▁ausgewähl ten
s q
▁h alt
▁gef äll
▁Minister rat
n e,
▁A par
ect ive
▁Qu oten
▁"D as
▁bi ological
▁Maz edon
▁Pro d
legen der
▁Russ lands
v ents
▁ein ander
▁H ä
▁Ver markt
▁An bindung
hol z
▁zusammen zu
▁zuf äll
▁( l
▁Berichterstatter in,
▁claim ed
m e,
▁N ature
▁se gment
▁mod ular
▁UN D
▁beige tragen
▁Überzeug ung,
▁ther apeut
/ w
▁f ördert
▁G 20
▁L uz
ungs weise
per iode
▁5 1
▁Forsch ung,
ee ing
▁news letter
▁marg inal
▁f rank
▁F C
▁Un fall
ue ber
▁hand eln,
▁Gemein den
serv ice
▁dur ation
▁ м
ie der
▁Ar ts
neh in
schl ägen
▁gestell ten
▁Berat ungen
▁be endet
▁Unter zeichnung
änder ung
▁Pol and,
▁Rolle ,
▁perform ance.
▁arg ue
▁Amsterdam ,
▁describ es
4 3
uch t,
▁nach folg
▁work ers.
▁Emp ire
▁Innov ations
bre ite
▁Disc over
▁distingu ish
-Techn ologie
f eit
▁g rad
▁V eg
▁von einander
other ap
voll es
▁sorg en.
▁russ ische
▁Urspr ung
▁Fisher ies
N E
w ich
▁ab us
komm t.
▁prepar ations
▁Kredit karte
▁accident s
rt ikel
beweg ung
▁israel ischen
▁D B
ne te,
sp rechen
▁cl im
▁stress ed
▁quant ity
▁underm ine
▁Aufzug ,
P R
▁C in
▁ab stimm
▁3 rd
▁vertre ten,
7 9
▁re ct
▁C ertain
▁( im
▁ne hme
▁An träge
ens ion.
▁def ining
▁fa ult
▁Francis co
▁is n't
▁C ra
▁Kar riere
▁dev ast
▁1, 5
▁acqu ire
▁se es
he ar
▁(1 8
le ister
ank a
▁Vor feld
▁cent er.
▁trans mit
▁Every thing
▁krit ischen
▁00 :
o ard
▁g od
▁out com
▁form ats
▁AK VIS
▁he ft
▁every th
▁Univers itäten
▁Bü hne
▁Eigent ümer
▁Bew ältigung
▁Weiß buch
▁Palästinens er
▁Bürokrat ie
▁up-to-d ate
an er
o que
ü se
ar ier
▁law y
▁Gu ant
▁Mot to
▁English ,
▁cert ification
m ap
re y
▁h ills
▁air lines
▁further .
▁erst ens
▁Mehr wert
▁reality ,
▁K of
▁Er ic
▁techn ique
▁Fil me
▁talk ed
▁verein bart
▁leb t
▁fit ted
▁compla in
räum e,
▁900 1
L .
▁ex cellen
▁An reize
ste hende
▁Parliament ary
▁achie ved.
▁Gew inne
▁clos ing
▁(C OD
▁Presiden cy.
▁be ings
▁F ab
ve z
▁are .
▁i z
▁Gen uss
▁Bü ch
▁quot as
▁sin cer
▁T .
▁r ivers
▁1. 0
▁Yo ung
/ H
▁r iv
▁ac id
kon zept
▁Software ,
▁Abstimm ungs
▁Admin istration
▁ca ught
o hne
ic ted
▁fe ier
▁ins ur
▁mag ic
▁Vertre tung
▁einver standen,
" s
▁Ab u
▁pre liminary
▁important ly,
▁rat es.
▁Terror isten
▁warm ly
▁Ereign is
▁Konzentr ation
▁comm end
ließ en.
lä ub
▁automat ische
l s
▁in cur
▁G n
▁ab gesehen
▁ab schließend
▁Cr ist
▁beru ht
▁Erwä gung
▁Aus nahmen
▁problem at
▁п о
▁trib ute
▁C omb
▁for ese
sp aper
erv ers
▁Aus rüstung
▁bleib t,
▁Vill age
▁catalog ue
▁b are
▁auf er
pro f
▁bereit et
▁Intern etzugang
los igkeit
▁inc orrect
lad ung
fel der
es a
on 's
▁des cript
-A uf
▁dien en.
Z E
▁an gel
▁has t
▁Ital y.
▁Sk r
▁Verhalten s
arl iament
▁preven ted
▁r and
▁(A us
▁mov es
▁erklär te
▁grund legender
▁"I ch
▁Aktual isierung
▁oh nehin
▁t ur
▁P y
▁me als
▁inter institutional
▁regul ated
▁verfüg en.
▁Pflich ten
▁arbitr ary
▁on es.
▁Sp irit
▁sign ature
▁13 ,
bl att
un ting
▁Ed itor
▁compla ints
estr ian
▁Stor age,
b aum
▁fact o
ent ly,
eld et
▁satisf actory
▁endeav our
▁timet able
▁t or
is ol
▁m ale
▁ex tern
▁bes tens
▁Al ong
▁build ing.
▁Tal iban
▁Verletz ungen
▁cult ures
▁S in
om od
▁ver deut
▁er ,
he ll
▁durch .
▁Me er,
▁Ad am
▁eng ines
▁verl angen
▁short ly
▁Bro ad
▁beit rä
▁rul ing
▁Lib an
▁a chten,
▁zwe ck
▁Iraq i
▁drink ing
▁Tab elle
▁distin ct
▁Bosn ia
v y
▁d os
▁b uff
ge henden
▁N ull
au .
fe ktion
äl te
▁fol gen.
▁berücksichtig t.
▁niedr iger
▁gere gelt
▁FA Q
▁propr iet
▁l ives.
▁r ust
▁st ol
▁ad mitted
ible ,
▁Spain .
t ät
▁s hr
▁p act
▁treat ments
▁lok al
▁erh iel
ann a
▁sp an
▁deb ated
▁15 ,
▁rece ives
roll er
▁peace .
▁bedeut en
▁CD -R
▁Gel ände
▁Theor ie
▁plötz lich
e ches
▁ge ein
▁serv iert.
▁stat istical
▁Region en,
-C h
▁erhält lich
▁promin ent
▁S ul
▁F ly
▁j üd
chn et
▁5 8
gl .
ain er
▁Be haupt
▁bed ,
▁ass ert
▁Con ver
▁Gree ce,
▁bilater alen
▁Rena issance
P P
▁serv iert
▁form ,
▁Deb at
▁express ing
▁Log ik
r ession
▁C old
▁L ow
▁wir tschafts
▁there 's
▁verfolg en.
▁withdraw al
zust imm
▁suspend ed
▁g ate
▁W eine
▁k öst
▁um zu
▁Vers orgungs
▁Stat istik
▁rad ik
▁be wir
ag l
▁vor hin
ün de
▁Bericht .
▁schw äch
-H our
▁sit es.
▁jen e,
▁24-Stunden-Rezept ion,
▁A ra
▁Hand lungen
▁Kons um
▁Wolf gang
b on,
z ub
ir y
red ite
▁kontinuier lich
▁Commun ist
iz en
out s
▁Al c
▁Ä hn
▁neg l
▁je opard
200 9
▁IN TER
▁Barcelon a,
▁C ur
▁[[ M
gew alt
▁ret ire
▁Arbeitslos en
▁comput er.
▁Belast ung
ig i
▁F .
▁Pro gress
▁Mar g
▁integr ation.
komm t,
▁fair en
▁ingred ients
: :
j i
▁S us
▁P atch
-s ite
▁[[ R
▁Bet ten
▁[[ 23
▁sector s.
-L änder
▁decision s.
▁Uhr .
haus halt
▁Bewer ber
ic op
ol as
▁St ick
▁lie fer
▁set up
▁cho osing
▁subject ,
▁(C S)
▁gute m
▁regulation s.
▁Festpl atte
▁bemüh t,
▁Begründ ung
on es,
▁w ake
▁f lying
▁An na
▁pos ted
▁ze igen.
▁gewiss er
▁Budget ary
W E
om a
▁C M
ts tell
▁us ed,
▁Er neuer
▁agre es
▁enlarge ment,
▁morn ing.
▁museum s
äl le,
stru ct
▁soc io
wirtschaft ung
▁benötig en.
▁acknowled ged
le cted
▁W ood
▁he ated
▁hotel s,
▁member s.
▁ruh iger
▁Zeitpunkt ,
▁haz ard
▁E CH
▁C ong
▁hin der
ond a
▁(S K)
wär tig
▁pot ent
▁wom it
▁Eing abe
▁Real isierung
▁Schiff s
▁gewinn en.
▁gil t.
▁detaill ierte
c ,
▁Re lease
▁comp ress
▁1999 .
▁Upd ates
ge hende
▁H osp
ot ions
▁vor sichtig
▁condition ing
▁assoc iations
- level
F )
re ff
ter s,
▁unter sch
▁lok aler
denk en.
▁d iving
fe hle
▁konstru ktive
▁un pre
▁( als
geb ühr
▁trans it
▁konk urr
k ern
z ing
ú n
et tet
▁L uggage
▁gen ommen.
rech t,
▁Sum me
▁verkauf en
ic ious
▁W esen
ign ed
▁activ ity.
ül le
▁Auftrag geber
▁alloc ation
▁Os lo
▁grenzüberschreit ende
▁cry stal
é d
es erv
ig ert
ab ile
th al
▁es te
▁term inal
fra gt
▁refer end
▁24 -Hour
▁mean s,
▁verste ht
▁worth y
▁bureauc ratic
▁Ausflü ge
▁Decl ar
H R
▁aus gebaut
▁pr ere
▁hand led
▁fa ire
▁las er
▁mith ilfe
▁f ails
▁kl imatis
▁21 st
▁tell s
un er
▁material s.
▁R ight
▁Z ubehör
▁J uan
men ge
▁ab und
tern et
▁adv ent
▁Dar in
▁pover ty,
▁nö tigen
mechan ismus
▁kombin iert
▁ört lichen
_ _
z iger
® ,
▁a ux
▁re jection
▁ne ol
▁3 000
▁view ed
▁Menschenrechts verletzungen
▁cos met
▁Mehrwerts teuer
▁angeneh me
s ame
▁n ic
▁G am
▁V II
pe zif
▁consum pt
▁graph ic
▁Plen ars
▁threaten ed
▁Anhör ung
▁Fuer te
in ent
▁C redit
▁Me an
verbind ungen
▁H istory
▁Vers prechen
-b y
▁perform ing
vent h
ibil ität
▁schritt weise
d os
end ienst
aut hor
▁vis its
app e
▁heiß en
▁Mer ced
h armon
▁Sow eit
mechan ismen
ak ed
▁dec ent
▁angeb lich
▁kommer ziellen
H z
n ungen
ug end
all ing
▁Br ücke
/200 1)
▁sor ry
!! !
▁I' ve
as ien
▁gener ations
▁heraus ,
EL L
▁Term inal
▁dead line
▁F at
ab kommens
ac o
ever kehr
▁Dis ziplin
C OM
▁fin est
▁Pl atten
/200 3
▁General dire
▁SM S
▁Champ ionship
▁re vers
▁H T
▁aus zusch
▁Le hre
▁air line
gew and
▁col ors
▁election s.
al p
▁Bl izz
▁download ed
gab en,
▁Bur ma
▁U V
▁J am
▁alle ged
▁stat istic
▁bedroom s,
▁zunehm ende
▁graph ics
▁overwh elm
o ge
z ert
▁" e
oss ier
▁Lateinamer ika
▁w ife
▁W ur
▁R ennen
oc o
▁gel ingt,
▁flex ib
▁erk ennt
bas is
▁gewes en.
▁m org
▁n u
▁P ek
▁gew ann
▁Ro und
bet riebe
▁Zimb abwe
▁der ,
▁E ck
▁H ändler
est ag
▁In halten
▁N H
▁real en
▁9 8
▁Bl anc
▁initi ative,
▁character ized
p unkten
ä chte
▁a ver
▁18 5
▁sw ift
▁Pat ten
▁Komprom iß
▁Turkey 's
▁F inger
▁Telef on,
▁Kinn ock
ot a
▁ausge geben
▁Community .
▁Deutschland s
▁Dienstleist ung
▁sport ing
▁fehl er
▁Urspr ungs
▁Phän omen
▁conj unction
om er
ant wor
▁pass port
▁let ters
▁belong ing
▁Dikt atur
▁h er,
▁L en
ers "
▁Z er
▁se ch
▁arbeit s
▁vol unte
▁beglückwünsch en.
▁G ulf
▁Am az
▁irgend ein
▁verm ieden
sprü chen
▁tal ent
▁exklus iven
▁Verordn ungen
▁Thyss en
▁breatht aking
b ilder
▁T able
▁B aus
▁dis plays
▁modern ,
▁draft ing
▁zerstör t
-spe cific
▁Umgeb ung.
▁über d
▁Te e
itz ung
▁bro ther
▁vorhand en.
▁Women 's
▁m ixt
▁F if
▁[ 16
loss ene
▁Programm ,
▁Bro k
▁größer er
▁äl tere
▁lov ed
т а
on sten
▁der er
et ooth
▁ver letzt
▁Rück en
▁"D er
▁stopp ed
▁ass ured
▁Mein ungen
▁inde pend
▁(D er
▁Legisl ativ
ch ,
▁er z
ag ger
▁ger aten
▁Terr asse,
▁tro uble
-U n
▁der artigen
▁Sch eitern
▁gr ös
p rom
▁n os
▁E g
▁F akten
▁ges onder
▁Fl ag
▁Kons ument
▁demokrat ischer
▁restr iction
▁Zert ifik
ct ic
▁bef ried
▁technolog ischen
▁nam ens
▁verste hen.
▁genet ic
▁Abgeordnet en,
▁in tense
▁gel tend
▁konn ten,
▁legitim acy
bran che
6 2
▁Seit e,
yp en
▁Mus l
▁Red u
▁Sim b
▁efficient ly
-e conomic
▁expand ing
u ent
kun de
▁stop s
▁centr ally
▁verbesser te
ö t
uch en,
stechn ik
▁conserv ation
▁münd lichen
u es.
л е
▁th read
▁An al
▁vor legen
▁Ab stand
▁fr ustr
▁[[ L
▁bor row
▁community ,
▁expla ins
▁Hel p
▁Gest atten
fun ktionen
th umb
ib t.
▁O ra
▁Gem äß
▁Stud ium
▁exist iert
▁comfortable .
▁1998 ,
▁pover ty.
▁wähl en.
▁Buen os
c uss
ck et
▁act ors
▁poin ts,
▁Köl n
▁t ight
▁A ctive
▁F ile
▁not ion
▁vor zusch
▁Aus grenzung
geb ühren
▁Grunds ätzen
ver z
▁follow -up
▁prior ity.
▁install ieren
▁Frei will
▁emb ry
ö ste
▁d oc
▁ra ises
▁fin ally,
ph an
▁solution ,
▁quick ly.
▁beschäft igen
▁observ ation
▁morn ing,
▁Stabilitäts pakt
▁b ow
▁min ib
▁Bo x,
▁ans onsten
▁198 8
ühl en
▁erfre ut
▁amt ierender
dis ziplin
4 1
F S
k ten.
▁p ine
▁aus sprechen.
▁initi ated
▁bevor stehenden
▁Pan asonic
▁refle ction
t igkeit
▁P oss
▁R oc
▁An ruf
▁Mar x
▁"A n
▁Gesell schafts
▁Holl y
▁transatlant ic
bef ug
▁Bürgerbeauftrag ten
▁Einschätz ung
g rab
z o
▁valu es,
▁schle chten
▁Vorsitz ender
▁k ulin
▁al one.
for ce
▁Gr ill
▁Ent decken
-V or
ane ben
▁angen ommen,
▁emb ra
▁compar able
▁Annehm lichkeiten
▁W äsch
▁mein en,
▁Vorschl äge,
▁away ,
▁enlarge d
▁fal schen
▁bezahl en
▁swe et
▁Optim ierung
wechs lungs
pro b
▁Demokrat isierung
▁budge ts
läuf e
▁Train ings
▁stattgef unden
I m
gesch ritten
▁global er
▁Ser ien
-St and
▁bild en.
▁vernünft ige
▁Ersten s,
▁an x
st reit
▁H um
▁Re f.
verb and
▁Col umb
▁Dis play
▁Tschech ischen
▁Medik ament
▁Represent ative
▁f ung
▁un like
▁R I
▁Ch at
meid ung
▁convenient ly
▁immediat ely.
te u
▁p ione
▁P est
▁F as
▁(P arliament
▁verste he
▁erhö hen,
▁Mö bel
y "
on ie
▁f ru
▁In v
▁we ib
▁aus wärtige
ungs maßnahmen
heit lich
▁Ab teilung
▁dis cret
gesch neider
-l ike
▁Verfass er
▁N ight
ver arbeitung
▁dem ographic
▁j ahre
▁char ter
▁ir ische
▁erziel en,
▁space ,
▁ehr lich
▁simultane ously
▁Steuerzahl er
B ER
▁typ ische
▁Bek annt
▁eith er.
▁coll apse
▁Kur d
▁inn oc
k ette
is en.
▁auf rechter
pr ä
▁hier mit
abe llen
▁infringe ment
▁openn ess
▁t act
▁h ik
ome ters
▁Information en.
ätz en.
▁öff net
erstell ung
▁Wohl be
▁Alp ine
▁Ty rol
▁Lok al
a ze
▁G ate
sch we
▁trans fers
▁ce ase
▁Every one
▁agriculture ,
as ste
ach ,
ak ,
▁form ation
▁Wh irlpool
▁lo ud
▁Club s
▁Nachbar schafts
▁hinzuf ügen,
▁Similar ly,
at us
▁wh y,
▁Parlament s.
▁beg ab
▁mon at
▁Car ib
▁experien cing
▁Regul ierungs
▁sch rieb
▁vor teil
▁Ber ater
▁Land es,
▁Govern ment,
▁disk rimin
▁erziel ten
▁hon or
▁hous e,
▁Wahr nehm
▁Lissabon -Strategie
▁York ,
▁vielfält igen
▁B 5-0
▁Er nen
▁comp are
▁l ights
▁J ak
olog y.
-R ichtlinie
▁Dar auf
▁incor porate
-Date i
▁incred ible
äuß ert
▁w is
or ia
▁v end
▁R ou
▁regul ate
▁post s
▁herr liche
▁Riv iera
▁Schatten berichterst
- produ
k laus
in itiative
▁K ra
▁L om
▁Z ell
▁Man hatt
▁accoun t,
▁medic ine
▁Fen st
f isch
▁t iss
ver tra
ann i
our en
▁Ö konom
▁solution s,
▁character ised
▁irgendwel che
k ürz
▁f ut
▁spe eches
▁Mar ine
▁mod el.
▁Sal v
▁Hö hen
▁capital ,
▁eingerichte te
▁Class ic
jpg |
▁Union sb
ger ä
▁cons isten
▁public ,
▁bl ow
enk und
▁gelegen e
▁e cht
▁n ennen.
▁D R
▁H ub
▁Sch ott
▁damit ,
▁12 5
▁opt ical
▁Cas tell
stück e
▁bod y.
▁Amts zeit
▁diagn ost
▁Gipfelt reffen
v ille
▁B reit
▁z üg
▁fest ge
▁bre ites
▁betra chten.
▁gegenseit ige
h ause
▁m athemat
sch ra
▁co inc
än n
▁ro w
▁up coming
fahr zeug
▁Ind ia,
▁bo ats
▁Gesch ichte,
▁Zusammenarbeit ,
▁ergreif en.
▁Kub a
▁Committe e,
kore a
▁aus gelöst
▁var iet
▁Welt bank
▁Spe ed
▁C hal
▁200 1.
▁äußer ster
struktur en
k andid
in s.
▁Verein igung
▁train ing.
▁aktiv iert
▁Hol y
▁Mass age
▁Ord ner
▁celebr ate
C A
w en
▁den ied
▁We ek
▁unver zicht
▁later .
▁mand atory
▁bez auber
an teil
ges pr
▁redu ces
▁normal e
▁criter ia.
▁island .
▁Are a
▁lingu istic
▁d iox
le bens
▁Sch uh
▁Me er.
▁8 8
▁design er
▁Kr ist
▁Klimawand els
ipel ine
▁Subsidiar itätsprinzip
▁w and
ul ator
▁ex t
arbeit eten
▁Amer ikas
▁zusammen häng
▁Geschäfts reis
mission en
▁einsetz en.
▁Ap ache
▁wähl en,
▁relie f
▁LateRoom s.com
▁REA CH
▁Le icht
▁Rahmen bedingungen
▁Cl ose
▁km .
sprech end
▁Berat ungs
▁Einsch ränkungen
▁ £
▁P ict
ant rag
▁" g
▁Be hand
az ione
▁jeweil ige
▁tail ored
▁L isten
▁se al
▁bes ucht
dom in
▁Har bour
▁M ID
▁unter scheiden
▁bo om
▁tre mend
▁accept ing
▁verd ienen
▁S. A.
igran ten
▁capt ure
▁H ir
ür en
ov o
▁found ing
▁Cub ase
▁geschie ht,
▁entreprene urs
▁z ert
em pf
▁L ove
▁new spaper
▁off enkund
▁einz ube
▁bew aff
▁wunder schön
▁schem es
▁Beschwer den
thumb |
e id
s inn
ä der
▁ver hand
ver trä
-G ruppe
▁jud gment
▁relev anten
▁Hotel s.
land schaft
änd ig
▁bed ien
aj a
leit et.
▁entste hen,
▁popul ation,
▁lern en,
▁Gepäck raum,
▁part-s ession
▁p ig
icht lich
ark ed
▁alle ine
▁govern ed
▁Tür en
▁clar ity
▁b at
ll '
ed a
▁g ä
▁g raf
▁C ry
schl üsse
▁interest ,
▁show er,
▁chang es.
▁Einwander er
▁bio techn
l ub
▁Ber gen
▁Al pha
-b u
▁Char me
▁Ze ug
▁diskut ieren.
▁besuch en.
r unde
▁C athol
▁Ab out
▁Ste fan
lä uft
▁Ide e,
▁airport s
▁simpl ify
▁gefährd et
▁brut al
k ünfte
▁ge legen.
▁Produ ktivität
▁wind s
▁beob achten
▁Elev ator,
r igen
▁un p
ad e.
sp ot
▁ab end
▁5 3
▁rel ations.
▁fr ucht
▁bro ch
▁sett led
▁controll ing
▁sch ätzen
[...]
