{"<unk>":0,"!":1,"\"":2,"#":3,"$":4,"%":5,"&":6,"'":7,"(":8,")":9,"*":10,"+":11,",":12,"-":13,".":14,"/":15,"0":16,"1":17,"2":18,"3":19,"4":20,"5":21,"6":22,"7":23,"8":24,"9":25,":":26,";":27,"<":28,"=":29,">":30,"?":31,"@":32,"A":33,"B":34,"C":35,"D":36,"E":37,"F":38,"G":39,"H":40,"I":41,"J":42,"K":43,"L":44,"M":45,"N":46,"O":47,"P":48,"Q":49,"R":50,"S":51,"T":52,"U":53,"V":54,"W":55,"X":56,"Y":57,"Z":58,"[":59,"\\":60,"]":61,"^":62,"_":63,"`":64,"a":65,"b":66,"c":67,"d":68,"e":69,"f":70,"g":71,"h":72,"i":73,"j":74,"k":75,"l":76,"m":77,"n":78,"o":79,"p":80,"q":81,"r":82,"s":83,"t":84,"u":85,"v":86,"w":87,"x":88,"y":89,"z":90,"{":91,"|":92,"}":93,"~":94,"":95,"":96,"":97,"":98,"":99,"":100,"":101,"":102,"":103,"":104,"":105,"":106,"":107,"":108,"":109,"":110,"":111,"":112,"":113,"":114,"":115,"":116,"¡":117,"¢":118,"£":119,"¤":120,"¥":121,"¦":122,"§":123,"©":124,"«":125,"¬":126,"­":127,"®":128,"°":129,"±":130,"¶":131,"·":132,"»":133,"¿":134,"À":135,"Á":136,"Â":137,"Ã":138,"Ä":139,"Å":140,"Æ":141,"Ç":142,"È":143,"É":144,"Ê":145,"Ë":146,"Ì":147,"Í":148,"Î":149,"Ï":150,"Ð":151,"Ñ":152,"Ò":153,"Ó":154,"Ô":155,"Õ":156,"Ö":157,"×":158,"Ø":159,"Ù":160,"Ú":161,"Û":162,"Ü":163,"Ý":164,"Þ":165,"ß":166,"à":167,"á":168,"â":169,"ã":170,"ä":171,"å":172,"æ":173,"ç":174,"è":175,"é":176,"ê":177,"ë":178,"ì":179,"í":180,"î":181,"ï":182,"ð":183,"ñ":184,"ò":185,"ó":186,"ô":187,"õ":188,"ö":189,"÷":190,"ø":191,"ù":192,"ú":193,"û":194,"ü":195,"ý":196,"þ":197,"ÿ":198,"Ā":199,"ā":200,"Ă":201,"ă":202,"Ą":203,"ą":204,"Ć":205,"ć":206,"Č":207,"č":208,"Ď":209,"ď":210,"Đ":211,"đ":212,"ē":213,"ĕ":214,"Ė":215,"ė":216,"Ę":217,"ę":218,"Ě":219,"ě":220,"ĝ":221,"Ğ":222,"ğ":223,"ġ":224,"ģ":225,"ħ":226,"ĩ":227,"Ī":228,"ī":229,"Į":230,"į":231,"İ":232,"ı":233,"ķ":234,"Ĺ":235,"ĺ":236,"ļ":237,"Ľ":238,"ľ":239,"Ł":240,"ł":241,"Ń":242,"ń":243,"ņ":244,"Ň":245,"ň":246,"Ō":247,"ō":248,"ŏ":249,"Ő":250,"ő":251,"Œ":252,"œ":253,"ŕ":254,"Ř":255,"ř":256,"Ś":257,"ś":258,"Ş":259,"ş":260,"Š":261,"š":262,"Ţ":263,"ţ":264,"ť":265,"Ū":266,"ū":267,"ŭ":268,"Ů":269,"ů":270,"Ű":271,"ű":272,"Ų":273,"ų":274,"Ÿ":275,"ź":276,"Ż":277,"ż":278,"Ž":279,"ž":280,"ƒ":281,"ơ":282,"ư":283,"ǎ":284,"ǐ":285,"ǔ":286,"ș":287,"ț":288,"ɐ":289,"ɑ":290,"ɔ":291,"ə":292,"ɛ":293,"ɪ":294,"ɾ":295,"ʃ":296,"ʒ":297,"ʿ":298,"ˆ":299,"ˈ":300,"ˌ":301,"ː":302,"́":303,"̃":304,"̄":305,"̇":306,"̈":307,"̊":308,"̋":309,"̍":310,"̤":311,"̧":312,"̨":313,"Ά":314,"Α":315,"Β":316,"Γ":317,"Δ":318,"Ε":319,"Η":320,"Θ":321,"Ι":322,"Κ":323,"Λ":324,"Μ":325,"Ν":326,"Ο":327,"Π":328,"Ρ":329,"Σ":330,"Τ":331,"Υ":332,"Φ":333,"Χ":334,"Ω":335,"ά":336,"έ":337,"ή":338,"ί":339,"α":340,"β":341,"γ":342,"δ":343,"ε":344,"ζ":345,"η":346,"θ":347,"ι":348,"κ":349,"λ":350,"μ":351,"ν":352,"ξ":353,"ο":354,"π":355,"ρ":356,"ς":357,"σ":358,"τ":359,"υ":360,"φ":361,"χ":362,"ψ":363,"ω":364,"ϋ":365,"ό":366,"ύ":367,"ώ":368,"Ё":369,"Ђ":370,"Ѓ":371,"Є":372,"І":373,"Ї":374,"Ј":375,"Љ":376,"Њ":377,"Ћ":378,"Ќ":379,"Ў":380,"Џ":381,"А":382,"Б":383,"В":384,"Г":385,"Д":386,"Е":387,"Ж":388,"З":389,"И":390,"Й":391,"К":392,"Л":393,"М":394,"Н":395,"О":396,"П":397,"Р":398,"С":399,"Т":400,"У":401,"Ф":402,"Х":403,"Ц":404,"Ч":405,"Ш":406,"Ы":407,"Ь":408,"Э":409,"Ю":410,"Я":411,"а":412,"б":413,"в":414,"г":415,"д":416,"е":417,"ж":418,"з":419,"и":420,"й":421,"к":422,"л":423,"м":424,"н":425,"о":426,"п":427,"р":428,"с":429,"т":430,"у":431,"ф":432,"х":433,"ц":434,"ч":435,"ш":436,"щ":437,"ъ":438,"ы":439,"ь":440,"э":441,"ю":442,"я":443,"ё":444,"ѓ":445,"є":446,"ѕ":447,"і":448,"ї":449,"ј":450,"љ":451,"њ":452,"ћ":453,"ќ":454,"ў":455,"џ":456,"Ґ":457,"ґ":458,"ғ":459,"қ":460,"ң":461,"ү":462,"ұ":463,"һ":464,"ә":465,"ֳ":466,"ִ":467,"ַ":468,"ָ":469,"ּ":470,"ֿ":471,"א":472,"ב":473,"ג":474,"ד":475,"ה":476,"ו":477,"ז":478,"ח":479,"ט":480,"י":481,"כ":482,"ל":483,"ם":484,"מ":485,"ן":486,"נ":487,"ס":488,"ע":489,"פ":490,"צ":491,"ק":492,"ר":493,"ש":494,"ת":495,"،":496,"ء":497,"آ":498,"أ":499,"إ":500,"ا":501,"ب":502,"ة":503,"ت":504,"ث":505,"ج":506,"ح":507,"خ":508,"د":509,"ذ":510,"ر":511,"ز":512,"س":513,"ش":514,"ص":515,"ض":516,"ط":517,"ع":518,"غ":519,"ف":520,"ق":521,"ك":522,"ل":523,"م":524,"ن":525,"ه":526,"و":527,"ى":528,"ي":529,"ً":530,"َ":531,"ُ":532,"ِ":533,"ّ":534,"ْ":535,"ک":536,"ی":537,"۰":538,"۱":539,"۲":540,"क":541,"त":542,"न":543,"प":544,"म":545,"य":546,"र":547,"ल":548,"स":549,"ह":550,"ा":551,"ि":552,"ु":553,"े":554,"्":555,"র":556,"্":557,"்":558,"ก":559,"ข":560,"ค":561,"ง":562,"จ":563,"ช":564,"ณ":565,"ด":566,"ต":567,"ถ":568,"ท":569,"ธ":570,"น":571,"บ":572,"ป":573,"ผ":574,"พ":575,"ม":576,"ย":577,"ร":578,"ล":579,"ว":580,"ศ":581,"ส":582,"ห":583,"อ":584,"ะ":585,"ั":586,"า":587,"ิ":588,"ี":589,"ึ":590,"ื":591,"ุ":592,"ู":593,"เ":594,"แ":595,"โ":596,"ใ":597,"ไ":598,"ๆ":599,"็":600,"่":601,"้":602,"์":603,"ํ":604,"ა":605,"ბ":606,"გ":607,"დ":608,"ე":609,"ვ":610,"ი":611,"ლ":612,"მ":613,"ნ":614,"ო":615,"რ":616,"ს":617,"ტ":618,"შ":619,"ዓ":620,"ḥ":621,"ṭ":622,"ṳ":623,"ạ":624,"ả":625,"ế":626,"ề":627,"ệ":628,"ố":629,"ồ":630,"ộ":631,"ớ":632,"ờ":633,"ữ":634,"​":635,"‌":636,"‎":637,"‏":638,"‐":639,"–":640,"—":641,"―":642,"‘":643,"’":644,"‚":645,"‛":646,"“":647,"”":648,"„":649,"‟":650,"†":651,"‡":652,"•":653,"‬":654,"‭":655,"‰":656,"′":657,"‹":658,"›":659,"※":660,"⁄":661,"€":662,"←":663,"↑":664,"→":665,"⇒":666,"⇢":667,"−":668,"√":669,"∞":670,"≈":671,"≤":672,"≥":673,"≪":674,"≫":675,"─":676,"│":677,"╚":678,"╩":679,"▁":680,"▒":681,"■":682,"▪":683,"►":684,"◆":685,"◊":686,"○":687,"◎":688,"●":689,"★":690,"☆":691,"♣":692,"♥":693,"♦":694,"♪":695,"、":696,"。":697,"「":698,"」":699,"『":700,"』":701,"【":702,"】":703,"あ":704,"い":705,"う":706,"え":707,"お":708,"か":709,"が":710,"き":711,"く":712,"け":713,"こ":714,"さ":715,"し":716,"じ":717,"す":718,"せ":719,"た":720,"だ":721,"ち":722,"っ":723,"つ":724,"て":725,"で":726,"と":727,"な":728,"に":729,"の":730,"は":731,"ば":732,"ま":733,"み":734,"め":735,"も":736,"よ":737,"ら":738,"り":739,"る":740,"れ":741,"を":742,"ん":743,"ア":744,"イ":745,"オ":746,"カ":747,"コ":748,"ジ":749,"ス":750,"タ":751,"ッ":752,"テ":753,"ト":754,"ナ":755,"バ":756,"フ":757,"マ":758,"メ":759,"ラ":760,"リ":761,"ル":762,"レ":763,"ン":764,"・":765,"ー":766,"一":767,"三":768,"上":769,"下":770,"不":771,"东":772,"中":773,"为":774,"乐":775,"也":776,"了":777,"事":778,"二":779,"五":780,"亚":781,"交":782,"产":783,"京":784,"人":785,"仁":786,"以":787,"会":788,"伦":789,"但":790,"体":791,"元":792,"克":793,"免":794,"入":795,"全":796,"八":797,"内":798,"农":799,"出":800,"分":801,"切":802,"刘":803,"到":804,"前":805,"加":806,"动":807,"北":808,"区":809,"匿":810,"十":811,"南":812,"博":813,"厂":814,"原":815,"去":816,"参":817,"发":818,"取":819,"口":820,"可":821,"台":822,"司":823,"合":824,"吉":825,"名":826,"吗":827,"和":828,"品":829,"啦":830,"国":831,"图":832,"國":833,"土":834,"在":835,"地":836,"场":837,"城":838,"增":839,"士":840,"多":841,"大":842,"天":843,"套":844,"女":845,"如":846,"娱":847,"婷":848,"子":849,"字":850,"学":851,"安":852,"定":853,"家":854,"寺":855,"寿":856,"小":857,"少":858,"就":859,"山":860,"岛":861,"島":862,"州":863,"工":864,"市":865,"常":866,"平":867,"年":868,"应":869,"式":870,"引":871,"当":872,"影":873,"得":874,"心":875,"思":876,"性":877,"情":878,"愛":879,"成":880,"我":881,"手":882,"文":883,"料":884,"新":885,"方":886,"日":887,"明":888,"易":889,"是":890,"更":891,"最":892,"月":893,"有":894,"木":895,"本":896,"机":897,"李":898,"来":899,"杨":900,"東":901,"松":902,"林":903,"核":904,"楽":905,"模":906,"正":907,"武":908,"比":909,"民":910,"水":911,"江":912,"法":913,"洲":914,"海":915,"淫":916,"清":917,"漢":918,"爱":919,"片":920,"物":921,"王":922,"球":923,"理":924,"生":925,"用":926,"田":927,"电":928,"白":929,"的":930,"直":931,"相":932,"知":933,"石":934,"社":935,"神":936,"禅":937,"种":938,"科":939,"空":940,"站":941,"简":942,"管":943,"网":944,"美":945,"而":946,"能":947,"自":948,"舞":949,"色":950,"艳":951,"茶":952,"行":953,"西":954,"見":955,"见":956,"言":957,"語":958,"论":959,"语":960,"赌":961,"越":962,"路":963,"载":964,"迅":965,"过":966,"运":967,"这":968,"通":969,"道":970,"都":971,"酒":972,"里":973,"重":974,"量":975,"金":976,"问":977,"雄":978,"雷":979,"青":980,"面":981,"音":982,"頂":983,"顶":984,"颖":985,"题":986,"風":987,"食":988,"馬":989,"高":990,"국":991,"년":992,"어":993,"한":994,"":995,"":996,"":997,"":998,"﻿":999,"�":1000,"en":1001,"er":1002,"in":1003,"▁a":1004,"▁t":1005,"▁d":1006,"ch":1007,"es":1008,"on":1009,"▁th":1010,"un":1011,"it":1012,"is":1013,"▁s":1014,"▁w":1015,"at":1016,"ie":1017,"or":1018,"an":1019,"▁the":1020,"re":1021,"▁b":1022,"▁o":1023,"al":1024,"ar":1025,"▁in":1026,"▁f":1027,"ich":1028,"▁m":1029,"te":1030,"ion":1031,"▁e":1032,"▁an":1033,"ur":1034,"as":1035,"le":1036,"▁p":1037,"▁c":1038,"▁un":1039,"▁h":1040,"us":1041,"▁S":1042,"ent":1043,"ge":1044,"▁of":1045,"ro":1046,"▁n":1047,"▁v":1048,"ing":1049,"ung":1050,"▁and":1051,"▁to":1052,"▁A":1053,"ll":1054,"ed":1055,"▁die":1056,"om":1057,"▁der":1058,"▁und":1059,"▁E":1060,"▁I":1061,"ig":1062,"st":1063,"ic":1064,"▁be":1065,"▁M":1066,"▁is":1067,"▁D":1068,"▁T":1069,"▁ein":1070,"▁B":1071,"▁P":1072,"ir":1073,"▁z":1074,"im":1075,"▁g":1076,"el":1077,"ut":1078,"ra":1079,"ter":1080,"em":1081,"il":1082,"en,":1083,"▁W":1084,"et":1085,"ol":1086,"ation":1087,"der":1088,"eit":1089,"▁F":1090,"▁l":1091,"am":1092,"▁re":1093,"▁G":1094,"ten":1095,"hr":1096,"ies":1097,"um":1098,"op":1099,"▁K":1100,"ct":1101,"▁H":1102,"id":1103,"sch":1104,"▁R":1105,"ul":1106,"▁k":1107,"uf":1108,"▁C":1109,"ber":1110,"iv":1111,"en.":1112,"lich":1113,"▁V":1114,"▁for":1115,"ab":1116,"ot":1117,"ür":1118,"isch":1119,"icht":1120,"ier":1121,"end":1122,"▁Th":1123,"▁on":1124,"▁das":1125,"▁zu":1126,"▁L":1127,"and":1128,"ere":1129,"▁den":1130,"ly":1131,"est":1132,"ess":1133,"▁that":1134,"os":1135,"▁U":1136,"ce":1137,"omm":1138,"ein":1139,"ers":1140,"▁pro":1141,"▁al":1142,"ow":1143,"▁wh":1144,"ach":1145,"▁von":1146,"▁r":1147,"ort":1148,"▁ge":1149,"▁im":1150,"uch":1151,"ad":1152,"▁st":1153,"ith":1154,"▁y":1155,"▁In":1156,"▁wir":1157,"kt":1158,"▁N":1159,"if":1160,"▁con":1161,"ind":1162,"▁ist":1163,"gen":1164,"▁ver":1165,"▁er":1166,"ver":1167,"▁with":1168,"▁auf":1169,"▁we":1170,"▁für":1171,"urop":1172,"ay":1173,"ill":1174,"▁des":1175,"▁it":1176,"ve":1177,"▁mit":1178,"▁are":1179,"ts":1180,"▁Z":1181,"▁1":1182,"▁as":1183,"ck":1184,"▁so":1185,"▁(":1186,"▁de":1187,"den":1188,"▁The":1189,"de":1190,"▁ne":1191,"iss":1192,"▁yo":1193,"▁dies":1194,"▁St":1195,"af":1196,"▁Europ":1197,"pp":1198,"ate":1199,"ment":1200,"t,":1201,"ik":1202,"th":1203,"▁se":1204,"qu":1205,"▁2":1206,"ist":1207,"00":1208,"▁Un":1209,"e,":1210,"ag":1211,"ischen":1212,"ib":1213,"▁Ver":1214,"s,":1215,"▁als":1216,"ak":1217,"▁eine":1218,"ust":1219,"▁ex":1220,"t.":1221,"▁dem":1222,"for":1223,"ah":1224,"▁this":1225,"ity":1226,"▁O":1227,"ug":1228,"s.":1229,"und":1230,"▁ha":1231,"ial":1232,"▁An":1233,"▁Sie":1234,"ant":1235,"▁j":1236,"▁or":1237,"ann":1238,"▁nicht":1239,"▁J":1240,"▁wer":1241,"art":1242,"▁co":1243,"ungen":1244,"ne":1245,"▁not":1246,"ive":1247,"über":1248,"ste":1249,"pe":1250,"▁-":1251,"▁sich":1252,"än":1253,"▁all":1254,"▁le":1255,"ub":1256,"ff":1257,"ien":1258,"tel":1259,"la":1260,"▁Re":1261,"▁by":1262,"we":1263,"rom":1264,"▁have":1265,"ens":1266,"▁dass":1267,"igh":1268,"▁at":1269,"▁es":1270,"ain":1271,"▁aus":1272,"ass":1273,"all":1274,"uld":1275,"ern":1276,"▁Die":1277,"▁you":1278,"▁sh":1279,"men":1280,"up":1281,"od":1282,"▁will":1283,"sp":1284,"▁ab":1285,"omp":1286,"iel":1287,"▁über":1288,"aus":1289,"▁uns":1290,"ure":1291,"nen":1292,"▁Pr":1293,"age":1294,"▁which":1295,"▁me":1296,"ission":1297,"ted":1298,"▁was":1299,"ze":1300,"ran":1301,"▁auch":1302,"▁Sch":1303,"lie":1304,"igen":1305,"▁from":1306,"ahr":1307,"hal":1308,"ard":1309,"ungs":1310,"du":1311,"och":1312,"▁um":1313,"▁Be":1314,"e.":1315,"ould":1316,"▁sind":1317,"▁sch":1318,"▁We":1319,"▁us":1320,"tern":1321,"tr":1322,"ommission":1323,"▁Pro":1324,"..":1325,"og":1326,"▁ch":1327,"▁i":1328,"ident":1329,"▁pr":1330,"▁Europe":1331,"▁ent":1332,"▁vor":1333,"▁wird":1334,"▁En":1335,"fer":1336,"▁has":1337,"esch":1338,"▁hab":1339,"ang":1340,"schaf":1341,"iz":1342,"ip":1343,"ction":1344,"mer":1345,"port":1346,"enn":1347,"ön":1348,"▁wor":1349,"ition":1350,"ss":1351,"ud":1352,"gr":1353,"▁res":1354,"oc":1355,"ous":1356,"▁en":1357,"▁Er":1358,"ick":1359,"uss":1360,"ok":1361,"▁Par":1362,"▁wie":1363,"▁da":1364,"ische":1365,"ue":1366,"our":1367,"tz":1368,"▁he":1369,"urch":1370,"err":1371,"▁can":1372,"form":1373,"▁man":1374,"etz":1375,"able":1376,"▁am":1377,"ige":1378,"ft":1379,"ire":1380,"keit":1381,"▁hat":1382,"▁Ein":1383,"▁ich":1384,"▁sein":1385,"▁comp":1386,"ap":1387,"▁Ar":1388,"ost":1389,"ben":1390,"▁oder":1391,"ament":1392,"▁our":1393,"ast":1394,"ia":1395,"otel":1396,"cc":1397,"erv":1398,"▁zur":1399,"pr":1400,"▁also":1401,"beit":1402,"▁European":1403,"ise":1404,"be":1405,"me":1406,"▁sie":1407,"ome":1408,"▁\"":1409,"▁Mit":1410,"ru":1411,"ational":1412,"ical":1413,"heit":1414,"ult":1415,"oll":1416,"▁ad":1417,"ish":1418,"▁Aus":1419,"ert":1420,"lo":1421,"ated":1422,"es,":1423,"ore":1424,"ese":1425,"are":1426,"out":1427,"▁werden":1428,"dern":1429,"▁einer":1430,"▁kön":1431,"ide":1432,"▁do":1433,"olit":1434,"rit":1435,"lichen":1436,"ine":1437,"he":1438,"ord":1439,"tell":1440,"hl":1441,"ther":1442,"▁Wir":1443,"▁200":1444,"▁Ge":1445,"ark":1446,"fü":1447,"▁unter":1448,"ect":1449,"es.":1450,"▁werd":1451,"ün":1452,"pt":1453,"her":1454,"▁Parl":1455,"'s":1456,"ign":1457,"ät":1458,"▁nach":1459,"▁qu":1460,"ac":1461,"▁einen":1462,"är":1463,"▁Union":1464,"▁bei":1465,"▁your":1466,"hen":1467,"▁its":1468,"vel":1469,"▁part":1470,"oun":1471,"tra":1472,"▁te":1473,"▁Das":1474,"ear":1475,"ution":1476,"▁ag":1477,"▁reg":1478,"tw":1479,"ations":1480,"▁durch":1481,"▁gro":1482,"▁Fra":1483,"ank":1484,"ian":1485,"aten":1486,"au":1487,"ake":1488,"▁Ber":1489,"se":1490,"enden":1491,"schaft":1492,"yste":1493,"▁su":1494,"▁sp":1495,"▁but":1496,"ugh":1497,"▁It":1498,"ary":1499,"▁wur":1500,"ember":1501,"▁go":1502,"▁ro":1503,"glich":1504,"ger":1505,"▁Ab":1506,"cial":1507,"▁Ich":1508,"▁Vor":1509,"äs":1510,"▁there":1511,"lem":1512,"ice":1513,"▁Mr":1514,"ight":1515,"per":1516,"ute":1517,"▁3":1518,"con":1519,"▁app":1520,"▁Herr":1521,"ör":1522,"hre":1523,"anz":1524,"▁Commission":1525,"▁dar":1526,"▁EU":1527,"imm":1528,"▁tra":1529,"ual":1530,"▁war":1531,"rie":1532,"▁19":1533,"cl":1534,"ose":1535,"▁would":1536,"▁spe":1537,"▁mö":1538,"geb":1539,"ance":1540,"▁–":1541,"ail":1542,"▁zum":1543,"ov":1544,"▁their":1545,"ite":1546,"ile":1547,"reat":1548,"chte":1549,"erm":1550,"ystem":1551,"▁einem":1552,"cht":1553,"mp":1554,"hn":1555,"eren":1556,"▁gen":1557,"▁cont":1558,"▁bes":1559,"liche":1560,"ild":1561,"ram":1562,"▁been":1563,"y,":1564,"uß":1565,"chn":1566,"▁Al":1567,"ong":1568,"leg":1569,"▁more":1570,"▁Europä":1571,"▁ar":1572,"ktion":1573,"utz":1574,"▁Te":1575,"▁kann":1576,"▁This":1577,"ück":1578,"▁De":1579,"ack":1580,"act":1581,"▁diese":1582,"üss":1583,"▁Le":1584,"▁acc":1585,"▁nur":1586,"▁dis":1587,"oss":1588,"▁comm":1589,"▁coun":1590,"▁Ch":1591,"▁Unter":1592,"ates":1593,"▁Sp":1594,"ont":1595,"wer":1596,"ob":1597,"▁Auf":1598,"▁should":1599,"▁.":1600,"▁Gr":1601,"ame":1602,"▁pl":1603,"▁bet":1604,"ahl":1605,"▁Hotel":1606,"▁work":1607,"ierung":1608,"▁one":1609,"▁haben":1610,"▁tim":1611,"land":1612,"lic":1613,"▁,":1614,"▁new":1615,"elt":1616,"▁Der":1617,"sten":1618,"y.":1619,"er,":1620,"ende":1621,"▁up":1622,"äsident":1623,"▁cl":1624,"ges":1625,"▁Se":1626,"eine":1627,"auf":1628,"zu":1629,"iert":1630,"▁soll":1631,"gan":1632,"▁For":1633,"ike":1634,"▁Jahr":1635,"▁out":1636,"▁dieser":1637,"▁ob":1638,"av":1639,"che":1640,"igkeit":1641,"▁Pres":1642,"ase":1643,"to":1644,"▁Kommission":1645,"ld":1646,"▁jed":1647,"ähr":1648,"reich":1649,"a,":1650,"▁pre":1651,"▁countr":1652,"gram":1653,"▁Dies":1654,"▁ind":1655,"▁very":1656,"bar":1657,"▁Es":1658,"ree":1659,"▁per":1660,"▁inter":1661,"▁zw":1662,"▁who":1663,"▁other":1664,"▁daß":1665,"▁noch":1666,"neh":1667,"▁produ":1668,"ities":1669,"▁must":1670,"formation":1671,"ner":1672,"ten.":1673,"▁ihr":1674,"ink":1675,"...":1676,"one":1677,"▁ev":1678,"▁ste":1679,"▁pe":1680,"▁they":1681,"▁weit":1682,"dition":1683,"▁need":1684,"▁off":1685,"gel":1686,"pro":1687,"tet":1688,"pl":1689,"▁wurde":1690,"wo":1691,"ient":1692,"rat":1693,"▁werden.":1694,"llen":1695,"▁no":1696,"▁ber":1697,"ons":1698,"enz":1699,"▁mehr":1700,"ions":1701,"▁intern":1702,"▁only":1703,"▁year":1704,"▁fe":1705,"▁President":1706,"▁bec":1707,"▁supp":1708,"▁cons":1709,"▁Präsident":1710,"ement":1711,"▁str":1712,"▁aber":1713,"mit":1714,"olog":1715,"▁find":1716,"ade":1717,"▁5":1718,"▁Um":1719,"glie":1720,"oin":1721,"ely":1722,"lin":1723,"▁wenn":1724,"▁about":1725,"▁like":1726,"▁polit":1727,"teil":1728,"schl":1729,"ke":1730,"▁4":1731,"pos":1732,"▁könn":1733,"ater":1734,"ible":1735,"ence":1736,"entr":1737,"chen":1738,"▁any":1739,"ious":1740,"ht":1741,"▁müss":1742,"ced":1743,"▁Y":1744,"leich":1745,"▁sehr":1746,"▁prov":1747,").":1748,"ange":1749,"▁ges":1750,"▁Reg":1751,"velop":1752,"gt":1753,"▁tran":1754,"ung,":1755,"alt":1756,"ally":1757,"wend":1758,"▁unser":1759,"nah":1760,"blem":1761,"▁eff":1762,"cess":1763,"amp":1764,"fe":1765,"olle":1766,"ject":1767,"▁alle":1768,"▁sow":1769,"ied":1770,"iament":1771,"▁ra":1772,"ütz":1773,"arbeit":1774,"▁Arbeit":1775,"onder":1776,"▁fin":1777,"▁Parlament":1778,"ring":1779,"ism":1780,"▁rec":1781,"▁können":1782,"▁these":1783,"▁serv":1784,"▁sol":1785,"led":1786,"ommen":1787,"▁Mitglie":1788,"io":1789,"▁dire":1790,"usam":1791,"führ":1792,"ular":1793,"atz":1794,"▁Member":1795,"▁vie":1796,"own":1797,"fahr":1798,"erson":1799,"▁hin":1800,"ph":1801,"ility":1802,"te,":1803,"▁import":1804,"’s":1805,"xt":1806,"ichtig":1807,"▁diesem":1808,"stit":1809,"äl":1810,"▁Men":1811,"▁So":1812,"schen":1813,"ider":1814,"irst":1815,"a.":1816,"ople":1817,"sta":1818,"ings":1819,"▁gegen":1820,"▁if":1821,"änd":1822,"▁develop":1823,"ing,":1824,"▁tr":1825,"fl":1826,"▁wel":1827,"▁such":1828,"fol":1829,"▁report":1830,"▁ihre":1831,"ook":1832,"ors":1833,"wn":1834,"ing.":1835,"▁Europäischen":1836,"rag":1837,"fen":1838,"ieren":1839,"▁gr":1840,"ität":1841,"▁them":1842,"ces":1843,"▁pol":1844,"uen":1845,"ments":1846,"▁bis":1847,"▁sub":1848,"▁la":1849,"ateg":1850,"ause":1851,"usammen":1852,"▁ins":1853,"sche":1854,"ific":1855,"▁rel":1856,"▁my":1857,"▁Parliament":1858,"hnen":1859,"▁Zeit":1860,"▁over":1861,"itu":1862,"▁Ma":1863,"▁20":1864,"▁ist,":1865,"▁into":1866,"▁people":1867,"ließ":1868,"▁were":1869,"▁gew":1870,"▁Ne":1871,"▁well":1872,"str":1873,"ans":1874,"iven":1875,"cre":1876,"▁gem":1877,"▁best":1878,"▁Ü":1879,"▁international":1880,"mal":1881,"erg":1882,"▁As":1883,"esent":1884,"),":1885,"▁viel":1886,"▁some":1887,"-S":1888,"ative":1889,"▁com":1890,"inn":1891,"▁möchte":1892,"halt":1893,"▁system":1894,"▁what":1895,"ene":1896,"lung":1897,"cil":1898,"icher":1899,"▁inv":1900,"▁Mitglied":1901,"▁Mar":1902,"conom":1903,"▁President,":1904,"▁act":1905,"ühr":1906,"ument":1907,"▁dif":1908,"bs":1909,"▁hier":1910,"▁mark":1911,"▁Or":1912,"arge":1913,"▁high":1914,"atur":1915,"fr":1916,"rei":1917,"hand":1918,"fore":1919,"▁Coun":1920,"▁eines":1921,"uropä":1922,"▁Im":1923,"ention":1924,"▁Über":1925,"▁hotel":1926,"▁kn":1927,"ou":1928,"iger":1929,"▁her":1930,"▁bed":1931,"ull":1932,"▁countries":1933,"▁first":1934,"kte":1935,"▁loc":1936,"▁than":1937,"wor":1938,"▁incl":1939,"▁use":1940,"▁vom":1941,"▁most":1942,"olitik":1943,"very":1944,"iet":1945,"▁Me":1946,"ks":1947,"zeit":1948,"▁hel":1949,"▁Nach":1950,"äch":1951,"▁dec":1952,"sel":1953,"▁his":1954,"▁Q":1955,"▁lie":1956,"ays":1957,"▁groß":1958,"▁partic":1959,"amen":1960,"öglich":1961,"ale":1962,"▁müssen":1963,"▁vers":1964,"ace":1965,"▁under":1966,"▁when":1967,"ed.":1968,"ation,":1969,"▁polic":1970,"rough":1971,"▁werden,":1972,"stand":1973,"itz":1974,"rech":1975,"▁time":1976,"pect":1977,"▁Council":1978,"▁Kon":1979,"itte":1980,"▁just":1981,"▁Entw":1982,"hm":1983,"unden":1984,"ation.":1985,"▁sowie":1986,"▁dam":1987,"▁bas":1988,"kl":1989,"▁leg":1990,"▁now":1991,"▁He":1992,"▁again":1993,"▁europä":1994,"▁Land":1995,"▁support":1996,"ett":1997,"änder":1998,"ibt":1999,"stell":2000,"tre":2001,"▁aut":2002,"▁mach":2003,"▁gu":2004,"▁Bericht":2005,"ights":2006,"▁dieses":2007,"▁Fl":2008,"▁Ihr":2009,"etzt":2010,"ween":2011,"ond":2012,"▁make":2013,"stitution":2014,"▁Pl":2015,"▁econom":2016,"▁how":2017,"▁room":2018,"stütz":2019,"▁pla":2020,"▁Rat":2021,"▁wo":2022,"ry":2023,"▁many":2024,"▁between":2025,"je":2026,"▁Comm":2027,"arm":2028,"▁ass":2029,"▁propos":2030,"oth":2031,"▁fre":2032,"▁6":2033,"▁requ":2034,"halb":2035,"▁mo":2036,"gramm":2037,"▁fr":2038,"fter":2039,"abe":2040,"▁techn":2041,"ating":2042,"cy":2043,"▁poss":2044,"▁par":2045,"urs":2046,"▁zwischen":2047,"ös":2048,"ware":2049,"▁Bed":2050,"▁Verb":2051,"bst":2052,"wir":2053,"▁bereit":2054,"▁imp":2055,"zie":2056,"▁kon":2057,"▁Entwick":2058,"▁world":2059,"off":2060,"ublic":2061,"▁market":2062,"ister":2063,"▁pos":2064,"▁take":2065,"ful":2066,"uer":2067,"red":2068,"▁Mitgliedsta":2069,"▁Menschen":2070,"▁important":2071,"▁Ent":2072,"dr":2073,"ever":2074,"isten":2075,"cted":2076,"▁fo":2077,"zial":2078,"eschä":2079,"▁because":2080,"▁ist.":2081,"▁Intern":2082,"▁sel":2083,"lear":2084,"att":2085,"ath":2086,"▁son":2087,"hör":2088,"▁op":2089,"▁unsere":2090,"▁national":2091,"itä":2092,"▁'":2093,"atter":2094,"▁All":2095,"ward":2096,"▁min":2097,"▁good":2098,"ality":2099,"▁where":2100,"ision":2101,"ly,":2102,"▁keine":2103,"▁Ges":2104,"▁verb":2105,"▁hand":2106,"▁Ihre":2107,"▁great":2108,"▁rem":2109,"dem":2110,"vern":2111,"▁US":2112,"nis":2113,"ho":2114,"▁two":2115,"ed,":2116,"▁av":2117,"▁information":2118,"▁mein":2119,"ory":2120,"▁Min":2121,"ote":2122,"ough":2123,"▁emp":2124,"▁Produ":2125,"als":2126,"▁„":2127,"rauch":2128,"ict":2129,"o,":2130,"ax":2131,"urn":2132,"rä":2133,"ium":2134,"▁every":2135,"▁poin":2136,"trag":2137,"net":2138,"öff":2139,"▁einz":2140,"▁way":2141,"▁had":2142,"ages":2143,"▁ele":2144,"▁Grund":2145,"▁conc":2146,"lish":2147,"▁end":2148,"tschaft":2149,"ices":2150,"min":2151,"▁bie":2152,"amil":2153,"rol":2154,"ats":2155,"▁problem":2156,"▁even":2157,"ures":2158,"ession":2159,"▁through":2160,"aff":2161,"laub":2162,"fort":2163,"ung.":2164,"▁If":2165,"▁199":2166,"▁iss":2167,"aut":2168,"▁Ä":2169,"▁[":2170,"er.":2171,"air":2172,"les":2173,"▁those":2174,"▁get":2175,"▁sa":2176,"els":2177,"forder":2178,"setz":2179,"uring":2180,"iden":2181,"▁Art":2182,"assen":2183,"▁product":2184,"▁anderen":2185,"▁ange":2186,"▁sc":2187,"ount":2188,"ereich":2189,"▁7":2190,"▁Fin":2191,"cept":2192,"▁Am":2193,"▁bef":2194,"ußer":2195,"▁tak":2196,"halten":2197,"immer":2198,"day":2199,"unkt":2200,"▁immer":2201,"▁Ihnen":2202,"ischer":2203,"erein":2204,"▁order":2205,"▁Fr":2206,"▁may":2207,"urr":2208,"▁Zusammen":2209,"uman":2210,"▁see":2211,"▁made":2212,"▁Seit":2213,"▁wird.":2214,"▁beg":2215,"lick":2216,"▁form":2217,"igung":2218,"▁Wenn":2219,"▁disc":2220,"▁Frau":2221,"rif":2222,"essen":2223,"ues":2224,"ital":2225,"▁dann":2226,"ganis":2227,"▁Ex":2228,"▁8":2229,"▁10":2230,"schie":2231,"▁view":2232,"▁ac":2233,"▁know":2234,"unity":2235,"spr":2236,"▁States":2237,"ivers":2238,"▁“":2239,"▁gibt":2240,"com":2241,"▁being":2242,"▁direct":2243,"▁num":2244,"erman":2245,"▁Haus":2246,"▁Bes":2247,"ited":2248,"▁rest":2249,"▁fact":2250,"▁ke":2251,"▁There":2252,"▁weiter":2253,"weise":2254,"ior":2255,"ives":2256,"▁Wh":2257,"schließ":2258,"▁belie":2259,"▁particular":2260,"▁appro":2261,"▁wieder":2262,"▁cent":2263,"istr":2264,"000":2265,"▁differ":2266,"▁damit":2267,"▁diesen":2268,"ustr":2269,"ys":2270,"itt":2271,"gest":2272,"▁car":2273,"ster":2274,"▁Man":2275,"hne":2276,"sicht":2277,"▁zwe":2278,"▁trans":2279,"▁ger":2280,"▁includ":2281,"▁own":2282,"vor":2283,"lex":2284,"▁On":2285,"▁Bereich":2286,"▁ganz":2287,"tens":2288,"te.":2289,"bal":2290,"aur":2291,"▁Gro":2292,"▁beste":2293,"▁process":2294,"folg":2295,"erk":2296,"icherheit":2297,"▁def":2298,"eins":2299,"▁resp":2300,"eln":2301,"fach":2302,"iness":2303,"▁Des":2304,"le,":2305,"▁del":2306,"read":2307,"ultur":2308,"nehmen":2309,"▁mon":2310,"alk":2311,"10":2312,"▁Komm":2313,"ever,":2314,"zeich":2315,"▁geb":2316,"▁Con":2317,"old":2318,"öß":2319,"ändern":2320,"▁Diese":2321,"▁right":2322,"▁bus":2323,"▁agre":2324,"hen,":2325,"-P":2326,"▁gesch":2327,"alls":2328,"▁At":2329,"▁Mitgliedstaaten":2330,"▁Europa":2331,"part":2332,"▁quest":2333,"az":2334,"▁mus":2335,"▁main":2336,"▁wichtig":2337,"▁exp":2338,"▁kein":2339,"▁ph":2340,"▁bu":2341,"▁Hand":2342,"▁muss":2343,"▁unserer":2344,"ält":2345,"hin":2346,"▁stand":2347,"issen":2348,"ool":2349,"eth":2350,"eld":2351,"▁Geb":2352,"▁situ":2353,"▁real":2354,"▁haben,":2355,"oy":2356,"▁compan":2357,"▁9":2358,"ower":2359,"igt":2360,"round":2361,"ix":2362,"▁help":2363,"▁here":2364,"▁sm":2365,"schafts":2366,"illion":2367,"kommen":2368,"▁sondern":2369,"▁...":2370,"▁Zu":2371,"ßnah":2372,"piel":2373,"org":2374,"▁You":2375,"▁Gem":2376,"▁deb":2377,"▁after":2378,"▁Inter":2379,"▁seine":2380,"nung":2381,"▁jedoch":2382,"▁political":2383,"ents":2384,"ktiv":2385,"ince":2386,"tegr":2387,"eng":2388,"-M":2389,"▁Europäische":2390,"acht":2391,"ruck":2392,"▁ausge":2393,"▁public":2394,"▁place":2395,"▁ide":2396,"▁gut":2397,"▁Information":2398,"▁incre":2399,"▁concern":2400,"gesch":2401,"ows":2402,"mittel":2403,"▁prote":2404,"▁Br":2405,"▁possible":2406,"elle":2407,"w.":2408,"▁person":2409,"▁cre":2410,"▁Bar":2411,"▁Bür":2412,"▁region":2413,"reis":2414,"äng":2415,"▁Schl":2416,"▁sim":2417,"isse":2418,"schieden":2419,"iron":2420,"▁etw":2421,"▁clear":2422,"▁wür":2423,"▁wird,":2424,"▁ser":2425,"▁human":2426,"eral":2427,"▁say":2428,"ieren.":2429,"öglichkeit":2430,"ätz":2431,"▁could":2432,"eration":2433,"▁development":2434,"▁bring":2435,"▁dr":2436,"▁sind,":2437,"▁Ind":2438,"▁heute":2439,"isk":2440,"lement":2441,"weit":2442,"nder":2443,"▁number":2444,"scheid":2445,"▁contin":2446,"▁Vorschl":2447,"▁same":2448,"füg":2449,"bens":2450,"i,":2451,"▁offer":2452,"yp":2453,"▁neue":2454,"▁economic":2455,"▁curr":2456,"▁est":2457,"▁gleich":2458,"-B":2459,"fern":2460,"▁Teil":2461,"aj":2462,"▁opp":2463,"▁Sta":2464,"ertain":2465,"▁within":2466,"▁effect":2467,"▁stat":2468,"nehm":2469,"get":2470,"iß":2471,"▁wen":2472,"▁Str":2473,"▁Her":2474,"▁rights":2475,"▁komm":2476,"ken":2477,"hen.":2478,"ants":2479,"ven":2480,"satz":2481,"zeug":2482,"iti":2483,"▁Änder":2484,"▁sind.":2485,"▁fest":2486,"▁want":2487,"▁Fran":2488,"entlich":2489,"▁does":2490,"kehr":2491,"innen":2492,"▁stell":2493,"▁avail":2494,"▁Fre":2495,"▁15":2496,"▁transp":2497,"ina":2498,"▁selbst":2499,"▁against":2500,"▁bereits":2501,"upt":2502,"ähl":2503,"▁much":2504,"hip":2505,"▁mich":2506,"▁fund":2507,"▁val":2508,"way":2509,"▁both":2510,"ivid":2511,"▁dat":2512,"▁lang":2513,"▁Bet":2514,"adt":2515,"work":2516,"lage":2517,"ander":2518,"▁vis":2519,"weis":2520,"entral":2521,"-A":2522,"▁prof":2523,"▁How":2524,"▁können.":2525,"ichte":2526,"ock":2527,"ierte":2528,"in,":2529,"▁ihrer":2530,"lobal":2531,"▁fun":2532,"▁sur":2533,"stru":2534,"▁level":2535,"▁möglich":2536,"o.":2537,"ler":2538,"▁var":2539,"▁Ha":2540,"▁sign":2541,"▁führ":2542,"ständ":2543,"▁hist":2544,"loy":2545,"ep":2546,"▁Is":2547,"viron":2548,"äre":2549,"▁equ":2550,"ftware":2551,"bes":2552,"▁med":2553,"ustom":2554,"▁Hin":2555,"▁europäischen":2556,"ator":2557,"▁ohne":2558,"et.":2559,"▁Wie":2560,"▁pra":2561,"▁nat":2562,"▁Eur":2563,"▁bek":2564,"▁provid":2565,"▁Vers":2566,"▁conf":2567,"▁play":2568,"chts":2569,"iff":2570,"ux":2571,"▁full":2572,"▁regard":2573,"▁andere":2574,"br":2575,"agement":2576,"▁Richt":2577,"▁social":2578,"▁neuen":2579,"▁cr":2580,"▁German":2581,"▁Welt":2582,"vironment":2583,"over":2584,"erung":2585,"▁bre":2586,"pf":2587,"legen":2588,"urg":2589,"par":2590,"▁different":2591,"▁Entwicklung":2592,"▁Kl":2593,"▁zwei":2594,"▁denn":2595,"▁think":2596,"▁finan":2597,"▁exper":2598,"▁group":2599,"▁without":2600,"▁letz":2601,"irm":2602,"▁18":2603,"▁still":2604,"ouse":2605,"wick":2606,"ha":2607,"ierten":2608,"▁years":2609,"▁eigen":2610,"eut":2611,"▁meas":2612,"▁Präsident,":2613,"mb":2614,"▁ens":2615,"under":2616,"wort":2617,"cur":2618,"raft":2619,"▁Mon":2620,"▁12":2621,"▁Sicherheit":2622,"▁oper":2623,"gar":2624,"▁consider":2625,"ently":2626,"▁adv":2627,"▁Frage":2628,"▁long":2629,"-s":2630,"olution":2631,"▁then":2632,"ctions":2633,"▁Gen":2634,"▁Mus":2635,"fass":2636,"iqu":2637,"▁access":2638,"ctor":2639,"▁gemeins":2640,"▁used":2641,"▁bo":2642,"▁Fe":2643,"▁priv":2644,"▁mod":2645,"hor":2646,"▁opt":2647,"line":2648,"▁last":2649,"▁Ste":2650,"ists":2651,"▁Part":2652,"äß":2653,"▁policy":2654,"ohl":2655,"▁woll":2656,"▁term":2657,"▁mak":2658,"▁spec":2659,"licher":2660,"▁fl":2661,"ollow":2662,"ER":2663,"▁verschieden":2664,"▁ers":2665,"ährend":2666,"ßnahmen":2667,"ness":2668,"▁gel":2669,"▁Person":2670,"▁down":2671,"▁prin":2672,"▁habe":2673,"osten":2674,"▁govern":2675,"▁att":2676,"alen":2677,"▁set":2678,"▁denen":2679,"▁unterstütz":2680,"▁agreement":2681,"▁available":2682,"▁cap":2683,"▁Bürger":2684,"▁require":2685,"cond":2686,"ungen,":2687,"ime":2688,"▁back":2689,"uture":2690,"ondere":2691,"ved":2692,"hol":2693,"ibility":2694,"▁interest":2695,"ude":2696,"tend":2697,"ieren,":2698,"▁able":2699,"▁kle":2700,"rach":2701,"wert":2702,"▁Jahren":2703,"▁Kont":2704,"urther":2705,"zahl":2706,"ability":2707,"ines":2708,"▁special":2709,"▁business":2710,"alth":2711,"▁dazu":2712,"yn":2713,"gem":2714,"ience":2715,"▁einfach":2716,"▁Stat":2717,"vers":2718,"ize":2719,"fic":2720,"ünd":2721,"ically":2722,"ienst":2723,"kun":2724,"ten,":2725,"▁Dem":2726,"▁small":2727,"richt":2728,"▁Mittel":2729,"äh":2730,"▁look":2731,"afür":2732,"ispiel":2733,"▁question":2734,"ers,":2735,"ting":2736,"tem":2737,"▁Tra":2738,"▁cor":2739,"▁custom":2740,"▁ben":2741,"▁Aut":2742,"▁weil":2743,"ready":2744,"▁haben.":2745,"▁day":2746,"▁gest":2747,"▁future":2748,"zus":2749,"▁believe":2750,"ktur":2751,"res":2752,"ters":2753,"itor":2754,"▁ze":2755,"▁air":2756,"iver":2757,"▁som":2758,"▁aller":2759,"▁therefore":2760,"▁Stand":2761,"-F":2762,"ulation":2763,"ante":2764,"war":2765,"ason":2766,"▁respons":2767,"zug":2768,"ahre":2769,"▁free":2770,"▁viele":2771,"akt":2772,"▁allen":2773,"orte":2774,"ell":2775,"▁seiner":2776,"]]":2777,"▁already":2778,"▁today":2779,"ers.":2780,"▁darauf":2781,"▁That":2782,"ittee":2783,"▁environment":2784,"▁design":2785,"ron":2786,"esell":2787,"ismus":2788,"▁hat,":2789,"▁voll":2790,"▁But":2791,"▁Möglichkeit":2792,"üh":2793,"let":2794,"▁Ziel":2795,"▁inst":2796,"et,":2797,"ritt":2798,"▁cann":2799,"▁project":2800,"▁compet":2801,"▁größ":2802,"▁Them":2803,"▁et":2804,"▁Finanz":2805,"▁Daten":2806,"▁eing":2807,"ope":2808,"▁pres":2809,"▁Rah":2810,"▁Region":2811,"▁To":2812,"imin":2813,"▁proposal":2814,"itiz":2815,"▁sag":2816,"its":2817,"amm":2818,"▁Lage":2819,"▁cannot":2820,"ving":2821,"ws":2822,"▁fac":2823,"cr":2824,"▁bietet":2825,"▁certain":2826,"okrat":2827,"curity":2828,"▁area":2829,"▁pers":2830,"esse":2831,"▁eas":2832,"▁follow":2833,"▁Problem":2834,"▁prev":2835,"▁open":2836,"öl":2837,"other":2838,"▁ach":2839,"los":2840,"▁schon":2841,"geben":2842,"aterial":2843,"▁Med":2844,"▁mir":2845,"mar":2846,"▁before":2847,"▁int":2848,"lä":2849,"raph":2850,"ationen":2851,"▁seit":2852,"▁redu":2853,"▁And":2854,"▁0":2855,"▁repr":2856,"▁kl":2857,"▁individ":2858,"▁Mein":2859,"▁befind":2860,"▁jetzt":2861,"▁present":2862,"leist":2863,"▁Verein":2864,"▁neg":2865,"aher":2866,"▁Ro":2867,"▁System":2868,"fra":2869,"ahn":2870,"une":2871,"orn":2872,"▁lif":2873,"▁einige":2874,"▁Rechts":2875,"▁hal":2876,"olid":2877,"▁dafür":2878,"▁Energ":2879,"klär":2880,"▁word":2881,"▁[[":2882,"▁put":2883,"ased":2884,"▁&":2885,"ble":2886,"▁impro":2887,"nahme":2888,"lagen":2889,"tain":2890,"ird":2891,"▁Gemein":2892,"▁Herrn":2893,"ungsant":2894,"▁point":2895,"ential":2896,"EN":2897,"▁Tran":2898,"isierung":2899,"ccess":2900,"fahren":2901,"ulture":2902,"reib":2903,"iber":2904,"▁Pol":2905,"▁Russ":2906,"▁integr":2907,"ajor":2908,"▁ple":2909,"ilit":2910,"ified":2911,"▁Rahmen":2912,"eich":2913,"▁financial":2914,"▁Kommiss":2915,"▁city":2916,"▁change":2917,"▁meet":2918,"welt":2919,"▁histor":2920,"▁Amer":2921,"▁öff":2922,"▁activ":2923,"grund":2924,"▁during":2925,"▁je":2926,"▁%":2927,"press":2928,"ode":2929,"ised":2930,"▁pass":2931,"ies.":2932,"▁rev":2933,"▁Zimmer":2934,"▁offers":2935,"▁institution":2936,"ies,":2937,"▁citiz":2938,"▁allem":2939,"iert.":2940,"▁invest":2941,"▁zurück":2942,"äm":2943,"komm":2944,"▁ihren":2945,"ppen":2946,"▁comple":2947,"ove":2948,"▁gef":2949,"▁prom":2950,"▁position":2951,"▁fol":2952,"▁Serv":2953,"▁said":2954,"▁deut":2955,"ichter":2956,"▁Jahre":2957,"iving":2958,"raf":2959,"20":2960,"ather":2961,"▁global":2962,"▁nun":2963,"▁large":2964,"▁modern":2965,"ia,":2966,"▁Uns":2967,"▁achie":2968,"▁2009":2969,"200":2970,"▁energ":2971,"aben":2972,"-c":2973,"▁ref":2974,"▁saf":2975,"▁el":2976,"▁Kommissar":2977,"▁examp":2978,"▁liegt":2979,"ics":2980,"▁ask":2981,"aum":2982,"▁Bei":2983,"▁Ö":2984,"▁Wor":2985,"abei":2986,"▁quality":2987,"ilt":2988,"nov":2989,"▁major":2990,"▁applic":2991,"▁hat.":2992,"▁Aussch":2993,"▁cour":2994,"punkt":2995,"▁member":2996,"▁cost":2997,"▁Internet":2998,"halts":2999,"▁famil":3000,"gress":3001,"antwort":3002,"▁entsp":3003,"ins":3004,"▁cas":3005,"▁Für":3006,"ativ":3007,"▁program":3008,"▁since":3009,"▁besch":3010,"▁besonder":3011,"ek":3012,"lichkeit":3013,"▁strateg":3014,"reit":3015,"▁debate":3016,"gend":3017,"iend":3018,"▁necess":3019,"ern,":3020,"▁condition":3021,"unter":3022,"▁Als":3023,"▁art":3024,"ether":3025,"▁far":3026,"▁Go":3027,"▁Ad":3028,"▁eng":3029,"nisse":3030,"isl":3031,"▁unseren":3032,"▁Kin":3033,"asch":3034,"▁Pal":3035,"besondere":3036,"▁Gew":3037,"come":3038,"itive":3039,"▁coop":3040,"gang":3041,"▁technolog":3042,"gestell":3043,"▁Eine":3044,"ilities":3045,"vention":3046,"▁Sh":3047,"omat":3048,"▁child":3049,"▁Our":3050,"▁amend":3051,"▁contr":3052,"▁common":3053,"▁wurden":3054,"▁würde":3055,"▁With":3056,"▁Spe":3057,"▁Maßnahmen":3058,"-T":3059,"▁each":3060,"▁Best":3061,"▁adop":3062,"▁Unternehmen":3063,"▁bin":3064,"anc":3065,"ßen":3066,"ield":3067,"amer":3068,"▁che":3069,"ärk":3070,"▁matter":3071,"▁sollte":3072,"haf":3073,"eschäft":3074,"▁Form":3075,"▁meine":3076,"▁Gesch":3077,"ually":3078,"▁sollten":3079,"tig":3080,"▁Informationen":3081,"▁Ph":3082,"▁solution":3083,"▁Ger":3084,"▁Eng":3085,"▁standard":3086,"▁Arbeits":3087,"-R":3088,"▁means":3089,"▁Politik":3090,"▁data":3091,"omen":3092,"▁Bo":3093,"▁author":3094,"▁including":3095,"▁stay":3096,"opp":3097,"ipp":3098,"▁während":3099,"▁bud":3100,"▁30":3101,"ret":3102,"gew":3103,"-D":3104,"zen":3105,"schied":3106,"▁etwas":3107,"loss":3108,"-K":3109,"▁allow":3110,"▁Ur":3111,"▁country":3112,"cip":3113,"ablish":3114,"▁However,":3115,"ways":3116,"▁found":3117,"iele":3118,"▁Wer":3119,"▁areas":3120,"man":3121,"▁Und":3122,"▁Vorschlag":3123,"▁respect":3124,"▁fra":3125,"orth":3126,"▁Bild":3127,"▁colle":3128,"▁doch":3129,"▁/":3130,"▁stud":3131,"ffen":3132,"▁Res":3133,"▁sozial":3134,"hält":3135,"▁three":3136,"häng":3137,"ders":3138,"bed":3139,"▁give":3140,"strument":3141,"▁einge":3142,"▁democ":3143,"▁rece":3144,"ves":3145,"▁ensure":3146,"▁sein,":3147,"linie":3148,"1.":3149,"ürlich":3150,"uge":3151,"ily":3152,"▁next":3153,"ized":3154,"▁addition":3155,"▁erm":3156,"▁further":3157,"▁tradition":3158,"fang":3159,"▁few":3160,"al,":3161,"▁thank":3162,"▁tun":3163,"▁discuss":3164,"▁Länder":3165,"▁Deut":3166,"▁object":3167,"stimm":3168,"In":3169,"gleich":3170,"▁success":3171,"▁build":3172,"▁fil":3173,"▁Bl":3174,"inen":3175,"▁organis":3176,"▁Unterstütz":3177,"▁cal":3178,"▁imm":3179,"▁Durch":3180,"▁second":3181,"▁control":3182,"of":3183,"▁Fall":3184,"▁provide":3185,"gre":3186,"▁services":3187,"iate":3188,"zept":3189,"▁ander":3190,"unde":3191,"eschäf":3192,"ion,":3193,"▁Committee":3194,"▁Lös":3195,"▁gar":3196,"ohn":3197,"weg":3198,"▁einmal":3199,"▁Stadt":3200,"▁insbesondere":3201,"elf":3202,"zieh":3203,"ziel":3204,"▁det":3205,"▁pay":3206,"▁War":3207,"▁employ":3208,"▁Qual":3209,"on,":3210,"setzung":3211,"▁Qu":3212,"lungs":3213,"trä":3214,"▁link":3215,"por":3216,"chten":3217,"▁star":3218,"▁establish":3219,"▁außer":3220,"▁du":3221,"▁grow":3222,"▁Rest":3223,"▁read":3224,"▁verl":3225,"▁bestimm":3226,"ule":3227,"▁Verfüg":3228,"▁abs":3229,"ried":3230,"▁Ital":3231,"ash":3232,"▁Techn":3233,"▁Zug":3234,"kunft":3235,"jekt":3236,"▁ear":3237,"▁wirk":3238,"▁Komp":3239,"ma":3240,"▁Group":3241,"ining":3242,"▁that,":3243,"utes":3244,"▁beim":3245,"▁service":3246,"▁pop":3247,"falls":3248,"▁opport":3249,"▁inde":3250,"▁sk":3251,"▁Markt":3252,"igin":3253,"ren":3254,"-E":3255,"▁ersten":3256,"▁finden":3257,"an,":3258,"▁shall":3259,"▁Schw":3260,"pend":3261,"▁25":3262,"▁ho":3263,"▁erreich":3264,"▁Zusammenarbeit":3265,"▁necessary":3266,"unic":3267,"▁em":3268,"▁did":3269,"ultural":3270,"▁schw":3271,"▁14":3272,"▁Programm":3273,"politik":3274,"ien,":3275,"▁add":3276,"▁terr":3277,"▁Webs":3278,"ordin":3279,"▁princip":3280,"▁bl":3281,"ruct":3282,"▁|":3283,"▁begr":3284,"▁drei":3285,"orm":3286,"▁vo":3287,"▁action":3288,"▁zusammen":3289,"▁legisl":3290,"▁X":3291,"▁ä":3292,"▁Tag":3293,"▁security":3294,"▁pract":3295,"tschafts":3296,"▁Spiel":3297,"▁Cl":3298,"bau":3299,"▁taken":3300,"▁Mad":3301,"▁simp":3302,"▁invol":3303,"AT":3304,"igen,":3305,"bo":3306,"▁erst":3307,"▁health":3308,"▁ret":3309,"ald":3310,"örder":3311,"▁key":3312,"▁Änderungsant":3313,"ross":3314,"▁kann.":3315,"dress":3316,"äd":3317,"▁entwick":3318,"▁lead":3319,"enk":3320,"▁char":3321,"ordnung":3322,"stellung":3323,"burg":3324,"AN":3325,"bewer":3326,"iste":3327,"atte":3328,"ht,":3329,"ared":3330,"▁Tr":3331,"▁while":3332,"-m":3333,"▁inform":3334,"esser":3335,"▁bro":3336,"urz":3337,"▁wirtschaft":3338,"gether":3339,"▁16":3340,"nell":3341,"lect":3342,"▁Dienst":3343,"ichts":3344,"▁sicher":3345,"▁reason":3346,"cing":3347,"zess":3348,"▁ir":3349,"rodu":3350,"tes":3351,"▁located":3352,"▁situation":3353,"▁wish":3354,"rache":3355,"ktionen":3356,"▁Deb":3357,"joy":3358,"▁represent":3359,"▁power":3360,"▁Namen":3361,"rop":3362,"▁Da":3363,"▁protection":3364,"▁given":3365,"gangen":3366,"leit":3367,"▁Euro":3368,"heiten":3369,"▁implement":3370,"ES":3371,"IN":3372,"▁Comp":3373,"arch":3374,"▁come":3375,"schrif":3376,"ands":3377,"▁and,":3378,"iation":3379,"▁Parlaments":3380,"earch":3381,"▁refer":3382,"▁Ländern":3383,"▁Regierung":3384,"▁br":3385,"▁products":3386,"▁Sw":3387,"osition":3388,"▁writ":3389,"▁17":3390,"▁seinen":3391,"ests":3392,"▁Geschäf":3393,"rad":3394,"▁Rom":3395,"▁Vol":3396,"ains":3397,"ktor":3398,"▁können,":3399,"kten":3400,"ilfe":3401,"▁bar":3402,"üf":3403,"allen":3404,"▁Port":3405,"iew":3406,"▁tre":3407,"▁They":3408,"▁comb":3409,"wirk":3410,"▁Dar":3411,"co":3412,"▁Americ":3413,"▁Red":3414,"▁always":3415,"▁Ob":3416,"schein":3417,"▁komp":3418,"▁Besch":3419,"▁Bel":3420,"▁sens":3421,"▁Kolle":3422,"▁case":3423,"▁wäre":3424,"▁Kol":3425,"▁better":3426,"cell":3427,"▁net":3428,"▁United":3429,"▁start":3430,"ichterst":3431,"▁show":3432,"ustrie":3433,"▁akt":3434,"▁Beit":3435,"▁mult":3436,"ivil":3437,"▁why":3438,"ettbewer":3439,"▁(1":3440,"voll":3441,"ling":3442,"führung":3443,"kon":3444,"▁geht":3445,"erstell":3446,"▁Nutz":3447,"entrum":3448,"▁Not":3449,"▁too":3450,"ialog":3451,"▁glaub":3452,"▁energy":3453,"fre":3454,"▁complete":3455,"▁dank":3456,"wendung":3457,"arte":3458,"▁gehör":3459,"▁wicht":3460,"▁Unterstützung":3461,"▁rele":3462,"▁Umwelt":3463,"▁2010":3464,"▁2008":3465,"zü":3466,"▁hö":3467,"spro":3468,"bereich":3469,"ämp":3470,"▁hope":3471,"rechte":3472,"▁result":3473,"iod":3474,"▁La":3475,"▁fav":3476,"▁cho":3477,"▁letzten":3478,"▁Community":3479,"sequ":3480,"-b":3481,"atch":3482,"▁Energie":3483,"▁muß":3484,"iert,":3485,"less":3486,"▁issue":3487,"▁Kr":3488,"ikan":3489,"blick":3490,"▁Entscheid":3491,"▁measures":3492,"▁Bedeut":3493,"obil":3494,"reg":3495,"clus":3496,"▁using":3497,"ierungs":3498,"▁50":3499,"▁mov":3500,"undheit":3501,"▁Ko":3502,"▁consum":3503,"ising":3504,"▁ble":3505,"▁reach":3506,"▁legal":3507,"▁Sk":3508,"▁law":3509,"▁sing":3510,"▁entfern":3511,"▁sector":3512,"▁13":3513,"▁around":3514,"rän":3515,"igten":3516,"▁conne":3517,"ge,":3518,"▁Was":3519,"▁transport":3520,"ölk":3521,"▁event":3522,"▁Wel":3523,"▁current":3524,"▁Ser":3525,"abil":3526,"▁Lebens":3527,"▁deren":3528,"▁rep":3529,"▁production":3530,"-G":3531,"ucht":3532,"load":3533,"markt":3534,"▁What":3535,"pflich":3536,"▁vote":3537,"▁Gu":3538,"eite":3539,"▁sein.":3540,"▁welche":3541,"esellschaft":3542,"▁(A":3543,"ets":3544,"▁USA":3545,"pecial":3546,"bild":3547,"ately":3548,"ervor":3549,"ged":3550,"iter":3551,"▁clos":3552,"▁inner":3553,"▁short":3554,"lungen":3555,"▁Ergeb":3556,"▁non":3557,"▁Famil":3558,"▁rapp":3559,"▁bel":3560,"▁rooms":3561,"▁Fun":3562,"▁tour":3563,"wards":3564,"▁Hier":3565,"▁Mrs":3566,"▁based":3567,"itäten":3568,"sk":3569,"▁großen":3570,"▁Kunden":3571,"▁whether":3572,"▁große":3573,"▁individual":3574,"▁mor":3575,"lich,":3576,"altung":3577,"▁Situ":3578,"hof":3579,"agen":3580,"▁less":3581,"▁lim":3582,"▁crit":3583,"app":3584,"▁diffic":3585,"▁centre":3586,"uten":3587,"▁extre":3588,"ites":3589,"ünst":3590,"▁become":3591,"ctive":3592,"▁together":3593,"▁When":3594,"ott":3595,"schaften":3596,"▁near":3597,"▁sl":3598,"▁Aber":3599,"▁These":3600,"▁another":3601,"▁Fol":3602,"▁particularly":3603,"esen":3604,"▁government":3605,"eder":3606,"ferenz":3607,"ategor":3608,"▁International":3609,"▁dist":3610,"▁state":3611,"▁24":3612,"▁Schutz":3613,"▁1.":3614,"oten":3615,"ibution":3616,"ice.":3617,"▁lea":3618,"▁research":3619,"umen":3620,"-L":3621,"kauf":3622,"▁trade":3623,"▁field":3624,"ros":3625,"ße":3626,"▁Auch":3627,"▁zahl":3628,"▁dabei":3629,"upp":3630,"▁industr":3631,"druck":3632,"▁Bus":3633,"▁Vertrag":3634,"▁Bank":3635,"▁men":3636,"▁100":3637,"▁Restaur":3638,"▁him":3639,"-C":3640,"ify":3641,"▁Kinder":3642,"aden":3643,"▁rapporte":3644,"▁care":3645,"ice,":3646,"▁working":3647,"▁Beispiel":3648,"▁Regel":3649,"▁bekann":3650,"aster":3651,"▁Tur":3652,"▁Air":3653,"▁bene":3654,"▁notwend":3655,"▁Berichterst":3656,"▁join":3657,"▁Ben":3658,"▁km":3659,"▁call":3660,"ern.":3661,"▁met":3662,"▁dav":3663,"▁resolution":3664,"room":3665,"▁hervor":3666,"ichten":3667,"werk":3668,"ules":3669,"▁wurd":3670,"iar":3671,"ined":3672,"ckt":3673,"▁2007":3674,"▁öffent":3675,"le.":3676,"astr":3677,"▁UN":3678,"▁organ":3679,"ikel":3680,"▁visit":3681,"▁entsprech":3682,"▁local":3683,"isher":3684,"roll":3685,"arante":3686,"▁Zahl":3687,"▁Recht":3688,"▁specific":3689,"▁friend":3690,"ender":3691,"▁Proble":3692,"▁darüber":3693,"ique":3694,"ätze":3695,"▁Wirtschafts":3696,"▁erforder":3697,"ON":3698,"▁company":3699,"igkeiten":3700,"wach":3701,"▁restaur":3702,"▁Stud":3703,"▁decision":3704,"vest":3705,"▁citizens":3706,"▁break":3707,"▁San":3708,"▁aff":3709,"alle":3710,"▁resul":3711,"hö":3712,"▁subject":3713,"▁beach":3714,"ural":3715,"pecially":3716,"▁book":3717,"▁ann":3718,"▁gegenüber":3719,"▁eben":3720,"▁schnell":3721,"▁jeder":3722,"▁address":3723,"ty":3724,"▁hoff":3725,"ording":3726,"▁Gä":3727,"▁tax":3728,"▁El":3729,"▁various":3730,"äuf":3731,"▁brauch":3732,"ion.":3733,"▁New":3734,"▁exist":3735,"▁cours":3736,"▁Fahr":3737,"▁enjoy":3738,"ength":3739,"▁run":3740,"gaben":3741,"▁Weg":3742,"fäh":3743,"lock":3744,"▁Viel":3745,"▁col":3746,"▁EUR":3747,"▁Lie":3748,"▁di":3749,"▁experience":3750,"▁gesam":3751,"gemein":3752,"üt":3753,"iges":3754,"▁however,":3755,"▁Fort":3756,"▁ur":3757,"▁page":3758,"▁Präsident!":3759,"▁sowohl":3760,"▁step":3761,"▁old":3762,"▁Wahl":3763,"▁Haushalts":3764,"▁typ":3765,"▁Mark":3766,"hang":3767,"veral":3768,"▁Fragen":3769,"imate":3770,"▁bew":3771,"eign":3772,"adies":3773,"▁basis":3774,"▁guarante":3775,"schutz":3776,"50":3777,"▁weitere":3778,"▁profession":3779,"▁Mal":3780,"▁aim":3781,"▁beh":3782,"▁näch":3783,"til":3784,"▁(S":3785,"▁Gar":3786,"ocument":3787,"▁difficult":3788,"ogen":3789,"raum":3790,"▁eigenen":3791,"▁third":3792,"▁Ende":3793,"▁occ":3794,"▁dort":3795,"▁Ihrer":3796,"▁natürlich":3797,"▁Stra":3798,"▁pack":3799,"heb":3800,"▁Preis":3801,"▁beaut":3802,"▁comfort":3803,"▁really":3804,"use":3805,"ia.":3806,"▁China":3807,"▁meiner":3808,"▁budget":3809,"▁it.":3810,"geord":3811,"isation":3812,"ücks":3813,"▁deal":3814,"text":3815,"▁sum":3816,"▁commit":3817,"▁speak":3818,"▁nie":3819,"▁arbeit":3820,"▁cooperation":3821,"▁politischen":3822,"▁Haupt":3823,"▁klar":3824,"wand":3825,"▁Pre":3826,"enten":3827,"▁effort":3828,"▁distr":3829,"asser":3830,"▁innov":3831,"▁Park":3832,"üd":3833,"▁prior":3834,"▁month":3835,"isches":3836,"ingungen":3837,"▁Geschäfts":3838,"▁staff":3839,"angen":3840,"eten":3841,"spl":3842,"▁needs":3843,"▁account":3844,"▁cris":3845,"▁Deutsch":3846,"▁programm":3847,"▁gent":3848,"▁period":3849,"▁erfolg":3850,"uc":3851,"▁Gegen":3852,"chan":3853,"▁though":3854,"isen":3855,"▁Forsch":3856,"▁tot":3857,"geleg":3858,"▁teil":3859,"30":3860,"▁origin":3861,"ungen.":3862,"▁Mehr":3863,"▁proced":3864,"cellent":3865,"ünft":3866,"▁mot":3867,"ifiz":3868,"▁11":3869,"▁verschiedenen":3870,"▁rapporteur":3871,"▁Tour":3872,"▁wirklich":3873,"ograph":3874,"▁food":3875,"▁nam":3876,"-V":3877,"▁nor":3878,"i.":3879,"▁hoch":3880,"gabe":3881,"▁top":3882,"▁innerhalb":3883,"zuf":3884,"▁besonders":3885,"arn":3886,"▁Berichterstatter":3887,"▁Ausschuss":3888,"ober":3889,"▁especially":3890,"▁negot":3891,"ly.":3892,"▁create":3893,"▁daher":3894,"genommen":3895,"AR":3896,"lich.":3897,"▁problems":3898,"▁Zwe":3899,"▁Minister":3900,"▁:":3901,"oment":3902,"▁plan":3903,"by":3904,"▁Treat":3905,"▁turn":3906,"▁Alle":3907,"c.":3908,"el,":3909,"ig,":3910,"▁private":3911,"▁water":3912,"stoff":3913,"▁Fest":3914,"▁Rolle":3915,"ension":3916,"ton":3917,"inter":3918,"istic":3919,"▁perform":3920,"▁treat":3921,"▁press":3922,"-H":3923,"IT":3924,"▁Jan":3925,"▁approach":3926,"▁personal":3927,"▁vielen":3928,"▁betr":3929,"▁close":3930,"yl":3931,"▁Lin":3932,"▁Natur":3933,"▁million":3934,"▁zwar":3935,"▁verwend":3936,"uter":3937,"\".":3938,"▁soc":3939,"▁gener":3940,"oor":3941,"duc":3942,"▁reform":3943,"▁prop":3944,"ec":3945,"▁Wettbewer":3946,"\",":3947,"▁favour":3948,"▁Seite":3949,"asse":3950,"▁enter":3951,"▁dra":3952,"olf":3953,"▁terms":3954,"ht.":3955,"▁among":3956,"▁job":3957,"▁Kollegen":3958,"row":3959,"hmen":3960,"▁internationalen":3961,"▁ihnen":3962,"iol":3963,"▁itself":3964,"zip":3965,"▁someth":3966,"▁Terr":3967,"eiten":3968,"▁langu":3969,"▁ess":3970,"ugen":3971,"▁Kolleg":3972,"▁Gru":3973,"rieden":3974,"▁initi":3975,"▁several":3976,"bene":3977,"▁general":3978,"▁Dire":3979,"▁struct":3980,"ival":3981,"glichen":3982,"▁doub":3983,"▁Wind":3984,"▁Chr":3985,"▁install":3986,"▁Afr":3987,"▁resour":3988,"ination":3989,"▁material":3990,"leb":3991,"imal":3992,"ature":3993,"mework":3994,"gen,":3995,"▁Disk":3996,"▁Richtlinie":3997,"▁document":3998,"tember":3999,"▁town":4000,"▁direkt":4001,"▁role":4002,"▁Software":4003,"▁increas":4004,"▁Op":4005,"▁webs":4006,"ipt":4007,"▁Verbrauch":4008,"▁Ihren":4009,"ts.":4010,"▁(P":4011,"ritte":4012,"uth":4013,"▁natur":4014,"ände":4015,"partment":4016,"▁No":4017,"▁regul":4018,"▁Uhr":4019,"▁enc":4020,"▁dür":4021,"▁Woch":4022,"▁hinaus":4023,"▁besteht":4024,"wh":4025,"▁gl":4026,"▁let":4027,"▁inc":4028,"▁pat":4029,"▁single":4030,"▁port":4031,"ksam":4032,"▁Strateg":4033,"wär":4034,"▁Thema":4035,"▁mar":4036,"ünf":4037,"cher":4038,"mos":4039,"▁automat":4040,"eg":4041,"▁davon":4042,"oren":4043,"iety":4044,"haus":4045,"▁whole":4046,"dings":4047,"▁introdu":4048,"führt":4049,"▁gewähr":4050,"▁aufge":4051,"ived":4052,"▁Kü":4053,"'t":4054,"▁she":4055,"▁excellent":4056,"▁lo":4057,"▁progress":4058,"▁course":4059,"▁away":4060,"bet":4061,"amt":4062,"▁serious":4063,"▁alles":4064,"▁peace":4065,"▁Zukunft":4066,"ches":4067,"-in":4068,"▁kind":4069,"▁beginn":4070,"IS":4071,"▁creat":4072,"▁Union.":4073,"d.":4074,"redit":4075,"▁opin":4076,"nehmer":4077,"▁gentlem":4078,"▁mean":4079,"ards":4080,"▁something":4081,"ts,":4082,"▁wurde,":4083,"zeichnet":4084,"▁management":4085,"gric":4086,"lik":4087,"▁sup":4088,"▁2000":4089,"▁function":4090,"▁konn":4091,"ennt":4092,"ably":4093,"▁Fisch":4094,"uellen":4095,"▁Seiten":4096,"▁following":4097,"lauf":4098,"▁understand":4099,"hens":4100,"ittle":4101,"▁tro":4102,"ima":4103,"▁list":4104,"▁Weise":4105,"▁making":4106,"▁particip":4107,"wä":4108,"affen":4109,"thing":4110,"ations.":4111,"▁ermöglich":4112,"▁steht":4113,"▁Transp":4114,"▁Berlin":4115,"uchen":4116,"▁House":4117,"▁Emp":4118,"fehl":4119,"▁crisis":4120,"▁europäische":4121,"though":4122,"cel":4123,"▁going":4124,"▁ans":4125,"▁contact":4126,"▁Frauen":4127,"▁accept":4128,"▁forward":4129,"▁anal":4130,"▁waren":4131,"▁benef":4132,"▁Frank":4133,"▁sett":4134,"ity.":4135,"produ":4136,"▁World":4137,"▁mone":4138,"▁extrem":4139,"ners":4140,"▁My":4141,"▁Gesundheit":4142,"▁gra":4143,"▁members":4144,"▁erste":4145,"▁Probleme":4146,"▁once":4147,"▁software":4148,"CH":4149,"▁gentlemen,":4150,"▁stark":4151,"lag":4152,"▁198":4153,"▁Rep":4154,"▁range":4155,"ca":4156,"▁towards":4157,"ache":4158,"legenheit":4159,"▁wurde.":4160,"▁bal":4161,"▁befindet":4162,"▁express":4163,"▁genau":4164,"ody":4165,"ury":4166,"▁Univers":4167,"uh":4168,"ots":4169,"▁absol":4170,"▁einzel":4171,"▁don":4172,"▁Invest":4173,"rieb":4174,"▁Million":4175,"▁recog":4176,"▁continue":4177,"▁dest":4178,"▁mention":4179,"indung":4180,"▁Zusammenhang":4181,"▁Gleich":4182,"▁walk":4183,"cken":4184,"▁issu":4185,"ologie":4186,"▁hät":4187,"▁post":4188,"ference":4189,"▁Abgeord":4190,"▁communic":4191,"▁feel":4192,"rechen":4193,"-0":4194,"▁ident":4195,"rael":4196,"▁Car":4197,"▁Nov":4198,"▁often":4199,"itäts":4200,"▁until":4201,"omb":4202,"▁land":4203,"▁Pe":4204,"▁Kar":4205,"▁milit":4206,"asst":4207,"emp":4208,"▁unserem":4209,"▁Gäste":4210,"gän":4211,"halten.":4212,"▁Madam":4213,"yr":4214,"▁App":4215,"outh":4216,"▁time,":4217,"▁week":4218,"wirtschaft":4219,"▁Artikel":4220,"▁nutz":4221,"armon":4222,"▁beiden":4223,"▁National":4224,"▁aid":4225,"stum":4226,"▁ant":4227,"uff":4228,"2.":4229,"sprache":4230,"▁defin":4231,"▁Rück":4232,"▁finanz":4233,"fect":4234,"usätz":4235,"uell":4236,"▁strong":4237,"▁2006":4238,"ype":4239,"-1":4240,"▁sagen,":4241,"▁Do":4242,"▁Span":4243,"▁Entschließ":4244,"vent":4245,"tract":4246,"▁2.":4247,"▁Can":4248,"▁Bedeutung":4249,"as,":4250,"▁Kultur":4251,"ächst":4252,"▁Met":4253,"ences":4254,"stimmung":4255,"OR":4256,"isions":4257,"idence":4258,"onn":4259,"▁bieten":4260,"▁weltw":4261,"leicht":4262,"▁opportunity":4263,"ym":4264,"zimmer":4265,"plan":4266,"▁Jul":4267,"▁little":4268,"ativen":4269,"ally,":4270,"ußen":4271,"▁Verantwort":4272,"bei":4273,"ment.":4274,"-f":4275,"▁Sep":4276,"▁Fil":4277,"ars":4278,"▁rather":4279,"▁keep":4280,"▁Demokrat":4281,"▁bz":4282,"ment,":4283,"▁growth":4284,"▁stehen":4285,"ika":4286,"r.":4287,"▁activities":4288,"▁mind":4289,"schriften":4290,"imum":4291,"ij":4292,"half":4293,"▁hard":4294,"ocus":4295,"full":4296,"erien":4297,"uft":4298,"▁Dieses":4299,"aps":4300,"▁Bas":4301,"▁Fraktion":4302,"edom":4303,"▁check":4304,"▁life":4305,"pekt":4306,"go":4307,"▁Deutschland":4308,"weil":4309,"▁ve":4310,"▁quite":4311,"▁il":4312,"mäß":4313,"▁Mo":4314,"▁Weit":4315,"▁fast":4316,"▁seem":4317,"ity,":4318,"▁Union,":4319,"▁Staaten":4320,"▁Service":4321,"mor":4322,"▁sw":4323,"AS":4324,"▁(D":4325,"▁begrü":4326,"▁Organis":4327,"▁Partner":4328,"ison":4329,"assen.":4330,"▁phot":4331,"ean":4332,"▁ihn":4333,"▁tas":4334,"▁bzw.":4335,"▁elect":4336,"▁sug":4337,"▁Sc":4338,"▁Hotels":4339,"▁dev":4340,"ämpf":4341,"bour":4342,"▁indem":4343,"igt,":4344,"ino":4345,"ises":4346,"stra":4347,"▁chang":4348,"▁behalf":4349,"▁Schluss":4350,"fall":4351,"▁Commissioner":4352,"icle":4353,"agn":4354,"arian":4355,"letz":4356,"enzen":4357,"räge":4358,"▁women":4359,"ethod":4360,"▁Deshalb":4361,"▁qual":4362,"ommend":4363,"▁least":4364,"▁Cent":4365,"▁children":4366,"age,":4367,"▁try":4368,"▁four":4369,"genden":4370,"▁Stell":4371,"▁gesag":4372,"mosph":4373,"ails":4374,"▁Dienstleist":4375,"▁big":4376,"▁effic":4377,"▁Sa":4378,"▁relations":4379,"▁spiel":4380,"▁include":4381,"abhäng":4382,"▁signific":4383,"▁remain":4384,"▁weniger":4385,"▁näm":4386,"▁might":4387,"teilung":4388,"▁verw":4389,"the":4390,"▁lab":4391,"wohl":4392,"füll":4393,"▁increase":4394,"iful":4395,"▁etwa":4396,"▁Char":4397,"▁gute":4398,"▁State":4399,"ica":4400,"▁Sozial":4401,"onger":4402,"ively":4403,"amental":4404,"▁fully":4405,"▁done":4406,"ization":4407,"▁ideal":4408,"▁Ass":4409,"ter,":4410,"▁verfü":4411,"onds":4412,"▁persön":4413,"▁park":4414,"▁positive":4415,"ure,":4416,"▁zahlreich":4417,"▁welcome":4418,"▁erhalten":4419,"einander":4420,"▁After":4421,"enen":4422,"▁agree":4423,"▁September":4424,"ides":4425,"▁Erfahr":4426,"zeitig":4427,"▁kurz":4428,"▁sogar":4429,"▁pur":4430,"▁Projekt":4431,"▁content":4432,"▁framework":4433,"▁having":4434,"▁jeden":4435,"▁ladies":4436,"ratic":4437,"▁directive":4438,"▁conditions":4439,"hunder":4440,"▁bor":4441,"▁admin":4442,"äge":4443,"▁Pat":4444,"recht":4445,"icial":4446,"ety":4447,"▁Punkt":4448,"▁nah":4449,"▁an.":4450,"▁Geld":4451,"▁Per":4452,"völk":4453,"▁educ":4454,"OM":4455,"▁along":4456,"▁risk":4457,"self":4458,"ification":4459,"selves":4460,"▁continu":4461,"-W":4462,"gen.":4463,"ächlich":4464,"ellen":4465,"met":4466,"▁Hilfe":4467,"▁arch":4468,"▁)":4469,"bereit":4470,"▁Austr":4471,"▁log":4472,"▁pa":4473,"baren":4474,"auer":4475,"▁Situation":4476,"racht":4477,"▁issues":4478,"sweise":4479,"▁Priv":4480,"▁recommend":4481,"immt":4482,"▁Ange":4483,"▁gerade":4484,"▁above":4485,"rank":4486,"▁hour":4487,"eits":4488,"▁companies":4489,"▁Tod":4490,"▁unterschied":4491,"▁kann,":4492,"tag":4493,"▁Institution":4494,"▁Millionen":4495,"▁fair":4496,"oph":4497,"▁oth":4498,"ric":4499,"verb":4500,"fast":4501,"▁machen":4502,"lean":4503,"esehen":4504,"ai":4505,"▁adopted":4506,"▁nicht,":4507,"iere":4508,"▁example,":4509,"▁nämlich":4510,"ostel":4511,"▁suf":4512,"▁Sal":4513,"erecht":4514,"▁essential":4515,"igen.":4516,"▁network":4517,"▁Dank":4518,"▁bitte":4519,"▁Zugang":4520,"uz":4521,"tigen":4522,"▁Tats":4523,"▁Tür":4524,"▁strength":4525,"▁Web":4526,"iberal":4527,"▁ihm":4528,"atis":4529,"▁statt":4530,"wahl":4531,"▁flo":4532,"unst":4533,"▁seinem":4534,"▁ü":4535,"most":4536,"ief":4537,"▁taking":4538,"▁viol":4539,"▁Leben":4540,"ierungen":4541,"frage":4542,"anst":4543,"▁led":4544,"▁charac":4545,"age.":4546,"▁entire":4547,"bank":4548,"▁Bezug":4549,"▁40":4550,"ager":4551,"▁makes":4552,"▁meisten":4553,"▁class":4554,"▁tool":4555,"stant":4556,"▁Dieser":4557,"lei":4558,"▁bank":4559,"▁stre":4560,"▁transpar":4561,"eum":4562,"ce,":4563,"▁called":4564,"▁bleib":4565,"▁bede":4566,"▁darf":4567,"▁flex":4568,"unehm":4569,"▁agric":4570,"▁Unsere":4571,"▁Nor":4572,"▁bath":4573,"▁send":4574,"▁politische":4575,"▁Janu":4576,"▁return":4577,"ure.":4578,"▁Chin":4579,"▁text":4580,"bare":4581,"äum":4582,"liches":4583,"reicht":4584,"▁constru":4585,"▁never":4586,"▁Kap":4587,"ül":4588,"▁provided":4589,"igr":4590,"ex":4591,"▁focus":4592,"▁Buch":4593,"▁wesent":4594,"▁genann":4595,"word":4596,"▁eur":4597,"rift":4598,"▁line":4599,"▁Zust":4600,"▁Initi":4601,"▁time.":4602,"ünsch":4603,"aten,":4604,"▁gre":4605,"ruktur":4606,"▁ak":4607,"▁2005":4608,"igital":4609,"▁ebenfalls":4610,"find":4611,"▁gib":4612,"▁anges":4613,"▁stellt":4614,"▁Rechte":4615,"▁name":4616,"▁wahr":4617,"▁Frei":4618,"▁instrument":4619,"amb":4620,"▁One":4621,"▁location":4622,"▁family":4623,"aussch":4624,"vement":4625,"▁Grün":4626,"▁freedom":4627,"▁Verkehr":4628,"side":4629,"▁Verhand":4630,"▁attention":4631,"berg":4632,"▁Gesetz":4633,"▁Produktion":4634,"henden":4635,"▁(C":4636,"bon":4637,"▁Antw":4638,"▁Entwicklungs":4639,"ured":4640,"▁Gl":4641,"▁pot":4642,"ideo":4643,"▁provides":4644,"▁tele":4645,"▁recht":4646,"▁ren":4647,"▁Sel":4648,"wohn":4649,"erst":4650,"urf":4651,"▁Ide":4652,"▁demand":4653,"▁Europe.":4654,"▁home":4655,"▁cover":4656,"▁Text":4657,"rolle":4658,"AL":4659,"▁responsibility":4660,"atives":4661,"issen,":4662,"▁sehen":4663,"▁Lösung":4664,"▁neu":4665,"▁beautiful":4666,"▁deliver":4667,"▁Em":4668,"▁Sub":4669,"▁etc.":4670,"ufact":4671,"▁öffentlichen":4672,"irc":4673,"iken":4674,"▁derzeit":4675,"▁(E":4676,"▁appropr":4677,"benso":4678,"han":4679,"▁rela":4680,"now":4681,"▁talk":4682,"▁recent":4683,"▁Nicht":4684,"▁Jahres":4685,"▁online":4686,"rieg":4687,"▁course,":4688,"apan":4689,"is,":4690,"▁Unternehm":4691,"ested":4692,"ampf":4693,"▁due":4694,"▁perfect":4695,"▁dom":4696,"züglich":4697,"▁Just":4698,"▁team":4699,"▁importance":4700,"▁(F":4701,"▁Verw":4702,"▁Kosten":4703,"▁Hö":4704,"▁Produkt":4705,"▁Flug":4706,"▁mass":4707,"▁rules":4708,"ta":4709,"▁sport":4710,"wür":4711,"ustain":4712,"äus":4713,"▁Beschäft":4714,"▁Früh":4715,"issenschaft":4716,"greif":4717,"ive,":4718,"▁Rei":4719,"▁yet":4720,"▁ihrem":4721,"▁vol":4722,"▁head":4723,"▁Jahrhunder":4724,"▁Angeb":4725,"▁Produkte":4726,"▁site":4727,"lease":4728,"zustell":4729,"▁known":4730,"▁Europas":4731,"▁bedeute":4732,"▁price":4733,"iled":4734,"▁Prof":4735,"ustry":4736,"▁easy":4737,"▁TV":4738,"▁holid":4739,"-O":4740,"▁keinen":4741,"schließlich":4742,"rimin":4743,"▁Groß":4744,"▁Commissioner,":4745,"▁simply":4746,"▁2004":4747,"▁Jun":4748,"▁Israel":4749,"uk":4750,"▁Members":4751,"▁Wes":4752,"zogen":4753,"ledge":4754,"▁method":4755,"telle":4756,"äll":4757,"verkehr":4758,"▁left":4759,"spolitik":4760,"ser":4761,"aged":4762,"forderungen":4763,"▁zusätz":4764,"dern,":4765,"▁nationalen":4766,"▁Cont":4767,"ban":4768,"ilf":4769,"al.":4770,"ception":4771,"illa":4772,"ations,":4773,"fore,":4774,"▁Tre":4775,"▁Funktion":4776,"unds":4777,"lemen":4778,"▁Rates":4779,"▁test":4780,"▁table":4781,"▁moment":4782,"▁road":4783,"The":4784,"iting":4785,"▁greater":4786,"▁weiterhin":4787,"▁II":4788,"unächst":4789,"cript":4790,"▁sal":4791,"▁arr":4792,"▁sure":4793,"▁erwar":4794,"▁verste":4795,"▁fish":4796,"▁rad":4797,"▁müssen.":4798,"99":4799,"▁Sitz":4800,"▁schließ":4801,"▁Wach":4802,"ig.":4803,"▁heiß":4804,"▁environmental":4805,"hib":4806,"▁Fortsch":4807,"astru":4808,"▁ja":4809,"▁young":4810,"ption":4811,"▁Christ":4812,"ücksichtig":4813,"▁Ag":4814,"▁light":4815,"▁central":4816,"▁heart":4817,"▁kosten":4818,"▁building":4819,"sid":4820,"▁einigen":4821,"frastru":4822,"▁guest":4823,"▁stärk":4824,"▁customers":4825,"änger":4826,"halten,":4827,"OS":4828,"spruch":4829,"sen":4830,"inge":4831,"iations":4832,"▁moder":4833,"▁Cas":4834,"▁Design":4835,"unities":4836,"AD":4837,"term":4838,"▁heraus":4839,"imes":4840,"▁Far":4841,"igent":4842,"▁fa":4843,"▁abge":4844,"▁natural":4845,"▁things":4846,"▁manufact":4847,"▁reserv":4848,"▁Bem":4849,"▁erklär":4850,"▁(B":4851,"▁attra":4852,"▁23":4853,"▁Leist":4854,"▁an,":4855,"▁farm":4856,"ift":4857,"▁systems":4858,"▁besser":4859,"▁benö":4860,"▁total":4861,"ances":4862,"▁music":4863,"▁deshalb":4864,"▁authorities":4865,"▁Mor":4866,"▁capital":4867,"▁max":4868,"unch":4869,"fully":4870,"▁quick":4871,"▁unver":4872,"assen,":4873,"▁infl":4874,"▁Plan":4875,"arf":4876,"▁Wohn":4877,"ürz":4878,"▁cla":4879,"▁tem":4880,"▁Apr":4881,"▁Fot":4882,"schlag":4883,"▁verfüg":4884,"▁democra":4885,"▁parl":4886,"läss":4887,"▁relax":4888,"aler":4889,"▁Aussprache":4890,"▁worden":4891,"enc":4892,"▁dessen":4893,"▁competition":4894,"i-":4895,"▁Sport":4896,"▁aufgrund":4897,"▁effective":4898,"▁pub":4899,"atic":4900,"oting":4901,"▁interess":4902,"▁money":4903,"ceed":4904,"▁May":4905,"▁extra":4906,"▁Bezieh":4907,"nete":4908,"▁value":4909,"▁learn":4910,"▁programme":4911,"fte":4912,"ie,":4913,"▁achieve":4914,"▁Pra":4915,"▁lar":4916,"▁aspect":4917,"▁technical":4918,"ning":4919,"''":4920,"ames":4921,"▁Govern":4922,"▁meeting":4923,"▁wichtige":4924,"▁increasing":4925,"m.":4926,"▁sour":4927,"▁wenig":4928,"ance,":4929,"▁Will":4930,"fin":4931,"äsent":4932,"▁share":4933,"▁Besuch":4934,"▁November":4935,"hing":4936,"▁Dok":4937,"stück":4938,"erous":4939,"ant,":4940,"gestellt":4941,"▁Wort":4942,"atal":4943,"uelle":4944,"▁gilt":4945,"anze":4946,"▁request":4947,"igur":4948,"▁according":4949,"▁via":4950,"▁besten":4951,"▁z.":4952,"▁Kunst":4953,"▁appear":4954,"▁significant":4955,"▁erfolgreich":4956,"zentr":4957,"▁Mitarbeit":4958,"▁Menschenrechte":4959,"▁partners":4960,"▁beispiel":4961,"▁Benutz":4962,"▁Ansicht":4963,"▁fundamental":4964,"▁longer":4965,"▁nichts":4966,"▁internal":4967,"60":4968,"ären":4969,"▁Schul":4970,"▁example":4971,"▁facilities":4972,"▁Nä":4973,"-Pro":4974,"äter":4975,"omfort":4976,"▁Bro":4977,"alität":4978,"▁verein":4979,"▁enough":4980,"us,":4981,"change":4982,"▁obl":4983,"▁setz":4984,"▁Bevölk":4985,"▁Von":4986,"▁solche":4987,"platz":4988,"▁responsible":4989,"▁version":4990,"▁character":4991,"jen":4992,"mals":4993,"treten":4994,"pflicht":4995,"▁ern":4996,"▁disk":4997,"/200":4998,"▁Brit":4999,"▁First":5000,"▁Meinung":5001,"▁caus":5002,"▁könnte":5003,"▁erne":5004,"▁vorgesch":5005,"▁nächsten":5006,"▁Sol":5007,"▁Mensch":5008,"EC":5009,"▁industry":5010,"▁Förder":5011,"▁Verbraucher":5012,"▁oft":5013,"▁Such":5014,"▁Industrie":5015,"▁konk":5016,"▁lange":5017,"▁verbunden":5018,"▁minutes":5019,"ios":5020,"▁prevent":5021,"orted":5022,"▁maintain":5023,"▁Auss":5024,"▁thing":5025,"▁Program":5026,"▁vier":5027,"▁Gemeinschaft":5028,"▁civil":5029,"▁Ira":5030,"▁April":5031,"ublik":5032,"frist":5033,"heim":5034,"▁Bud":5035,"ians":5036,"iner":5037,"▁currently":5038,"▁müssen,":5039,"schluss":5040,"▁ed":5041,"stadt":5042,"▁terror":5043,"▁all,":5044,"n,":5045,"haltung":5046,"▁assist":5047,"ench":5048,"▁Stad":5049,"▁clearly":5050,"B.":5051,"roffen":5052,"IC":5053,"▁Website":5054,"▁Nord":5055,"▁web":5056,"▁Ir":5057,"▁sustain":5058,"▁wollen":5059,"▁days":5060,"▁prec":5061,"▁Fern":5062,"verständ":5063,"▁000":5064,"▁Abstimmung":5065,"▁Fehl":5066,"has":5067,"drück":5068,"irt":5069,"hem":5070,"▁Klima":5071,"▁Wasser":5072,"▁illeg":5073,"▁Co":5074,"▁sele":5075,"▁is,":5076,"2,":5077,"▁mount":5078,"▁proposals":5079,"oid":5080,"▁Aug":5081,"▁Umsetzung":5082,"▁benutz":5083,"▁application":5084,"US":5085,"▁Insel":5086,"▁Bü":5087,"▁Wirtschaft":5088,"▁zie":5089,"▁Wachstum":5090,"▁Struktur":5091,"▁featur":5092,"▁versch":5093,"unkte":5094,"el.":5095,"▁mess":5096,"▁Selbst":5097,"cep":5098,"AP":5099,"▁stor":5100,"▁verbess":5101,"▁betre":5102,"teile":5103,"▁foreign":5104,"isc":5105,"▁Bau":5106,"za":5107,"▁low":5108,"▁voted":5109,"▁201":5110,"▁extremely":5111,"▁Gre":5112,"orr":5113,"▁entscheid":5114,"fassung":5115,"istischen":5116,"afen":5117,"rab":5118,"▁Netz":5119,"▁197":5120,"▁Verfügung":5121,"▁Dam":5122,"▁From":5123,"▁recogn":5124,"▁Mot":5125,"▁servic":5126,"mbH":5127,"ce.":5128,"griff":5129,"▁Raum":5130,"▁camp":5131,"▁weiß":5132,"sh":5133,"▁AG":5134,"▁gemeinsamen":5135,"ency":5136,"▁cultural":5137,"ysteme":5138,"▁2003":5139,"▁lassen":5140,"▁jeweil":5141,"iten":5142,".0":5143,"▁contain":5144,"▁amendments":5145,"▁item":5146,"▁Erfolg":5147,"▁kont":5148,"▁Kons":5149,"-d":5150,"▁Grundlage":5151,"▁Druck":5152,"ynam":5153,"▁Soc":5154,"▁Ort":5155,"ommod":5156,"ritten":5157,"iable":5158,"▁them.":5159,"▁bedeut":5160,"lang":5161,"▁wohl":5162,"neten":5163,"land,":5164,"▁Pf":5165,"▁Trans":5166,"▁Cour":5167,"▁vielleicht":5168,"▁Qualität":5169,"▁wind":5170,"▁safety":5171,"dam":5172,"▁lat":5173,"ichtet":5174,"▁hatte":5175,"▁prep":5176,"obile":5177,"▁Version":5178,"ave":5179,"inzip":5180,"▁GmbH":5181,"▁Off":5182,"play":5183,"schaft,":5184,"▁Einz":5185,"tet,":5186,"▁Bek":5187,"▁Treaty":5188,"hend":5189,"▁upon":5190,"ee":5191,"▁user":5192,"▁circ":5193,"▁erziel":5194,"▁charge":5195,"▁expect":5196,"▁Musik":5197,"▁demokrat":5198,"▁sty":5199,"▁wissen,":5200,"idency":5201,"▁separ":5202,"such":5203,"▁Parte":5204,"▁challen":5205,"▁Ihrem":5206,"▁geben":5207,"▁Auswirk":5208,"▁Wieder":5209,"u.":5210,"ely,":5211,"▁Tages":5212,"▁Son":5213,"ork":5214,"▁Please":5215,"achten":5216,"▁bevor":5217,"▁lot":5218,"▁zust":5219,"▁Personen":5220,"▁Tro":5221,"amous":5222,"▁Krit":5223,"▁erreicht":5224,"inner":5225,"schn":5226,"▁corre":5227,"ri":5228,"▁fünf":5229,"lands":5230,"▁beispielsweise":5231,"▁directly":5232,"▁protect":5233,"ller":5234,"mitted":5235,"techn":5236,"▁live":5237,"ona":5238,"EL":5239,"▁Außen":5240,"idd":5241,"würd":5242,"sichtlich":5243,"▁Einsatz":5244,"▁ö":5245,"▁comfortable":5246,"vert":5247,"onstr":5248,"ented":5249,"bl":5250,"bie":5251,"atten":5252,"▁countries.":5253,"ilder":5254,"▁fight":5255,"aging":5256,"▁gestell":5257,"▁pool":5258,"▁By":5259,"andid":5260,"ine,":5261,"istan":5262,"▁Kön":5263,"▁proposed":5264,"▁Daher":5265,"▁Außer":5266,"▁Mär":5267,"crib":5268,"▁Windows":5269,"▁Damen":5270,"▁werde":5271,"merksam":5272,"▁guarantee":5273,"▁Tele":5274,"-,":5275,"▁situated":5276,"anten":5277,"▁targe":5278,"▁Heraus":5279,"▁Date":5280,"deut":5281,"▁optim":5282,"▁Meer":5283,"▁eith":5284,"▁Book":5285,"öffentlich":5286,"▁Ebene":5287,"▁Anwendung":5288,"▁allerdings":5289,"▁previous":5290,"▁Wert":5291,"▁normal":5292,"▁angeb":5293,"▁Stre":5294,"▁sozialen":5295,"ien.":5296,"ms":5297,"▁weltweit":5298,"▁happ":5299,"▁regional":5300,"▁verst":5301,"▁einges":5302,"mut":5303,"▁indic":5304,"best":5305,"um,":5306,"gebung":5307,"▁war,":5308,"▁daran":5309,"▁required":5310,"▁costs":5311,"ate.":5312,"▁client":5313,"▁Blick":5314,"ppe":5315,"▁Prozess":5316,"val":5317,"▁übern":5318,"▁Fund":5319,"▁stellen":5320,"▁States.":5321,"▁Reihe":5322,"▁Erweit":5323,"▁mag":5324,"ww.":5325,"▁bit":5326,"▁More":5327,"▁Gebiet":5328,"▁Lis":5329,"▁kleinen":5330,"▁South":5331,"ance.":5332,"hes":5333,"▁Öff":5334,"▁created":5335,"ana":5336,"ilater":5337,"▁ausgest":5338,"TM":5339,"▁60":5340,"▁comes":5341,"▁happen":5342,"▁stim":5343,"▁Prot":5344,"▁clean":5345,"▁Aktiv":5346,"▁surround":5347,"stall":5348,"▁please":5349,"ette":5350,"▁21":5351,"lier":5352,"▁Arbeitspl":5353,"bahn":5354,"ound":5355,"TO":5356,"ise,":5357,"▁kommt":5358,"ump":5359,"vant":5360,"▁Erklär":5361,"▁Den":5362,"▁apply":5363,"▁soon":5364,"▁improve":5365,"▁Schwe":5366,"▁amb":5367,"▁höch":5368,"▁Hinblick":5369,"▁Mod":5370,"▁statement":5371,"▁resources":5372,"▁Werk":5373,"cent":5374,"hab":5375,"▁Hoch":5376,"-In":5377,"▁final":5378,"▁pict":5379,"ided":5380,"▁Nähe":5381,"▁€":5382,"▁Mont":5383,"▁schwier":5384,"spräsident":5385,"ired":5386,"▁Integr":5387,"trie":5388,"▁accommod":5389,"▁funktion":5390,"▁monitor":5391,"▁developing":5392,"▁French":5393,"unik":5394,"▁views":5395,"ommen.":5396,"▁Europe,":5397,"▁richt":5398,"hörden":5399,"▁immed":5400,"vin":5401,"▁verschiedene":5402,"bel":5403,"▁‘":5404,"▁pages":5405,"▁Su":5406,"▁schaff":5407,"▁Aff":5408,"lossen":5409,"▁möchten":5410,"▁altern":5411,"▁almost":5412,"▁results":5413,"ymb":5414,"▁card":5415,"ast,":5416,"▁Ziele":5417,"▁analys":5418,"RO":5419,"öhn":5420,"ibr":5421,"▁vill":5422,"eless":5423,"▁democratic":5424,"ikt":5425,"erc":5426,"▁institutions":5427,"▁cut":5428,"▁additional":5429,"orf":5430,"▁Room":5431,"▁Japan":5432,"chsel":5433,"▁que":5434,"▁findet":5435,"usst":5436,"▁Steuer":5437,"▁points":5438,"▁schrift":5439,"üssel":5440,"▁Diskuss":5441,"▁climate":5442,"▁file":5443,"aking":5444,"lack":5445,"▁Platz":5446,"▁Investition":5447,"▁Gesellschaft":5448,"▁gemeinsame":5449,"▁travel":5450,"▁pow":5451,"▁regulation":5452,"system":5453,"▁Zentrum":5454,"▁es,":5455,"▁review":5456,"IP":5457,"▁house":5458,"▁Kir":5459,"ennen":5460,"wind":5461,"▁Änderungsantrag":5462,"▁EC":5463,"▁actually":5464,"▁encour":5465,"▁Doch":5466,"▁Rechn":5467,"ulate":5468,"▁exam":5469,"▁Unser":5470,"▁contract":5471,"▁lack":5472,"▁deutlich":5473,"▁Süd":5474,"ube":5475,"▁akzept":5476,"pendent":5477,"▁kommen":5478,"L)":5479,"ilar":5480,"iment":5481,"▁tats":5482,"▁hold":5483,"lied":5484,"▁vollständ":5485,"▁betra":5486,"▁Mill":5487,"que":5488,"▁download":5489,"▁Demokratie":5490,"ipped":5491,"▁Rad":5492,"▁appropriate":5493,"▁dialog":5494,"barkeit":5495,"▁Richtung":5496,"▁Sicherheits":5497,"▁schein":5498,"▁bess":5499,"hinder":5500,"prüf":5501,"▁Beg":5502,"richtung":5503,"▁holiday":5504,"igungs":5505,"▁Arch":5506,"▁official":5507,"ding":5508,"▁enl":5509,"▁Ausdruck":5510,"▁receive":5511,"▁allgemein":5512,"▁Kle":5513,"pre":5514,"▁Germany":5515,"▁27":5516,"▁Nie":5517,"▁Vorschläge":5518,"▁developed":5519,"▁American":5520,"ID":5521,"frei":5522,"▁thus":5523,"erra":5524,"tended":5525,"▁connection":5526,"adurch":5527,"▁assoc":5528,"▁Dat":5529,"▁Bedingungen":5530,"▁Ergebnis":5531,"rechts":5532,"▁professional":5533,"▁Iran":5534,"▁gesamten":5535,"gesehen":5536,"-st":5537,"chs":5538,"atory":5539,"feld":5540,"auber":5541,"▁contrib":5542,"▁Interesse":5543,"tt":5544,"▁Verantwortung":5545,"▁erwä":5546,"▁world.":5547,"▁implementation":5548,"▁training":5549,"▁vor,":5550,"öll":5551,"ished":5552,"▁States,":5553,"▁Vertre":5554,"anced":5555,"▁publish":5556,"▁West":5557,":00":5558,"▁school":5559,"▁Kolleginnen":5560,"▁Portug":5561,"▁questions":5562,"ators":5563,"ood":5564,"▁suggest":5565,"▁propert":5566,"▁erk":5567,"ane":5568,"▁rat":5569,"▁ce":5570,"atisf":5571,"▁umfass":5572,"▁Frieden":5573,"ielle":5574,"▁Antwort":5575,"tet.":5576,"erseits":5577,"stead":5578,"▁equip":5579,"ims":5580,"▁red":5581,"▁Lond":5582,"gn":5583,"jähr":5584,"iellen":5585,"linien":5586,"▁times":5587,"▁famous":5588,"▁cop":5589,"achen":5590,"▁wurden.":5591,"▁einzelnen":5592,"▁unique":5593,"▁stop":5594,"aß":5595,"▁posit":5596,"▁hon":5597,"partments":5598,"▁harmon":5599,"▁held":5600,"ense":5601,"▁Pak":5602,"orge":5603,"▁wide":5604,"▁Führ":5605,"▁Ant":5606,"▁Position":5607,"ate,":5608,"ternal":5609,"▁General":5610,"clud":5611,"▁throughout":5612,"▁Entscheidung":5613,"▁Mitglieder":5614,"▁bisher":5615,"▁gemeinsam":5616,"▁efforts":5617,"aul":5618,"▁leb":5619,"▁See":5620,"▁ebenso":5621,"▁Du":5622,"arbeitung":5623,"▁answer":5624,"▁Herstell":5625,"▁Dec":5626,"dern.":5627,"▁Binnen":5628,"▁exclus":5629,"▁emphas":5630,"ländern":5631,"▁context":5632,"alled":5633,"▁technology":5634,"indest":5635,"▁principle":5636,"▁draw":5637,"fähigkeit":5638,"▁impact":5639,"▁behand":5640,"▁Außerdem":5641,"ässt":5642,"haps":5643,"▁Auswirkungen":5644,"▁äußer":5645,"▁Denn":5646,"▁train":5647,"▁Verfahren":5648,"▁pleas":5649,"▁transl":5650,"▁space":5651,"▁looking":5652,"▁solid":5653,"▁Acc":5654,"▁eleg":5655,"▁past":5656,"ipf":5657,"▁five":5658,"▁living":5659,"jekte":5660,"ox":5661,"▁type":5662,"ume":5663,"▁Team":5664,"▁Zur":5665,"gl":5666,"▁potential":5667,"orre":5668,"▁designed":5669,"▁wider":5670,"or,":5671,"▁1,":5672,"äche":5673,"▁machen.":5674,"▁enable":5675,".00":5676,"▁jedem":5677,"▁strengthen":5678,"▁countries,":5679,"acy":5680,"▁Gemeinschafts":5681,"lling":5682,"▁ever":5683,"▁Pap":5684,"▁North":5685,"ological":5686,"▁univers":5687,"▁brauchen":5688,"▁Ris":5689,"wel":5690,"▁consequ":5691,"▁proper":5692,"▁Debatte":5693,"▁takes":5694,"1,":5695,"fil":5696,"▁Währ":5697,"▁*":5698,"kn":5699,"ging":5700,"esh":5701,"ommer":5702,"▁Zum":5703,"▁internationale":5704,"▁across":5705,"ester":5706,"▁Dialog":5707,"▁aud":5708,"onom":5709,"▁wirtschaftlichen":5710,"▁Reform":5711,"▁colleag":5712,"▁Mil":5713,"zif":5714,"▁80":5715,"▁Vereinigten":5716,"zw":5717,"▁Staats":5718,"▁record":5719,"igt.":5720,"▁everything":5721,"bar.":5722,"▁Bestimm":5723,"▁sit":5724,"▁benefit":5725,"▁lik":5726,"▁mechan":5727,"bru":5728,"▁took":5729,"▁certainly":5730,"▁early":5731,"▁seen":5732,"ingen":5733,"▁Bre":5734,"na":5735,"ada":5736,"prochen":5737,"▁adopt":5738,"▁divers":5739,"stellen":5740,"▁eth":5741,"▁erhö":5742,"ählen":5743,"ama":5744,"▁aus.":5745,"▁complex":5746,"oint":5747,".000":5748,"geben.":5749,"▁\"S":5750,"▁hinter":5751,"▁Turke":5752,"▁Strategie":5753,"▁projects":5754,"ted.":5755,"temp":5756,"▁hom":5757,"handlung":5758,"▁contribution":5759,"▁existing":5760,"teid":5761,"leis":5762,"▁report.":5763,"▁dürfen":5764,"ones":5765,"▁Kos":5766,"▁weiteren":5767,"▁night":5768,"▁zuf":5769,"on.":5770,"▁wichtig,":5771,"▁gleichzeitig":5772,"umente":5773,"▁Let":5774,"▁Leit":5775,"▁search":5776,"▁website":5777,"▁strategy":5778,"ball":5779,"▁either":5780,"▁relig":5781,"▁Terror":5782,"ämpfung":5783,"gegen":5784,"▁Jug":5785,"▁sorg":5786,"▁aktiv":5787,"kr":5788,"▁amendment":5789,"▁Kraft":5790,"▁neben":5791,"fortun":5792,"ränk":5793,"airs":5794,"-p":5795,"▁später":5796,"▁legislation":5797,"wie":5798,"▁coordin":5799,"länder":5800,"▁Zus":5801,"▁richtig":5802,"odell":5803,"▁versuch":5804,"▁profit":5805,"▁sei":5806,"▁auf,":5807,"▁wurden,":5808,"esserung":5809,"▁Commission,":5810,"▁although":5811,"▁Ins":5812,"▁changes":5813,"▁neues":5814,"▁Hol":5815,"▁Flugh":5816,"▁traditional":5817,"▁wollen,":5818,"cke":5819,"▁breakfast":5820,"▁cross":5821,"▁parliament":5822,"▁Beitrag":5823,"▁knowledge":5824,"oz":5825,"▁opinion":5826,"▁jede":5827,"▁side":5828,"▁Fischere":5829,"▁concerning":5830,"▁sea":5831,"-h":5832,"ush":5833,"▁erstell":5834,"▁lux":5835,"▁Handels":5836,"▁absolute":5837,"serv":5838,"▁Inform":5839,"ables":5840,"▁völl":5841,"unk":5842,"int":5843,"▁Türke":5844,"▁intens":5845,"▁becom":5846,"▁aware":5847,"▁Vertra":5848,"▁PC":5849,"▁Geschichte":5850,"▁denk":5851,"lle":5852,"▁High":5853,"seit":5854,"▁outside":5855,"AM":5856,"stre":5857,"gency":5858,"ungsver":5859,"ari":5860,"▁Restaurant":5861,"▁CD":5862,"▁half":5863,"▁gegenwär":5864,"▁related":5865,"▁Präsidentin,":5866,"geln":5867,"entur":5868,"▁Verpflicht":5869,"▁English":5870,"▁basic":5871,"▁mer":5872,"▁Parliament,":5873,"▁extens":5874,"▁arg":5875,"▁fort":5876,"▁demonstr":5877,"▁Diskussion":5878,"▁movement":5879,"▁los":5880,"▁beit":5881,"▁leading":5882,"kra":5883,"▁rund":5884,"▁Gebie":5885,"▁original":5886,"arten":5887,"▁community":5888,"ET":5889,"▁Paris":5890,"▁Schlussel":5891,"zös":5892,"at,":5893,"▁culture":5894,"haft":5895,"▁policies":5896,"▁Fuß":5897,"ED":5898,"abl":5899,"▁conflic":5900,"▁idea":5901,"ipl":5902,"mark":5903,"▁Technolog":5904,"▁Commission's":5905,"range":5906,"statt":5907,"▁Stabil":5908,"pression":5909,"▁Online":5910,"men,":5911,"urt":5912,"▁enlarge":5913,"▁gab":5914,"▁groups":5915,"▁unseres":5916,"▁assess":5917,"▁Förderung":5918,"affung":5919,"▁prakt":5920,"▁joint":5921,"▁it,":5922,"▁Verhandlungen":5923,"prise":5924,"▁spr":5925,"termin":5926,"bildung":5927,"▁involved":5928,"▁you,":5929,"▁Febru":5930,"▁Luft":5931,"▁Familien":5932,"▁IS":5933,"emb":5934,"▁Kampf":5935,"▁schwer":5936,"▁digital":5937,"▁military":5938,"haupt":5939,"▁Barcel":5940,"üb":5941,"▁wichtigen":5942,"▁berücksichtig":5943,"äss":5944,"alter":5945,"grat":5946,"▁interests":5947,"▁verd":5948,"▁Link":5949,"▁Minuten":5950,"▁Standard":5951,"endes":5952,"erb":5953,"iterran":5954,"▁upd":5955,"▁fail":5956,"▁sec":5957,"▁unterstützt":5958,"▁included":5959,"▁avoid":5960,"in.":5961,"-t":5962,"ausch":5963,"ums":5964,"▁firm":5965,"▁oblig":5966,"▁consult":5967,"gangenen":5968,"▁August":5969,"▁Kern":5970,"action":5971,"gende":5972,"gesetz":5973,"▁$":5974,"▁spezie":5975,"▁sound":5976,"iddle":5977,"gern":5978,"▁amount":5979,"▁report,":5980,"▁Schritt":5981,"face":5982,"▁entwickel":5983,"▁this,":5984,"▁Ed":5985,"▁jedes":5986,"▁Volk":5987,"ires":5988,"istrat":5989,"lant":5990,"▁1999":5991,"▁Cor":5992,"▁advant":5993,"▁conclus":5994,"▁Sup":5995,"▁-,":5996,"▁Imm":5997,"and,":5998,"lös":5999,"quis":6000,"▁Since":6001,"▁allows":6002,"▁erwähn":6003,"▁gesagt":6004,"▁Beziehungen":6005,"▁includes":6006,"ingt":6007,"▁Einzel":6008,"▁wa":6009,"▁durchge":6010,"▁Konferenz":6011,"▁verfügt":6012,"▁Rel":6013,"▁Wettbewerbs":6014,"AC":6015,"itness":6016,"g.":6017,"▁Dokument":6018,"ias":6019,"uck":6020,"▁Instrument":6021,"▁transfer":6022,"aring":6023,"▁Proz":6024,"▁commer":6025,"▁years.":6026,"iated":6027,"▁later":6028,"▁emer":6029,"▁prim":6030,"▁true":6031,"▁guests":6032,"hung":6033,"öst":6034,"▁hous":6035,"staat":6036,"▁Vis":6037,"▁wegen":6038,"▁spend":6039,"▁satisf":6040,"eff":6041,"▁standards":6042,"▁reich":6043,"▁Liste":6044,"▁Lux":6045,"▁Interessen":6046,"aly":6047,"▁Che":6048,"▁Kop":6049,"▁Thank":6050,"otion":6051,"▁poor":6052,"▁Abkommen":6053,"▁warm":6054,"▁angem":6055,"bring":6056,"▁Änderungsanträge":6057,"ühl":6058,"▁plann":6059,"▁Forschung":6060,"▁confirm":6061,"jahr":6062,"▁completely":6063,"os,":6064,"▁Now":6065,"ourn":6066,"ole":6067,"tragen":6068,"▁schön":6069,"▁suit":6070,"▁Verbesserung":6071,"able.":6072,"▁Abgeordneten":6073,"▁capac":6074,"▁majority":6075,"▁vorlie":6076,"▁darstell":6077,"▁move":6078,"▁macht":6079,"▁Prior":6080,"igkeit,":6081,"▁lok":6082,"fen,":6083,"▁Notwend":6084,"▁gemacht":6085,"▁wunder":6086,"▁Pass":6087,"▁regarding":6088,"ife":6089,"▁erlaub":6090,"ress":6091,"▁solutions":6092,"▁ich,":6093,"▁verantwort":6094,"pite":6095,"▁Sie,":6096,"issab":6097,"▁option":6098,"▁doing":6099,"▁Bad":6100,"▁kleine":6101,"▁broad":6102,"▁jud":6103,"▁Damit":6104,"▁Volks":6105,"▁airport":6106,"▁attack":6107,"▁war.":6108,"▁force":6109,"▁limit":6110,"vious":6111,"iance":6112,"istration":6113,"pected":6114,"gesetzt":6115,"ymbol":6116,"erve":6117,"▁purch":6118,"SE":6119,"▁customer":6120,"uclear":6121,"▁Aufent":6122,"deck":6123,"▁needed":6124,"▁+":6125,"▁unabhäng":6126,"ikanischen":6127,"▁Home":6128,"▁Urlaub":6129,"▁Cons":6130,"▁Ober":6131,"▁Forder":6132,"▁Lissab":6133,"▁Aktion":6134,"▁mehrere":6135,"▁hinsichtlich":6136,"▁built":6137,"▁(N":6138,"▁Handel":6139,"▁Here":6140,"put":6141,"fluss":6142,"▁Ausschusses":6143,"▁cru":6144,"▁aus,":6145,"▁face":6146,"hende":6147,"isiert":6148,"▁agricultural":6149,"▁wonder":6150,"▁herr":6151,"▁keyword":6152,"leben":6153,"abel":6154,"▁below":6155,"▁Frankreich":6156,"▁Institutionen":6157,"▁IT":6158,"ano":6159,"▁investment":6160,"▁valu":6161,"gehen":6162,"▁language":6163,"▁citizen":6164,"▁erheb":6165,"▁err":6166,"▁Imp":6167,"▁Regionen":6168,"▁fran":6169,"ava":6170,"▁Nutzung":6171,"▁economy":6172,"▁Bereichen":6173,"▁Sant":6174,"ant.":6175,"▁self":6176,"eln.":6177,"▁22":6178,"▁einger":6179,"▁ganze":6180,"▁wichtigsten":6181,"▁handelt":6182,"▁industrial":6183,"▁nature":6184,"▁sun":6185,"▁nachhalt":6186,"▁ganzen":6187,"▁Jed":6188,"-N":6189,"▁Eff":6190,"oppel":6191,"▁(M":6192,"▁Dienstleistungen":6193,"▁Verordnung":6194,"▁wobei":6195,"▁(H":6196,"en!":6197,"ying":6198,"▁Ukra":6199,"▁Gelegenheit":6200,"▁Auswahl":6201,"ko":6202,"▁south":6203,"▁Ze":6204,"ine.":6205,"▁Kontrolle":6206,"aving":6207,"minister":6208,"▁gerne":6209,"sitz":6210,"uted":6211,"▁Museum":6212,"▁features":6213,"▁trotz":6214,"▁experien":6215,"dom":6216,"ips":6217,"▁machen,":6218,"eln,":6219,"▁Veranst":6220,"▁huge":6221,"iers":6222,"geben,":6223,"▁Möglichkeiten":6224,"▁popular":6225,"oft":6226,"▁Amend":6227,"lam":6228,"▁för":6229,",000":6230,"erweise":6231,"▁ill":6232,"lav":6233,"▁Verbindung":6234,"▁genie":6235,"▁code":6236,"▁glaube,":6237,"▁Gree":6238,"folgt":6239,"40":6240,"▁fall":6241,"▁front":6242,"undes":6243,"▁Erweiterung":6244,"itect":6245,"grif":6246,"▁Sim":6247,"gef":6248,"-term":6249,"▁garant":6250,"sterreich":6251,"entwick":6252,"▁nothing":6253,"iveness":6254,"▁beein":6255,"umb":6256,"▁rail":6257,"▁direction":6258,"▁Binnenmarkt":6259,"pass":6260,"zer":6261,"▁Court":6262,"ops":6263,"▁Wirk":6264,"▁Bevölkerung":6265,"schließend":6266,"▁Anfang":6267,"ourc":6268,"▁themselves":6269,"▁this.":6270,"▁cooper":6271,"▁grund":6272,"▁model":6273,"alten":6274,"▁employment":6275,"iesen":6276,"▁Schaffung":6277,"▁nahe":6278,"▁Les":6279,"▁spac":6280,"▁irgend":6281,"möglichkeit":6282,"▁Angebot":6283,"▁years,":6284,"▁gehen":6285,"▁correct":6286,"▁policy.":6287,"▁Play":6288,"▁vict":6289,"▁erfüll":6290,"wander":6291,"▁Up":6292,"ar,":6293,"mann":6294,"▁events":6295,"▁ruh":6296,"▁congrat":6297,"osed":6298,"▁mittel":6299,"▁sagen":6300,"▁contains":6301,"▁apartment":6302,"▁received":6303,"▁Bitte":6304,"▁veh":6305,"▁Reise":6306,"▁offen":6307,"▁konkre":6308,"▁parts":6309,"▁concerns":6310,"▁Fach":6311,"▁Club":6312,"▁carry":6313,"ienste":6314,"▁Gebä":6315,"▁Global":6316,"▁requirements":6317,"▁28":6318,"▁E-M":6319,"pid":6320,"änden":6321,"▁!":6322,"VD":6323,"▁Management":6324,"▁Landes":6325,"▁Augen":6326,"mehr":6327,"▁Innov":6328,"▁Social":6329,"▁efficient":6330,"▁oil":6331,"▁presented":6332,"▁Central":6333,"▁heut":6334,"▁highly":6335,"▁bekannt":6336,"▁Wein":6337,"▁Liefer":6338,"▁Darüber":6339,"▁frü":6340,"ught":6341,"▁3.":6342,"gesamt":6343,"▁scient":6344,"▁seems":6345,"▁successful":6346,"▁Erst":6347,"örper":6348,"▁click":6349,"as.":6350,"ität,":6351,"▁entfernt.":6352,"▁einzig":6353,"alien":6354,"▁frei":6355,"imension":6356,"▁comprom":6357,"▁pain":6358,"▁Some":6359,"▁Amster":6360,"▁exc":6361,"▁Voraus":6362,"▁mal":6363,"/9":6364,"▁Zweit":6365,"▁Roman":6366,"▁führen":6367,"▁ein.":6368,"▁Mich":6369,"▁exchange":6370,"▁ut":6371,"ätigkeit":6372,"▁Bef":6373,"istische":6374,"▁völlig":6375,"▁lässt":6376,"▁kulture":6377,"▁Of":6378,"uel":6379,"▁Ho":6380,"halte":6381,"▁Strand":6382,"▁Pan":6383,"▁Mic":6384,"▁Material":6385,"▁500":6386,"▁area.":6387,"▁Second":6388,"▁furn":6389,"▁carried":6390,"ge.":6391,"▁which,":6392,"utt":6393,"▁Anzahl":6394,"▁Post":6395,"2)":6396,"▁block":6397,"▁whose":6398,"▁floor":6399,"ragen,":6400,"▁Council,":6401,"itch":6402,"▁works":6403,"inne":6404,"lies":6405,"atell":6406,"▁häuf":6407,"chter":6408,"▁communication":6409,"▁seek":6410,"▁negotiations":6411,"▁Leg":6412,"erkenn":6413,"▁year.":6414,"▁history":6415,"s)":6416,"gelegt":6417,"▁erinn":6418,"abor":6419,"▁double":6420,"aktion":6421,"▁sex":6422,"▁parties":6423,"esten":6424,"▁gefähr":6425,"▁Term":6426,"▁Balk":6427,"-St":6428,"ällen":6429,"▁Lat":6430,"▁others":6431,"▁Krieg":6432,"▁Zeitpunkt":6433,"▁eig":6434,"▁verg":6435,"-Fra":6436,"▁anz":6437,"apt":6438,"▁wom":6439,"▁subsid":6440,"▁perm":6441,"▁sent":6442,"▁dang":6443,"astic":6444,"ón":6445,"▁Transport":6446,"▁Firm":6447,"▁Wochen":6448,"▁coll":6449,"▁bathroom":6450,"▁Verwendung":6451,"▁vorgeschlagen":6452,"▁Entschließung":6453,"buch":6454,"izien":6455,"▁Freiheit":6456,"irit":6457,"OL":6458,"▁expl":6459,"▁Jugend":6460,"▁d'":6461,"▁Mag":6462,"▁Further":6463,"▁mountain":6464,"immt,":6465,"will":6466,"▁überzeug":6467,"▁ground":6468,"▁objective":6469,"PE":6470,"▁commercial":6471,"IL":6472,"ental":6473,"▁Solid":6474,"▁meinen":6475,"▁großer":6476,"▁guten":6477,"▁traff":6478,"äst":6479,"▁hoffe,":6480,"RE":6481,"▁border":6482,"ka":6483,"▁similar":6484,"▁meinem":6485,"▁six":6486,"▁tell":6487,"ruf":6488,"▁fehl":6489,"▁Business":6490,"▁gegeben":6491,"▁196":6492,"▁Berg":6493,"cy,":6494,"▁Lauf":6495,"mitteln":6496,"▁gehört":6497,"▁diskut":6498,"▁Mac":6499,"organis":6500,"▁obtain":6501,"▁active":6502,"▁anzu":6503,"▁states":6504,"▁Col":6505,"mat":6506,"atast":6507,"▁künft":6508,"▁Türkei":6509,"▁zunächst":6510,"▁Män":6511,"▁restaurant":6512,"▁nehmen":6513,"itel":6514,"IM":6515,"▁commitment":6516,"▁dep":6517,"▁eigene":6518,"▁export":6519,"osen":6520,"stitute":6521,"▁gesamte":6522,"okoll":6523,"ficient":6524,"▁regions":6525,"▁stress":6526,"ight.":6527,"▁Ham":6528,"▁shown":6529,"unt":6530,"▁dre":6531,"▁atmosph":6532,"klus":6533,"just":6534,"ache,":6535,"ätzen":6536,"mm":6537,"igte":6538,"▁soziale":6539,"ierenden":6540,"▁months":6541,"osp":6542,"▁nuclear":6543,"ay,":6544,"acc":6545,"▁pan":6546,"▁Develop":6547,"merk":6548,"▁Lisbon":6549,"▁task":6550,"25":6551,"rieben":6552,"▁vorhand":6553,"▁Presidency":6554,"▁dynam":6555,"▁former":6556,"▁Sil":6557,"lad":6558,"▁erreichen":6559,"fält":6560,"▁Well":6561,"▁Dez":6562,"alu":6563,"▁Dan":6564,"▁Wahr":6565,"▁Rot":6566,"bewert":6567,"▁Log":6568,"▁Golf":6569,"▁ständ":6570,"▁Inde":6571,"▁Ferien":6572,"▁established":6573,"one,":6574,"ader":6575,"▁Kosov":6576,"-Z":6577,"▁Behörden":6578,"▁dring":6579,"▁Get":6580,"▁equipped":6581,"▁Hinter":6582,"isted":6583,"ech":6584,"▁Ele":6585,"▁gibt,":6586,"lass":6587,"▁possibility":6588,"wegen":6589,"▁latest":6590,"licken":6591,"▁tatsächlich":6592,"▁Article":6593,"▁promote":6594,"▁eindeut":6595,"artige":6596,"▁opportunities":6597,"▁Mehrheit":6598,"bedingungen":6599,"▁verwendet":6600,"▁Kommission,":6601,"programm":6602,"▁Beschl":6603,"nissen":6604,"▁miss":6605,"▁90":6606,"mitt":6607,"▁society":6608,"yd":6609,"▁Eigen":6610,"▁station":6611,"▁Lissabon":6612,"▁Zw":6613,"▁Debian":6614,"▁ernst":6615,"▁Bra":6616,"▁Während":6617,"legen,":6618,"▁=":6619,"▁York":6620,"de,":6621,"▁behind":6622,"▁gleichen":6623,"ühm":6624,"▁internet":6625,"iglich":6626,"sv":6627,"▁übr":6628,"▁angen":6629,"▁guid":6630,"▁Nieder":6631,"▁engine":6632,"▁came":6633,".com":6634,"▁you.":6635,"▁sofort":6636,"▁depend":6637,"▁note":6638,"▁Arg":6639,"weisen,":6640,"▁Sum":6641,"imming":6642,"▁leicht":6643,"▁rein":6644,"formen":6645,"▁Finally,":6646,"▁Wettbewerb":6647,"▁funds":6648,"▁phys":6649,"▁Ratspräsident":6650,"gra":6651,"wart":6652,"ape":6653,"▁Spain":6654,"ächt":6655,"rought":6656,"▁Dabei":6657,"rief":6658,"where":6659,"▁äußerst":6660,"▁Republic":6661,"▁Tat":6662,"unsch":6663,"▁register":6664,"tige":6665,"▁26":6666,"▁Hostel":6667,"tern,":6668,"oo":6669,"▁komplet":6670,"▁choose":6671,"ing.com":6672,"▁schö":6673,"▁leaders":6674,"▁atmosphere":6675,"▁bi":6676,"▁welcom":6677,"▁Einführung":6678,"▁providing":6679,"▁summer":6680,"▁Pers":6681,"▁IN":6682,"▁rich":6683,"▁prepared":6684,"▁70":6685,"▁Convention":6686,"▁death":6687,"fen.":6688,"▁Government":6689,"▁betriff":6690,"▁asked":6691,"▁Net":6692,"▁Gruppe":6693,"▁Aud":6694,"▁simple":6695,"▁Stellung":6696,"▁Russia":6697,"▁af":6698,"vision":6699,"▁societ":6700,"▁exhib":6701,"▁criter":6702,"▁betreff":6703,"io.":6704,"▁somit":6705,"▁größten":6706,"▁Staat":6707,"▁higher":6708,"annt":6709,"▁external":6710,"▁deta":6711,"▁Ergebnisse":6712,"rehens":6713,"▁Amsterdam":6714,"▁schle":6715,"▁prob":6716,"▁Krise":6717,"akter":6718,"▁entste":6719,"▁angenommen":6720,"▁Programme":6721,"▁à":6722,"sprech":6723,"▁reduce":6724,"▁Kontakt":6725,"▁users":6726,"▁Themen":6727,"▁words":6728,"▁Install":6729,"▁year,":6730,"▁Weiter":6731,"urteil":6732,"▁elekt":6733,"▁Konfl":6734,"▁workers":6735,"▁prepar":6736,"▁König":6737,"▁verpflich":6738,"▁prices":6739,"▁Tex":6740,"rang":6741,"ommen,":6742,"▁condu":6743,"quare":6744,"▁innovative":6745,"▁Loc":6746,"▁non-":6747,"▁friendly":6748,"ary,":6749,"▁Don":6750,"▁Macht":6751,"iot":6752,"▁Gra":6753,"▁display":6754,"▁hohen":6755,"▁thanks":6756,"igration":6757,"▁umf":6758,"▁Juni":6759,"▁beteil":6760,"▁terra":6761,"▁recently":6762,"▁wid":6763,"▁300":6764,"▁Oct":6765,"▁submitted":6766,"▁Ents":6767,"ibilities":6768,"3.":6769,"ara":6770,"▁zentral":6771,"iens":6772,"▁lay":6773,"▁Agr":6774,"▁empf":6775,"employ":6776,"▁''":6777,"rachen":6778,"▁Verfügung.":6779,"▁Informations":6780,"▁Ged":6781,"▁Vereinbar":6782,"▁neigh":6783,"▁unterstützen":6784,"amera":6785,"emin":6786,"ronic":6787,"xis":6788,"▁gives":6789,"opping":6790,"itting":6791,"▁links":6792,"▁regular":6793,"▁Di":6794,"altungs":6795,"▁Standpunkt":6796,"älle":6797,"cret":6798,"▁Kommunik":6799,"▁lassen.":6800,"▁architect":6801,"▁vern":6802,"▁discover":6803,"▁Gemeins":6804,"▁setting":6805,"ulgar":6806,"fert":6807,"üsse":6808,"issions":6809,"▁decisions":6810,"▁agreed":6811,"▁perhaps":6812,"▁treatment":6813,"roat":6814,"iat":6815,"▁Eing":6816,"▁credit":6817,"▁belieb":6818,"▁suffer":6819,"▁Sicht":6820,"▁sustainable":6821,"▁March":6822,"▁Komprom":6823,"▁foot":6824,"ifft":6825,"▁increased":6826,"▁zweiten":6827,"ych":6828,"▁system.":6829,"▁une":6830,"med":6831,"▁British":6832,"▁image":6833,"▁Gefahr":6834,"▁Erach":6835,"▁erschein":6836,"-An":6837,"▁beginning":6838,"▁E-Mail":6839,"▁regel":6840,"industrie":6841,"▁lediglich":6842,"ausschuss":6843,"▁December":6844,"▁draft":6845,"▁Akt":6846,"verständlich":6847,"▁billion":6848,"rec":6849,"▁market.":6850,"resp":6851,"▁Neben":6852,"▁meines":6853,"▁island":6854,"isch,":6855,"bek":6856,"chten,":6857,"▁Cal":6858,"▁Dis":6859,"▁Bekämpfung":6860,"spiel":6861,"▁leave":6862,"▁Ost":6863,"zeuge":6864,"▁Mai":6865,"▁initiative":6866,"-w":6867,"▁St.":6868,"▁Organisation":6869,"▁announ":6870,"ille":6871,"▁Commission.":6872,"12":6873,"tent":6874,"oking":6875,"iedr":6876,"▁Mitarbeiter":6877,"iction":6878,"▁us.":6879,"▁added":6880,"va":6881,"▁Anwend":6882,"▁amer":6883,"▁Aufgabe":6884,"▁Abend":6885,"ürf":6886,"▁obwohl":6887,"▁WTO":6888,"▁describ":6889,"▁Integration":6890,"▁cases":6891,"▁gross":6892,"▁Russland":6893,"EM":6894,"▁bestimmte":6895,"▁Herzen":6896,"▁coming":6897,"adem":6898,"▁accep":6899,"ini":6900,"▁bezie":6901,"▁Erachtens":6902,"▁considered":6903,"▁decl":6904,"▁Ke":6905,"nehmen,":6906,"vorschriften":6907,"ierter":6908,"stellungen":6909,"ieg":6910,"▁zahlreiche":6911,"▁independent":6912,"▁choice":6913,"ast.":6914,"▁Sektor":6915,"▁ten":6916,"▁construction":6917,"usion":6918,"ibl":6919,"▁Okt":6920,"▁les":6921,"oh":6922,"▁series":6923,"▁Personal":6924,"ilos":6925,"▁City":6926,"schw":6927,"3,":6928,"▁education":6929,"▁bestimmten":6930,"gründ":6931,"▁(G":6932,"▁repla":6933,"▁x":6934,"▁Transpar":6935,"sprün":6936,"▁www.":6937,"▁anderer":6938,"ight,":6939,"▁board":6940,"▁highl":6941,"▁Gewalt":6942,"▁Ress":6943,"▁Wohl":6944,"▁people.":6945,"fragen":6946,"▁Woche":6947,"ces.":6948,"▁Überein":6949,"rid":6950,"ghan":6951,"▁zweite":6952,"▁Enter":6953,"zehn":6954,"▁zeigt":6955,"▁track":6956,"▁supported":6957,"▁ähn":6958,"▁hätte":6959,"'.":6960,"-up":6961,"▁fal":6962,"▁sor":6963,"▁gesetz":6964,"reiben":6965,"▁decided":6966,"▁Tage":6967,"hren":6968,"cy.":6969,"▁rate":6970,"▁shows":6971,"son":6972,"▁Solidar":6973,"....":6974,"▁Ru":6975,"▁Dom":6976,"▁Film":6977,"▁Italian":6978,"▁außerdem":6979,"ais":6980,"▁north":6981,"▁erweit":6982,"▁Open":6983,"▁Dezember":6984,"-Fraktion":6985,"▁relevant":6986,"ism,":6987,"▁Aspe":6988,"▁entfernt":6989,"▁Änderungen":6990,"▁virt":6991,"▁Real":6992,"▁Verkehrs":6993,"▁brought":6994,"▁administrat":6995,"▁London":6996,"▁wirtschaftliche":6997,"▁population":6998,"▁\"F":6999,"here":7000,"▁Höhe":7001,"▁effe":7002,"▁nice":7003,"▁bestät":7004,"▁Western":7005,"k,":7006,"▁Afric":7007,"▁veröffentlich":7008,"geber":7009,"▁game":7010,"5,":7011,"nern":7012,"▁Initiative":7013,"▁dadurch":7014,"over,":7015,"▁ord":7016,"▁Star":7017,"nehmen.":7018,"immung":7019,"11":7020,"80":7021,"any":7022,"arily":7023,"▁gemäß":7024,"lla":7025,"▁tw":7026,"▁Af":7027,"inger":7028,"▁restaurants":7029,"inal":7030,"z,":7031,"▁darin":7032,"fahrt":7033,"▁neuer":7034,"▁erster":7035,"▁mentioned":7036,"▁lic":7037,"▁repe":7038,"▁1998":7039,"▁ermöglicht":7040,"▁Privat":7041,"end,":7042,"icherung":7043,"▁democracy":7044,"▁Oper":7045,"▁hours":7046,"▁euro":7047,"terne":7048,"grupp":7049,"äg":7050,"fonds":7051,"▁Belg":7052,"▁französ":7053,"▁prot":7054,"▁remains":7055,"-l":7056,"xim":7057,"▁einzige":7058,"▁Nur":7059,"▁Sl":7060,"▁ausreich":7061,"▁mobile":7062,"▁Vertrags":7063,"▁high-":7064,"▁centur":7065,"▁fix":7066,"▁enthalten":7067,"fon":7068,"unden.":7069,"▁creating":7070,"▁Je":7071,"▁expla":7072,"merksamkeit":7073,"anischen":7074,"▁deep":7075,"▁solidar":7076,"stag":7077,"▁solchen":7078,"▁grundleg":7079,"▁instead":7080,"onse":7081,"▁produced":7082,"▁exec":7083,"▁improvement":7084,"▁largest":7085,"▁easily":7086,"estens":7087,"▁sus":7088,"conomic":7089,"view":7090,"▁date":7091,"▁media":7092,"▁hohe":7093,"NG":7094,"gab":7095,"▁computer":7096,"▁scre":7097,"▁future.":7098,"▁became":7099,"▁renov":7100,"▁Aufmerksamkeit":7101,"▁würd":7102,"▁B.":7103,"▁Har":7104,"▁z.B.":7105,"ournal":7106,"uis":7107,"▁Grand":7108,"▁thous":7109,"immt.":7110,"▁führt":7111,"▁relationship":7112,"▁vergangenen":7113,"z.":7114,"▁reached":7115,"▁relativ":7116,"▁Nat":7117,"zustellen,":7118,"▁u.":7119,"▁schütz":7120,"▁October":7121,"orten":7122,"häl":7123,"▁Unterk":7124,"▁bein":7125,"▁chem":7126,"ctors":7127,"▁host":7128,"▁stability":7129,"▁conference":7130,"▁Sam":7131,"▁\"A":7132,"ery":7133,"▁obvious":7134,"▁Turkey":7135,"▁determin":7136,"▁accord":7137,"▁disp":7138,"▁Det":7139,"▁body":7140,"▁29":7141,"▁gelten":7142,"▁Kre":7143,"▁pleased":7144,"bert":7145,"entlichkeit":7146,"▁concerned":7147,"▁Organ":7148,"▁verbind":7149,"▁Camp":7150,"▁Unternehmens":7151,"▁2002":7152,"träge":7153,"▁Kommissar,":7154,"▁2001":7155,"uit":7156,"yond":7157,"anlage":7158,"▁Frühstück":7159,"S.":7160,"▁Down":7161,"▁resol":7162,"▁Booking.com":7163,"ases":7164,"ering":7165,"lare":7166,"▁hervorrag":7167,"itzer":7168,"▁ändern":7169,"▁regards":7170,"besch":7171,"▁unterst":7172,"▁quickly":7173,"▁bedeutet":7174,"schnitt":7175,"▁speed":7176,"ter.":7177,"▁film":7178,"▁news":7179,"die":7180,"▁End":7181,"▁Neu":7182,"5.":7183,"▁Mart":7184,"▁allein":7185,"▁purs":7186,"▁fact,":7187,"▁procedure":7188,"24":7189,"▁jün":7190,"▁Möglichkeit,":7191,"▁everyone":7192,"▁medium":7193,"▁Alt":7194,"ritts":7195,"▁supply":7196,"gliche":7197,"▁Rights":7198,"▁Bestell":7199,"▁size":7200,"▁section":7201,"▁particular,":7202,"iko":7203,"▁party":7204,"kommens":7205,"▁Parliament.":7206,"▁cause":7207,"▁einschließlich":7208,"licht":7209,"ämt":7210,"▁Oktober":7211,"anzen":7212,"▁performance":7213,"▁June":7214,"▁tun,":7215,"▁konzentr":7216,"tex":7217,"fühl":7218,"▁Schweiz":7219,"ollar":7220,"▁liberal":7221,"ufen":7222,"▁minor":7223,"▁Server":7224,"▁distribution":7225,"▁hear":7226,"▁variety":7227,"mäßig":7228,"▁(s":7229,"oder":7230,"etary":7231,"ählt":7232,"▁gain":7233,"▁Lösungen":7234,"▁Fed":7235,"▁path":7236,"n't":7237,"▁France":7238,"▁green":7239,"▁eigentlich":7240,"aschinen":7241,"reibung":7242,"aper":7243,"▁Kan":7244,"▁Öffentlichkeit":7245,"▁Zeich":7246,"cement":7247,"▁mil":7248,"ley":7249,"▁Sm":7250,"▁Familie":7251,"▁hand,":7252,"▁well-":7253,"▁package":7254,"kraft":7255,"porate":7256,"▁dut":7257,"▁Pla":7258,"EP":7259,"▁partner":7260,"▁keiner":7261,"▁Booking.com:":7262,"▁Last":7263,"▁Städ":7264,"▁Erzeug":7265,"▁video":7266,"▁here.":7267,"▁possible.":7268,"▁beschäft":7269,"▁King":7270,"▁muss.":7271,"▁(L":7272,"▁exact":7273,"▁Gästebewert":7274,"▁century":7275,"ienen":7276,"itions":7277,"▁Democ":7278,"länd":7279,"“,":7280,"ibil":7281,"▁reports":7282,"▁Folgen":7283,"▁Cap":7284,"eting":7285,"▁labour":7286,"▁creation":7287,"asons":7288,"▁achieved":7289,"ately,":7290,"▁Bundes":7291,"St":7292,"ford":7293,"▁san":7294,"enntnis":7295,"▁auch,":7296,"▁legislative":7297,"▁committee":7298,"us.":7299,"▁Every":7300,"ben.":7301,"ente":7302,"▁wissen":7303,"▁alten":7304,"▁accoun":7305,"▁Regierungen":7306,"▁tä":7307,"zusch":7308,"ograf":7309,"▁Transparenz":7310,"▁compon":7311,"▁würden":7312,"▁Erfahrung":7313,"aft":7314,"▁Beschäftigung":7315,"▁Wider":7316,"▁people,":7317,"▁Fortschritte":7318,"▁Spanish":7319,"▁forder":7320,"▁historical":7321,"▁dise":7322,"▁Adr":7323,"▁principles":7324,"▁Angelegenheit":7325,"▁Arbeitnehmer":7326,"▁appe":7327,"▁sta":7328,"▁relation":7329,"iterranean":7330,"▁leider":7331,"ourcen":7332,"itial":7333,"etimes":7334,"▁got":7335,"▁agreements":7336,"▁klein":7337,"an.":7338,"▁Kur":7339,"▁Landwir":7340,"▁befinden":7341,"▁bod":7342,"kont":7343,"▁Val":7344,"ierende":7345,"▁besitz":7346,"▁purpos":7347,"▁Gipf":7348,"▁Basis":7349,"▁Bilder":7350,"▁div":7351,"▁Empfehl":7352,"▁During":7353,"▁insgesamt":7354,"▁Tradition":7355,"70":7356,"ategorien":7357,"▁conven":7358,"▁work.":7359,"▁agend":7360,"▁launch":7361,"auch":7362,"ent.":7363,"▁Ansatz":7364,"▁Exper":7365,"▁Prinzip":7366,"▁giving":7367,"richtungen":7368,"-U":7369,"▁Ist":7370,"▁schließlich":7371,"ored":7372,"▁center":7373,"▁comprehens":7374,"iegel":7375,"▁pen":7376,"▁Inn":7377,"ugg":7378,"wes":7379,"lob":7380,"▁wenige":7381,"▁sense":7382,"▁America":7383,"legung":7384,"nahmen":7385,"▁diejen":7386,"ifik":7387,"▁so,":7388,"or.":7389,"▁prefer":7390,"▁concept":7391,"öffnet":7392,"▁Hung":7393,"▁violence":7394,"▁evalu":7395,"▁goods":7396,"▁markets":7397,"▁Ere":7398,"1)":7399,"▁Maßnah":7400,"▁mem":7401,"▁Mut":7402,"▁dialogue":7403,"immen":7404,"freund":7405,"▁files":7406,"▁Gesundheits":7407,"▁said,":7408,"preis":7409,"▁Tatsache,":7410,"▁Mult":7411,"mission":7412,"▁stra":7413,"ney":7414,"▁Auftrag":7415,"▁employe":7416,"▁erreichen.":7417,"▁Lebensmittel":7418,"▁programmes":7419,"ena":7420,"kt,":7421,"▁nehm":7422,"▁fell":7423,"▁4.":7424,"in!":7425,"ground":7426,"▁ein,":7427,"▁influ":7428,"▁unmittel":7429,"ology":7430,"▁Linux":7431,"▁abgesch":7432,"▁aufz":7433,"este":7434,"▁häufig":7435,"▁berühm":7436,"▁Cost":7437,"▁budge":7438,"▁She":7439,"▁pressure":7440,"▁brit":7441,"▁aspects":7442,"▁pal":7443,"▁März":7444,"sprozess":7445,"ategories":7446,"▁ab.":7447,"▁Benutzer":7448,"▁\"D":7449,"▁Sign":7450,"ben,":7451,"otes":7452,"lossen.":7453,"▁Schwier":7454,"▁Verl":7455,"▁values":7456,"icles":7457,"▁objectives":7458,"▁Preise":7459,"▁Afghan":7460,"▁age":7461,"▁nicht.":7462,"▁ca.":7463,"▁CO":7464,"▁worth":7465,"▁consumer":7466,"cer":7467,"▁west":7468,"▁Veränder":7469,"▁policy,":7470,"▁started":7471,"▁bra":7472,"▁höher":7473,"▁limited":7474,"achs":7475,"▁Untersuch":7476,"isp":7477,"▁forms":7478,"ills":7479,"▁freund":7480,"▁highest":7481,"▁governments":7482,"▁discussion":7483,"ise.":7484,"ummer":7485,"▁response":7486,"▁ihres":7487,"▁angesichts":7488,"▁observ":7489,"▁Bulgar":7490,"ungs-":7491,"▁Iraq":7492,"▁Many":7493,"▁Betrieb":7494,"▁grat":7495,"kommen,":7496,"▁threat":7497,"▁effects":7498,"frastruct":7499,"streng":7500,"▁Ol":7501,"ism.":7502,"▁Bestimmungen":7503,"▁extend":7504,"▁Although":7505,"▁round":7506,"▁Alp":7507,"enew":7508,"▁Vorsitz":7509,"▁perfe":7510,"oper":7511,"▁ult":7512,"gesellschaft":7513,"▁kannst":7514,"iews":7515,"▁niedr":7516,"▁verm":7517,"▁bleibt":7518,"▁geben,":7519,"▁Gal":7520,"▁dafür,":7521,"▁Mann":7522,"▁bezüglich":7523,"▁Flor":7524,"▁aktuellen":7525,"▁rule":7526,"▁integrated":7527,"▁Juli":7528,"OT":7529,"▁written":7530,"▁useful":7531,"▁Meine":7532,"aign":7533,"läuf":7534,"▁January":7535,"usch":7536,"ously":7537,"▁stock":7538,"▁allowed":7539,"setzungen":7540,"▁stattfind":7541,"▁dein":7542,"▁Your":7543,"▁1997":7544,"▁fisher":7545,"kt.":7546,"-mail":7547,"▁Flü":7548,"▁won":7549,"▁weder":7550,"▁Erklärung":7551,"▁numerous":7552,"▁spirit":7553,"▁Parliament's":7554,"R)":7555,"▁Hel":7556,"▁Anfrage":7557,"▁cy":7558,"▁ursprün":7559,"▁darin,":7560,"▁zeit":7561,"▁emb":7562,"zwe":7563,"▁select":7564,"arbeiten":7565,"▁europäischer":7566,"operation":7567,"▁wan":7568,"sych":7569,"▁East":7570,"▁zehn":7571,"▁bad":7572,"▁mut":7573,"▁Bemüh":7574,"▁detail":7575,"▁Free":7576,"legen.":7577,"!!":7578,"head":7579,"▁affect":7580,"▁helpful":7581,"▁DVD":7582,"▁reality":7583,"▁garden":7584,"▁schl":7585,"▁sonst":7586,"▁pover":7587,"order":7588,"▁Republik":7589,"▁Januar":7590,"uls":7591,"mosphäre":7592,"izient":7593,"▁Centre":7594,"krä":7595,"at.":7596,"▁Swed":7597,"▁interesting":7598,"▁Micros":7599,"▁consist":7600,"▁morgen":7601,"▁accomp":7602,"▁Mobil":7603,"▁Beginn":7604,"▁Barcelona":7605,"▁popul":7606,"ends":7607,"▁Nr.":7608,"▁constant":7609,"▁Schließ":7610,"wa":7611,"▁Koh":7612,"▁statt.":7613,"zuführ":7614,"ces,":7615,"▁produce":7616,"▁Stelle":7617,"▁Bahn":7618,"▁eher":7619,"▁erneut":7620,"▁indeed":7621,"▁teach":7622,"▁lauf":7623,"arbeitet":7624,"▁unemploy":7625,"▁Dinge":7626,"no":7627,"ent,":7628,"...\"":7629,"▁Medien":7630,"▁occas":7631,"▁crucial":7632,"vis":7633,"▁Zeit,":7634,"▁Heute":7635,"▁Mos":7636,"▁offering":7637,"▁Zentral":7638,"▁ausdrück":7639,"üst":7640,"▁ausgestatte":7641,"▁accommodation":7642,"lehn":7643,"▁beton":7644,"▁drink":7645,"▁Ereign":7646,"▁beyond":7647,"able,":7648,"▁payment":7649,"▁Aktivitäten":7650,"▁Hal":7651,"▁capacity":7652,"ilosoph":7653,"▁Beteil":7654,"▁perman":7655,"▁Dr":7656,"uert":7657,"▁Armut":7658,"▁kam":7659,"▁legit":7660,"▁wir,":7661,"▁har":7662,"▁Test":7663,"▁integration":7664,"▁ign":7665,"grenz":7666,"▁Anforderungen":7667,"itude":7668,"▁entsprechenden":7669,"▁Stunden":7670,"19":7671,"▁undert":7672,"ero":7673,"▁notwendig":7674,"▁begrüß":7675,"ic,":7676,"polit":7677,"▁paid":7678,"rich":7679,"▁mis":7680,"▁equal":7681,"▁Villa":7682,"staaten":7683,"▁krit":7684,"▁wissenschaft":7685,"▁finden.":7686,"maßnahmen":7687,"atastrop":7688,"▁Are":7689,"▁humanit":7690,"▁van":7691,"ilateral":7692,"▁Beruf":7693,"▁bem":7694,"▁Sprache":7695,"▁Fehler":7696,"zeichnung":7697,"ated.":7698,"▁practical":7699,"▁fig":7700,"▁Flughafen":7701,"spricht":7702,"▁Innen":7703,"▁lower":7704,"▁hinzu":7705,"▁öffentliche":7706,"board":7707,"▁Notwendigkeit":7708,"▁konnte":7709,"▁Schlusselwor":7710,"IA":7711,"▁Winter":7712,"▁super":7713,"▁balance":7714,"▁Gruppen":7715,"▁enthält":7716,"iability":7717,"one.":7718,"▁places":7719,"▁langfrist":7720,"falt":7721,"▁Sinne":7722,"pret":7723,"▁(in":7724,"▁Party":7725,"▁Spezial":7726,"▁Entscheidungen":7727,"teuer":7728,"irmen":7729,"essen,":7730,"▁morn":7731,"more,":7732,"▁sufficient":7733,"▁Agrar":7734,"ammlung":7735,"▁alternative":7736,"6,":7737,"ony":7738,"▁Bedürf":7739,"urb":7740,"park":7741,"▁TH":7742,"weisen":7743,"▁Tagesordnung":7744,"▁kil":7745,"-to":7746,"möglich":7747,"▁früher":7748,"niss":7749,"▁verhin":7750,"ST":7751,"vere":7752,"▁reasons":7753,"UR":7754,"kommen.":7755,"▁geeign":7756,"▁feature":7757,"end.":7758,"▁»":7759,"angeb":7760,"onnen":7761,"▁Hous":7762,"stein":7763,"▁Java":7764,"▁Nachbar":7765,"▁equipment":7766,"meid":7767,"iveau":7768,"▁steps":7769,"▁arbeiten":7770,"és":7771,"▁provision":7772,"▁infrastruct":7773,"▁2,":7774,"▁Restaurants":7775,"▁Punkte":7776,"▁Dr.":7777,"▁las":7778,"23":7779,"▁reduction":7780,"cription":7781,"▁ey":7782,"▁Wunsch":7783,"▁measure":7784,"▁Dritt":7785,"▁Ak":7786,"▁weak":7787,"4,":7788,"page":7789,"▁ship":7790,"▁Kredit":7791,"▁minimum":7792,"ocol":7793,"4.":7794,"▁ol":7795,"▁Herz":7796,"{{":7797,"legt":7798,"▁property":7799,"▁Völk":7800,"▁Prüf":7801,"▁tomor":7802,"▁erhält":7803,"▁frequ":7804,"irl":7805,"▁(R":7806,"-Re":7807,"▁soll.":7808,"▁Las":7809,"ik,":7810,"▁präsent":7811,"▁genannten":7812,"liz":7813,"der,":7814,"stellen,":7815,"▁pie":7816,"▁vorher":7817,"▁Gast":7818,"▁jüng":7819,"▁modified":7820,"▁kostenlos":7821,"dienst":7822,"▁anderem":7823,"▁Even":7824,"▁Site":7825,"▁efficien":7826,"estic":7827,"▁drive":7828,"▁Palest":7829,"▁congratulate":7830,"▁implemen":7831,"▁Public":7832,"▁rates":7833,"▁Tier":7834,"▁Human":7835,"▁5.":7836,"▁Sommer":7837,"▁Mass":7838,"▁leis":7839,"▁hotels":7840,"▁study":7841,"▁partnership":7842,"ürger":7843,"▁Berichts":7844,"▁charm":7845,"schaft.":7846,"▁bild":7847,"▁Mitgliedstaat":7848,"▁Ven":7849,"▁Security":7850,"hold":7851,"▁office":7852,"▁loss":7853,"▁Vorschriften":7854,"lim":7855,"▁source":7856,"15":7857,"’t":7858,"▁writing.":7859,"ehm":7860,"▁Bot":7861,"ischem":7862,"▁liegen":7863,"▁quiet":7864,"▁renew":7865,"▁trip":7866,"▁reference":7867,"▁tex":7868,"▁practice":7869,"▁claim":7870,"▁gehören":7871,"▁relating":7872,"bezogen":7873,"▁passen":7874,"▁gran":7875,"▁gek":7876,"mö":7877,"▁paar":7878,"▁kur":7879,"▁funding":7880,"ages.":7881,"letzt":7882,"pose":7883,"front":7884,"wertung":7885,"▁Metho":7886,"▁bedroom":7887,"▁Änderung":7888,"▁wollen.":7889,"▁Protokoll":7890,"▁syn":7891,"DF":7892,"rupt":7893,"▁goes":7894,"▁levels":7895,"ite.":7896,"▁historic":7897,"▁ski":7898,"▁Gest":7899,"▁unterstützen.":7900,"▁wr":7901,"▁well.":7902,"▁message":7903,"▁wichtiger":7904,"▁Grenzen":7905,"▁restr":7906,"▁critic":7907,"uffet":7908,"▁types":7909,"▁maximum":7910,"▁Mc":7911,"▁Vergangen":7912,"II":7913,"▁betrifft,":7914,"ico":7915,"m,":7916,"▁Stock":7917,"▁zunehm":7918,"▁Kn":7919,"riff":7920,"frastruktur":7921,"▁Amendment":7922,"cle":7923,"▁circum":7924,"▁requires":7925,"▁exception":7926,"▁Gas":7927,"▁Behandlung":7928,"▁territor":7929,"schreit":7930,"6.":7931,"▁Finanzierung":7932,"▁Bürgerinnen":7933,"▁Gerichts":7934,"▁Erd":7935,"▁Präsidenten":7936,"ändert":7937,"▁animal":7938,"▁element":7939,"▁denke,":7940,"theless":7941,"▁Atmosphäre":7942,"üs":7943,"ures.":7944,"▁illegal":7945,"▁Italien":7946,"▁Cop":7947,"▁starting":7948,"▁Vertreter":7949,"ures,":7950,"▁sollen":7951,"▁ful":7952,"-con":7953,"ev":7954,"schloss":7955,"▁Sitzung":7956,"▁gas":7957,"-Off":7958,"▁besondere":7959,"▁35":7960,"▁sprech":7961,"▁recon":7962,"▁campaign":7963,"▁Gebäude":7964,"griffen":7965,"▁Firma":7966,"▁das,":7967,"▁accordance":7968,"▁Linie":7969,"ide.":7970,"▁hop":7971,"ilfen":7972,"▁will,":7973,"iker":7974,"▁email":7975,"▁Natürlich":7976,"T)":7977,"▁Aller":7978,"▁server":7979,"engen":7980,"▁Lang":7981,"▁Mess":7982,"▁Airport":7983,"▁unbed":7984,"bar,":7985,"▁muss,":7986,"volle":7987,"ilen":7988,"▁Minder":7989,"▁Koordin":7990,"▁initial":7991,"LA":7992,"▁schriftlich.":7993,"▁hatten":7994,"▁While":7995,"▁günst":7996,"▁rapid":7997,"▁ded":7998,"▁urg":7999,"▁194":8000,"▁Pet":8001,"▁sechs":8002,"▁Dav":8003,"▁buy":8004,"▁Wass":8005,"so":8006,"-Mit":8007,"▁manufactur":8008,"izin":8009,"▁subst":8010,"▁Investitionen":8011,"▁Ac":8012,"men.":8013,"▁mitt":8014,"▁Ess":8015,"▁sollte.":8016,"▁Altern":8017,"▁Saf":8018,"▁Gef":8019,"▁Technologie":8020,"▁Computer":8021,"iell":8022,"▁Berat":8023,"ted,":8024,"▁Therefore,":8025,"▁operating":8026,"üg":8027,"atform":8028,"▁mensch":8029,"bre":8030,"▁offiz":8031,"▁Milliar":8032,"aint":8033,"▁extent":8034,"legenheiten":8035,"▁Id":8036,"verfahren":8037,"legation":8038,"achtung":8039,"▁actions":8040,"ugs":8041,"▁jobs":8042,"▁begrüße":8043,"▁warum":8044,"▁Verteid":8045,"▁level.":8046,"▁sämt":8047,"--":8048,"▁Lassen":8049,"ordn":8050,"▁mechanism":8051,"cies":8052,"▁advert":8053,"stitutional":8054,"leistet":8055,"▁́":8056,"▁Vergangenheit":8057,"▁Mand":8058,"▁d.":8059,"▁remov":8060,"▁provisions":8061,"ängt":8062,"oker":8063,"▁worldw":8064,"▁Conference":8065,"}}":8066,"▁addition,":8067,"▁Green":8068,"▁fishing":8069,"▁bill":8070,"▁damage":8071,"▁richtige":8072,"▁happy":8073,"▁\"M":8074,"▁zahlreichen":8075,"▁Gel":8076,"▁begin":8077,"land.":8078,"standen":8079,"▁assistance":8080,"PS":8081,"▁staat":8082,"▁eingeb":8083,"istics":8084,"oto":8085,"▁zu,":8086,"▁Terrorismus":8087,"▁betroffen":8088,"▁case,":8089,"▁us,":8090,"hafte":8091,"▁Jahrhundert":8092,"▁offered":8093,"13":8094,"▁caused":8095,"bus":8096,"ächen":8097,"▁genutz":8098,"▁entwickelt":8099,"▁uner":8100,"▁benötig":8101,"see":8102,"▁Menschenrechts":8103,"▁daily":8104,"▁Anstreng":8105,"▁Fäh":8106,"▁welches":8107,"▁Umgebung":8108,"▁(T":8109,"▁consumers":8110,"▁John":8111,"▁interested":8112,"',":8113,"▁erhalten.":8114,"▁bur":8115,"▁respond":8116,"▁könnten":8117,"▁jeweiligen":8118,"▁selection":8119,"etzen.":8120,"folge":8121,"wesen":8122,"▁organiz":8123,"▁Hoff":8124,"▁ban":8125,"asc":8126,"▁Bu":8127,"▁Bereiche":8128,"▁requirement":8129,"▁Rede":8130,"▁einheit":8131,"▁probably":8132,"handel":8133,"▁motor":8134,"▁comprehensive":8135,"▁applied":8136,"ki":8137,"scheiden":8138,"▁\"W":8139,"▁halten":8140,"▁priority":8141,"una":8142,"▁Auto":8143,"schö":8144,"▁scientific":8145,"▁Regeln":8146,"chen,":8147,"▁election":8148,"▁saying":8149,"▁Projekte":8150,"▁heißt":8151,"▁Aufenthalt":8152,"annten":8153,"▁symbol":8154,"▁seines":8155,"▁colour":8156,"zielle":8157,"▁counter":8158,"▁größte":8159,"▁Doppel":8160,"▁gestellt":8161,"▁Vergleich":8162,"”.":8163,"▁ehem":8164,"ernen":8165,"▁Goog":8166,"▁Download":8167,"▁\"B":8168,"liegen":8169,"IV":8170,"▁PH":8171,"▁ko":8172,"▁gee":8173,"▁candid":8174,"▁arrange":8175,"▁anim":8176,"▁bald":8177,"orsitz":8178,"▁valid":8179,"▁Soll":8180,"▁cert":8181,"▁gere":8182,"▁Gesell":8183,"▁season":8184,"▁Opfer":8185,"▁world,":8186,"▁hor":8187,"▁Option":8188,"▁außerhalb":8189,"▁hör":8190,"▁Monaten":8191,"▁reflect":8192,"-based":8193,"▁wat":8194,"ities.":8195,"iately":8196,"bezieh":8197,"st,":8198,"▁Systems":8199,"▁Eas":8200,"▁usw.":8201,"▁Fernse":8202,"▁zuständ":8203,"io,":8204,"▁exerc":8205,"▁beträ":8206,"▁rul":8207,"▁sprechen":8208,"▁neighbour":8209,"sam":8210,"▁sort":8211,"▁Supp":8212,"▁apprec":8213,"▁befür":8214,"▁matters":8215,"▁Menschen,":8216,"▁Frankf":8217,"▁Ire":8218,"▁tät":8219,"▁11.":8220,"ustausch":8221,"▁zumindest":8222,"▁Industr":8223,"ruit":8224,"▁applications":8225,"back":8226,"▁tourist":8227,"▁distance":8228,"▁clar":8229,"▁Straßen":8230,"▁Präsidentschaft":8231,"▁Microsoft":8232,"▁stets":8233,"▁Zivil":8234,"▁Gene":8235,"▁sometimes":8236,"▁schaffen,":8237,"▁entsprechend":8238,"▁ways":8239,"upts":8240,"▁else":8241,"▁Ord":8242,"▁darum":8243,"▁gemein":8244,"▁inf":8245,"sequent":8246,"figur":8247,"ral":8248,"▁Mediterranean":8249,"zentrum":8250,"▁Bal":8251,"▁process.":8252,"▁beant":8253,"▁Viele":8254,"-re":8255,"▁SM":8256,"▁despite":8257,"ients":8258,"▁bringen":8259,"▁enorm":8260,"▁details":8261,"mand":8262,"gänz":8263,"▁bege":8264,"konom":8265,"atalog":8266,"prü":8267,"kunf":8268,"▁sil":8269,"▁genug":8270,"künft":8271,"▁NAT":8272,"erstör":8273,"▁award":8274,"▁influence":8275,"▁Dann":8276,"▁honour":8277,"▁verab":8278,"ünstler":8279,"ückt":8280,"▁long-term":8281,"▁historischen":8282,"▁verkauf":8283,"▁area,":8284,"glied":8285,"▁genu":8286,"▁Gründen":8287,"icket":8288,"▁—":8289,"▁cast":8290,"▁remember":8291,"▁Et":8292,"▁secure":8293,"reichen":8294,"/0":8295,"▁sehen,":8296,"zeichn":8297,"▁Del":8298,"▁Dazu":8299,"▁shop":8300,"▁lost":8301,"book":8302,"amin":8303,"▁coup":8304,"utive":8305,"▁Modell":8306,"▁handel":8307,"▁Swiss":8308,"▁S.":8309,"▁Versuch":8310,"-in-Off":8311,"▁Video":8312,"▁fant":8313,"▁AC":8314,"▁Services":8315,"▁EU.":8316,"▁Russian":8317,"▁today.":8318,"icy":8319,"▁mann":8320,"▁village":8321,"▁meaning":8322,"iant":8323,"▁«":8324,"▁prem":8325,"▁Affairs":8326,"▁investig":8327,"▁annual":8328,"▁vertra":8329,"▁late":8330,"orgung":8331,"16":8332,"aren":8333,"▁ergreif":8334,"▁habe,":8335,"▁blo":8336,"▁Est":8337,"scheinlich":8338,"▁slow":8339,"▁heutigen":8340,"▁\"E":8341,"▁substant":8342,"▁ready":8343,"▁University":8344,"▁Development":8345,"▁services.":8346,"s:":8347,"ktive":8348,"▁Einwander":8349,"▁e-mail":8350,"▁halte":8351,"▁cohes":8352,"▁heav":8353,"▁Bürgern":8354,"▁Regierungs":8355,"▁absolutely":8356,"▁them,":8357,"h.":8358,"▁Voll":8359,"gehend":8360,"▁Landwirtschaft":8361,"peratur":8362,"▁auf.":8363,"▁Drit":8364,"▁crimin":8365,"▁Nun":8366,"▁bessere":8367,"▁Islam":8368,"8,":8369,"▁Start":8370,"▁affe":8371,"▁hotel.":8372,"quem":8373,"▁Kapital":8374,"hältnis":8375,"▁UK":8376,"▁Prem":8377,"▁swimming":8378,"▁base":8379,"▁Bildung":8380,"▁advantage":8381,"nit":8382,"▁persönlichen":8383,"nam":8384,"pack":8385,"ue,":8386,"▁benefits":8387,"▁Hinsicht":8388,"▁Nationen":8389,"▁growing":8390,"▁insp":8391,"▁spezif":8392,"ist,":8393,"▁folgenden":8394,"▁decor":8395,"pool":8396,"▁größer":8397,"▁Inhalt":8398,"▁club":8399,"▁scheint":8400,"▁lands":8401,"▁).":8402,"▁uns,":8403,"▁stage":8404,"▁thought":8405,"DE":8406,"▁sav":8407,"gy":8408,"▁competit":8409,"▁Flex":8410,"▁finally":8411,"▁anerk":8412,"▁trying":8413,"▁Def":8414,"▁Verfass":8415,"ünsche":8416,"▁geben.":8417,"▁ausschließlich":8418,"date":8419,"führt.":8420,"▁Praxis":8421,"▁vital":8422,"▁published":8423,"standing":8424,"ION":8425,"cape":8426,"5-0":8427,"▁Furthermore,":8428,"gül":8429,"▁overall":8430,"▁Arbeitslos":8431,"▁effizient":8432,"▁verurs":8433,"▁brand":8434,"▁purpose":8435,"▁Einige":8436,"▁Aufgaben":8437,"▁jähr":8438,"▁Gespr":8439,"▁therefore,":8440,"barer":8441,"▁wes":8442,"▁Fällen":8443,"▁Ihres":8444,"▁Kosovo":8445,"▁specif":8446,"▁fire":8447,"ages,":8448,"▁ourselves":8449,"▁195":8450,"▁Gold":8451,"▁technischen":8452,"▁view,":8453,"-Ver":8454,"▁day.":8455,"▁Eigent":8456,"▁July":8457,"▁Sonder":8458,"▁überhaupt":8459,"nd":8460,"unden,":8461,"▁deutschen":8462,"komp":8463,"ifen":8464,"oom":8465,"▁sieht":8466,"vollen":8467,"▁Tagen":8468,"ated,":8469,"inian":8470,"▁zukünft":8471,"▁italien":8472,"▁analysis":8473,"▁too,":8474,"▁vorgesehen":8475,"▁nutzen":8476,"▁verfügen":8477,"▁bleiben":8478,"▁Kauf":8479,"▁argument":8480,"enken":8481,"ato":8482,"▁separate":8483,"umin":8484,"▁President-in-Off":8485,"ategie":8486,"ibe":8487,"▁system,":8488,"unternehmen":8489,"▁EU,":8490,"▁collection":8491,"▁stärker":8492,"▁offens":8493,"IF":8494,"▁Wissen":8495,"▁strategic":8496,"iertel":8497,"▁that.":8498,"▁Eind":8499,"▁yourself":8500,"▁expert":8501,"▁modernen":8502,"auen":8503,"▁Sprach":8504,"prech":8505,"▁goal":8506,"▁Maß":8507,"▁hostel":8508,"▁Hilf":8509,"▁resort":8510,"▁wiederhol":8511,"▁simpl":8512,"▁Cy":8513,"sprü":8514,"▁vollständig":8515,"▁you'":8516,"▁cred":8517,"▁Agre":8518,"tempt":8519,"▁Allerdings":8520,"▁wrong":8521,"▁disapp":8522,"liefer":8523,"▁Österreich":8524,"vo":8525,"CO":8526,"▁Georg":8527,"▁Herausforder":8528,"ästin":8529,"last":8530,"acht,":8531,"hilfe":8532,"▁accession":8533,"▁materials":8534,"▁gibt.":8535,"▁heard":8536,"▁street":8537,"▁fahr":8538,"▁Krank":8539,"▁status":8540,"SS":8541,"▁Größ":8542,"▁erforderlich":8543,"▁geze":8544,"▁wanted":8545,"▁politic":8546,"▁circumst":8547,"ität.":8548,"möglichkeiten":8549,"▁Bemühungen":8550,"▁Tal":8551,"imat":8552,"▁monitoring":8553,"▁Opt":8554,"ügen":8555,"▁Only":8556,"urance":8557,"▁ehemal":8558,"▁gam":8559,"lymp":8560,"▁wine":8561,"wise":8562,"▁zudem":8563,"▁Agreement":8564,"ener":8565,"▁(3":8566,"▁(K":8567,"enze":8568,"▁Miss":8569,"17":8570,"▁distrib":8571,"tere":8572,"▁Ang":8573,"▁today,":8574,"▁occup":8575,"▁verstär":8576,"▁Directive":8577,"▁Its":8578,"▁kürz":8579,"▁compromise":8580,"//":8581,"▁zweit":8582,"▁cell":8583,"mens":8584,"▁Falls":8585,"▁Liberal":8586,"▁allgemeinen":8587,"▁elements":8588,"ira":8589,"affe":8590,"▁ability":8591,"ifizierung":8592,"hotel":8593,"▁sales":8594,"▁listen":8595,"▁privaten":8596,"▁würde.":8597,"▁150":8598,"▁Obwohl":8599,"9,":8600,"hood":8601,"▁einsetz":8602,"▁lies":8603,"▁Antrag":8604,"SP":8605,"ägt":8606,"▁Kompromiss":8607,"▁Trotz":8608,"▁teleph":8609,"▁way,":8610,"▁verlang":8611,"▁Secondly,":8612,"▁NATO":8613,"▁länd":8614,"▁dipl":8615,"▁electronic":8616,"▁Ukraine":8617,"▁Glaub":8618,"QL":8619,"▁flexible":8620,"ymp":8621,"äte":8622,"▁love":8623,"ione":8624,"▁Council.":8625,"▁unterb":8626,"▁Wann":8627,"▁ab,":8628,"▁Ausgang":8629,"▁Amb":8630,"▁gesagt,":8631,"ja":8632,"lose":8633,"sprogramm":8634,"▁Tor":8635,"▁fresh":8636,"▁ausgezeichnet":8637,"bad":8638,"▁datab":8639,"sicherheit":8640,"▁inn":8641,"▁chance":8642,"▁country.":8643,"cker":8644,"▁deine":8645,"▁worden.":8646,"ösen":8647,"▁placed":8648,"alyse":8649,"▁Tätigkeit":8650,"▁Anerkenn":8651,"▁vor.":8652,"▁sinn":8653,"▁tit":8654,"▁People":8655,"▁Erk":8656,"▁Zimmer,":8657,"uber":8658,"zy":8659,"▁enterpr":8660,"▁rom":8661,"▁Freiz":8662,"▁God":8663,"▁Grenz":8664,"omet":8665,"os.":8666,"▁Chinese":8667,"▁hot":8668,"▁endlich":8669,"▁bringen.":8670,"▁Schritte":8671,"▁Aspekte":8672,"▁spect":8673,"▁jem":8674,"):":8675,"▁Leute":8676,"▁parking":8677,"ely.":8678,"▁voting":8679,"obby":8680,"attet":8681,"▁Öl":8682,"▁gerecht":8683,"▁länger":8684,"▁Forschungs":8685,"▁concentr":8686,"agraph":8687,".m.":8688,"▁spok":8689,"▁(FR)":8690,"▁plant":8691,"uern":8692,"▁negative":8693,"▁fear":8694,"undred":8695,"▁Mex":8696,"▁hol":8697,"▁luxur":8698,"▁way.":8699,"▁Vertrauen":8700,"▁produz":8701,"▁natür":8702,"gt.":8703,"uren":8704,"▁Mün":8705,"▁autom":8706,"▁Mer":8707,"umm":8708,"▁möglich,":8709,"▁remind":8710,"▁geht,":8711,"▁Verkauf":8712,"▁ethn":8713,"▁Folge":8714,"ande":8715,"▁\"P":8716,"▁shopping":8717,"grad":8718,"▁anc":8719,"▁Prä":8720,"ares":8721,"▁Dub":8722,"▁gelang":8723,"▁geforder":8724,"▁kaum":8725,"kosten":8726,"▁dram":8727,"▁mainly":8728,"▁formul":8729,"▁rights.":8730,"▁Herren!":8731,"▁Guest":8732,"abkommen":8733,"▁größere":8734,"▁jun":8735,"▁automatisch":8736,"▁Moreover,":8737,"▁touch":8738,"igungen":8739,"▁reag":8740,"▁letzte":8741,"▁Ausschuß":8742,"▁walking":8743,"▁country,":8744,"avig":8745,"▁whom":8746,"▁arm":8747,"▁Union's":8748,"ite,":8749,"hrte":8750,"▁Überwach":8751,"▁Gesamt":8752,"▁Grie":8753,"▁Beweg":8754,"▁proceed":8755,"abr":8756,"▁affected":8757,"▁occur":8758,"▁umfang":8759,"▁regulations":8760,"▁dar.":8761,"▁operation":8762,"▁elegant":8763,"▁beide":8764,"meer":8765,"▁Milliarden":8766,"▁Ressourcen":8767,"-e":8768,"aw":8769,"lines":8770,"▁auszu":8771,"▁komfort":8772,"lichkeiten":8773,"▁po":8774,"▁worked":8775,"ive.":8776,"▁Zweck":8777,"▁coast":8778,"▁Bade":8779,"▁Us":8780,"▁Erfahrungen":8781,"▁Hostels":8782,"▁consequences":8783,"▁Acht":8784,"▁talking":8785,"and.":8786,"▁discrimin":8787,"▁folgt":8788,"▁falls":8789,"etzen":8790,"▁Schiff":8791,"für":8792,"▁bezahl":8793,"▁AL":8794,"▁friends":8795,"▁comment":8796,"▁rights,":8797,"▁Präsidentin!":8798,"-de":8799,"▁Qualitäts":8800,"bt":8801,"▁enlargement":8802,"▁reduced":8803,"▁Slo":8804,"▁sites":8805,"▁Zweif":8806,"▁began":8807,"änge":8808,"ärkung":8809,"▁box":8810,"▁wünsch":8811,"▁Bon":8812,"benen":8813,"▁entspricht":8814,"▁Falle":8815,"uly":8816,"▁soll,":8817,"▁childr":8818,"▁Google":8819,"▁style":8820,"gruppe":8821,"mus":8822,"▁encourage":8823,"▁watch":8824,"▁zusätzliche":8825,"▁Sache":8826,"▁increasingly":8827,"**":8828,"▁products.":8829,"▁intended":8830,"ssystem":8831,"▁\"C":8832,"werte":8833,"”,":8834,"▁Immobil":8835,"▁ausführ":8836,"▁confidence":8837,"struktur":8838,"8.":8839,"▁expressed":8840,"▁contribute":8841,"“.":8842,"zech":8843,"sätze":8844,"▁compl":8845,"▁Annahme":8846,"▁Bur":8847,"▁Besonder":8848,"▁Dro":8849,"▁stabil":8850,"▁Schwer":8851,"▁Entschließungsant":8852,"▁cos":8853,"▁Licht":8854,"▁intell":8855,"gere":8856,"▁now,":8857,"▁opening":8858,"ehen":8859,"▁1990":8860,"▁betrifft":8861,"9.":8862,"gebie":8863,"▁IP":8864,"akte":8865,"gt,":8866,"▁apartments":8867,"▁Nacht":8868,"▁Versch":8869,"reiber":8870,"▁guidel":8871,"▁calls":8872,"▁instruments":8873,"izienz":8874,"▁administrative":8875,"▁expens":8876,"▁speziell":8877,"A.":8878,"▁Stil":8879,"▁Ann":8880,"ionen":8881,"▁\"...":8882,"▁tal":8883,"▁sollte,":8884,"cul":8885,"▁militär":8886,"▁elektron":8887,"▁unbedingt":8888,"▁safe":8889,"verläss":8890,"ham":8891,"▁Elekt":8892,"-2":8893,"▁suitable":8894,"▁structural":8895,"enty":8896,"▁Werte":8897,"▁perspect":8898,"tlich":8899,"▁Stellen":8900,"▁setzen":8901,"▁His":8902,"▁Liber":8903,"▁Dre":8904,"▁ersch":8905,"folger":8906,"E)":8907,"▁Frage,":8908,"las":8909,"▁Sing":8910,"▁mill":8911,"▁Kollegen!":8912,"▁nimmt":8913,"▁Einfluss":8914,"▁powerful":8915,"▁Agentur":8916,"▁ensuring":8917,"imb":8918,"▁Paul":8919,"▁unfortun":8920,"reiche":8921,"ices.":8922,"ors,":8923,"▁structure":8924,"▁doubt":8925,"het":8926,"ING":8927,"ästinens":8928,"▁attempt":8929,"▁angemessen":8930,"▁herz":8931,"▁medic":8932,"▁fellow":8933,"ray":8934,"▁Rechtsvorschriften":8935,"▁;":8936,"▁surrounding":8937,"▁Körper":8938,"▁it's":8939,"▁Nah":8940,"▁speech":8941,"▁News":8942,"▁Also":8943,"strumente":8944,"äher":8945,"folgen":8946,"▁unterschiedlichen":8947,"▁Vide":8948,"▁voraus":8949,"▁Serb":8950,"▁chann":8951,"▁namely":8952,"▁dringend":8953,"▁bewusst":8954,"▁Garant":8955,"▁finden,":8956,"n.":8957,"qual":8958,"isely":8959,"gewöhn":8960,"▁reduz":8961,"▁challenges":8962,"▁market,":8963,"▁committed":8964,"▁AN":8965,"ighted":8966,"▁anything":8967,"ie.":8968,"▁Spr":8969,"▁Durchführung":8970,"▁Autom":8971,"90":8972,"▁zusam":8973,"zeugen":8974,"craft":8975,"▁pictures":8976,"▁more.":8977,"▁verz":8978,"▁Generation":8979,"▁Ern":8980,"▁herunter":8981,"▁mindestens":8982,"▁mid":8983,"esearch":8984,"ael":8985,"▁Lab":8986,"▁gestal":8987,"▁Haft":8988,"▁Anspruch":8989,"▁waste":8990,"▁fine":8991,"▁Any":8992,"▁l'":8993,"▁Card":8994,"inu":8995,"▁intend":8996,"▁Agend":8997,"▁Wik":8998,"ivity":8999,"▁immediately":9000,"▁betrachte":9001,"▁poll":9002,"▁introduced":9003,"▁Archite":9004,"AG":9005,"▁agriculture":9006,"bü":9007,"aktiv":9008,"▁black":9009,"▁Spieler":9010,"ola":9011,"ifying":9012,"▁hochwert":9013,"reise":9014,"▁automatically":9015,"hilfen":9016,"zul":9017,"amber":9018,"▁impos":9019,"▁nachdem":9020,"p:":9021,"▁nö":9022,"▁church":9023,"ium,":9024,"▁quant":9025,"svorsitz":9026,"▁Arab":9027,"▁mehreren":9028,"posit":9029,"▁Zimm":9030,"coming":9031,"▁Bemerk":9032,"ückw":9033,"▁Bestand":9034,"▁geschütz":9035,"▁Sinn":9036,"▁agen":9037,"▁sports":9038,"▁Ident":9039,"▁anders":9040,"ide,":9041,"▁Vorteile":9042,"▁committe":9043,"▁Verhalten":9044,"▁Ander":9045,"▁procedures":9046,"▁larger":9047,"▁wonderful":9048,"▁Each":9049,"▁Arbeitsplätze":9050,"igran":9051,"▁Regional":9052,"iture":9053,"▁IM":9054,"▁ausgew":9055,"▁Betrie":9056,"▁work,":9057,"wser":9058,"▁supports":9059,"▁entsprechende":9060,"▁Fakt":9061,"ius":9062,"▁Exp":9063,"raw":9064,"▁Board":9065,"▁extensive":9066,"▁platform":9067,"▁angeze":9068,"▁don't":9069,"▁hundred":9070,"bum":9071,"▁getting":9072,"▁activity":9073,"▁fert":9074,"▁referred":9075,"zimmer,":9076,"▁domin":9077,"raten":9078,"▁ec":9079,"▁erleb":9080,"▁Olymp":9081,"can":9082,"rans":9083,"artigen":9084,"▁reviews":9085,"▁map":9086,"IG":9087,"bung":9088,"▁museum":9089,"▁kit":9090,"▁Zwischen":9091,"▁summit":9092,"▁raised":9093,"▁release":9094,"fläche":9095,"▁traffic":9096,"▁Hintergrund":9097,"▁dedic":9098,"8)":9099,"stieg":9100,"▁Most":9101,"▁erh":9102,"▁ris":9103,"▁euch":9104,"law":9105,"hnen,":9106,"künd":9107,"▁detailed":9108,"mack":9109,"▁usually":9110,"▁Costa":9111,"ión":9112,"idge":9113,"▁Einrichtung":9114,"▁Rev":9115,"idential":9116,"▁Konflikt":9117,"ae":9118,"▁Prozent":9119,"▁serve":9120,"▁Zweitens":9121,"▁demokratischen":9122,"▁aimed":9123,"▁Tem":9124,"▁Czech":9125,"▁Bay":9126,"▁kontroll":9127,"▁frag":9128,"▁Verwaltung":9129,"IE":9130,"▁ehr":9131,"▁dead":9132,"▁Wissenschaft":9133,"▁protected":9134,"▁Ev":9135,"▁Schlaf":9136,"▁colleagues":9137,"▁Nahr":9138,"udem":9139,"▁globalen":9140,"ams":9141,"▁restrict":9142,"▁Einsch":9143,"▁Assoc":9144,"▁ago":9145,"▁glaube":9146,"▁scen":9147,"▁Cr":9148,"▁Kind":9149,"▁Motor":9150,"▁mand":9151,"▁According":9152,"▁transparent":9153,"onym":9154,"▁Dol":9155,"ps":9156,"▁vac":9157,"▁2020":9158,"sichtig":9159,"▁Cast":9160,"▁gebracht":9161,"ingu":9162,"p://":9163,"▁facilit":9164,"▁einzu":9165,"▁wants":9166,"▁rural":9167,"▁decide":9168,"▁mic":9169,"teilt":9170,"▁moderne":9171,"▁flow":9172,"haften":9173,"▁Mitgliedstaaten,":9174,"▁gefunden":9175,"itation":9176,"▁actual":9177,"▁eindeutig":9178,"▁..":9179,"uppen":9180,"ichen":9181,"ologischen":9182,"lagen,":9183,"IR":9184,"▁besonderen":9185,"▁entw":9186,"▁services,":9187,"▁nationale":9188,"▁unbe":9189,"▁sich,":9190,"▁wood":9191,"▁6.":9192,"▁conver":9193,"▁Zeitraum":9194,"verage":9195,"▁Bew":9196,"▁Reserv":9197,"▁criteria":9198,"üste":9199,"▁Konzept":9200,"▁tools":9201,"▁aktuelle":9202,"ities,":9203,"▁bind":9204,"▁forces":9205,"lying":9206,"quality":9207,"spunkt":9208,"▁played":9209,"▁Komfort":9210,"▁budgetary":9211,"▁mix":9212,"izing":9213,"▁Turk":9214,"▁convin":9215,"▁(w":9216,"wogen":9217,"▁becoming":9218,"▁Abschluss":9219,"jected":9220,"▁institutional":9221,"▁Zudem":9222,"▁Middle":9223,"ulierung":9224,"▁spacious":9225,"▁coff":9226,"▁Zunächst":9227,"▁documents":9228,"▁zweif":9229,"izenz":9230,"acht.":9231,"anken":9232,"▁Anerkennung":9233,"▁sub-c":9234,"hop":9235,"ennen,":9236,"▁critical":9237,"▁dispos":9238,"7,":9239,"▁Tab":9240,"▁Economic":9241,"▁tomorrow":9242,"▁bestehenden":9243,"▁Firmen":9244,"▁gelegen":9245,"▁remark":9246,"▁Griechen":9247,"cks":9248,"freiheit":9249,"▁rechts":9250,"▁(2":9251,"▁winter":9252,"▁plus":9253,"▁unc":9254,"▁Code":9255,"▁Lage,":9256,"▁sollten.":9257,"▁Parteien":9258,"▁Great":9259,"▁exactly":9260,"▁feed":9261,"▁Wellness":9262,"▁Sand":9263,"▁target":9264,"▁Sach":9265,"▁Prote":9266,"▁danke":9267,"▁scr":9268,"▁Salz":9269,"▁forest":9270,"▁Luxem":9271,"▁?":9272,"imme":9273,"▁Out":9274,"▁running":9275,"▁oben":9276,"▁Kore":9277,"▁corresp":9278,"▁representatives":9279,"▁vorge":9280,"▁Vorbereit":9281,"▁expected":9282,"▁Kenntnis":9283,"▁Einkauf":9284,"▁Other":9285,"brit":9286,"▁Tar":9287,"nel":9288,"▁multip":9289,"▁Holz":9290,"▁provider":9291,"▁introduction":9292,"▁selected":9293,"entwicklung":9294,"▁Zustimmung":9295,"▁setzt":9296,"entrale":9297,"▁möglicherweise":9298,"leistungen":9299,"▁Netzwerk":9300,"▁Anpass":9301,"▁Patient":9302,"▁erfolgt":9303,"▁changed":9304,"▁earlier":9305,"sport":9306,"▁abzu":9307,"ved.":9308,"nahm":9309,"gebiet":9310,"präsident":9311,"ar.":9312,"▁iP":9313,"▁Beitritts":9314,"▁tabled":9315,"▁unterstützen,":9316,"▁öffentlich":9317,"cht,":9318,"▁Mitte":9319,"▁notwendigen":9320,"laus":9321,"▁Wettbewerbsfähigkeit":9322,"ureau":9323,"▁medical":9324,"▁weap":9325,"ago":9326,"oß":9327,"▁Belar":9328,"▁bedeutet,":9329,"▁bequem":9330,"ibly":9331,"azz":9332,"chen.":9333,"▁ideas":9334,"▁conflict":9335,"uard":9336,"14":9337,"▁Gran":9338,"▁Research":9339,"fäll":9340,"▁served":9341,"▁challenge":9342,"▁Mitteilung":9343,"▁Unterkategorien":9344,"▁mad":9345,"rok":9346,"▁Waren":9347,"▁employees":9348,"▁Milit":9349,"▁darauf,":9350,"▁Som":9351,"▁(d":9352,"▁unit":9353,"▁weiß,":9354,"▁sub-categories":9355,"used":9356,"▁Ap":9357,"▁Bi":9358,"▁süd":9359,"▁rapporteur,":9360,"/E":9361,"▁expand":9362,"▁abhäng":9363,"-called":9364,"▁finanziellen":9365,"▁glob":9366,"ba":9367,"▁Verfassung":9368,"▁spread":9369,"flü":9370,"▁jederzeit":9371,"▁Vill":9372,"eks":9373,"▁represents":9374,"▁Tun":9375,"▁wesentlich":9376,"meld":9377,"stitut":9378,"lemente":9379,"▁cuis":9380,"öm":9381,"▁thousands":9382,"ado":9383,"▁Verwaltungs":9384,"▁Indeed,":9385,"▁managed":9386,"britann":9387,"lebr":9388,"selv":9389,"▁electric":9390,"▁comput":9391,"▁Ba":9392,"les,":9393,"anden":9394,"u,":9395,"▁Click":9396,"▁acqu":9397,"▁Homepage":9398,"▁kennen":9399,"▁Wahlen":9400,"▁ausger":9401,"▁Center":9402,"▁ade":9403,"▁Aufnahme":9404,"▁graph":9405,"▁here,":9406,"either":9407,"house":9408,"▁45":9409,"▁players":9410,"▁competitive":9411,"zeichen":9412,"▁Lehr":9413,"allel":9414,"▁likely":9415,"sprach":9416,"▁400":9417,"▁defend":9418,"▁ries":9419,"▁explo":9420,"▁ged":9421,"ragen":9422,"▁Verpflichtungen":9423,"▁transparency":9424,"▁sold":9425,"▁freien":9426,"▁selbstverständlich":9427,"▁stellen.":9428,"rum":9429,"▁scope":9430,"ists,":9431,"▁Irak":9432,"größ":9433,"▁Moment":9434,"▁criminal":9435,"▁precisely":9436,"▁Switzer":9437,"▁Found":9438,"▁Ky":9439,"▁centr":9440,"bas":9441,"▁zug":9442,"▁Infrastruktur":9443,"▁3,":9444,"▁Küche":9445,"▁zuletzt":9446,"▁compens":9447,"▁belong":9448,"izes":9449,"bruch":9450,"▁Anstrengungen":9451,"gestellt.":9452,"▁Schließlich":9453,"▁Pack":9454,"▁exhibition":9455,"▁tempor":9456,"▁listed":9457,"▁Verbind":9458,"altungen":9459,"▁impress":9460,"▁geführt":9461,"▁Schengen":9462,"▁Frem":9463,"▁substantial":9464,"▁Enterprise":9465,"▁so-called":9466,"▁Break":9467,"▁information.":9468,"ives.":9469,"▁demands":9470,"zep":9471,"▁accepted":9472,"▁win":9473,"▁compar":9474,"▁entit":9475,"clude":9476,"▁Solidarität":9477,"▁wachs":9478,"▁approved":9479,"folgend":9480,"▁begrenz":9481,"atik":9482,"▁zu.":9483,"▁Rein":9484,"▁Klein":9485,"7)":9486,"▁visitors":9487,"▁Europe's":9488,"zeiten":9489,"DP":9490,"/2":9491,"▁empfehl":9492,"▁Bec":9493,"▁window":9494,"▁Waffen":9495,"▁durchgeführt":9496,"▁Abs":9497,"etzung":9498,"inc":9499,"▁supporting":9500,"▁kauf":9501,"▁Prag":9502,"▁gemüt":9503,"bit":9504,"nach":9505,"▁brief":9506,"▁Democrat":9507,"▁lassen,":9508,"▁Grundsatz":9509,"angs":9510,"▁save":9511,"▁presence":9512,"▁rise":9513,"fu":9514,"ices,":9515,"▁leader":9516,"ita":9517,"▁Top":9518,"▁destro":9519,"▁wahrscheinlich":9520,"annte":9521,"▁not,":9522,"▁behandelt":9523,"▁gave":9524,"▁vertre":9525,"ut,":9526,"▁nütz":9527,"zone":9528,"7.":9529,"▁spielen":9530,"fun":9531,"▁darunter":9532,"▁darum,":9533,"▁dage":9534,"▁implemented":9535,"TA":9536,"▁Hause":9537,"▁Schlüssel":9538,"▁life.":9539,"ded":9540,"▁genommen":9541,"▁development.":9542,"▁Vereinbarung":9543,"▁Boden":9544,"▁SP":9545,"▁Sü":9546,"▁gewünsch":9547,"▁solidarity":9548,"▁offensicht":9549,"schuld":9550,"ervice":9551,"▁Power":9552,"▁jeweils":9553,"is.":9554,"▁went":9555,"▁dan":9556,"olden":9557,"▁recognis":9558,"krise":9559,"▁match":9560,"▁htt":9561,"▁improving":9562,"▁grenz":9563,"▁specifically":9564,"▁convenient":9565,"h,":9566,"-y":9567,"konferenz":9568,"▁Heil":9569,"▁photograph":9570,"ner,":9571,"▁Vereinten":9572,"▁Av":9573,"▁Sehens":9574,"▁7.":9575,"▁processing":9576,"▁bott":9577,"▁EAD":9578,"▁eingerichte":9579,"▁bestehen":9580,"▁geschaffen":9581,"▁(W":9582,"chmal":9583,"▁gleiche":9584,"▁CO2":9585,"▁Begriff":9586,"▁sicherlich":9587,"ften":9588,"nungs":9589,"▁produc":9590,"▁know,":9591,"▁Angelegenheiten":9592,"▁Afghanistan":9593,"▁dah":9594,"attle":9595,"▁Italy":9596,"▁Kriterien":9597,"▁ru":9598,"▁vorzu":9599,"gemäß":9600,"▁auth":9601,"▁Großbritann":9602,"-Te":9603,"▁reading":9604,"LE":9605,"penden":9606,"▁Hy":9607,"ata":9608,"▁Agenda":9609,"▁Krä":9610,"stände":9611,"▁Abschließend":9612,"▁plants":9613,"ktiven":9614,"-System":9615,"▁farmers":9616,"▁Herausforderungen":9617,"ücken":9618,"leistung":9619,"▁typical":9620,"▁Spanien":9621,"▁Kal":9622,"▁Phil":9623,"leiste":9624,"oted":9625,"gebaut":9626,"▁entweder":9627,"▁alloc":9628,"▁machine":9629,"▁erwarten":9630,"ades":9631,"▁Bruss":9632,"ores":9633,"▁Schwierigkeiten":9634,"▁interpret":9635,"▁kommen.":9636,"▁mobil":9637,"▁supplier":9638,"▁Suche":9639,"▁refuge":9640,"▁tun.":9641,"▁Why":9642,"gemeine":9643,"▁Lib":9644,"onen":9645,"▁untern":9646,"portion":9647,"-Pl":9648,"▁competitiveness":9649,"18":9650,"▁Bereit":9651,"▁dealing":9652,"▁persons":9653,"▁ISO":9654,"▁sho":9655,"▁Never":9656,"ikanische":9657,"▁tack":9658,"▁Klimawand":9659,"▁\"L":9660,"▁Entwurf":9661,"▁incor":9662,"▁options":9663,"f.":9664,"tempor":9665,"▁IC":9666,"▁linked":9667,"▁delay":9668,"▁elimin":9669,"▁Africa":9670,"bourg":9671,"quate":9672,"▁covered":9673,"▁regret":9674,"▁welcher":9675,"▁forget":9676,"▁considerable":9677,"club":9678,"▁participation":9679,"▁psych":9680,"▁too.":9681,"▁Charakter":9682,"▁NI":9683,"hagen":9684,"▁Besucher":9685,"sper":9686,"▁weeks":9687,"-star":9688,"letter":9689,"▁photo":9690,"zähl":9691,"etzen,":9692,"▁chines":9693,"▁Plen":9694,"▁würde,":9695,"▁hosp":9696,"▁Fore":9697,"gewicht":9698,"▁Rh":9699,"ielt":9700,"punkte":9701,"▁kommenden":9702,"▁komplex":9703,"-20":9704,"6)":9705,"führt,":9706,"▁gern":9707,"▁defic":9708,"▁Sow":9709,"▁Europa,":9710,"▁193":9711,"▁Health":9712,"ishing":9713,"▁eingesetzt":9714,"uropa":9715,"▁processes":9716,"de.":9717,"▁exclusive":9718,"▁zuvor":9719,"▁white":9720,"▁gegründ":9721,"road":9722,"▁erhalten,":9723,"▁Engagement":9724,"▁Teile":9725,"▁suc":9726,"▁Over":9727,"▁klare":9728,"▁genießen":9729,"▁entgegen":9730,"▁Ausgaben":9731,"▁peaceful":9732,"▁Portugal":9733,"▁\"T":9734,"ünschen":9735,"ossible":9736,"▁Roma":9737,"ampag":9738,"▁Unfortun":9739,"▁pleasant":9740,"fahrens":9741,"works":9742,"▁technische":9743,"▁Bos":9744,"▁stimme":9745,"▁Haltung":9746,"fahren,":9747,"▁trust":9748,"▁contra":9749,"▁Distr":9750,"▁Kurz":9751,"▁é":9752,"▁clients":9753,"führer":9754,"▁Installation":9755,"▁Unabhäng":9756,"▁paragraph":9757,"▁moral":9758,"s-":9759,"▁Madrid":9760,"▁stimm":9761,"igem":9762,"▁Mir":9763,"▁jur":9764,"alten,":9765,"▁relate":9766,"▁Nutzen":9767,"▁willing":9768,"ometer":9769,"▁powers":9770,"▁Verständ":9771,"▁refle":9772,"▁methods":9773,"spe":9774,"iler":9775,"richten":9776,"▁percent":9777,"gruppen":9778,"struction":9779,"MU":9780,"▁sauber":9781,"▁flexibility":9782,"▁PHP":9783,"des":9784,"▁Absatz":9785,"▁ober":9786,"▁Dienste":9787,"▁Leider":9788,"▁color":9789,"isten,":9790,"auftrag":9791,"ga":9792,"mod":9793,"▁),":9794,"uropean":9795,"▁ausz":9796,"▁Prov":9797,"▁Act":9798,"▁opposition":9799,"▁sitting":9800,"akes":9801,"▁aufgenommen":9802,"▁withd":9803,"irus":9804,"▁trave":9805,"▁strict":9806,"ih":9807,"ales":9808,"▁Kommunikation":9809,"▁Karte":9810,"▁words,":9811,"set":9812,"▁Spa":9813,"▁Menge":9814,"▁teilweise":9815,"ameter":9816,"inder":9817,"▁entry":9818,"▁russ":9819,"anda":9820,"▁Environment":9821,"inary":9822,"schech":9823,"lung,":9824,"▁Haushalt":9825,"▁waren,":9826,"forsch":9827,"▁Christian":9828,"▁Innovation":9829,"▁adjust":9830,"▁getan":9831,"▁factor":9832,"wachs":9833,"▁Mio.":9834,"▁Fischerei":9835,"stechn":9836,"herstell":9837,"▁Währung":9838,"4-0":9839,"▁Inhalte":9840,"▁told":9841,"▁Wander":9842,"lassen":9843,"kap":9844,"ya":9845,"bew":9846,"▁Meter":9847,"iding":9848,"▁verring":9849,"▁durchaus":9850,"zz":9851,"▁mail":9852,"▁schem":9853,"▁uses":9854,"▁Ausbildung":9855,"▁Anteil":9856,"▁alte":9857,"denk":9858,"bericht":9859,"▁oppos":9860,"▁behav":9861,"▁sle":9862,"▁registr":9863,"unehmen.":9864,"▁Arten":9865,"edia":9866,"▁Stabilität":9867,"▁lines":9868,"▁verfolg":9869,"sektor":9870,"▁bringen,":9871,"cluded":9872,"▁Übergang":9873,"▁führen.":9874,"▁efficiency":9875,"RA":9876,"▁übernachten":9877,"▁Under":9878,"▁nieder":9879,"▁gradu":9880,"oon":9881,"▁permanent":9882,"gree":9883,"▁rooms,":9884,"▁minister":9885,"▁orient":9886,"▁entscheiden":9887,"▁resist":9888,"▁law.":9889,"▁Vielen":9890,"▁Mel":9891,"etten":9892,"▁Zeichen":9893,"▁GN":9894,"▁liebe":9895,"▁positiv":9896,"▁Mount":9897,"▁Status":9898,"crete":9899,"▁areas.":9900,"▁danken.":9901,"eh":9902,"▁fit":9903,"▁Harmon":9904,"dete":9905,"pann":9906,"▁Ul":9907,"▁Bil":9908,"▁motion":9909,"▁domestic":9910,"▁desire":9911,"▁32":9912,"eb":9913,"▁himself":9914,"wan":9915,"▁Richtlinien":9916,"uan":9917,"▁becomes":9918,"▁Group.":9919,"▁Black":9920,"▁entirely":9921,"▁Origin":9922,"/or":9923,"karte":9924,"ständen":9925,"prüfung":9926,"▁versuchen,":9927,"▁Aspekt":9928,"▁environment.":9929,"▁followed":9930,"▁vertreten":9931,"▁angegeben":9932,"▁pros":9933,"eschrän":9934,"▁Februar":9935,"▁assessment":9936,"▁Partei":9937,"▁playing":9938,"▁wert":9939,"▁myself":9940,"▁ständig":9941,"▁mission":9942,"▁Reformen":9943,"▁Gründ":9944,"▁gestimmt,":9945,"daten":9946,"▁Vien":9947,"IB":9948,"▁Kenn":9949,"▁(the":9950,"▁improved":9951,"▁President-in-Office":9952,"ples":9953,"umän":9954,"▁inside":9955,"▁superv":9956,"regel":9957,"▁Kil":9958,"▁combat":9959,"▁Tool":9960,"cknow":9961,"▁advanced":9962,"▁absolut":9963,"▁fle":9964,"gehen.":9965,"▁player":9966,"esterday":9967,"▁konkrete":9968,"itter":9969,"▁bekommen":9970,"▁metres":9971,"▁easier":9972,"▁Königreich":9973,"▁says":9974,"▁planning":9975,"▁Because":9976,"▁19.":9977,"▁elections":9978,"▁delivery":9979,"▁imag":9980,"▁bezeichnet":9981,"ischen,":9982,"leitet":9983,"▁hinzuf":9984,"imit":9985,"▁plans":9986,"▁anderes":9987,"▁Got":9988,"iums":9989,"▁region.":9990,"▁lives":9991,"▁initiatives":9992,"▁prä":9993,"▁früh":9994,"fälle":9995,"▁Eisen":9996,"▁Ratsvorsitz":9997,"▁Erstens":9998,"▁police":9999,"vey":10000,"▁möchten,":10001,"▁fühl":10002,"haber":10003,"opol":10004,"▁Once":10005,"▁verurteil":10006,"▁opened":10007,"stoffe":10008,"▁Non":10009,"iro":10010,"▁images":10011,"▁occasion":10012,"iling":10013,"▁zul":10014,"▁stated":10015,"▁Sehenswürd":10016,"accept":10017,"known":10018,"▁mich,":10019,"▁conduct":10020,"▁closely":10021,"▁klass":10022,"▁load":10023,"ued":10024,"▁sicher,":10025,"▁acknow":10026,"▁Bran":10027,"ystemen":10028,"▁ancient":10029,"▁Atlant":10030,"▁parliamentary":10031,"▁February":10032,"▁Konz":10033,"▁founded":10034,"▁experienced":10035,"fertig":10036,"-Sch":10037,"▁helfen":10038,"▁organisations":10039,"EA":10040,"▁chair":10041,"▁Mail":10042,"▁wenigen":10043,"▁Gewähr":10044,"-Hotel":10045,"pla":10046,"▁hatte,":10047,"▁service.":10048,"▁Kingdom":10049,"▁Roy":10050,"▁song":10051,"▁ago,":10052,"▁Straf":10053,"▁--":10054,"▁erreichen,":10055,"▁nächste":10056,"▁and/or":10057,"gramme":10058,"▁surpr":10059,"▁concerned,":10060,"▁negotiation":10061,"ickets":10062,"▁Barros":10063,"▁Sprachen":10064,"äck":10065,"ids":10066,"▁dennoch":10067,"oring":10068,"▁promoting":10069,"ütze":10070,"iles":10071,"▁Asyl":10072,"wasser":10073,"▁geograph":10074,"▁Warum":10075,"▁möglichst":10076,"ative,":10077,"reck":10078,"▁Monate":10079,"▁stehen.":10080,"▁length":10081,"▁zufrieden":10082,"▁Band":10083,"▁accident":10084,"▁discussed":10085,"▁Garten":10086,"▁Modern":10087,"▁EADS":10088,"tete":10089,"▁dangerous":10090,"]],":10091,"▁pet":10092,"▁Bush":10093,"▁dro":10094,"▁Klicken":10095,"box":10096,"▁Mechan":10097,"▁information,":10098,"▁promotion":10099,"zustellen.":10100,"▁Aufbau":10101,"▁vere":10102,"▁lokalen":10103,"▁Anges":10104,"-3":10105,"rem":10106,"▁gegenseit":10107,"asing":10108,"organisation":10109,"schul":10110,"▁EU's":10111,"▁Osten":10112,"▁facing":10113,"▁celebr":10114,"▁sector.":10115,"▁Gipfel":10116,"en?":10117,"rt":10118,"▁Chance":10119,"▁connected":10120,"▁(PL)":10121,"▁difference":10122,"▁Dennoch":10123,"▁hotel,":10124,"▁associated":10125,"▁Entschließungsantrag":10126,"▁session":10127,"▁Flücht":10128,"▁m2":10129,"▁Fle":10130,"▁Freund":10131,"finition":10132,"▁television":10133,"▁defence":10134,"▁railway":10135,"▁Santa":10136,"▁geschlossen.":10137,"▁students":10138,"auern":10139,"▁getroffen":10140,"▁Einhaltung":10141,"▁Hall":10142,"▁bear":10143,"▁Allgemein":10144,"▁dish":10145,"▁Private":10146,"▁room,":10147,"chten.":10148,"heit,":10149,"▁Flexibil":10150,"▁fruit":10151,"▁1996":10152,"▁poverty":10153,"hoben":10154,"▁ausdrücklich":10155,"▁issue.":10156,"hrase":10157,"icks":10158,"▁citizens.":10159,"ilden":10160,"▁unto":10161,"▁safeg":10162,"▁Alex":10163,"▁festgeleg":10164,"45":10165,"unkten":10166,"▁Stoff":10167,"▁vorgeleg":10168,"▁\"G":10169,"gesell":10170,"▁Nachfolgend":10171,"▁freue":10172,"ärkten":10173,"S)":10174,"▁again,":10175,"▁humanitarian":10176,"▁Vorteil":10177,"▁finanzielle":10178,"▁umfasst":10179,"nter":10180,"▁middle":10181,"schrift":10182,"9)":10183,"▁täglich":10184,"cia":10185,"▁Inf":10186,"ENT":10187,"▁signal":10188,"C,":10189,"isieren":10190,"▁bringt":10191,"ask":10192,"▁Pfl":10193,"maß":10194,"▁accur":10195,"▁endgül":10196,"▁unaccept":10197,"▁Lam":10198,"▁Gemeinsamen":10199,"▁condem":10200,"▁say,":10201,"▁Fen":10202,"▁Nations":10203,"▁kommen,":10204,"isierten":10205,"govern":10206,"öder":10207,"ags":10208,"▁3D":10209,"▁fäll":10210,"try":10211,"▁collabor":10212,"▁21.":10213,"▁impossible":10214,"ault":10215,"häus":10216,"▁however":10217,"etze":10218,"▁hätten":10219,"▁generally":10220,"mel":10221,"▁http://":10222,"▁Kompon":10223,"▁Vielfalt":10224,"▁Straß":10225,"▁establishment":10226,"zog":10227,"▁immediate":10228,"▁Herstellung":10229,"illing":10230,"ikal":10231,"▁daran,":10232,"▁unterschiedliche":10233,"▁implementing":10234,"▁verabschied":10235,"▁unge":10236,"▁degree":10237,"▁radio":10238,"▁combination":10239,"▁Mö":10240,"▁Meinung,":10241,"▁except":10242,"iffer":10243,"iano":10244,"▁are,":10245,"▁Organisationen":10246,"▁benötigen":10247,"führten":10248,"▁Note":10249,"▁amerikanischen":10250,"▁Then":10251,"▁vorbe":10252,"▁sole":10253,"▁Kritik":10254,"▁gram":10255,"▁indire":10256,"▁Stein":10257,"▁Com":10258,"▁(EN":10259,"deckt":10260,"▁besuch":10261,"▁evidence":10262,"▁Stimme":10263,"▁ausgesch":10264,"▁Hotel,":10265,"lern":10266,"▁gewähl":10267,"▁Irish":10268,"▁manage":10269,"▁comments":10270,"▁Bern":10271,"aste":10272,"▁place.":10273,"▁fulfil":10274,"▁Dorf":10275,"▁Super":10276,"4)":10277,"▁Saint":10278,"▁Immobilien":10279,"▁understanding":10280,"▁Unternehmen,":10281,"kte,":10282,"▁Kollegen,":10283,"▁announced":10284,"▁reducing":10285,"▁propose":10286,"▁recognition":10287,"iesen,":10288,"ige,":10289,"oram":10290,"▁Nahrungs":10291,"▁Achtung":10292,"▁übernachten?":10293,"krieg":10294,"orient":10295,"▁persönlich":10296,"C.":10297,"▁AK":10298,"▁denke":10299,"itze":10300,"▁Umfang":10301,"▁Hamburg":10302,"▁MP":10303,"▁sand":10304,"▁Strom":10305,"▁shared":10306,"▁rent":10307,"▁Resort":10308,"▁discussions":10309,"▁Kompet":10310,"ünen":10311,"wechsel":10312,"▁truly":10313,"▁fields":10314,"▁erforderlichen":10315,"gu":10316,"ranken":10317,"▁Jetzt":10318,"▁Jahrzehn":10319,"amente":10320,"▁banks":10321,"▁Wo":10322,"▁danken,":10323,"▁satell":10324,"▁Finn":10325,"▁compla":10326,"▁erleich":10327,"sehen":10328,"▁(b":10329,"aub":10330,"▁applies":10331,"▁sollen.":10332,"icken":10333,"▁excess":10334,"iam":10335,"ris":10336,"▁au":10337,"▁bir":10338,"▁tragen":10339,"▁sollten,":10340,"▁background":10341,"▁agenda":10342,"▁Hard":10343,"▁mist":10344,"▁OS":10345,"▁screen":10346,"istor":10347,"▁Aussicht":10348,"▁effektiv":10349,"▁ahead":10350,"leitung":10351,"▁Vielzahl":10352,"les.":10353,"▁verstehen":10354,"licherweise":10355,"▁quar":10356,"▁purchase":10357,"▁cur":10358,"ücke":10359,"▁permit":10360,"stad":10361,"▁adapt":10362,"ärm":10363,"▁Währungs":10364,"▁duty":10365,"▁00":10366,"▁Apartments":10367,"▁Standards":10368,"▁Due":10369,"▁availability":10370,"▁fisheries":10371,"▁Völker":10372,"▁Stärkung":10373,"▁entertain":10374,"▁wall":10375,"▁Element":10376,"▁formal":10377,"▁Kommission.":10378,"▁trag":10379,"▁dauer":10380,"▁Stellungnahme":10381,"▁Wald":10382,"▁possibilities":10383,"▁victims":10384,"gment":10385,"wurf":10386,"▁menu":10387,"▁Berichterstatterin":10388,"▁berücksichtigt":10389,"▁games":10390,"utin":10391,"▁Arbeiten":10392,"▁votes":10393,"▁Einigung":10394,"igung,":10395,"zwischen":10396,"▁constit":10397,"kan":10398,"▁jetz":10399,"door":10400,"che,":10401,"▁Sehr":10402,"enhagen":10403,"▁Office":10404,"itious":10405,"itors":10406,"▁enth":10407,"▁könnte.":10408,"▁membership":10409,"▁cohesion":10410,"jo":10411,"▁einiger":10412,"etter":10413,"▁konnten":10414,"▁umgesetzt":10415,"▁hingew":10416,"▁level,":10417,"▁10.":10418,"▁aufmerksam":10419,"▁phone":10420,"▁one.":10421,"▁Wall":10422,"▁Gleichzeitig":10423,"▁•":10424,"▁opinion,":10425,"▁calling":10426,"▁Schön":10427,"-J":10428,"▁Produktions":10429,"ando":10430,"▁spl":10431,"▁marketing":10432,"▁begann":10433,"▁(c":10434,"▁genieß":10435,"▁isol":10436,"▁reception":10437,"gestellt,":10438,"ennen.":10439,"▁Gott":10440,"▁erzeug":10441,"▁Support":10442,"leid":10443,"▁monetary":10444,"▁Polize":10445,"▁there,":10446,"▁Colle":10447,"▁leben":10448,"▁fixed":10449,"gers":10450,"▁miteinander":10451,"en:":10452,"▁industry.":10453,"▁Prime":10454,"▁Name":10455,"▁Work":10456,"ombin":10457,"▁Tourismus":10458,"EO":10459,"opt":10460,"▁übrigen":10461,"▁Land,":10462,"iscal":10463,"attform":10464,"re,":10465,"▁darüber,":10466,"▁Zuständ":10467,"iente":10468,"▁Bedarf":10469,"▁otherwise":10470,"▁transition":10471,"▁delic":10472,"ils":10473,"ier,":10474,"▁greatest":10475,"▁Wege":10476,"▁äl":10477,"▁evening":10478,"ologische":10479,"▁Typ":10480,"▁sn":10481,"▁ST":10482,"um.":10483,"▁urban":10484,"▁Sonnen":10485,"aschine":10486,"▁Gästebewertungen":10487,"ounts":10488,"arischen":10489,"▁expend":10490,"fs":10491,"asil":10492,"zeichnete":10493,"▁generation":10494,"▁una":10495,"stelle":10496,"▁door":10497,"▁Paket":10498,"▁intention":10499,"▁Vo":10500,"▁Beach":10501,"▁hinweisen,":10502,"▁e.":10503,"▁Pa":10504,"▁entdeck":10505,"erechn":10506,"▁Dateien":10507,"mental":10508,"▁Frankfurt":10509,"▁üb":10510,"▁Geist":10511,"▁unabhängig":10512,"scher":10513,"▁attach":10514,"▁connect":10515,"▁Funktionen":10516,"▁Angaben":10517,"▁vernünft":10518,"▁hilf":10519,"▁Fonds":10520,"-sized":10521,"waren":10522,"▁genutzt":10523,"▁gering":10524,"▁richtigen":10525,"▁again.":10526,"riminierung":10527,"▁Anw":10528,"▁Wi":10529,"▁laws":10530,"%.":10531,"▁Lo":10532,"▁unless":10533,"rüst":10534,"▁Main":10535,"▁Verletz":10536,"▁schaffen":10537,"▁Parlament,":10538,"▁allowing":10539,"▁niemand":10540,"▁Datei":10541,"▁treff":10542,"▁erwartet":10543,"▁schönen":10544,"▁Titel":10545,"utch":10546,"▁cities":10547,"ilot":10548,"ireless":10549,".S.":10550,"iertes":10551,"3)":10552,"▁Ear":10553,"erver":10554,"▁Datenbank":10555,"▁entitled":10556,"band":10557,"üll":10558,"▁Check":10559,"yle":10560,"▁introduce":10561,"aken":10562,"▁Rand":10563,"▁benutzt":10564,"▁erfahren":10565,"▁Digital":10566,"▁enormous":10567,"GO":10568,"▁installation":10569,"▁Apartment":10570,"chem":10571,"▁notwendig,":10572,"▁gegenwärtig":10573,"▁divid":10574,"▁so.":10575,"▁enables":10576,"▁concrete":10577,"temporary":10578,"mon":10579,"ichert":10580,"▁(DE)":10581,"ny":10582,"▁religious":10583,"▁(n":10584,"▁Turkish":10585,"genommen.":10586,"▁konstru":10587,"öss":10588,"▁Maschinen":10589,"▁Fel":10590,"▁intervention":10591,"▁Breakfast":10592,"▁Mun":10593,"ühren":10594,"▁Webseite":10595,"▁conclusion":10596,"zt":10597,"▁born":10598,"▁möglich.":10599,"▁square":10600,"▁vision":10601,"▁8.":10602,"▁(EN)":10603,"union":10604,"▁harm":10605,"▁Berichte":10606,"▁genuine":10607,"▁Teilnehmer":10608,"▁Palestinian":10609,"tzeit":10610,"jährigen":10611,"▁bemü":10612,"▁Mik":10613,"▁überall":10614,"▁adoption":10615,"▁vul":10616,"▁conv":10617,"▁Straße":10618,"▁Os":10619,"▁Sonn":10620,"▁20.":10621,"▁convention":10622,"▁ones":10623,"▁Nether":10624,"▁Germany,":10625,"▁Lesung":10626,"▁kitchen":10627,"▁Rechnungs":10628,"▁danach":10629,"▁Firstly,":10630,"ägen":10631,"▁Chanc":10632,"▁Analyse":10633,"werke":10634,"▁format":10635,"▁definition":10636,"▁rock":10637,"▁products,":10638,"▁risks":10639,"istisch":10640,"▁Michael":10641,"▁weiterer":10642,"uche":10643,"▁approxim":10644,"bere":10645,"▁businesses":10646,"▁0.":10647,"▁Zugriff":10648,"▁komplett":10649,"▁Veränderungen":10650,"raucher":10651,"▁surface":10652,"▁(200":10653,"▁Forderung":10654,"▁future,":10655,"▁dient":10656,"▁asyl":10657,"tert":10658,"▁kulturellen":10659,"▁there.":10660,"▁signed":10661,"▁Austria":10662,"▁(V":10663,"▁prospect":10664,"▁appears":10665,"5)":10666,"▁Angesichts":10667,"▁Wand":10668,"▁Technologien":10669,":0":10670,"▁Welt.":10671,"▁Interess":10672,"ilst":10673,"▁morning":10674,"viel":10675,"▁possible,":10676,"▁technologies":10677,"▁Regelung":10678,"▁Seine":10679,"▁Kommissions":10680,"▁aims":10681,"asts":10682,"▁folgen":10683,"▁Verst":10684,"▁besteht,":10685,"▁vorliegenden":10686,"▁THE":10687,"UT":10688,"▁camera":10689,"▁unf":10690,"▁Globalisierung":10691,"-r":10692,"ora":10693,"plätze":10694,"▁�":10695,"▁then,":10696,"▁Justiz":10697,"▁sämtliche":10698,"▁Idee":10699,"▁zeigen":10700,"▁African":10701,"▁keinerlei":10702,"▁hy":10703,"▁jour":10704,"ooth":10705,"theless,":10706,"▁ging":10707,"rägen":10708,"▁kons":10709,"ängen":10710,"▁earth":10711,"ördert":10712,"▁Custom":10713,"▁Live":10714,"reu":10715,"alys":10716,"▁all.":10717,"▁Leistungen":10718,"ala":10719,"▁Rec":10720,"▁Ros":10721,"▁Cub":10722,"▁ausges":10723,"▁attractive":10724,"▁Gerichtshof":10725,"▁grenzüber":10726,"orden":10727,"arten,":10728,"▁liter":10729,"▁administration":10730,"▁Rechnung":10731,"▁coordination":10732,"atever":10733,"tern.":10734,"▁Prioritäten":10735,"▁PDF":10736,"▁sell":10737,"▁Mat":10738,"▁Wechsel":10739,"▁romant":10740,"tzentrum":10741,"▁Hinweis":10742,"▁dedicated":10743,"ürk":10744,"-year":10745,"▁forced":10746,"▁regionalen":10747,"▁Very":10748,"▁declar":10749,"▁waren.":10750,"▁theor":10751,"ey":10752,"▁closed":10753,"▁ök":10754,"ein,":10755,"verkehrs":10756,"LAN":10757,"▁führen,":10758,"person":10759,"▁Kurs":10760,"▁Meiner":10761,"▁Pakistan":10762,"▁Forderungen":10763,"▁Mittelmeer":10764,"▁expression":10765,"▁ID":10766,"▁Messe":10767,"▁zentrale":10768,"▁folgende":10769,"ounge":10770,"▁Beitritt":10771,"▁raise":10772,"▁installed":10773,"▁Initiativen":10774,"▁reliable":10775,"▁USB":10776,"▁Reich":10777,"▁revolution":10778,"ieten,":10779,"▁CH":10780,"▁Kindern":10781,"gas":10782,"▁Kontroll":10783,"▁vermeid":10784,"▁haupts":10785,"▁development,":10786,"▁picture":10787,"he,":10788,"▁totally":10789,"▁Syn":10790,"▁verantwortlich":10791,"quar":10792,"▁problem.":10793,"▁einver":10794,"▁debt":10795,"▁developments":10796,"▁beschrän":10797,"▁fordern":10798,"▁strongly":10799,"äden":10800,"▁Foreign":10801,"▁tief":10802,"▁aufzu":10803,"▁pure":10804,"▁2009.":10805,"ines,":10806,"gehen,":10807,"aves":10808,"wohner":10809,"▁cheap":10810,"▁succeed":10811,"ida":10812,"▁on.":10813,"▁Federal":10814,"anlagen":10815,"active":10816,"▁diss":10817,"▁Lizenz":10818,"wirt":10819,"▁Festival":10820,"arr":10821,"▁rech":10822,"▁Erhö":10823,"▁befürwor":10824,"▁convinced":10825,"▁Mond":10826,"▁Produkten":10827,"▁compared":10828,"▁Urs":10829,"▁qualit":10830,"aries":10831,"▁Another":10832,"▁informed":10833,"▁mm":10834,"▁enh":10835,"▁motiv":10836,"▁combined":10837,"ue.":10838,"aby":10839,"▁accompan":10840,"▁Control":10841,"▁heißt,":10842,"stücks":10843,"▁reforms":10844,"▁estate":10845,"▁beru":10846,"▁collect":10847,"achtet":10848,"▁prison":10849,"▁französischen":10850,"▁establishing":10851,"▁wirks":10852,"ragen.":10853,"▁defined":10854,"▁Systeme":10855,"▁currency":10856,"▁Leistungs":10857,"mittag":10858,"▁magn":10859,"▁Austrian":10860,"▁spent":10861,"▁Ihnen,":10862,"▁Back":10863,"▁engl":10864,"▁größeren":10865,"▁emissions":10866,"▁Halb":10867,"▁por":10868,"▁biggest":10869,"▁höchste":10870,"▁described":10871,"di":10872,"brauch":10873,"▁reprodu":10874,"▁available.":10875,"▁mainten":10876,"▁genet":10877,"▁Casino":10878,"▁diplomat":10879,"▁guidelines":10880,"▁forth":10881,"▁Third":10882,"fle":10883,"jekten":10884,"▁ausgestattet":10885,"▁science":10886,"A,":10887,"▁beinhal":10888,"▁golf":10889,"arta":10890,"▁diejenigen,":10891,"▁anyone":10892,"▁ow":10893,"▁pour":10894,"▁languages":10895,"▁gewinn":10896,"▁Rob":10897,"ource":10898,"▁grunds":10899,"▁Croat":10900,"▁veget":10901,"▁entwickeln":10902,"▁worldwide":10903,"▁Eindruck":10904,"mas":10905,"utor":10906,"hörde":10907,"onial":10908,"▁I'":10909,"▁effectively":10910,"▁law,":10911,"▁vereinbar":10912,"itzen":10913,"▁zusätzlich":10914,"▁spezielle":10915,"▁Formen":10916,"▁beige":10917,"▁closer":10918,"▁Gebrauch":10919,"▁gegenwärtigen":10920,"x,":10921,"▁Kandid":10922,"aria":10923,"▁Bis":10924,"-Bahn":10925,"▁worden,":10926,"▁meant":10927,"omin":10928,"▁China,":10929,"▁Mindest":10930,"▁Verz":10931,"▁verbundenen":10932,"▁grundsätz":10933,"▁Hafen":10934,"istik":10935,"iov":10936,"▁schaffen.":10937,"▁Beschreibung":10938,"▁enfor":10939,"prinzip":10940,"▁31":10941,"▁patent":10942,"▁continued":10943,"▁dir":10944,"▁Überwachung":10945,"igsten":10946,"▁button":10947,"▁para":10948,"▁gratul":10949,"▁Van":10950,"atoren":10951,"▁abgest":10952,"▁freuen":10953,"istence":10954,"▁wäre,":10955,"▁disaster":10956,"ile,":10957,"▁optimal":10958,"▁anbie":10959,"▁politischer":10960,"▁großes":10961,"▁75":10962,"▁paper":10963,"▁Wien":10964,"aming":10965,"-Programm":10966,"▁PPE":10967,"▁day,":10968,"▁fest,":10969,"CD":10970,"▁Bewertung":10971,"▁Tatsache":10972,"▁average":10973,"afr":10974,"▁Reaktion":10975,"▁reasonable":10976,"▁priorities":10977,"athed":10978,"▁verwenden":10979,"▁Heimat":10980,"▁gutes":10981,"▁Haut":10982,"▁out,":10983,"erei":10984,"▁internationaler":10985,"▁Vertrie":10986,"▁grant":10987,"▁Special":10988,"▁tried":10989,"▁beruf":10990,"▁herrsch":10991,"partner":10992,"ancial":10993,"▁zerstör":10994,"▁Head":10995,"▁begl":10996,"roff":10997,"▁müs":10998,"▁sectors":10999,"▁drawn":11000,"▁legitim":11001,"▁functions":11002,"▁Engl":11003,"-00":11004,"▁systems.":11005,"▁12.":11006,"▁erf":11007,"stät":11008,"▁Deutsche":11009,"cap":11010,"▁Ans":11011,"▁steig":11012,"▁laid":11013,"▁vollkommen":11014,"ammer":11015,"▁command":11016,"▁Eastern":11017,"▁solcher":11018,"▁Stadtzentrum":11019,"fordern":11020,"▁sogen":11021,"▁Foto":11022,"▁Constitution":11023,"▁Association":11024,"▁gesehen":11025,"▁Lag":11026,"look":11027,"▁Bol":11028,"▁unable":11029,"▁liber":11030,"▁seven":11031,"▁Opp":11032,"▁regime":11033,"▁Technik":11034,"▁Fitness":11035,"▁Ganz":11036,"ibrary":11037,"iothe":11038,"▁Beteiligung":11039,"▁wesentlichen":11040,"▁erinnern,":11041,"▁destroy":11042,"▁contex":11043,"vorschlag":11044,"▁Tit":11045,"▁geht.":11046,"▁saw":11047,"erap":11048,"▁Grunde":11049,":30":11050,"▁>":11051,"ines.":11052,"▁\"H":11053,"▁Ansicht,":11054,"▁Quest":11055,"leun":11056,"▁Dollar":11057,"▁families":11058,"▁Sea":11059,"▁rob":11060,"öse":11061,"teten":11062,"▁neither":11063,"▁guarantees":11064,"äne":11065,"▁Vermitt":11066,"▁Palace":11067,"spar":11068,"▁Dimension":11069,"▁Verteidigung":11070,"▁self-":11071,"▁expos":11072,"▁verbesser":11073,"bald":11074,"▁gründ":11075,"▁näher":11076,"▁erlaubt":11077,"▁korre":11078,"▁corporate":11079,"▁Todes":11080,"lösung":11081,"▁beglückw":11082,"itts":11083,"üter":11084,"▁interface":11085,"heits":11086,"ibliothe":11087,"▁innovation":11088,"anim":11089,"▁äuß":11090,"▁Sen":11091,"▁ergänz":11092,"▁route":11093,"flug":11094,"▁sicherzustellen,":11095,"ösch":11096,"▁Brüssel":11097,"▁Gegensatz":11098,"jet":11099,"windigkeit":11100,"▁Instrumente":11101,"▁Relig":11102,"▁honourable":11103,"▁umfassende":11104,"▁AR":11105,"▁Länder,":11106,"▁Wiederauf":11107,"▁out.":11108,"▁Report":11109,"ibet":11110,"▁Where":11111,"▁Institute":11112,"▁continues":11113,"▁Universität":11114,"▁definit":11115,"preise":11116,"▁enor":11117,"▁Kohäs":11118,"▁Gut":11119,"utr":11120,"assung":11121,"▁registered":11122,"▁stable":11123,"▁(z.":11124,"▁\"R":11125,"▁process,":11126,"▁financing":11127,"-Sterne":11128,"▁Drogen":11129,"▁balcon":11130,"▁Sor":11131,"▁chemical":11132,"▁(19":11133,"▁kos":11134,"▁ambitious":11135,"okraten":11136,"▁Fire":11137,"▁jene":11138,"▁support.":11139,"ists.":11140,"▁verlei":11141,"▁helfen,":11142,"▁thinking":11143,"▁Erhol":11144,"▁Alban":11145,"management":11146,"▁unterstütze":11147,"()":11148,"▁bound":11149,"▁Trek":11150,"▁nutzen,":11151,"▁sched":11152,"▁fern":11153,"reb":11154,"ives,":11155,"▁appeal":11156,"▁Einrichtungen":11157,"UN":11158,"▁city.":11159,"▁Abgeordnete":11160,"yright":11161,"▁highlight":11162,"▁Poker":11163,"▁Beschäftigungs":11164,"▁Data":11165,"▁Risiko":11166,"ensions":11167,"▁ECU":11168,"▁ep":11169,"uzz":11170,"▁Greek":11171,"▁cook":11172,"uste":11173,"▁participate":11174,"▁entspann":11175,"▁Today":11176,"▁Tisch":11177,"▁Verständnis":11178,"▁Banken":11179,"500":11180,"ua":11181,"ista":11182,"▁sicherstell":11183,"▁relaxing":11184,"▁stellen,":11185,"▁zeigen,":11186,"▁achieving":11187,"▁Bestandteil":11188,"iche":11189,"▁Auffassung":11190,"isierte":11191,"aller":11192,"ador":11193,"klang":11194,"▁Forum":11195,"▁room.":11196,"▁Tim":11197,"▁vert":11198,"-spe":11199,"▁Caf":11200,"▁möchte,":11201,"▁White":11202,"▁freie":11203,"▁kept":11204,"umn":11205,"▁Cam":11206,"es:":11207,"▁sagte,":11208,"▁Good":11209,"▁condemn":11210,"S,":11211,"▁Kirche":11212,"▁correspond":11213,"▁Hersteller":11214,"▁Latin":11215,"▁SD":11216,"est,":11217,"▁wirksam":11218,"▁daraus":11219,"▁Auffass":11220,"22":11221,"anische":11222,"hy":11223,"▁Entwicklungen":11224,"▁Press":11225,"▁Pool":11226,"▁erfre":11227,"▁compr":11228,"▁Sorge":11229,"▁Apparte":11230,"▁Bevölker":11231,"ic.":11232,"▁minute":11233,"▁Anlage":11234,"▁Texte":11235,"▁distin":11236,"▁Worte":11237,"▁vergleich":11238,"▁Beim":11239,"ointed":11240,"▁Bahnhof":11241,"▁Po":11242,"ido":11243,"bieter":11244,"▁#":11245,"▁geöffnet":11246,"sb":11247,"abilities":11248,"▁urgent":11249,"▁compat":11250,"▁unten":11251,"▁elected":11252,"itten,":11253,"▁items":11254,"▁Fert":11255,"▁speziellen":11256,"▁surrounded":11257,"knü":11258,"▁Bedürfnisse":11259,"uses":11260,"omas":11261,"▁thre":11262,"▁36":11263,"▁experts":11264,"▁hoffe":11265,"▁sorgen,":11266,"▁equality":11267,"75":11268,"▁explain":11269,"▁yesterday":11270,"▁\"I":11271,"▁angesprochen":11272,"▁Priorität":11273,"ekt":11274,"gefähr":11275,"SL":11276,"ras":11277,"▁umwelt":11278,"line.":11279,"▁Rent":11280,"▁Reis":11281,"▁now.":11282,"▁privile":11283,"▁analy":11284,"▁Peter":11285,"log":11286,"olge":11287,"ula":11288,"▁benach":11289,"▁Media":11290,"▁Ireland":11291,"rollen":11292,"▁trading":11293,"▁einfache":11294,"▁Gefühl":11295,"▁geschie":11296,"▁Nachdem":11297,"▁Jac":11298,"▁Lord":11299,"▁independen":11300,"▁erneuer":11301,"▁ap":11302,"produktion":11303,"▁Definition":11304,"▁Summit":11305,"▁pred":11306,"eind":11307,"▁rasch":11308,"▁britischen":11309,"▁wealth":11310,"testen":11311,"▁Niveau":11312,"▁accessible":11313,"▁Meeres":11314,"izz":11315,"▁Datenschutz":11316,"▁sources":11317,"▁Führung":11318,"▁Feld":11319,"governmental":11320,"▁temper":11321,"it,":11322,"▁differences":11323,"▁physical":11324,"▁wählen":11325,"handlungen":11326,"▁drug":11327,"▁infrastructure":11328,"▁Schwed":11329,"▁surv":11330,"▁Klim":11331,"▁burden":11332,"ase.":11333,"▁exklus":11334,"▁attend":11335,"ombination":11336,"▁zuge":11337,"▁1995":11338,"schläge":11339,"▁problems.":11340,"▁Katastrop":11341,"erma":11342,"▁Gebieten":11343,"▁Architektur":11344,"ibel":11345,"tellect":11346,"▁quot":11347,"▁Max":11348,"▁(PT)":11349,"▁reject":11350,"▁gestimmt.":11351,"▁Phot":11352,"aket":11353,"▁Slow":11354,"verein":11355,"▁Schm":11356,"hebung":11357,"▁translation":11358,"▁print":11359,"▁Monat":11360,"▁entstand":11361,"▁sorgfält":11362,"ef":11363,"overy":11364,"▁fiscal":11365,"▁Nik":11366,"ennis":11367,"▁Weitere":11368,"▁medium-sized":11369,"▁philosoph":11370,"▁organisation":11371,"▁Cre":11372,"▁EN":11373,"grün":11374,"stattung":11375,"SQL":11376,"▁moving":11377,"▁arrival":11378,"▁Nam":11379,"▁Liberalisierung":11380,"A)":11381,"▁subs":11382,"▁balanced":11383,"▁alt":11384,"▁Farb":11385,"▁adap":11386,"▁glass":11387,"\")":11388,"-200":11389,"▁sagte":11390,"▁Betriebs":11391,"▁Located":11392,"▁überprüf":11393,"▁Gaz":11394,"▁dé":11395,"▁Herren,":11396,"▁Partnerschaft":11397,"▁beantwor":11398,"▁na":11399,"▁Gent":11400,"version":11401,"▁2010.":11402,"▁mittl":11403,"ashion":11404,"▁rig":11405,"▁Leistung":11406,"▁safeguard":11407,"▁III":11408,"▁Lake":11409,"entin":11410,"▁consens":11411,"▁guter":11412,"▁wunderschö":11413,"▁außerord":11414,"▁merely":11415,"grade":11416,"▁erweiter":11417,"▁underg":11418,"▁article":11419,"▁micro":11420,"▁failure":11421,"▁manchmal":11422,"obility":11423,"▁Unfortunately,":11424,"▁türk":11425,"▁Bar,":11426,"schlossen":11427,"64":11428,"▁angeboten":11429,"wagen":11430,"▁income":11431,"sec":11432,"uting":11433,"▁reve":11434,"▁mittels":11435,"▁Day":11436,"▁sam":11437,"enden,":11438,"▁appar":11439,"▁coffee":11440,"▁Gegenteil":11441,"▁Zeiten":11442,"▁dagegen":11443,"mach":11444,"s...":11445,"▁communities":11446,"▁hauptsächlich":11447,"▁entschieden":11448,"▁justice":11449,"▁Arbeitsmarkt":11450,"▁ideale":11451,"▁pension":11452,"▁Front":11453,"▁preserv":11454,"▁spricht":11455,"▁Grundrechte":11456,"▁dete":11457,"▁ausländ":11458,"eller":11459,"▁(\"":11460,"▁allgemeine":11461,"▁pun":11462,"ternen":11463,"▁Arbeitslosigkeit":11464,"▁sobald":11465,"▁someone":11466,"▁assum":11467,"▁carefully":11468,"▁perfectly":11469,"▁ermö":11470,"▁animals":11471,"▁constantly":11472,"▁Abstimm":11473,"▁unemployment":11474,"▁möglichen":11475,"▁Erwart":11476,"▁Mutter":11477,"zil":11478,"▁consists":11479,"▁asking":11480,"▁prevention":11481,"▁Square":11482,"▁situation.":11483,"▁Market":11484,"▁failed":11485,"▁putting":11486,"-of":11487,"▁dar,":11488,"▁participants":11489,"▁anti-":11490,"▁statements":11491,"räum":11492,"▁Andre":11493,"ancing":11494,"uble":11495,"▁sensitive":11496,"▁Zoll":11497,"agen,":11498,"▁core":11499,"▁MEP":11500,"▁Station":11501,"mögen":11502,"ence,":11503,"▁Beob":11504,"▁association":11505,"▁ausgewogen":11506,"▁voice":11507,"▁ermöglichen":11508,"ktop":11509,"▁closed.":11510,"▁pill":11511,"▁swe":11512,"odurch":11513,"▁vorgeschlagenen":11514,"▁approximately":11515,"▁bringing":11516,"technik":11517,"▁but,":11518,"▁gewiss":11519,"▁debate.":11520,"▁Pic":11521,"▁released":11522,"▁glad":11523,"gypt":11524,"▁betonen,":11525,"▁Unabhängigkeit":11526,"qualität":11527,"▁Überzeug":11528,"▁braucht":11529,"▁Häl":11530,"▁Kopf":11531,"prüft":11532,"▁Nevertheless,":11533,"▁Jeder":11534,"reif":11535,"tritt":11536,"▁programs":11537,"wachstum":11538,"▁18.":11539,"▁grie":11540,"auso":11541,"▁jüngsten":11542,"▁Both":11543,"iking":11544,"▁assign":11545,"▁massive":11546,"▁Syr":11547,"▁Entspann":11548,"jection":11549,"▁eg":11550,"▁fraud":11551,"▁Blog":11552,"▁langen":11553,"aker":11554,"▁Trade":11555,"▁difficulties":11556,"▁Austral":11557,"orough":11558,"▁Frühstücks":11559,"▁nehmen.":11560,"▁Patienten":11561,"▁hands":11562,"iquid":11563,"▁trend":11564,"▁submit":11565,"▁cool":11566,"▁proportion":11567,"▁spot":11568,"▁blog":11569,"vereign":11570,"▁pointed":11571,"▁areas,":11572,"▁Vom":11573,"▁count":11574,"rier":11575,"▁sovereign":11576,"▁9.":11577,"▁starke":11578,"▁Absicht":11579,"▁erzielt":11580,"iefer":11581,"▁bestell":11582,"▁resulting":11583,"▁Balkan":11584,"gestellten":11585,"▁Martin":11586,"▁responsibilities":11587,"▁continuing":11588,"▁Roll":11589,"▁diesel":11590,"▁Ruhe":11591,"▁Sur":11592,"▁politisch":11593,"fung":11594,"▁Chem":11595,"▁Hauses":11596,"▁numbers":11597,"▁zurückge":11598,"▁hall":11599,"rahmen":11600,"▁id":11601,"▁Rumän":11602,"▁Temp":11603,"body":11604,"▁slight":11605,"▁Links":11606,"▁'s":11607,"▁Enjoy":11608,"▁zugleich":11609,"▁herzlich":11610,"▁Presse":11611,"▁schöne":11612,"▁Los":11613,"▁Sä":11614,"▁Eben":11615,"▁sector,":11616,"▁\"N":11617,"-Str":11618,"]].":11619,"▁Those":11620,"▁Ausführ":11621,"▁u":11622,"▁berecht":11623,"▁250":11624,"▁Militär":11625,"▁beob":11626,"▁norm":11627,"▁conclude":11628,"▁betroffenen":11629,"▁wodurch":11630,"▁Pop":11631,"▁geworden":11632,"▁afford":11633,"▁medizin":11634,"schiede":11635,"▁contained":11636,"TP":11637,"irk":11638,"▁bereit,":11639,"án":11640,"▁bio":11641,"▁outstanding":11642,"▁Schne":11643,"▁booking":11644,"▁Sun":11645,"▁retain":11646,"▁h.":11647,"▁properly":11648,"▁candidate":11649,"▁dig":11650,"▁secret":11651,"▁master":11652,"lichem":11653,"▁Merk":11654,"▁components":11655,"▁rightly":11656,"2010":11657,"▁luxury":11658,"▁vieler":11659,"▁JavaS":11660,"▁re-":11661,"▁Revolution":11662,"▁Jo":11663,"▁contemporary":11664,"▁abst":11665,"▁Niederland":11666,"▁(IT":11667,"▁Repr":11668,"▁prüf":11669,"ase,":11670,"▁terrace":11671,"▁genü":11672,"▁Künstler":11673,"▁4,":11674,"▁Mitglieds":11675,"richtlinie":11676,"▁gemeinschaft":11677,"▁Gesam":11678,"▁fuel":11679,"▁lov":11680,"▁charged":11681,"▁toler":11682,"E,":11683,"▁Chamber":11684,"▁Maße":11685,"▁borders":11686,"▁sem":11687,"pal":11688,"ée":11689,"▁stamm":11690,"▁Cypr":11691,"▁speaking":11692,"▁erklärt":11693,"▁Studio":11694,"▁Eth":11695,"▁capt":11696,"▁verbessern.":11697,"olo":11698,"▁Beweis":11699,"ura":11700,"▁Teilnahme":11701,"▁Today,":11702,"UM":11703,"räft":11704,"▁persönliche":11705,"▁Klimaanlage":11706,"▁passed":11707,"reitung":11708,"▁Prakt":11709,"▁Koordinierung":11710,"▁geword":11711,"▁Diskriminierung":11712,"▁Regulation":11713,"▁breakf":11714,"▁Erklärungen":11715,"▁strengthening":11716,"üß":11717,"ellos":11718,"▁Zentralbank":11719,"▁Budget":11720,"▁therm":11721,"==":11722,"▁nearly":11723,"▁incorpor":11724,"haup":11725,"▁leads":11726,"▁capable":11727,"▁Ve":11728,"▁jungen":11729,"▁Journal":11730,"sichts":11731,"▁chosen":11732,"information":11733,"▁Pin":11734,"ime,":11735,"▁Wür":11736,"lossen,":11737,"ng":11738,"▁echte":11739,"▁BM":11740,"▁School":11741,"elt.":11742,"▁einzus":11743,"▁Autor":11744,"bu":11745,"ries":11746,"▁dritten":11747,"entscheid":11748,"▁Weiß":11749,"▁wichtigste":11750,"▁2009,":11751,"▁authority":11752,"▁Jose":11753,"▁Zuf":11754,"▁Streit":11755,"▁angep":11756,"▁Bosn":11757,"▁organised":11758,"▁Fax":11759,"▁amt":11760,"▁extended":11761,"racht,":11762,"▁Admin":11763,"▁Internationalen":11764,"▁vorbereit":11765,"▁password":11766,"▁Welche":11767,"lete":11768,"do":11769,"glieder":11770,"▁Telefon":11771,"stat":11772,"▁Kaffe":11773,"▁Beschluss":11774,"▁Dort":11775,"▁Angriff":11776,"▁Schwar":11777,"teilen":11778,"-Kon":11779,"▁waiting":11780,"üssen":11781,"ungsk":11782,"▁gut,":11783,"haben":11784,"mlich":11785,"▁attemp":11786,"inning":11787,"▁bestimmt":11788,"verbind":11789,"▁Herren":11790,"arbeiten,":11791,"▁brings":11792,"ausende":11793,"▁einzigen":11794,"umer":11795,"▁requested":11796,"airs,":11797,"ieb":11798,"▁grammat":11799,"▁nar":11800,"▁seeking":11801,"▁Erhöhung":11802,"▁verbessert":11803,"gin":11804,"losen":11805,"gänglich":11806,"▁Ebenso":11807,"▁Nichtraucher":11808,"▁Publik":11809,"ungsbereich":11810,"▁Märkte":11811,"▁nachhaltige":11812,"meister":11813,"▁praktisch":11814,"▁truth":11815,"▁parallel":11816,"▁Europäer":11817,"▁lau":11818,"▁Island":11819,"▁Ferienwohn":11820,"zig":11821,"▁Dutch":11822,"äufer":11823,"▁zunehmend":11824,"▁asylum":11825,"istungs":11826,"▁gesetzt":11827,"ía":11828,"ipping":11829,"▁exercise":11830,"▁vulner":11831,"▁southern":11832,"▁Anlagen":11833,"▁Laufe":11834,"-Fraktion.":11835,"▁liability":11836,"▁me,":11837,"ipe":11838,"▁190":11839,"▁Regelungen":11840,"▁cult":11841,"arbeiten.":11842,"▁happened":11843,"uj":11844,"▁seitens":11845,"▁claims":11846,"▁consolid":11847,"▁consideration":11848,"▁maxim":11849,"Innen":11850,"▁Sud":11851,"otenzial":11852,"▁Nutzer":11853,"▁taste":11854,"▁acht":11855,"lev":11856,"▁Via":11857,"▁Kor":11858,"▁ma":11859,"▁hum":11860,"▁multiple":11861,"▁withdraw":11862,"den,":11863,"▁Bill":11864,"▁Studien":11865,"uver":11866,"▁grenzüberschreit":11867,"▁vide":11868,"▁explan":11869,"▁ignor":11870,"äten":11871,"▁EP":11872,"▁bon":11873,"▁Rich":11874,"▁fro":11875,"setzen":11876,"▁Akte":11877,"▁qualifiz":11878,"▁Thanks":11879,"▁inhab":11880,"▁pick":11881,"▁respekt":11882,"rant":11883,"verw":11884,"▁(The":11885,"▁sieben":11886,"▁labor":11887,"▁п":11888,"▁Old":11889,"▁Herausforderung":11890,"▁database":11891,"edon":11892,"▁owners":11893,"OP":11894,"▁reinfor":11895,"▁themselv":11896,"afft":11897,"▁Royal":11898,"▁immigration":11899,"▁heat":11900,"▁vielfält":11901,"▁Belarus":11902,"35":11903,"issens":11904,"▁vorgelegt":11905,"▁dynamic":11906,"CC":11907,"▁disch":11908,"▁eingesetz":11909,"▁Problemen":11910,"▁{{":11911,"▁contextual":11912,"/A":11913,"▁obviously":11914,"▁Kontin":11915,"▁Treffen":11916,"▁sollen,":11917,"▁nationaler":11918,"▁besseren":11919,"fest":11920,"ova":11921,"▁regelmäßig":11922,"stands":11923,"▁wishes":11924,"▁remove":11925,"linge":11926,"-how":11927,"▁Städte":11928,"▁trägt":11929,"▁primary":11930,"▁Rund":11931,"▁sehen.":11932,"▁granted":11933,"▁ung":11934,"werten":11935,"▁Aufgrund":11936,"▁studies":11937,"▁concep":11938,"▁jen":11939,"▁erg":11940,"▁Großbritannien":11941,"▁Übern":11942,"▁aktual":11943,"▁names":11944,"fel":11945,"▁Champ":11946,"▁Ideen":11947,"ufe":11948,"▁Tai":11949,"▁Graf":11950,"▁Dublin":11951,"ohann":11952,"▁Two":11953,"unehmen,":11954,"▁authent":11955,"herr":11956,"▁verteid":11957,"zeß":11958,"▁kontext":11959,"▁Welt,":11960,"▁klicken":11961,"▁gewesen":11962,"iques":11963,"▁Jahrhunderts":11964,"▁Hälfte":11965,"aktionen":11966,"enntnisse":11967,"▁Kooperation":11968,"▁Ban":11969,"▁ausreichend":11970,"▁Besitz":11971,"-cl":11972,"karten":11973,"phrase":11974,"decken":11975,"▁traditionellen":11976,"tellectual":11977,"yer":11978,"▁emphasis":11979,"▁journal":11980,"▁presidency":11981,"rokrat":11982,"verse":11983,"ending":11984,"▁write":11985,"▁arbeitet":11986,"racht.":11987,"schätz":11988,"▁Konk":11989,"atlant":11990,"weisen.":11991,"▁fif":11992,"▁Rules":11993,"▁memor":11994,"▁Wirt":11995,"▁sinnvoll":11996,"selben":11997,"▁Freizeit":11998,"▁Hor":11999,"endet":12000,"▁Sehenswürdigkeiten":12001,"iform":12002,"▁habe.":12003,"▁deutsche":12004,"▁Elemente":12005,"quir":12006,"▁thereby":12007,"▁Financial":12008,"▁U.S.":12009,"▁stands":12010,"▁Berücksichtig":12011,"ator,":12012,"ague":12013,"DR":12014,"▁fried":12015,"kar":12016,"▁Mach":12017,"▁Verhältnis":12018,"▁meters":12019,"▁stehen,":12020,"embly":12021,"▁diesbe":12022,"▁die,":12023,"▁mutual":12024,"▁Kategor":12025,"▁15.":12026,"▁Rem":12027,"▁Stück":12028,"▁Provin":12029,"▁Class":12030,"▁Überprüfung":12031,"▁terrorism":12032,"▁hyd":12033,"▁Justice":12034,"uden":12035,"comm":12036,"▁cle":12037,"▁48":12038,"▁damals":12039,"▁sale":12040,"▁Fotos":12041,"▁globale":12042,"▁letter":12043,"▁Größe":12044,"ist.":12045,"▁weiteres":12046,"▁ländlichen":12047,"istenz":12048,"olz":12049,"▁storage":12050,"▁800":12051,"▁Autob":12052,"▁sorgen":12053,"▁lern":12054,"▁Fortschritt":12055,"▁India":12056,"▁hoffen,":12057,"▁voc":12058,"▁Dach":12059,"▁Kommissarin,":12060,"▁amongst":12061,"▁operations":12062,"▁Anpassung":12063,"▁kürzlich":12064,"▁erfüllt":12065,"▁einzelne":12066,"▁prepare":12067,"▁„D":12068,"▁Veröffentlich":12069,"▁hatte.":12070,"▁klar,":12071,"▁changing":12072,"schirm":12073,"▁Formular":12074,"▁kost":12075,"▁Prüfung":12076,"handels":12077,"▁Schif":12078,"▁sprach":12079,"▁turned":12080,"▁primarily":12081,"▁Rotary":12082,");":12083,"▁17.":12084,"▁Karten":12085,"mutz":12086,"▁Zweifel":12087,"▁Sek":12088,"▁Flash":12089,",00":12090,"rd":12091,"▁Vision":12092,"▁Teilen":12093,"rot":12094,"inde":12095,"▁technological":12096,"▁Tom":12097,"▁Presiden":12098,"trib":12099,"▁Church":12100,"▁Gewinn":12101,"▁issues.":12102,"▁Que":12103,"▁satellite":12104,"▁Riv":12105,"artner":12106,"▁gespe":12107,"▁smaller":12108,"-Mitglied":12109,"▁tourism":12110,"▁snow":12111,"▁unanim":12112,"▁AB":12113,"▁Einklang":12114,"ädt":12115,"▁griech":12116,"▁Marken":12117,"▁society.":12118,"▁dealt":12119,"abled":12120,"ler,":12121,"▁onto":12122,"ermaßen":12123,"füllen":12124,"▁eight":12125,"▁alone":12126,"▁Bio":12127,"▁Kong":12128,"▁wait":12129,"▁Unterkunft":12130,"▁territorial":12131,"▁service,":12132,"▁dur":12133,"▁dazu,":12134,"▁writing":12135,"▁qualified":12136,"▁bran":12137,"▁selten":12138,"▁demokratische":12139,"▁Despite":12140,"▁buildings":12141,"▁systemat":12142,"▁imper":12143,"▁vielmehr":12144,"▁erw":12145,"▁positions":12146,"▁Irland":12147,"▁Voraussetzungen":12148,"▁OF":12149,"▁update":12150,"▁berühmten":12151,"licit":12152,"icon":12153,"▁Follow":12154,"▁i.":12155,"▁Express":12156,"▁Empfehlungen":12157,"▁Jes":12158,"▁insurance":12159,"▁inspir":12160,"www.":12161,"ulated":12162,"▁union":12163,"▁(IT)":12164,"▁switch":12165,"▁bleiben.":12166,"endung":12167,"unsten":12168,"table":12169,"▁gesellschaft":12170,"▁grand":12171,"▁leadership":12172,"grundlage":12173,"▁Stunde":12174,"▁Sound":12175,"▁kleiner":12176,"▁junge":12177,"▁positiven":12178,"rance":12179,"▁bureau":12180,"kreis":12181,"hle":12182,"▁führenden":12183,"▁schneller":12184,"▁TV,":12185,"▁exceed":12186,"▁beauty":12187,"▁Foundation":12188,"▁Kommissarin":12189,"splan":12190,"▁Unterschied":12191,"▁industry,":12192,"▁erscheint":12193,"▁Schlusselwortern":12194,"altet":12195,"▁A3":12196,"ringen":12197,"▁verbessern":12198,"kräfte":12199,"▁David":12200,"▁blood":12201,"▁band":12202,"oot":12203,"▁finding":12204,"▁Beihilfen":12205,"▁parad":12206,"▁Fahrzeug":12207,"▁urge":12208,"gelt":12209,"▁Schlusselwortern,":12210,"reiben.":12211,"▁Sein":12212,"äger":12213,"▁geänder":12214,"▁verk":12215,"▁Johann":12216,"gien":12217,"▁component":12218,"▁leisten":12219,"▁reason,":12220,"▁festgelegt":12221,"▁named":12222,"-4":12223,"kor":12224,"iode":12225,"▁(4":12226,"▁Anwendungen":12227,"▁zuverläss":12228,"▁Zahlungs":12229,"▁Maria":12230,"▁120":12231,"▁nötig":12232,"▁Patent":12233,"▁Telef":12234,"▁rejected":12235,"▁Verfügbarkeit":12236,"öger":12237,"▁driving":12238,"elm":12239,"bindung":12240,"ican":12241,"ategory":12242,"▁Betr":12243,"▁1980":12244,"▁bedarf":12245,"ours":12246,"ärkte":12247,"▁systems,":12248,"orgnis":12249,"▁ehemaligen":12250,"▁successfully":12251,"▁Mitteln":12252,"▁schn":12253,"▁president":12254,"▁höchst":12255,"cast":12256,"esign":12257,"▁Freude":12258,"▁completed":12259,"▁meist":12260,"▁Lou":12261,"▁nearby":12262,"▁dimension":12263,"▁würden.":12264,"▁Mitgliedern":12265,"▁genannt":12266,"▁100%":12267,"▁sprechen,":12268,"itar":12269,"▁lock":12270,"els,":12271,"▁Dadurch":12272,"ically,":12273,"▁600":12274,"-Be":12275,"▁learning":12276,"ungsverfahren":12277,"86":12278,"äfen":12279,"▁Arm":12280,"▁Fac":12281,"▁Brazil":12282,"got":12283,"▁Verk":12284,"▁guide":12285,"▁discussing":12286,"▁earn":12287,"▁verbreit":12288,"▁Director":12289,"▁Aktionen":12290,"▁Ep":12291,"▁Experten":12292,"AB":12293,"▁Schaden":12294,"▁hervorge":12295,"▁derzeitigen":12296,"▁Jean":12297,"-border":12298,"endum":12299,"▁Jack":12300,"▁others.":12301,"▁Vorbereitung":12302,"▁ultim":12303,"oler":12304,"vak":12305,"▁finance":12306,"▁Bedro":12307,"▁Freunde":12308,"▁Programms":12309,"ington":12310,"▁Know":12311,"▁Berücksichtigung":12312,"▁Wirkung":12313,"adow":12314,"▁entre":12315,"▁finish":12316,"▁achievement":12317,"▁horiz":12318,"▁2008.":12319,"▁Süden":12320,"▁Mas":12321,"▁verwe":12322,"▁gewisse":12323,"▁Munich":12324,"l.":12325,"▁chain":12326,"I)":12327,"like":12328,"▁GM":12329,"▁Grad":12330,"▁Rezept":12331,"▁Balt":12332,"mechan":12333,"▁penalt":12334,"utre":12335,"▁läuf":12336,"▁weg":12337,"▁Präs":12338,"▁Germany.":12339,"netz":12340,"▁Roh":12341,"kunfts":12342,"berecht":12343,"▁instru":12344,"▁überzeugt,":12345,"TER":12346,"▁organization":12347,"▁itself.":12348,"▁Street":12349,"▁Premier":12350,"▁Satell":12351,"wood":12352,"vely":12353,"lair":12354,"SC":12355,"fers":12356,"▁crime":12357,"▁0,":12358,"▁landwirtschaft":12359,"-the":12360,"fare":12361,"▁Kunde":12362,"▁birth":12363,"ktivität":12364,"▁Afrika":12365,"ablen":12366,"▁Botschaft":12367,"ст":12368,"▁Restaurant,":12369,"▁advertising":12370,"▁Ereignisse":12371,"▁buffet":12372,"▁Win":12373,"▁also,":12374,"▁Kombination":12375,"▁sod":12376,"▁models":12377,"zust":12378,"▁helping":12379,"▁Marketing":12380,"▁Before":12381,"▁EG":12382,"essor":12383,"▁Export":12384,"▁Gener":12385,"▁configur":12386,"▁Schwerpunkt":12387,"-Date":12388,"oster":12389,"▁Phase":12390,"▁representative":12391,"cluding":12392,"▁Kreat":12393,"▁welchen":12394,"▁Direkt":12395,"ausschusses":12396,"▁lesen":12397,"ansion":12398,"▁Asia":12399,"▁Company":12400,"▁„S":12401,"▁question.":12402,"new":12403,"werb":12404,"▁Holl":12405,"▁engag":12406,"▁Glas":12407,"issionen":12408,"▁extreme":12409,"▁volle":12410,"▁outdoor":12411,"▁Wegen":12412,"-Ab":12413,"▁aktuell":12414,"rist":12415,"uropäischen":12416,"▁site.":12417,"ema":12418,"▁Rub":12419,"ayer":12420,"▁16.":12421,"▁title":12422,"heber":12423,"entwurf":12424,"▁below.":12425,"▁adequate":12426,"theit":12427,"▁economy.":12428,"▁courses":12429,"going":12430,"▁subsidiar":12431,"vol":12432,"▁transform":12433,"geiz":12434,"▁\"K":12435,"▁verf":12436,"▁Komment":12437,"▁bitten,":12438,"▁spa":12439,"▁Show":12440,"▁konkreten":12441,"▁Griechenland":12442,"am,":12443,"▁übrig":12444,"▁Vielleicht":12445,"▁Angel":12446,"▁reviews.":12447,"▁sleep":12448,"▁co-":12449,"▁durchführ":12450,"V.":12451,"gro":12452,"okument":12453,"▁Zahlen":12454,"▁bilden":12455,"▁Zul":12456,"▁́s":12457,"▁Registr":12458,"▁wiederum":12459,"sph":12460,"▁treffen":12461,"▁13.":12462,"systeme":12463,"▁vess":12464,"▁spending":12465,"▁fallen":12466,"▁erforderlich,":12467,"jährige":12468,"▁Prom":12469,"▁Erwä":12470,"▁meetings":12471,"▁Herk":12472,"▁Geschäftsordnung":12473,"rest":12474,"▁suchen":12475,"sc":12476,"▁Take":12477,"▁represen":12478,"▁houses":12479,"itime":12480,"züg":12481,"▁Fer":12482,"▁keines":12483,"erry":12484,"istry":12485,"▁figures":12486,"▁p.m.":12487,"▁needs.":12488,"▁entlang":12489,"iè":12490,"▁wild":12491,"▁Hong":12492,"har":12493,"▁fed":12494,"ics,":12495,"▁output":12496,"▁laut":12497,"▁marked":12498,"▁kompliz":12499,"▁store":12500,"termine":12501,"▁Europa.":12502,"▁individuell":12503,"▁moved":12504,"▁andererseits":12505,"▁furnished":12506,"▁impl":12507,"-out":12508,"▁Verpflichtung":12509,"▁conclusions":12510,"▁fantastic":12511,"▁Austausch":12512,"▁Gesetzgebung":12513,"▁Karl":12514,"▁resolve":12515,"▁jemand":12516,"▁Il":12517,"▁rot":12518,"▁memory":12519,"▁Ta":12520,"sparte":12521,"▁Verbesser":12522,"▁practices":12523,"▁kinds":12524,"-I":12525,"▁schwierig":12526,"▁adj":12527,"ime.":12528,"▁maintenance":12529,"▁\"The":12530,"▁sights":12531,"ady":12532,"▁nochmals":12533,"▁feeling":12534,"▁Master":12535,"▁audio":12536,"▁river":12537,"▁Morgen":12538,"▁relatively":12539,"▁beiz":12540,"▁Fraktionen":12541,"▁dict":12542,"▁proud":12543,"▁vehicles":12544,"isch.":12545,"▁Maßnahmen,":12546,"▁zeich":12547,"ors.":12548,"▁hair":12549,"bahnhof":12550,"owned":12551,"▁starken":12552,"lichen,":12553,"▁trial":12554,"▁Hauptstadt":12555,"▁fördern.":12556,"x.":12557,"▁producers":12558,"▁dog":12559,"ennung":12560,"▁steht.":12561,"▁USA,":12562,"▁reservation":12563,"▁deiner":12564,"▁diverse":12565,"▁offensichtlich":12566,"▁Fischer":12567,"▁reven":12568,"▁Haup":12569,"oftware":12570,"▁Ton":12571,"▁Rock":12572,"▁fahren":12573,"ause,":12574,"cont":12575,"▁blue":12576,"▁reicht":12577,"▁unters":12578,"▁seriously":12579,"▁spezial":12580,"▁plug":12581,"▁machines":12582,"▁latter":12583,"▁Valle":12584,"▁trotzdem":12585,"▁pap":12586,"▁fördern":12587,"▁Action":12588,"▁Alter":12589,"▁halten.":12590,"▁appreciate":12591,"▁heavy":12592,"nt":12593,"/C":12594,"rasch":12595,"▁Dafür":12596,"▁It's":12597,"▁Zusatz":12598,"▁depart":12599,"ört":12600,"▁Var":12601,"ifall":12602,"▁liefern":12603,"▁copy":12604,"agt":12605,"▁geist":12606,"▁Genehm":12607,"▁Gästen":12608,"▁PR":12609,"▁Friedens":12610,"enter":12611,"▁Luf":12612,"▁begrüßen":12613,"▁wähl":12614,"▁Bör":12615,"gese":12616,"iating":12617,"▁lag":12618,"▁gepr":12619,"▁operate":12620,"▁fand":12621,"▁weight":12622,"▁causes":12623,"▁discharge":12624,"▁Risiken":12625,"▁cold":12626,"▁geeignet":12627,"▁hoher":12628,"▁crisis.":12629,"▁centre.":12630,"km":12631,"▁whatever":12632,"ettbewerbs":12633,"▁decision-m":12634,"▁Polen":12635,"▁manufacturing":12636,"▁circumstances":12637,"▁proposal.":12638,"▁beginnt":12639,"▁ziemlich":12640,"atr":12641,"def":12642,"▁story":12643,"▁landscape":12644,"▁Küste":12645,"▁repor":12646,"▁Aufgab":12647,"▁enterprises":12648,"▁Spann":12649,"icherungs":12650,"▁Ziel,":12651,"▁Franc":12652,"▁versucht,":12653,"▁5,":12654,"▁packages":12655,"▁determined":12656,"▁House,":12657,"▁falsch":12658,"▁keeping":12659,"▁whe":12660,"▁Ausnahme":12661,"▁Hans":12662,"lechter":12663,"asse,":12664,"▁peop":12665,"versorgung":12666,"bestimm":12667,"27":12668,"▁Disc":12669,"▁wollte":12670,"ränkungen":12671,"real":12672,"▁Offen":12673,"▁temperature":12674,"uv":12675,"▁od":12676,"▁Az":12677,"▁obst":12678,"▁point,":12679,"▁safet":12680,"▁sets":12681,"▁fill":12682,"füllung":12683,"▁Exec":12684,"▁und/":12685,"▁Turn":12686,"▁u.a.":12687,"▁ziehen":12688,"itory":12689,"▁lös":12690,"▁User":12691,"▁covers":12692,"▁Büro":12693,"▁Law":12694,"k.":12695,"region":12696,"▁Risik":12697,"beziehung":12698,"▁Flexibilität":12699,"▁maß":12700,"▁Effizienz":12701,"▁außergewöhn":12702,"ismen":12703,"▁helps":12704,"▁respective":12705,"ér":12706,"urm":12707,"▁könnten.":12708,"▁wichtiges":12709,"▁Umweltschutz":12710,"▁recognise":12711,"▁anschließ":12712,"▁outcome":12713,"▁Amts":12714,"asten":12715,"▁zurück.":12716,"▁others,":12717,"▁religi":12718,"▁repeated":12719,"▁cross-border":12720,"▁corrupt":12721,"▁bodies":12722,"leisten,":12723,"lebnis":12724,"▁delivered":12725,"imp":12726,"▁partn":12727,"▁Männer":12728,"▁beweg":12729,"▁Konsequ":12730,"▁crisis,":12731,"kop":12732,"▁complic":12733,"▁(v":12734,"▁comply":12735,"iest":12736,"lause":12737,"▁corner":12738,"▁Umständen":12739,"▁regionale":12740,"▁dry":12741,"allery":12742,"▁advance":12743,"▁Ländern,":12744,"▁district":12745,"▁Profession":12746,"▁Malt":12747,"▁Häus":12748,"strategie":12749,"▁Obama":12750,"▁höhere":12751,"▁Charter":12752,"▁Set":12753,"abling":12754,"▁eröffnet":12755,"▁genauso":12756,"▁spielt":12757,"folgerungen":12758,"▁cloth":12759,"▁Yet":12760,"▁Touristen":12761,"ampagne":12762,"▁veränder":12763,"AV":12764,"ierend":12765,"▁Grenze":12766,"▁structures":12767,"▁thorough":12768,"zahlung":12769,"▁gewährleistet":12770,"▁tasks":12771,"straße":12772,"uy":12773,"▁Kranken":12774,"▁alter":12775,"wareness":12776,"▁Ausland":12777,"▁Fremden":12778,"▁1000":12779,"▁erb":12780,"▁kommun":12781,"▁involving":12782,"▁Skype":12783,"▁italienischen":12784,"ziehen":12785,"▁straight":12786,"unf":12787,"▁Korr":12788,"vec":12789,"ary.":12790,"trächt":12791,"▁vast":12792,"▁Eisenbahn":12793,"26":12794,"nes":12795,"▁Altstadt":12796,"▁könnte,":12797,"▁spectac":12798,"hard":12799,"▁Burg":12800,"▁sicht":12801,"▁away.":12802,"▁previously":12803,"▁vehicle":12804,"▁gül":12805,"wegs":12806,"▁action.":12807,"▁Baum":12808,"▁geleistet":12809,"reiben,":12810,"/S":12811,"▁gather":12812,"▁Indien":12813,"▁Cook":12814,"▁planned":12815,"zin":12816,"▁criticism":12817,"▁weather":12818,"▁Gesicht":12819,"▁Gästebewertungen.":12820,"▁Pay":12821,"▁zugänglich":12822,"▁Monte":12823,"▁umzus":12824,"▁contents":12825,"▁environment,":12826,"▁Norden":12827,"▁sage":12828,"EF":12829,"▁whilst":12830,"▁Refer":12831,"▁umfassenden":12832,"▁director":12833,"▁bekannten":12834,"▁unmittelbar":12835,"▁breat":12836,"▁Temperatur":12837,"ão":12838,"▁ye":12839,"▁charming":12840,"MS":12841,"oten.":12842,"usal":12843,"▁conditions.":12844,"▁Ferner":12845,"▁garantiert":12846,"▁Termin":12847,"▁Willen":12848,"▁intellectual":12849,"▁networks":12850,"▁older":12851,"▁threaten":12852,"▁compliance":12853,"▁matter.":12854,"▁gewährleisten,":12855,"lieb":12856,"oke":12857,"▁France,":12858,"▁util":12859,"▁koordin":12860,"utter":12861,"▁ca":12862,"▁ausgewähl":12863,"▁a.":12864,"▁Alliance":12865,"▁mobility":12866,"TE":12867,"▁1994":12868,"▁flight":12869,"▁weltweiten":12870,"▁nehmen,":12871,"it.":12872,"itage":12873,"tragen.":12874,"▁Wirtschafts-":12875,"▁minim":12876,"▁conserv":12877,"▁hält":12878,"▁Realität":12879,"▁Expl":12880,"▁und/oder":12881,"▁Tax":12882,"▁kü":12883,"▁Recht,":12884,"▁Swedish":12885,"▁Ungleich":12886,"▁attitude":12887,"lagen.":12888,"▁kurzem":12889,"▁notice":12890,"▁versucht":12891,"betrieb":12892,"▁Fluss":12893,"▁relev":12894,"▁Original":12895,"laufen":12896,"▁MySQL":12897,"▁zusätzlichen":12898,"itionen":12899,"▁solve":12900,"▁place,":12901,"roc":12902,"▁künftig":12903,"▁Use":12904,"▁residence":12905,"▁Britain":12906,"33":12907,"▁impression":12908,"▁licens":12909,"▁girl":12910,"▁Vir":12911,"▁acts":12912,"▁dramat":12913,"▁Heiz":12914,"▁Welcome":12915,"▁nutzen.":12916,"▁2011":12917,"aschen":12918,"▁historische":12919,"▁court":12920,"▁alarm":12921,"▁Detail":12922,"dis":12923,"▁Ren":12924,"▁Grupp":12925,"▁Award":12926,"▁Gebiete":12927,"▁Sens":12928,"icking":12929,"▁familiar":12930,"▁entered":12931,"▁münd":12932,"ubau":12933,"▁favor":12934,"▁Wirklichkeit":12935,"sie":12936,"▁Mittelpunkt":12937,"▁Liebe":12938,"▁ta":12939,"V)":12940,"▁dans":12941,"▁sofern":12942,"anges":12943,"▁rare":12944,"▁Manager":12945,"▁felt":12946,"▁grundlegenden":12947,"▁Hü":12948,"fahren.":12949,"material":12950,"s.com":12951,"▁recommendations":12952,"äußer":12953,"▁treated":12954,"▁purposes":12955,"ved,":12956,"▁Umgang":12957,"▁abgelehn":12958,"▁Proced":12959,"▁involvement":12960,"▁Untersuchung":12961,"▁Kann":12962,"▁advice":12963,"angebot":12964,"▁Nahrungsmittel":12965,"asen":12966,"▁Hindern":12967,"urger":12968,"▁voller":12969,"▁citizens,":12970,"▁minut":12971,"▁Signal":12972,"politischen":12973,"iced":12974,"▁Ca":12975,"▁dien":12976,"chron":12977,"▁combating":12978,"▁ausgestattet.":12979,"▁Bericht,":12980,"▁extension":12981,"▁Wash":12982,"▁flat":12983,"▁piece":12984,"▁Brussels":12985,"▁interior":12986,"isory":12987,"ela":12988,"▁(5":12989,"▁renewable":12990,"▁lose":12991,"▁steht,":12992,"▁debate,":12993,"leisten.":12994,"teren":12995,"▁agreement.":12996,"▁shower":12997,"▁runs":12998,"▁Like":12999,"▁verloren":13000,"▁Europeans":13001,"▁wesentliche":13002,"▁AP":13003,"schlagen":13004,"tedly":13005,"▁Glück":13006,"hindert":13007,"▁obstac":13008,"modell":13009,"▁important.":13010,"sprüche":13011,"▁läng":13012,"▁Umwel":13013,"▁centre,":13014,"▁Sov":13015,"▁Tw":13016,"▁Agrarpolitik":13017,"▁factors":13018,"▁GNU":13019,"(s)":13020,"▁use.":13021,"▁durchzuführ":13022,"▁helped":13023,"▁device":13024,"▁bureauc":13025,"▁eigent":13026,"▁Robert":13027,"▁Dienstleistungs":13028,"▁Angebote":13029,"▁Comput":13030,"▁weshalb":13031,"▁enthus":13032,"päck":13033,"ispiele":13034,"▁cuisine":13035,"▁largely":13036,"elten":13037,"▁discrimination":13038,"ques":13039,"▁Greece":13040,"▁Berufs":13041,"▁Ec":13042,"▁Auffassung,":13043,"▁MS":13044,"▁department":13045,"▁Erinner":13046,"▁Unterschiede":13047,"▁individuals":13048,"▁Entwicklungsländern":13049,"▁schwierigen":13050,"▁Schloss":13051,"andon":13052,"▁Elect":13053,"▁zuerst":13054,"astronom":13055,"▁website.":13056,"kennen":13057,"▁emphasise":13058,"▁erwähnt":13059,"▁rank":13060,"station":13061,"▁kombin":13062,"fal":13063,"zza":13064,"▁agency":13065,"▁d’":13066,"▁Delegation":13067,"▁Politiker":13068,"▁consumption":13069,"▁gestern":13070,"▁Policy":13071,"▁student":13072,"▁ermöglichen,":13073,"▁schönsten":13074,"▁Sad":13075,"apter":13076,"▁2008,":13077,"▁skills":13078,"▁Erde":13079,"gesundheit":13080,"rechn":13081,"▁Puert":13082,"▁Standort":13083,"anger":13084,"igerung":13085,"▁SME":13086,"essene":13087,"▁telephone":13088,"▁shape":13089,"rochen":13090,"▁Ret":13091,"stehenden":13092,"▁Ohne":13093,"▁commitments":13094,"▁SO":13095,"▁one,":13096,"roph":13097,"-free":13098,"teen":13099,"metho":13100,"▁change.":13101,"▁hervorragende":13102,"icip":13103,"▁Regul":13104,"▁gewährleisten.":13105,"▁exclusively":13106,"▁Friend":13107,"▁glauben,":13108,"▁Sund":13109,"th,":13110,"isieren.":13111,"ances,":13112,"what":13113,"▁evaluation":13114,"▁Räum":13115,"▁launched":13116,"eler":13117,"▁newly":13118,"▁niemals":13119,"ämpfen":13120,"ießen":13121,"▁incent":13122,"sa":13123,"▁gesprochen":13124,"friend":13125,"▁Diskussionen":13126,"els.":13127,"▁gewes":13128,"▁England":13129,"▁illustr":13130,"▁Instead":13131,"▁life,":13132,"▁patient":13133,"▁zweifellos":13134,"▁Product":13135,"ania":13136,"▁eigenes":13137,"▁protecting":13138,"▁Befug":13139,"▁determine":13140,"▁serves":13141,"▁Eltern":13142,"▁drawing":13143,"▁tätig":13144,"ische,":13145,"▁ausgezeichnete":13146,"▁darstellt.":13147,"tigt":13148,"anging":13149,"▁world's":13150,"▁Agency":13151,"▁überw":13152,"▁schwar":13153,"▁consistent":13154,"▁Minutes":13155,"fähig":13156,"▁reserve":13157,"ancy":13158,"▁bekommen.":13159,"100":13160,"▁Mall":13161,"urd":13162,"▁direkte":13163,"▁location,":13164,"▁Atom":13165,"▁betreffenden":13166,"▁Schuld":13167,"▁neuesten":13168,"▁spring":13169,"▁limits":13170,"▁boat":13171,"▁issue,":13172,"▁inzwischen":13173,"▁Landschaft":13174,"▁unterstützt.":13175,"▁Four":13176,"▁(m":13177,"▁14.":13178,"ieß":13179,"▁gil":13180,"▁verändern":13181,"verletz":13182,"▁Stahl":13183,"itäre":13184,"▁Methoden":13185,"▁underm":13186,"ktors":13187,"▁Gegend":13188,"▁beträcht":13189,"▁Wolf":13190,"oben.":13191,"▁getr":13192,"▁cer":13193,"▁faced":13194,"▁Kost":13195,"▁hospit":13196,"▁strugg":13197,"▁on,":13198,"institution":13199,"▁registration":13200,"▁institutions.":13201,"▁в":13202,"▁awareness":13203,"▁Luc":13204,"▁Agric":13205,"▁vergessen":13206,"▁exem":13207,"uss,":13208,"▁competence":13209,"▁Energy":13210,"▁ausgezeichneten":13211,"▁natürlichen":13212,"▁Grundsätze":13213,"uens":13214,"▁mel":13215,"▁Wil":13216,"▁betrachtet":13217,"dessen":13218,"▁cards":13219,"cken,":13220,"▁page.":13221,"▁stimmen":13222,"▁Perspekt":13223,"▁opposed":13224,"▁Allgemeinen":13225,"▁USD":13226,"▁Prin":13227,"▁Gesetze":13228,"una,":13229,"▁Div":13230,"▁fasc":13231,"▁etc":13232,"▁advoc":13233,"▁millions":13234,"▁inhabit":13235,"lege":13236,"ischung":13237,"▁gewalt":13238,"▁beaches":13239,"▁2.0":13240,"▁Zusätz":13241,"örter":13242,"▁well,":13243,"▁cases,":13244,"▁Farben":13245,"▁Plaza":13246,"85":13247,"▁sides":13248,"schäd":13249,"rachten":13250,"▁mur":13251,"▁Kapaz":13252,"▁Konflik":13253,"▁prohib":13254,"fuhr":13255,"▁spanischen":13256,"▁Nachfrage":13257,"▁Kyoto":13258,"▁decis":13259,"id,":13260,"▁represented":13261,"▁commission":13262,"▁behaup":13263,"ismus,":13264,"era":13265,"arl":13266,"rote":13267,"▁Ladies":13268,"nen,":13269,"ziehen.":13270,"▁kommer":13271,"▁i.e.":13272,"organ":13273,"schule":13274,"▁controls":13275,"▁grundlegende":13276,"▁monument":13277,"▁zeigt,":13278,"▁Garden":13279,"▁einerseits":13280,"weich":13281,"▁important,":13282,"▁Gedanken":13283,"▁Town":13284,"irol":13285,"▁abroad":13286,"▁commun":13287,"stood":13288,"▁cancel":13289,"▁controll":13290,"how":13291,"kurs":13292,"▁musste":13293,"▁significantly":13294,"lett":13295,"▁beinhaltet":13296,"▁intensiv":13297,"▁dich":13298,"▁phen":13299,"▁looks":13300,"täus":13301,"▁Parlaments,":13302,"▁Nahen":13303,"arp":13304,"▁anwes":13305,"▁prove":13306,"▁Ungar":13307,"uds":13308,"▁Handeln":13309,"▁adul":13310,"▁detaill":13311,"da":13312,"▁ursprünglichen":13313,"rob":13314,"uttle":13315,"▁Ausgangspunkt":13316,"▁George":13317,"▁Mangel":13318,"▁estim":13319,"▁spät":13320,"▁remaining":13321,"▁Kroat":13322,"▁abol":13323,"unicip":13324,"▁Their":13325,"klärung":13326,"▁opposite":13327,"tele":13328,"▁Klar":13329,"▁extraordin":13330,"▁Veranstaltung":13331,"▁sexual":13332,"▁weiterge":13333,"▁Details":13334,"ates,":13335,"▁GDP":13336,"-Reg":13337,"▁faith":13338,"▁leisure":13339,"▁operational":13340,"▁Worten":13341,"▁menschlichen":13342,"-min":13343,"▁valuable":13344,"▁Opposition":13345,"▁Viertel":13346,"eminar":13347,"▁vous":13348,"▁coher":13349,"▁gold":13350,"▁Spiele":13351,"▁examples":13352,"▁leaving":13353,"well":13354,"▁33":13355,"miss":13356,"▁(I":13357,"▁feststellen,":13358,"▁(NL)":13359,"▁kommt,":13360,"▁2007.":13361,"▁Harmonisierung":13362,"obe":13363,"wers":13364,"CHT":13365,"▁seat":13366,"▁Wähl":13367,"cling":13368,"▁Frid":13369,"▁Budge":13370,"uts":13371,"nehmern":13372,"▁Pflanzen":13373,"▁Personen,":13374,"▁Jedes":13375,"▁certific":13376,"▁sin":13377,"isierungs":13378,"▁Hostelsclub":13379,"▁fab":13380,"▁veran":13381,"▁Verd":13382,"▁Ath":13383,"reichung":13384,"▁Zuständigkeit":13385,"iess":13386,"▁Stabilitäts":13387,"▁Empfehlung":13388,"rap":13389,"▁Allian":13390,"▁beteiligt":13391,"▁exceptional":13392,"▁unterbreit":13393,"▁cab":13394,"inational":13395,"▁Schulden":13396,"▁Wahrheit":13397,"▁weapons":13398,"▁Pia":13399,"▁Kommun":13400,"▁zahlen":13401,"▁push":13402,"gence":13403,"▁steel":13404,"tragung":13405,"TML":13406,"▁result,":13407,"▁UNO":13408,"▁Leitlinien":13409,"▁constructive":13410,"▁Schad":13411,"▁payments":13412,"▁activities.":13413,"OW":13414,"looking":13415,"▁volunt":13416,"▁talks":13417,"formance":13418,"ario":13419,"▁Geschmack":13420,"▁budget.":13421,"lated":13422,"▁Massen":13423,"▁gemacht.":13424,"/D":13425,"▁Gard":13426,"▁mehr.":13427,"▁manner":13428,"iring":13429,"▁Secret":13430,"ateful":13431,"▁mode":13432,"raum,":13433,"▁GU":13434,"▁soft":13435,"▁Year":13436,"-Adr":13437,"▁künftigen":13438,"▁Edition":13439,"igu":13440,"▁remote":13441,"▁holidays":13442,"▁höchsten":13443,"▁si":13444,"wald":13445,"▁Tiere":13446,"▁soweit":13447,"▁Inner":13448,"▁Dauer":13449,"ipel":13450,"▁gebaut":13451,"▁collective":13452,"▁Einkaufs":13453,"lan":13454,"▁Kollege":13455,"▁unterschiedlich":13456,"onymous":13457,"alleng":13458,"▁catalog":13459,"▁Group,":13460,"ünfte":13461,"enture":13462,"▁vorhanden":13463,"95":13464,"estr":13465,"▁equally":13466,"▁involve":13467,"▁holding":13468,"▁Kompetenz":13469,"▁dark":13470,"▁settlement":13471,"▁jährlich":13472,"▁Küsten":13473,"▁deleg":13474,"pap":13475,"gener":13476,"▁Arz":13477,"▁recip":13478,"▁automatic":13479,"▁AD":13480,"▁Einstellung":13481,"▁vergessen,":13482,"▁will.":13483,"▁verschiedener":13484,"▁addressed":13485,"28":13486,"▁creates":13487,"▁Kas":13488,"ulating":13489,"▁Budap":13490,"▁Therm":13491,"▁(or":13492,"▁Westen":13493,"▁agencies":13494,"gesellschaften":13495,"▁anspruch":13496,"▁creative":13497,"▁Stimm":13498,"▁nob":13499,"▁Nap":13500,"▁youth":13501,"▁photos":13502,"▁eingerichtet":13503,"▁region,":13504,"▁temporary":13505,"▁\"V":13506,"▁spaces":13507,"inuier":13508,"▁Through":13509,"legt.":13510,"▁Behinder":13511,"▁Einwanderung":13512,"▁Tschech":13513,"▁Zustand":13514,"nischen":13515,"▁cry":13516,"▁Lu":13517,"▁gelöst":13518,"▁Engine":13519,"▁Antworten":13520,"▁Voraussetzung":13521,"▁couple":13522,"▁Switzerland":13523,"▁anstatt":13524,"▁beseit":13525,"▁Maastr":13526,"▁davon,":13527,"▁vereinfach":13528,"agg":13529,"▁uneing":13530,"▁witness":13531,"ziplin":13532,"pa":13533,"▁37":13534,"▁institutions,":13535,"▁catch":13536,"▁stone":13537,"steuer":13538,"▁artists":13539,"▁werden?":13540,"▁Direct":13541,"▁acquis":13542,"azier":13543,"▁Hohen":13544,"laden":13545,"▁Service,":13546,"gyp":13547,"▁BSE":13548,"ighten":13549,"▁aircraft":13550,"freie":13551,"oe":13552,"rain":13553,"▁Wild":13554,"▁Vice":13555,"▁Airbus":13556,"▁magaz":13557,"▁obligations":13558,"▁Fenster":13559,"▁(z.B.":13560,"▁reveal":13561,"ès":13562,"izit":13563,"▁bezug":13564,"▁trib":13565,"▁Update":13566,"▁(O":13567,"▁Barcelon":13568,"▁Brasil":13569,"▁territory":13570,"cohol":13571,"▁Drittländern":13572,"▁dritte":13573,"▁Geschäft":13574,"▁Late":13575,"▁offenen":13576,"▁consensus":13577,"▁hardware":13578,"▁riesigen":13579,"▁wettbewerbs":13580,"▁cars":13581,"▁Ter":13582,"▁conducted":13583,"actions":13584,"▁River":13585,"▁leistungs":13586,"ciliation":13587,"▁aufgeforder":13588,"▁aftern":13589,"▁Ware":13590,"▁constitution":13591,"▁race":13592,"▁einzigartige":13593,"én":13594,"▁Eis":13595,"antly":13596,"klass":13597,"heben":13598,"▁(10":13599,"▁verpflichtet":13600,"▁diejenigen":13601,"elt,":13602,"▁verfügbar":13603,"▁Word":13604,"▁Festlegung":13605,"▁iron":13606,"▁because,":13607,"▁Monetary":13608,"▁proposal,":13609,"▁hill":13610,"▁gets":13611,"ugos":13612,"▁900":13613,"▁testing":13614,"▁Papier":13615,"▁consc":13616,"ML":13617,"▁übernehmen":13618,"▁Polish":13619,"▁Executive":13620,"▁DE":13621,"▁page,":13622,"▁Gründe":13623,"absichtig":13624,"▁versuchen":13625,"ker":13626,"▁up.":13627,"lles":13628,"▁breite":13629,"▁Music":13630,"▁Wal":13631,"zahlt":13632,"▁facilitate":13633,"▁Indones":13634,"▁Gleichgewicht":13635,"rate":13636,"▁devices":13637,"far":13638,"▁ball":13639,"▁navig":13640,"▁amounts":13641,"▁Arme":13642,"▁geräum":13643,"▁zugunsten":13644,"▁Time":13645,"▁orders":13646,"▁Meinungs":13647,"ard,":13648,"▁Tru":13649,"▁verständ":13650,"akten":13651,"▁Sanktionen":13652,"▁children.":13653,"▁Schule":13654,"▁eye":13655,"▁phenomen":13656,"�r":13657,"▁PRO":13658,"▁mögliche":13659,"▁Verring":13660,"mitten":13661,"▁Methode":13662,"▁content,":13663,"▁kurze":13664,"TR":13665,"iary":13666,"ky":13667,"▁hit":13668,"▁Noch":13669,"▁(and":13670,"▁bekomm":13671,"reibt":13672,"▁WLAN":13673,"einer":13674,"▁knows":13675,"▁pleasure":13676,"▁binding":13677,"▁patients":13678,"enken,":13679,"▁Network":13680,"65":13681,"zent":13682,"▁caf":13683,"▁Block":13684,"räume":13685,"▁identify":13686,"rak":13687,"▁supposed":13688,"▁Vienna":13689,"GB":13690,"orter":13691,"▁obligation":13692,"p.":13693,"▁Event":13694,"▁amaz":13695,"▁drop":13696,"▁ungefähr":13697,"▁Himm":13698,"▁gekommen":13699,"▁recommended":13700,"▁kulturelle":13701,"/L":13702,"▁avec":13703,"▁foll":13704,"▁Struct":13705,"▁Tagung":13706,"▁Fälle":13707,"▁liv":13708,"▁einfachen":13709,"▁emission":13710,"▁Kandidaten":13711,"▁mitten":13712,"▁Indian":13713,"▁Studie":13714,"▁Übereinstimmung":13715,"▁präz":13716,"▁irre":13717,"▁verstehen,":13718,"▁stylish":13719,"▁Regierungskonferenz":13720,"▁dem,":13721,"▁challeng":13722,"▁metal":13723,"▁wissenschaftlichen":13724,"▁Apart":13725,"▁supplement":13726,"▁sagt":13727,"▁northern":13728,"hält,":13729,"rating":13730,"▁Informationen,":13731,"▁Strukturfonds":13732,"iox":13733,"▁zuständigen":13734,"▁Krie":13735,"▁Wachstums":13736,"▁ruhigen":13737,"▁Nic":13738,"▁hatten,":13739,"▁zentralen":13740,"akete":13741,"▁rück":13742,"▁wechsel":13743,"▁Übersetzung":13744,"▁Entwicklungsländer":13745,"▁obtained":13746,"▁Beispiele":13747,"▁economies":13748,"▁unfor":13749,"▁gefährd":13750,"▁außen":13751,"▁parlament":13752,"igrants":13753,"▁List":13754,"▁Geheim":13755,"▁Umfeld":13756,"▁schwed":13757,"▁sla":13758,"ausend":13759,"-time":13760,"▁unmöglich":13761,"▁termin":13762,"▁Alternative":13763,"29":13764,"▁HD":13765,"▁(ES":13766,"▁Übersetz":13767,"▁applicable":13768,"wirklich":13769,"-5":13770,"▁wären":13771,"▁architecture":13772,"▁Fähigkeit":13773,"gut":13774,"▁Mold":13775,"schau":13776,"▁dream":13777,"schluß":13778,"▁recovery":13779,"▁rooms.":13780,"▁world’s":13781,"▁Bildungs":13782,"но":13783,"▁dinner":13784,"▁faster":13785,"ur,":13786,"▁Jer":13787,"▁presentation":13788,"▁Urspr":13789,"▁universal":13790,"▁abandon":13791,"▁grounds":13792,"ichten.":13793,"▁Bor":13794,"otte":13795,"▁nation":13796,"hnt":13797,"49":13798,"▁father":13799,"ichte,":13800,"▁kontinuier":13801,"▁Minderheiten":13802,"▁ehrgeiz":13803,"anne":13804,"▁Vorbe":13805,"▁recover":13806,"▁besitzt":13807,"▁vorz":13808,"▁Tatsächlich":13809,"ohlen":13810,"▁informiert":13811,"▁programme.":13812,"▁consultation":13813,"▁unacceptable":13814,"-Ber":13815,"organisationen":13816,"▁früheren":13817,"▁tut":13818,"down":13819,"ml":13820,"▁({{":13821,"▁pursu":13822,"▁Erwartungen":13823,"ruh":13824,"▁politics":13825,"▁schlecht":13826,"▁Protection":13827,"lared":13828,"▁verwende":13829,"▁sodass":13830,"▁regulatory":13831,"▁Viet":13832,"▁point.":13833,"▁fighting":13834,"▁unent":13835,"▁Safety":13836,"▁Schn":13837,"▁depends":13838,"▁außerordentlich":13839,"▁Ausführung":13840,"▁mother":13841,"▁Bedenken":13842,"▁react":13843,"▁KMU":13844,"▁geschaff":13845,"iour":13846,"▁setzen.":13847,"▁hin,":13848,"▁classic":13849,"▁Lim":13850,"▁Verbrechen":13851,"griffe":13852,"▁ticket":13853,"▁Bedeutung.":13854,"▁uneingeschrän":13855,"▁pharm":13856,"gä":13857,"▁naturally":13858,"▁Automobil":13859,"▁Trag":13860,"▁Polit":13861,"▁Dev":13862,"▁Subsid":13863,"▁Entlast":13864,"▁zustimm":13865,"hält.":13866,"▁Anze":13867,"anner":13868,"odes":13869,"▁city,":13870,"ating,":13871,"ärke":13872,"struktion":13873,"▁Tarif":13874,"▁Abschnitt":13875,"▁versions":13876,"▁destru":13877,"▁terrorist":13878,"▁fordere":13879,"▁hundreds":13880,"▁Wird":13881,"zeichnis":13882,"▁fragen,":13883,"▁jedoch,":13884,"▁Gewicht":13885,"ew":13886,"folio":13887,"▁Brand":13888,"▁Adresse":13889,"ading":13890,"▁Theater":13891,"▁verpflichtet,":13892,"▁protest":13893,"▁tail":13894,"ne.":13895,"▁einzuf":13896,"▁Menü":13897,"199":13898,"▁beachten":13899,"▁Solar":13900,"▁Pflich":13901,"▁tob":13902,"▁Bedeutung,":13903,"▁fashion":13904,"abilität":13905,"▁zählen":13906,"▁gehen.":13907,"▁attacks":13908,"▁magnific":13909,"liste":13910,"Un":13911,"▁unverzüglich":13912,"▁attract":13913,"spap":13914,"▁grateful":13915,"▁derartige":13916,"▁Kreis":13917,"▁deposit":13918,"▁situation,":13919,"idel":13920,"▁guaranteed":13921,"▁incomp":13922,"▁Optim":13923,"▁recognised":13924,"▁bilateral":13925,"▁define":13926,"▁destination":13927,"enden.":13928,"▁Kategorie":13929,"erse":13930,"▁personally":13931,"▁50%":13932,"krit":13933,"▁Anton":13934,"▁bottom":13935,"▁visual":13936,"▁benötigt":13937,"▁gewissen":13938,"▁Arbeitsplatz":13939,"▁nachhaltigen":13940,"▁Pension":13941,"▁group,":13942,"▁Shop":13943,"▁ermut":13944,"▁today's":13945,"ade,":13946,"▁Infl":13947,"OM(":13948,"ussts":13949,"▁confirmed":13950,"▁discovered":13951,"▁Brenn":13952,"▁destin":13953,"▁Boot":13954,"▁impressive":13955,"▁abgeschlossen":13956,"▁geschützt":13957,"▁Satur":13958,"▁proof":13959,"▁solar":13960,"▁geändert":13961,"▁Europol":13962,"▁möchten.":13963,"rechten":13964,"▁Bauern":13965,"▁derart":13966,"▁NE":13967,"▁Är":13968,"▁Beste":13969,"▁umfassen":13970,"▁album":13971,"worfen":13972,"▁bewahr":13973,"▁AM":13974,"rovers":13975,"▁Thomas":13976,"ilding":13977,"▁entfernt,":13978,"▁beitragen":13979,"▁ergriffen":13980,"▁Blut":13981,"▁Mountain":13982,"▁EU-Mitglied":13983,"▁notwendige":13984,"andal":13985,"▁Ersatz":13986,"▁Nachricht":13987,"▁tatsäch":13988,"▁Camping":13989,"на":13990,"▁category":13991,"ailing":13992,"▁lovely":13993,"nen.":13994,"weisung":13995,"▁multinational":13996,"▁ster":13997,"hrist":13998,"ichern":13999,"acion":14000,"▁House.":14001,"▁Slovak":14002,"▁liegt.":14003,"▁Poland":14004,"ventions":14005,"▁invite":14006,"▁markets.":14007,"▁vorange":14008,"▁joined":14009,"meldung":14010,"▁anti":14011,"▁intensive":14012,"▁division":14013,"▁Congress":14014,"▁Anti":14015,"▁kurzen":14016,"oub":14017,"▁enthalten.":14018,"gemeinschaft":14019,"▁österreich":14020,"▁pollution":14021,"iser":14022,"▁welfare":14023,"▁Einheit":14024,"▁bedro":14025,"behörden":14026,"▁2007,":14027,"▁Food":14028,"▁Umgeb":14029,"enkung":14030,"▁verfolgt":14031,"▁Verfahrens":14032,"▁Verringerung":14033,"▁U-Bahn":14034,"▁Armen":14035,"▁Amerika":14036,"▁freiwill":14037,"▁expenditure":14038,"▁verdient":14039,"▁protocol":14040,"▁ought":14041,"der.":14042,"▁gehen,":14043,"▁erfüllen":14044,"▁visible":14045,"68":14046,"▁Ausstellung":14047,"▁Framework":14048,"▁Eigenschaften":14049,"CE":14050,"▁refr":14051,"▁mitge":14052,"▁Hilfs":14053,"▁Anfragen":14054,"▁noise":14055,"▁species":14056,"▁Player":14057,"▁Legal":14058,"▁Speicher":14059,"▁Denk":14060,"▁stopp":14061,"orgt":14062,"▁Fair":14063,"▁erlä":14064,"uminium":14065,"örd":14066,"▁Verbot":14067,"▁improvements":14068,"▁schne":14069,"▁Strategien":14070,"▁unternommen":14071,"▁Krankheit":14072,"▁(f":14073,"▁economy,":14074,"▁dining":14075,"▁Lt":14076,"▁acceptable":14077,"ergie":14078,"level":14079,"▁arms":14080,"▁Whether":14081,"▁welchem":14082,"che.":14083,"▁pas":14084,"▁Einbeziehung":14085,"ärken":14086,"▁eingeführt":14087,"▁Krimin":14088,"▁issued":14089,"▁Landwirte":14090,"▁independence":14091,"▁Gentoo":14092,"▁inhabitants":14093,"ergeb":14094,"deb":14095,"sichtigen":14096,"ances.":14097,"▁kurzfrist":14098,"ete":14099,"▁TO":14100,"▁Rome":14101,"▁targets":14102,"▁string":14103,"▁Steu":14104,"C)":14105,"▁Hof":14106,"▁kontakt":14107,"▁Zyp":14108,"richtig":14109,"▁century.":14110,"▁symp":14111,"▁shops":14112,"▁interessante":14113,"▁verstärkt":14114,"-g":14115,"öp":14116,"▁bieten.":14117,"▁flights":14118,"▁Author":14119,"▁mechanisms":14120,"▁Radio":14121,"▁calcul":14122,"▁Quark":14123,"▁verehrte":14124,"a)":14125,"ikas":14126,"▁Verträge":14127,"▁Find":14128,"▁Ziffer":14129,"▁Konzep":14130,"▁Road":14131,"▁vot":14132,"▁sac":14133,"idden":14134,"▁Anliegen":14135,"einen":14136,"kohol":14137,"▁übertragen":14138,"▁Muse":14139,"▁gespiel":14140,"▁2010,":14141,"kul":14142,"stellen.":14143,"▁Krisen":14144,"bach":14145,"▁oral":14146,"▁IB":14147,"▁Holid":14148,"▁muß.":14149,"ausschuß":14150,"fänger":14151,"kur":14152,"▁beeindruck":14153,"▁frequently":14154,"▁und,":14155,"▁understood":14156,"▁NGO":14157,"G)":14158,"▁antw":14159,"▁gezw":14160,"▁delegation":14161,"legungen":14162,"heben,":14163,"beweg":14164,"▁Abhäng":14165,"▁somewhat":14166,"▁camer":14167,"▁Lager":14168,"▁legislation.":14169,"▁betrie":14170,"▁careful":14171,"▁domain":14172,"▁Luxembourg":14173,"▁bemerk":14174,"▁Pact":14175,"▁Inseln":14176,"UNG":14177,"▁AV":14178,"▁Access":14179,"neter":14180,"aret":14181,"▁problem,":14182,"hot":14183,"▁34":14184,"▁So,":14185,"▁maintaining":14186,"▁Dokumente":14187,"▁corresponding":14188,"▁Klimawandel":14189,"▁schnelle":14190,"▁Kreuz":14191,"▁requirements.":14192,"▁ER":14193,"▁benefic":14194,"▁figure":14195,"▁direkten":14196,"▁advantages":14197,"▁Veranstaltungen":14198,"atre":14199,"▁gemacht,":14200,"▁Gestaltung":14201,"▁Subsidiar":14202,"▁OR":14203,"ifications":14204,"▁ethnic":14205,"▁ende":14206,"▁drivers":14207,"▁Wesent":14208,"▁Aktien":14209,"▁verwand":14210,"crip":14211,"▁Bucht":14212,"▁Ra":14213,"ventionen":14214,"▁Besonders":14215,"▁Kilometer":14216,"▁Life":14217,"▁rub":14218,"▁suffering":14219,"▁Japanese":14220,"▁distric":14221,"▁staatlichen":14222,"▁Gründung":14223,"aks":14224,"▁root":14225,"▁appoint":14226,"▁wann":14227,"tendlich":14228,"▁reichen":14229,"SA":14230,"▁depending":14231,"▁geltenden":14232,"aten.":14233,"▁producing":14234,"prochen,":14235,"▁würden,":14236,"▁awa":14237,"märkte":14238,"▁erleben":14239,"▁http://www.":14240,"▁erstellt":14241,"▁Technology":14242,"▁repeat":14243,"code":14244,"▁agreement,":14245,"▁mir,":14246,"▁delighted":14247,"▁fitness":14248,"▁siehe":14249,"▁Individ":14250,"▁hängt":14251,"▁Nos":14252,"▁Ausgabe":14253,"▁Problem,":14254,"tung":14255,"▁input":14256,"▁Bibliothe":14257,"▁Verbesserungen":14258,"▁Franz":14259,"▁Ferr":14260,"▁journey":14261,"▁Aktual":14262,"▁accompanied":14263,"itten":14264,"▁besuchen":14265,"fac":14266,"hi":14267,"▁danger":14268,"21":14269,"bürger":14270,"▁currenc":14271,"▁skin":14272,"▁Konsens":14273,"▁lebens":14274,"▁(Be":14275,"▁existence":14276,"▁worksh":14277,"▁festzu":14278,"▁Zwei":14279,"▁handelt,":14280,"▁eingesch":14281,"▁pattern":14282,"zure":14283,"prochen.":14284,"▁Gericht":14285,"▁zufolge":14286,"▁Hoffnung":14287,"▁compensation":14288,"▁trop":14289,"▁nahezu":14290,"len":14291,"kommunik":14292,"▁money.":14293,"▁funktioniert":14294,"▁Inst":14295,"▁attraction":14296,"▁apart":14297,"▁Lö":14298,"▁mostly":14299,"▁Übereinkommen":14300,"▁facility":14301,"▁vote.":14302,"▁Dank,":14303,"DS":14304,"vertre":14305,"▁preis":14306,"▁Maastricht":14307,"▁Beding":14308,"▁cooperation.":14309,"einamer":14310,"▁scale":14311,"▁95":14312,"▁showing":14313,"stoffen":14314,"▁höheren":14315,"▁healthy":14316,"▁dienen":14317,"▁beträgt":14318,"▁categor":14319,"▁Entfern":14320,"▁1970":14321,"▁gezeigt,":14322,"▁Bewegung":14323,"usche":14324,"▁ordnungs":14325,"zellen":14326,"▁Wirtschaftswachstum":14327,"▁westlichen":14328,"ag,":14329,"▁Spazier":14330,"▁1992":14331,"▁Persön":14332,"▁38":14333,"▁com.":14334,"▁solange":14335,"▁restruct":14336,"▁Sony":14337,"gor":14338,"▁seeing":14339,"▁vollständige":14340,"▁distingu":14341,"▁returned":14342,"▁Nice":14343,"instrument":14344,"unning":14345,"▁Dal":14346,"▁–,":14347,"▁„W":14348,
[...]
