{"<unk>":0,"!":1,"\"":2,"#":3,"$":4,"%":5,"&":6,"'":7,"(":8,")":9,"*":10,"+":11,",":12,"-":13,".":14,"/":15,"0":16,"1":17,"2":18,"3":19,"4":20,"5":21,"6":22,"7":23,"8":24,"9":25,":":26,";":27,"<":28,"=":29,">":30,"?":31,"@":32,"A":33,"B":34,"C":35,"D":36,"E":37,"F":38,"G":39,"H":40,"I":41,"J":42,"K":43,"L":44,"M":45,"N":46,"O":47,"P":48,"Q":49,"R":50,"S":51,"T":52,"U":53,"V":54,"W":55,"X":56,"Y":57,"Z":58,"[":59,"\\":60,"]":61,"^":62,"_":63,"`":64,"a":65,"b":66,"c":67,"d":68,"e":69,"f":70,"g":71,"h":72,"i":73,"j":74,"k":75,"l":76,"m":77,"n":78,"o":79,"p":80,"q":81,"r":82,"s":83,"t":84,"u":85,"v":86,"w":87,"x":88,"y":89,"z":90,"{":91,"|":92,"}":93,"~":94,"":95,"":96,"":97,"":98,"":99,"":100,"":101,"":102,"":103,"":104,"":105,"":106,"":107,"":108,"":109,"":110,"":111,"":112,"":113,"":114,"":115,"":116,"¡":117,"¢":118,"£":119,"¤":120,"¥":121,"¦":122,"§":123,"©":124,"¬":125,"­":126,"®":127,"°":128,"±":129,"¶":130,"·":131,"¿":132,"À":133,"Á":134,"Â":135,"Ã":136,"Ä":137,"Å":138,"Æ":139,"Ç":140,"È":141,"É":142,"Ê":143,"Ë":144,"Ì":145,"Í":146,"Î":147,"Ï":148,"Ð":149,"Ñ":150,"Ò":151,"Ó":152,"Ô":153,"Õ":154,"Ö":155,"×":156,"Ø":157,"Ù":158,"Ú":159,"Û":160,"Ü":161,"Ý":162,"Þ":163,"ß":164,"à":165,"á":166,"â":167,"ã":168,"ä":169,"å":170,"æ":171,"ç":172,"è":173,"é":174,"ê":175,"ë":176,"ì":177,"í":178,"î":179,"ï":180,"ð":181,"ñ":182,"ò":183,"ó":184,"ô":185,"õ":186,"ö":187,"÷":188,"ø":189,"ù":190,"ú":191,"û":192,"ü":193,"ý":194,"þ":195,"ÿ":196,"Ā":197,"ā":198,"Ă":199,"ă":200,"Ą":201,"ą":202,"Ć":203,"ć":204,"Č":205,"č":206,"Ď":207,"ď":208,"Đ":209,"đ":210,"ē":211,"ĕ":212,"Ė":213,"ė":214,"Ę":215,"ę":216,"Ě":217,"ě":218,"ĝ":219,"Ğ":220,"ğ":221,"ġ":222,"ģ":223,"ħ":224,"ĩ":225,"Ī":226,"ī":227,"Į":228,"į":229,"İ":230,"ı":231,"ķ":232,"Ĺ":233,"ĺ":234,"ļ":235,"Ľ":236,"ľ":237,"Ł":238,"ł":239,"Ń":240,"ń":241,"ņ":242,"Ň":243,"ň":244,"Ō":245,"ō":246,"ŏ":247,"Ő":248,"ő":249,"Œ":250,"œ":251,"ŕ":252,"Ř":253,"ř":254,"Ś":255,"ś":256,"Ş":257,"ş":258,"Š":259,"š":260,"Ţ":261,"ţ":262,"ť":263,"Ū":264,"ū":265,"ŭ":266,"Ů":267,"ů":268,"Ű":269,"ű":270,"Ų":271,"ų":272,"Ÿ":273,"ź":274,"Ż":275,"ż":276,"Ž":277,"ž":278,"ƒ":279,"ơ":280,"ư":281,"ǎ":282,"ǐ":283,"ǔ":284,"ș":285,"ț":286,"ɐ":287,"ɑ":288,"ə":289,"ɛ":290,"ɪ":291,"ɾ":292,"ʃ":293,"ʒ":294,"ʿ":295,"ˆ":296,"ˈ":297,"ˌ":298,"ː":299,"́":300,"̃":301,"̄":302,"̇":303,"̈":304,"̊":305,"̋":306,"̍":307,"̤":308,"̧":309,"̨":310,"Ά":311,"Α":312,"Β":313,"Γ":314,"Δ":315,"Ε":316,"Η":317,"Θ":318,"Ι":319,"Κ":320,"Λ":321,"Μ":322,"Ν":323,"Ο":324,"Π":325,"Ρ":326,"Σ":327,"Τ":328,"Υ":329,"Φ":330,"Χ":331,"Ω":332,"ά":333,"έ":334,"ή":335,"ί":336,"α":337,"β":338,"γ":339,"δ":340,"ε":341,"ζ":342,"η":343,"θ":344,"ι":345,"κ":346,"λ":347,"μ":348,"ν":349,"ξ":350,"ο":351,"π":352,"ρ":353,"ς":354,"σ":355,"τ":356,"υ":357,"φ":358,"χ":359,"ψ":360,"ω":361,"ϋ":362,"ό":363,"ύ":364,"ώ":365,"Ё":366,"Ђ":367,"Ѓ":368,"Є":369,"І":370,"Ї":371,"Ј":372,"Љ":373,"Њ":374,"Ћ":375,"Ќ":376,"Ў":377,"Џ":378,"А":379,"Б":380,"В":381,"Г":382,"Д":383,"Е":384,"Ж":385,"З":386,"И":387,"Й":388,"К":389,"Л":390,"М":391,"Н":392,"О":393,"П":394,"Р":395,"С":396,"Т":397,"У":398,"Ф":399,"Х":400,"Ц":401,"Ч":402,"Ш":403,"Ы":404,"Ь":405,"Э":406,"Ю":407,"Я":408,"а":409,"б":410,"в":411,"г":412,"д":413,"е":414,"ж":415,"з":416,"и":417,"й":418,"к":419,"л":420,"м":421,"н":422,"о":423,"п":424,"р":425,"с":426,"т":427,"у":428,"ф":429,"х":430,"ц":431,"ч":432,"ш":433,"щ":434,"ъ":435,"ы":436,"ь":437,"э":438,"ю":439,"я":440,"ё":441,"ѓ":442,"є":443,"ѕ":444,"і":445,"ї":446,"ј":447,"љ":448,"њ":449,"ћ":450,"ќ":451,"ў":452,"џ":453,"Ґ":454,"ґ":455,"ғ":456,"қ":457,"ң":458,"ү":459,"ұ":460,"һ":461,"ә":462,"ֳ":463,"ִ":464,"ָ":465,"ּ":466,"ֿ":467,"א":468,"ב":469,"ג":470,"ד":471,"ה":472,"ו":473,"ז":474,"ח":475,"ט":476,"י":477,"כ":478,"ל":479,"ם":480,"מ":481,"ן":482,"נ":483,"ס":484,"ע":485,"פ":486,"צ":487,"ק":488,"ר":489,"ש":490,"ת":491,"،":492,"ء":493,"آ":494,"أ":495,"إ":496,"ا":497,"ب":498,"ة":499,"ت":500,"ث":501,"ج":502,"ح":503,"خ":504,"د":505,"ذ":506,"ر":507,"ز":508,"س":509,"ش":510,"ص":511,"ض":512,"ط":513,"ع":514,"غ":515,"ف":516,"ق":517,"ك":518,"ل":519,"م":520,"ن":521,"ه":522,"و":523,"ى":524,"ي":525,"ً":526,"َ":527,"ُ":528,"ِ":529,"ّ":530,"ْ":531,"پ":532,"ک":533,"ی":534,"۰":535,"۱":536,"۲":537,"۹":538,"क":539,"त":540,"न":541,"प":542,"म":543,"य":544,"र":545,"ल":546,"स":547,"ह":548,"ा":549,"ि":550,"ु":551,"े":552,"्":553,"র":554,"্":555,"்":556,"ก":557,"ข":558,"ค":559,"ง":560,"จ":561,"ช":562,"ณ":563,"ด":564,"ต":565,"ถ":566,"ท":567,"ธ":568,"น":569,"บ":570,"ป":571,"ผ":572,"พ":573,"ม":574,"ย":575,"ร":576,"ล":577,"ว":578,"ศ":579,"ส":580,"ห":581,"อ":582,"ะ":583,"ั":584,"า":585,"ิ":586,"ี":587,"ึ":588,"ื":589,"ุ":590,"ู":591,"เ":592,"แ":593,"โ":594,"ใ":595,"ไ":596,"ๆ":597,"็":598,"่":599,"้":600,"์":601,"ํ":602,"ა":603,"ბ":604,"გ":605,"დ":606,"ე":607,"ვ":608,"ი":609,"ლ":610,"მ":611,"ნ":612,"ო":613,"რ":614,"ს":615,"ტ":616,"შ":617,"ረ":618,"ዓ":619,"ḥ":620,"ṭ":621,"ṳ":622,"ạ":623,"ả":624,"ế":625,"ề":626,"ệ":627,"ố":628,"ồ":629,"ộ":630,"ớ":631,"ờ":632,"ữ":633,"​":634,"‌":635,"‎":636,"‏":637,"‐":638,"―":639,"‛":640,"‟":641,"†":642,"‡":643,"•":644,"‬":645,"‭":646,"‰":647,"′":648,"‹":649,"›":650,"※":651,"⁄":652,"€":653,"←":654,"↑":655,"→":656,"⇒":657,"⇢":658,"−":659,"√":660,"∞":661,"≈":662,"≤":663,"≥":664,"≪":665,"≫":666,"─":667,"│":668,"╚":669,"╩":670,"▁":671,"▒":672,"■":673,"▪":674,"►":675,"◆":676,"◊":677,"○":678,"◎":679,"●":680,"★":681,"☆":682,"♣":683,"♥":684,"♦":685,"♪":686,"、":687,"。":688,"「":689,"」":690,"『":691,"』":692,"【":693,"】":694,"あ":695,"い":696,"う":697,"え":698,"お":699,"か":700,"が":701,"き":702,"く":703,"け":704,"こ":705,"さ":706,"し":707,"じ":708,"す":709,"せ":710,"た":711,"だ":712,"ち":713,"っ":714,"つ":715,"て":716,"で":717,"と":718,"な":719,"に":720,"の":721,"は":722,"ば":723,"ま":724,"み":725,"め":726,"も":727,"よ":728,"ら":729,"り":730,"る":731,"れ":732,"わ":733,"を":734,"ん":735,"ア":736,"イ":737,"オ":738,"カ":739,"コ":740,"ジ":741,"ス":742,"タ":743,"ッ":744,"テ":745,"ト":746,"ド":747,"ナ":748,"バ":749,"フ":750,"プ":751,"マ":752,"メ":753,"ラ":754,"リ":755,"ル":756,"レ":757,"ワ":758,"ン":759,"・":760,"ー":761,"一":762,"三":763,"上":764,"下":765,"不":766,"东":767,"个":768,"中":769,"为":770,"乐":771,"也":772,"了":773,"事":774,"二":775,"五":776,"亚":777,"交":778,"产":779,"京":780,"人":781,"仁":782,"以":783,"会":784,"伦":785,"但":786,"体":787,"元":788,"克":789,"免":790,"入":791,"全":792,"八":793,"公":794,"内":795,"农":796,"出":797,"分":798,"切":799,"刘":800,"到":801,"前":802,"加":803,"动":804,"北":805,"区":806,"匿":807,"十":808,"南":809,"博":810,"厂":811,"原":812,"去":813,"参":814,"发":815,"取":816,"口":817,"可":818,"台":819,"司":820,"合":821,"吉":822,"名":823,"吗":824,"和":825,"品":826,"啦":827,"四":828,"国":829,"图":830,"國":831,"土":832,"在":833,"地":834,"场":835,"城":836,"增":837,"士":838,"多":839,"大":840,"天":841,"套":842,"女":843,"如":844,"娱":845,"婷":846,"子":847,"字":848,"学":849,"安":850,"定":851,"家":852,"容":853,"寺":854,"寿":855,"小":856,"少":857,"就":858,"山":859,"岛":860,"島":861,"州":862,"工":863,"市":864,"常":865,"平":866,"年":867,"应":868,"式":869,"引":870,"当":871,"影":872,"得":873,"心":874,"思":875,"性":876,"情":877,"愛":878,"成":879,"我":880,"手":881,"持":882,"文":883,"料":884,"新":885,"方":886,"日":887,"明":888,"易":889,"是":890,"更":891,"最":892,"月":893,"有":894,"木":895,"本":896,"机":897,"李":898,"来":899,"杨":900,"東":901,"松":902,"林":903,"枫":904,"核":905,"模":906,"正":907,"武":908,"比":909,"民":910,"水":911,"江":912,"法":913,"洲":914,"海":915,"淫":916,"清":917,"漢":918,"爱":919,"片":920,"物":921,"王":922,"球":923,"理":924,"生":925,"用":926,"田":927,"电":928,"白":929,"的":930,"直":931,"相":932,"知":933,"石":934,"神":935,"禅":936,"种":937,"空":938,"站":939,"简":940,"管":941,"線":942,"网":943,"美":944,"而":945,"能":946,"自":947,"舞":948,"色":949,"艳":950,"茶":951,"行":952,"西":953,"要":954,"見":955,"见":956,"言":957,"語":958,"论":959,"语":960,"赌":961,"越":962,"路":963,"载":964,"迅":965,"过":966,"运":967,"这":968,"道":969,"都":970,"酒":971,"里":972,"重":973,"量":974,"金":975,"问":976,"雄":977,"雷":978,"青":979,"面":980,"音":981,"頂":982,"顶":983,"颖":984,"题":985,"風":986,"食":987,"馬":988,"高":989,"국":990,"년":991,"어":992,"이":993,"한":994,"":995,"":996,"":997,"":998,"﻿":999,"�":1000,"en":1001,"er":1002,"in":1003,"▁a":1004,"▁t":1005,"▁d":1006,"ch":1007,"es":1008,"on":1009,"▁th":1010,"un":1011,"it":1012,"is":1013,"▁s":1014,"▁w":1015,"at":1016,"ie":1017,"or":1018,"an":1019,"▁the":1020,"re":1021,"▁b":1022,"▁o":1023,"al":1024,"ar":1025,"▁in":1026,"▁f":1027,"ich":1028,"▁m":1029,"te":1030,"ion":1031,"▁e":1032,"▁an":1033,"ur":1034,"as":1035,"le":1036,"▁p":1037,"▁c":1038,"▁un":1039,"▁h":1040,"us":1041,"▁S":1042,"ent":1043,"ge":1044,"▁of":1045,"ro":1046,"▁n":1047,"▁v":1048,"ing":1049,"ung":1050,"▁and":1051,"▁to":1052,"▁A":1053,"ll":1054,"ed":1055,"▁die":1056,"om":1057,"▁der":1058,"▁und":1059,"▁E":1060,"▁I":1061,"ig":1062,"st":1063,"ic":1064,"▁be":1065,"▁M":1066,"▁is":1067,"▁D":1068,"▁T":1069,"▁ein":1070,"▁B":1071,"▁P":1072,"ir":1073,"▁z":1074,"im":1075,"▁g":1076,"el":1077,"ut":1078,"ra":1079,"ter":1080,"em":1081,"il":1082,"en,":1083,"▁W":1084,"et":1085,"ol":1086,"ation":1087,"der":1088,"eit":1089,"▁F":1090,"▁l":1091,"am":1092,"▁re":1093,"▁G":1094,"ten":1095,"hr":1096,"ies":1097,"um":1098,"op":1099,"▁K":1100,"ct":1101,"▁H":1102,"id":1103,"sch":1104,"▁R":1105,"ul":1106,"▁k":1107,"uf":1108,"▁C":1109,"ber":1110,"iv":1111,"en.":1112,"lich":1113,"▁V":1114,"▁for":1115,"ab":1116,"ot":1117,"ür":1118,"isch":1119,"icht":1120,"ier":1121,"end":1122,"▁Th":1123,"▁on":1124,"▁das":1125,"▁zu":1126,"▁L":1127,"and":1128,"ere":1129,"▁den":1130,"ly":1131,"est":1132,"ess":1133,"▁that":1134,"os":1135,"▁U":1136,"ce":1137,"omm":1138,"ein":1139,"ers":1140,"▁pro":1141,"▁al":1142,"ow":1143,"▁wh":1144,"ach":1145,"▁von":1146,"▁r":1147,"ort":1148,"▁ge":1149,"▁im":1150,"uch":1151,"ad":1152,"▁st":1153,"ith":1154,"▁y":1155,"▁In":1156,"▁wir":1157,"kt":1158,"▁N":1159,"if":1160,"▁con":1161,"ind":1162,"▁ist":1163,"gen":1164,"▁ver":1165,"▁er":1166,"ver":1167,"▁with":1168,"▁auf":1169,"▁we":1170,"▁für":1171,"urop":1172,"ay":1173,"ill":1174,"▁des":1175,"▁(":1176,"▁it":1177,"ve":1178,"▁mit":1179,"▁are":1180,"ts":1181,"▁Z":1182,"▁1":1183,"▁as":1184,"ck":1185,"▁so":1186,"▁-":1187,"▁de":1188,"den":1189,"▁The":1190,"de":1191,"▁ne":1192,"iss":1193,"▁yo":1194,"▁dies":1195,"▁St":1196,"af":1197,"▁Europ":1198,"pp":1199,"ate":1200,"ment":1201,"t,":1202,"ik":1203,"th":1204,"▁se":1205,"qu":1206,"ist":1207,"▁2":1208,"00":1209,"▁Un":1210,"e,":1211,"ag":1212,"ischen":1213,"ib":1214,"s,":1215,"▁Ver":1216,"▁als":1217,"ak":1218,"▁eine":1219,"ust":1220,"▁ex":1221,"t.":1222,"▁dem":1223,"for":1224,"ah":1225,"▁this":1226,"ity":1227,"▁O":1228,"ug":1229,"s.":1230,"▁ha":1231,"und":1232,"ial":1233,"▁An":1234,"▁Sie":1235,"ant":1236,"▁j":1237,"▁or":1238,"ann":1239,"▁nicht":1240,"▁J":1241,"▁wer":1242,"art":1243,"▁co":1244,"ungen":1245,"ne":1246,"▁not":1247,"ive":1248,"über":1249,"ste":1250,"pe":1251,"▁sich":1252,"än":1253,"▁all":1254,"▁le":1255,"ub":1256,"ff":1257,"ien":1258,"tel":1259,"la":1260,"▁Re":1261,"▁by":1262,"we":1263,"rom":1264,"▁have":1265,"ens":1266,"▁dass":1267,"igh":1268,"▁at":1269,"▁\"":1270,"▁es":1271,"ain":1272,"▁aus":1273,"ass":1274,"all":1275,"uld":1276,"ern":1277,"▁Die":1278,"▁you":1279,"▁sh":1280,"men":1281,"up":1282,"od":1283,"▁will":1284,"sp":1285,"▁ab":1286,"omp":1287,"iel":1288,"▁über":1289,"aus":1290,"▁uns":1291,"ure":1292,"nen":1293,"▁Pr":1294,"age":1295,"▁which":1296,"▁me":1297,"ission":1298,"ted":1299,"▁was":1300,"ze":1301,"ran":1302,"▁auch":1303,"▁Sch":1304,"lie":1305,"igen":1306,"▁from":1307,"ahr":1308,"hal":1309,"ard":1310,"ungs":1311,"du":1312,"och":1313,"▁um":1314,"e.":1315,"▁Be":1316,"ould":1317,"▁sind":1318,"▁sch":1319,"▁We":1320,"▁us":1321,"tern":1322,"..":1323,"tr":1324,"ommission":1325,"▁Pro":1326,"og":1327,"▁ch":1328,"▁i":1329,"ident":1330,"'s":1331,"▁pr":1332,"▁Europe":1333,"▁ent":1334,"▁vor":1335,"▁wird":1336,"▁En":1337,"fer":1338,"▁has":1339,"esch":1340,"▁hab":1341,"ang":1342,"schaf":1343,"iz":1344,"ip":1345,"ction":1346,"mer":1347,"port":1348,"enn":1349,"ön":1350,"▁wor":1351,"ition":1352,"ss":1353,"ud":1354,"gr":1355,"▁res":1356,"oc":1357,"ous":1358,"▁en":1359,"▁Er":1360,"ick":1361,"uss":1362,"ok":1363,"▁Par":1364,"▁wie":1365,"▁da":1366,"ische":1367,"ue":1368,"our":1369,"tz":1370,"▁he":1371,"urch":1372,"err":1373,"▁can":1374,"form":1375,"▁man":1376,"etz":1377,"able":1378,"▁am":1379,"ige":1380,"ft":1381,"ire":1382,"keit":1383,"▁hat":1384,"▁Ein":1385,"▁ich":1386,"▁sein":1387,"▁comp":1388,"ap":1389,"▁Ar":1390,"ost":1391,"ben":1392,"▁oder":1393,"ament":1394,"▁our":1395,"ast":1396,"ia":1397,"otel":1398,"cc":1399,"erv":1400,"▁zur":1401,"pr":1402,"▁also":1403,"beit":1404,"▁European":1405,"be":1406,"ise":1407,"me":1408,"▁sie":1409,"ome":1410,"▁Mit":1411,"ru":1412,"ational":1413,"ical":1414,"heit":1415,"ult":1416,"oll":1417,"▁ad":1418,"ish":1419,"▁Aus":1420,"ert":1421,"lo":1422,"es,":1423,"ated":1424,"ore":1425,"▁werden":1426,"ese":1427,"out":1428,"are":1429,"dern":1430,"▁einer":1431,"▁kön":1432,"ide":1433,"▁do":1434,"olit":1435,"rit":1436,"lichen":1437,"ine":1438,"he":1439,"ord":1440,"tell":1441,"hl":1442,"ther":1443,"▁Wir":1444,"▁200":1445,"▁Ge":1446,"ark":1447,"fü":1448,"▁unter":1449,"ect":1450,"es.":1451,"▁werd":1452,"ün":1453,"pt":1454,"her":1455,"▁Parl":1456,"ign":1457,"ät":1458,"▁nach":1459,"▁qu":1460,"ac":1461,"▁einen":1462,"är":1463,"▁Union":1464,"▁bei":1465,"▁your":1466,"hen":1467,"▁its":1468,"vel":1469,"▁part":1470,"oun":1471,"tra":1472,"▁te":1473,"▁Das":1474,"ear":1475,"ution":1476,"▁ag":1477,"▁reg":1478,"tw":1479,"ations":1480,"▁durch":1481,"▁gro":1482,"▁Fra":1483,"ank":1484,"ian":1485,"aten":1486,"au":1487,"ake":1488,"▁Ber":1489,"se":1490,"enden":1491,"schaft":1492,"yste":1493,"▁su":1494,"▁sp":1495,"▁but":1496,"ugh":1497,"ary":1498,"▁It":1499,"▁wur":1500,"ember":1501,"▁go":1502,"▁ro":1503,"glich":1504,"ger":1505,"▁Ab":1506,"cial":1507,"▁Ich":1508,"▁Vor":1509,"äs":1510,"▁there":1511,"lem":1512,"ice":1513,"▁Mr":1514,"ight":1515,"per":1516,"ute":1517,"▁3":1518,"con":1519,"▁app":1520,"▁Herr":1521,"ör":1522,"hre":1523,"anz":1524,"▁Commission":1525,"▁dar":1526,"▁EU":1527,"imm":1528,"▁tra":1529,"ual":1530,"▁war":1531,"rie":1532,"▁19":1533,"cl":1534,"ose":1535,"▁would":1536,"▁spe":1537,"▁mö":1538,"geb":1539,"ance":1540,"ail":1541,"▁zum":1542,"ov":1543,"▁their":1544,"ite":1545,"ile":1546,"reat":1547,"chte":1548,"erm":1549,"ystem":1550,"▁einem":1551,"cht":1552,"mp":1553,"hn":1554,"eren":1555,"▁gen":1556,"▁cont":1557,"▁bes":1558,"liche":1559,"ild":1560,"ram":1561,"y,":1562,"▁been":1563,"uß":1564,"chn":1565,"▁Al":1566,"ong":1567,"leg":1568,"▁more":1569,"▁Europä":1570,"▁ar":1571,"ktion":1572,"utz":1573,"▁Te":1574,"▁kann":1575,"▁This":1576,"ück":1577,"ack":1578,"▁De":1579,"act":1580,"▁diese":1581,"üss":1582,"▁Le":1583,"▁acc":1584,"▁nur":1585,"▁dis":1586,"oss":1587,"▁comm":1588,"▁coun":1589,"▁Ch":1590,"▁Unter":1591,"ates":1592,"▁Sp":1593,"ont":1594,"wer":1595,"ob":1596,"▁Auf":1597,"▁should":1598,"▁Gr":1599,"▁pl":1600,"ame":1601,"▁bet":1602,"ahl":1603,"▁Hotel":1604,"▁work":1605,"▁.":1606,"ierung":1607,"▁one":1608,"▁haben":1609,"▁tim":1610,"land":1611,"lic":1612,"elt":1613,"▁new":1614,"y.":1615,"▁Der":1616,"▁,":1617,"sten":1618,"er,":1619,"ende":1620,"▁up":1621,"äsident":1622,"▁cl":1623,"ges":1624,"eine":1625,"▁Se":1626,"auf":1627,"iert":1628,"zu":1629,"▁soll":1630,"gan":1631,"▁For":1632,"ike":1633,"▁Jahr":1634,"▁out":1635,"▁dieser":1636,"▁ob":1637,"av":1638,"igkeit":1639,"che":1640,"▁Pres":1641,"ase":1642,"▁Kommission":1643,"to":1644,"ld":1645,"▁jed":1646,"a,":1647,"ähr":1648,"reich":1649,"▁pre":1650,"▁countr":1651,"gram":1652,"▁Dies":1653,"▁ind":1654,"▁very":1655,"bar":1656,"▁Es":1657,"▁per":1658,"ree":1659,"▁inter":1660,"▁zw":1661,"▁who":1662,"▁other":1663,"▁daß":1664,"▁noch":1665,"neh":1666,"▁produ":1667,"ities":1668,"▁must":1669,"formation":1670,"ner":1671,"▁ihr":1672,"ten.":1673,"ink":1674,"one":1675,"▁ev":1676,"▁ste":1677,"▁pe":1678,"▁they":1679,"▁weit":1680,"dition":1681,"▁need":1682,"▁off":1683,"...":1684,"gel":1685,"tet":1686,"pro":1687,"pl":1688,"▁wurde":1689,"wo":1690,"ient":1691,"rat":1692,"▁werden.":1693,"llen":1694,"▁no":1695,"▁ber":1696,"ons":1697,"enz":1698,"▁mehr":1699,"ions":1700,"▁intern":1701,"▁only":1702,"▁year":1703,"▁fe":1704,"▁President":1705,"▁bec":1706,"▁supp":1707,"▁cons":1708,"▁Präsident":1709,"ement":1710,"▁str":1711,"▁aber":1712,"mit":1713,"olog":1714,"▁find":1715,"ade":1716,"▁Um":1717,"glie":1718,"oin":1719,"▁5":1720,"ely":1721,"lin":1722,"▁wenn":1723,"▁about":1724,"▁like":1725,"▁polit":1726,"teil":1727,"schl":1728,"ke":1729,").":1730,"▁4":1731,"pos":1732,"▁könn":1733,"ible":1734,"ater":1735,"ence":1736,"entr":1737,"chen":1738,"▁any":1739,"ht":1740,"ious":1741,"▁müss":1742,"ced":1743,"▁Y":1744,"leich":1745,"▁sehr":1746,"▁prov":1747,"ange":1748,"▁ges":1749,"▁Reg":1750,"velop":1751,"gt":1752,"▁tran":1753,"ung,":1754,"alt":1755,"ally":1756,"wend":1757,"▁unser":1758,"nah":1759,"blem":1760,"▁eff":1761,"cess":1762,"amp":1763,"fe":1764,"olle":1765,"ject":1766,"▁alle":1767,"▁sow":1768,"ied":1769,"iament":1770,"▁ra":1771,"ütz":1772,"arbeit":1773,"▁Arbeit":1774,"onder":1775,"▁fin":1776,"▁Parlament":1777,"ring":1778,"ism":1779,"▁können":1780,"▁rec":1781,"▁these":1782,"▁serv":1783,"▁sol":1784,"led":1785,"ommen":1786,"▁Mitglie":1787,"io":1788,"▁dire":1789,"usam":1790,"führ":1791,"ular":1792,"atz":1793,"▁Member":1794,"▁vie":1795,"own":1796,"fahr":1797,"erson":1798,"▁hin":1799,"ph":1800,"ility":1801,"te,":1802,"▁import":1803,"ichtig":1804,"xt":1805,"▁diesem":1806,"a.":1807,"stit":1808,"äl":1809,"▁Men":1810,"▁So":1811,"schen":1812,"ider":1813,"irst":1814,"ople":1815,"sta":1816,"ings":1817,"▁gegen":1818,"▁if":1819,"ing,":1820,"änd":1821,"▁develop":1822,"▁tr":1823,"fl":1824,"▁wel":1825,"▁such":1826,"fol":1827,"▁report":1828,"▁ihre":1829,"ook":1830,"ing.":1831,"ors":1832,"wn":1833,"▁Europäischen":1834,"rag":1835,"fen":1836,"ieren":1837,"▁gr":1838,"ität":1839,"▁them":1840,"▁pol":1841,"ces":1842,"uen":1843,"ments":1844,"▁bis":1845,"▁sub":1846,"▁la":1847,"ateg":1848,"ause":1849,"usammen":1850,"▁ins":1851,"sche":1852,"ific":1853,"▁rel":1854,"▁my":1855,"▁Parliament":1856,"hnen":1857,"▁Zeit":1858,"▁over":1859,"itu":1860,"▁Ma":1861,"▁20":1862,"▁ist,":1863,"▁into":1864,"▁people":1865,"ließ":1866,"▁were":1867,"▁gew":1868,"▁Ne":1869,"),":1870,"▁well":1871,"str":1872,"ans":1873,"iven":1874,"cre":1875,"▁gem":1876,"▁best":1877,"▁Ü":1878,"▁international":1879,"mal":1880,"erg":1881,"▁As":1882,"esent":1883,"▁viel":1884,"▁some":1885,"-S":1886,"ative":1887,"▁com":1888,"inn":1889,"▁möchte":1890,"halt":1891,"▁system":1892,"▁what":1893,"ene":1894,"lung":1895,"cil":1896,"icher":1897,"▁inv":1898,"▁Mitglied":1899,"conom":1900,"▁President,":1901,"▁Mar":1902,"▁act":1903,"ühr":1904,"ument":1905,"▁dif":1906,"bs":1907,"▁hier":1908,"▁mark":1909,"▁Or":1910,"arge":1911,"▁high":1912,"atur":1913,"fr":1914,"rei":1915,"hand":1916,"fore":1917,"▁Coun":1918,"▁eines":1919,"uropä":1920,"▁Im":1921,"ention":1922,"▁Über":1923,"▁hotel":1924,"▁kn":1925,"ou":1926,"iger":1927,"▁her":1928,"▁bed":1929,"ull":1930,"▁countries":1931,"▁first":1932,"kte":1933,"▁loc":1934,"▁than":1935,"wor":1936,"▁incl":1937,"▁use":1938,"▁vom":1939,"▁most":1940,"olitik":1941,"very":1942,"iet":1943,"▁Me":1944,"zeit":1945,"ks":1946,"▁hel":1947,"▁Nach":1948,"äch":1949,"▁dec":1950,"sel":1951,"▁his":1952,"▁Q":1953,"▁lie":1954,"ays":1955,"▁groß":1956,"▁partic":1957,"amen":1958,"öglich":1959,"ale":1960,"▁müssen":1961,"▁vers":1962,"ace":1963,"▁under":1964,"▁when":1965,"ed.":1966,"ation,":1967,"▁polic":1968,"rough":1969,"stand":1970,"▁werden,":1971,"itz":1972,"rech":1973,"▁time":1974,"pect":1975,"▁Council":1976,"▁Kon":1977,"itte":1978,"ation.":1979,"▁just":1980,"▁Entw":1981,"hm":1982,"unden":1983,"▁sowie":1984,"▁dam":1985,"▁bas":1986,"kl":1987,"▁leg":1988,"▁now":1989,"▁He":1990,"▁again":1991,"▁europä":1992,"▁Land":1993,"▁support":1994,"ett":1995,"änder":1996,"ibt":1997,"stell":1998,"tre":1999,"▁aut":2000,"▁mach":2001,"▁gu":2002,"▁Bericht":2003,"ights":2004,"▁dieses":2005,"▁Fl":2006,"▁Ihr":2007,"etzt":2008,"ween":2009,"ond":2010,"▁make":2011,"stitution":2012,"▁Pl":2013,"▁econom":2014,"▁how":2015,"▁room":2016,"stütz":2017,"▁pla":2018,"▁Rat":2019,"▁wo":2020,"▁many":2021,"ry":2022,"▁between":2023,"je":2024,"▁Comm":2025,"arm":2026,"▁ass":2027,"▁propos":2028,"oth":2029,"▁fre":2030,"▁6":2031,"▁requ":2032,"halb":2033,"▁mo":2034,"gramm":2035,"▁fr":2036,"fter":2037,"abe":2038,"▁techn":2039,"ating":2040,"▁poss":2041,"cy":2042,"▁par":2043,"urs":2044,"▁zwischen":2045,"ös":2046,"ware":2047,"▁Bed":2048,"▁Verb":2049,"bst":2050,"wir":2051,"▁bereit":2052,"▁imp":2053,"zie":2054,"▁kon":2055,"▁Entwick":2056,"▁world":2057,"off":2058,"ublic":2059,"▁market":2060,"ister":2061,"▁pos":2062,"▁take":2063,"ful":2064,"uer":2065,"red":2066,"▁Mitgliedsta":2067,"▁Menschen":2068,"▁important":2069,"▁Ent":2070,"dr":2071,"ever":2072,"isten":2073,"cted":2074,"▁fo":2075,"zial":2076,"eschä":2077,"▁because":2078,"▁Intern":2079,"▁ist.":2080,"▁sel":2081,"lear":2082,"att":2083,"ath":2084,"▁son":2085,"hör":2086,"▁op":2087,"▁unsere":2088,"▁national":2089,"itä":2090,"atter":2091,"▁All":2092,"ward":2093,"▁min":2094,"▁good":2095,"▁where":2096,"ality":2097,"ision":2098,"ly,":2099,"▁keine":2100,"▁Ges":2101,"▁verb":2102,"▁hand":2103,"▁Ihre":2104,"▁great":2105,"▁rem":2106,"o,":2107,"dem":2108,"vern":2109,"nis":2110,"ed,":2111,"▁US":2112,"▁two":2113,"▁av":2114,"▁information":2115,"▁mein":2116,"ough":2117,"▁Min":2118,"ote":2119,"ory":2120,"▁emp":2121,"▁Produ":2122,"als":2123,"rauch":2124,"ict":2125,"ax":2126,"ho":2127,"urn":2128,"rä":2129,"ium":2130,"▁every":2131,"▁poin":2132,"trag":2133,"net":2134,"öff":2135,"▁einz":2136,"▁way":2137,"▁had":2138,"▁ele":2139,"ages":2140,"▁Grund":2141,"▁conc":2142,"lish":2143,"▁end":2144,"tschaft":2145,"min":2146,"ices":2147,"▁bie":2148,"amil":2149,"rol":2150,"ats":2151,"▁problem":2152,"▁even":2153,"ession":2154,"ures":2155,"▁through":2156,"laub":2157,"aff":2158,"fort":2159,"▁If":2160,"ung.":2161,"▁iss":2162,"er.":2163,"aut":2164,"▁199":2165,"▁Ä":2166,"▁[":2167,"air":2168,"▁those":2169,"les":2170,"▁get":2171,"▁sa":2172,"forder":2173,"els":2174,"setz":2175,"iden":2176,"uring":2177,"assen":2178,"▁Art":2179,"▁product":2180,"▁anderen":2181,"▁ange":2182,"▁sc":2183,"ount":2184,"ereich":2185,"▁7":2186,"▁Fin":2187,"cept":2188,"▁Am":2189,"▁bef":2190,"ußer":2191,"halten":2192,"▁tak":2193,"immer":2194,"day":2195,"unkt":2196,"▁Ihnen":2197,"▁immer":2198,"ischer":2199,"erein":2200,"▁order":2201,"▁Fr":2202,"▁may":2203,"urr":2204,"▁Zusammen":2205,"uman":2206,"▁made":2207,"▁see":2208,"▁Seit":2209,"▁beg":2210,"▁form":2211,"lick":2212,"igung":2213,"▁wird.":2214,"▁Wenn":2215,"▁disc":2216,"▁Frau":2217,"essen":2218,"rif":2219,"ues":2220,"ital":2221,"▁dann":2222,"ganis":2223,"▁Ex":2224,"▁10":2225,"▁8":2226,"schie":2227,"▁view":2228,"▁ac":2229,"▁know":2230,"unity":2231,"spr":2232,"▁States":2233,"ivers":2234,"▁gibt":2235,"com":2236,"▁being":2237,"▁direct":2238,"▁num":2239,"erman":2240,"▁Haus":2241,"▁Bes":2242,"ited":2243,"▁rest":2244,"▁fact":2245,"▁ke":2246,"▁There":2247,"▁weiter":2248,"ior":2249,"weise":2250,"▁Wh":2251,"ives":2252,"▁'":2253,"schließ":2254,"▁belie":2255,"▁particular":2256,"▁appro":2257,"▁wieder":2258,"▁cent":2259,"istr":2260,"000":2261,"▁damit":2262,"▁differ":2263,"▁diesen":2264,"ustr":2265,"ys":2266,"itt":2267,"gest":2268,"▁car":2269,"ster":2270,"▁Man":2271,"hne":2272,"sicht":2273,"▁zwe":2274,"▁trans":2275,"▁ger":2276,"▁includ":2277,"▁own":2278,"vor":2279,"lex":2280,"▁On":2281,"▁Bereich":2282,"▁ganz":2283,"te.":2284,"tens":2285,"bal":2286,"aur":2287,"▁Gro":2288,"▁beste":2289,"▁process":2290,"folg":2291,"erk":2292,"icherheit":2293,"▁def":2294,"▁...":2295,"eins":2296,"▁resp":2297,"eln":2298,"fach":2299,"le,":2300,"iness":2301,"▁Des":2302,"▁del":2303,"ultur":2304,"read":2305,"nehmen":2306,"▁mon":2307,"alk":2308,"ever,":2309,"▁Komm":2310,"10":2311,"zeich":2312,"▁geb":2313,"▁Con":2314,"old":2315,"öß":2316,"ändern":2317,"▁Diese":2318,"▁right":2319,"▁bus":2320,"▁agre":2321,"hen,":2322,"-P":2323,"▁gesch":2324,"alls":2325,"▁Mitgliedstaaten":2326,"▁At":2327,"▁Europa":2328,"part":2329,"▁quest":2330,"az":2331,"▁mus":2332,"▁main":2333,"▁wichtig":2334,"▁exp":2335,"▁kein":2336,"▁ph":2337,"▁bu":2338,"▁Hand":2339,"▁muss":2340,"ält":2341,"▁unserer":2342,"hin":2343,"▁stand":2344,"issen":2345,"ool":2346,"eth":2347,"eld":2348,"▁Geb":2349,"▁situ":2350,"▁real":2351,"▁haben,":2352,"oy":2353,"▁compan":2354,"igt":2355,"▁9":2356,"round":2357,"ower":2358,"ix":2359,"▁help":2360,"▁here":2361,"▁sm":2362,"schafts":2363,"illion":2364,"kommen":2365,"▁sondern":2366,"▁Zu":2367,"ßnah":2368,"piel":2369,"org":2370,"▁You":2371,"▁Gem":2372,"▁deb":2373,"▁after":2374,"▁Inter":2375,"▁seine":2376,"nung":2377,"▁jedoch":2378,"▁political":2379,"ents":2380,"eng":2381,"ktiv":2382,"ince":2383,"tegr":2384,"-M":2385,"▁Europäische":2386,"acht":2387,"ruck":2388,"▁ausge":2389,"▁public":2390,"▁place":2391,"▁ide":2392,"▁gut":2393,"▁Information":2394,"▁incre":2395,"▁concern":2396,"gesch":2397,"ows":2398,"mittel":2399,"▁prote":2400,"▁possible":2401,"▁Br":2402,"w.":2403,"elle":2404,"▁person":2405,"▁cre":2406,"▁Bar":2407,"▁Bür":2408,"▁region":2409,"reis":2410,"äng":2411,"▁sim":2412,"▁Schl":2413,"schieden":2414,"isse":2415,"iron":2416,"▁clear":2417,"▁etw":2418,"▁wür":2419,"▁wird,":2420,"▁ser":2421,"▁human":2422,"eral":2423,"▁say":2424,"öglichkeit":2425,"ieren.":2426,"ätz":2427,"▁could":2428,"eration":2429,"▁development":2430,"▁bring":2431,"▁dr":2432,"▁sind,":2433,"▁Ind":2434,"▁heute":2435,"isk":2436,"lement":2437,"weit":2438,"nder":2439,"i,":2440,"▁number":2441,"scheid":2442,"▁contin":2443,"▁Vorschl":2444,"▁same":2445,"füg":2446,"bens":2447,"▁offer":2448,"yp":2449,"▁neue":2450,"▁economic":2451,"▁curr":2452,"▁gleich":2453,"▁est":2454,"-B":2455,"fern":2456,"▁Teil":2457,"aj":2458,"▁opp":2459,"▁Sta":2460,"ertain":2461,"▁within":2462,"▁effect":2463,"▁stat":2464,"nehm":2465,"get":2466,"iß":2467,"▁wen":2468,"▁Str":2469,"▁Her":2470,"▁rights":2471,"ken":2472,"▁komm":2473,"ants":2474,"hen.":2475,"satz":2476,"zeug":2477,"ven":2478,"iti":2479,"▁Änder":2480,"▁fest":2481,"▁want":2482,"▁sind.":2483,"▁Fran":2484,"entlich":2485,"▁does":2486,"innen":2487,"kehr":2488,"▁stell":2489,"▁avail":2490,"▁Fre":2491,"▁transp":2492,"▁15":2493,"▁selbst":2494,"▁against":2495,"ina":2496,"▁bereits":2497,"upt":2498,"ähl":2499,"▁much":2500,"hip":2501,"▁mich":2502,"▁fund":2503,"▁val":2504,"way":2505,"▁both":2506,"ivid":2507,"▁dat":2508,"▁lang":2509,"▁Bet":2510,"adt":2511,"work":2512,"lage":2513,"ander":2514,"▁vis":2515,"weis":2516,"o.":2517,"entral":2518,"▁prof":2519,"▁How":2520,"-A":2521,"in,":2522,"ichte":2523,"ock":2524,"▁können.":2525,"ierte":2526,"▁ihrer":2527,"lobal":2528,"▁fun":2529,"▁sur":2530,"stru":2531,"▁level":2532,"▁möglich":2533,"▁var":2534,"▁Ha":2535,"ler":2536,"▁führ":2537,"▁sign":2538,"ständ":2539,"▁hist":2540,"ep":2541,"loy":2542,"▁Is":2543,"viron":2544,"äre":2545,"▁equ":2546,"bes":2547,"ftware":2548,"▁med":2549,"ustom":2550,"▁Hin":2551,"▁europäischen":2552,"ator":2553,"et.":2554,"▁ohne":2555,"▁Wie":2556,"▁pra":2557,"▁nat":2558,"▁Eur":2559,"▁bek":2560,"▁provid":2561,"▁Vers":2562,"▁conf":2563,"▁play":2564,"chts":2565,"iff":2566,"ux":2567,"▁full":2568,"▁regard":2569,"▁andere":2570,"br":2571,"agement":2572,"▁social":2573,"▁Richt":2574,"▁neuen":2575,"▁cr":2576,"▁German":2577,"▁Welt":2578,"vironment":2579,"over":2580,"erung":2581,"▁bre":2582,"pf":2583,"legen":2584,"urg":2585,"par":2586,"▁different":2587,"▁Entwicklung":2588,"▁Kl":2589,"▁denn":2590,"▁zwei":2591,"▁think":2592,"▁finan":2593,"▁exper":2594,"▁group":2595,"▁without":2596,"▁letz":2597,"irm":2598,"▁still":2599,"wick":2600,"ouse":2601,"▁18":2602,"ierten":2603,"ha":2604,"▁years":2605,"eut":2606,"▁eigen":2607,"▁meas":2608,"▁Präsident,":2609,"mb":2610,"▁ens":2611,"under":2612,"wort":2613,"cur":2614,"raft":2615,"▁Mon":2616,"▁Sicherheit":2617,"▁12":2618,"▁oper":2619,"▁consider":2620,"gar":2621,"ently":2622,"▁adv":2623,"-s":2624,"▁Frage":2625,"▁long":2626,"olution":2627,"▁then":2628,"ctions":2629,"▁Mus":2630,"▁Gen":2631,"fass":2632,"iqu":2633,"▁access":2634,"ctor":2635,"▁gemeins":2636,"▁used":2637,"▁bo":2638,"▁priv":2639,"▁mod":2640,"▁Fe":2641,"hor":2642,"▁opt":2643,"line":2644,"▁last":2645,"▁Ste":2646,"ists":2647,"▁Part":2648,"äß":2649,"▁policy":2650,"ohl":2651,"▁woll":2652,"▁term":2653,"▁mak":2654,"▁spec":2655,"licher":2656,"ollow":2657,"▁fl":2658,"ER":2659,"▁verschieden":2660,"▁ers":2661,"ährend":2662,"ßnahmen":2663,"ness":2664,"▁Person":2665,"▁gel":2666,"▁prin":2667,"▁down":2668,"▁habe":2669,"osten":2670,"▁govern":2671,"▁att":2672,"alen":2673,"▁set":2674,"▁denen":2675,"▁unterstütz":2676,"▁agreement":2677,"▁available":2678,"▁cap":2679,"▁Bürger":2680,"▁require":2681,"cond":2682,"ungen,":2683,"▁back":2684,"ime":2685,"uture":2686,"ondere":2687,"ved":2688,"hol":2689,"ibility":2690,"▁interest":2691,"ude":2692,"tend":2693,"ieren,":2694,"▁able":2695,"▁kle":2696,"rach":2697,"wert":2698,"▁Jahren":2699,"▁Kont":2700,"urther":2701,"zahl":2702,"ability":2703,"▁special":2704,"▁business":2705,"ines":2706,"alth":2707,"▁dazu":2708,"yn":2709,"gem":2710,"▁Stat":2711,"ience":2712,"▁einfach":2713,"vers":2714,"ize":2715,"fic":2716,"ünd":2717,"ically":2718,"ienst":2719,"kun":2720,"ten,":2721,"▁Dem":2722,"▁small":2723,"richt":2724,"▁Mittel":2725,"äh":2726,"▁look":2727,"ers,":2728,"afür":2729,"ispiel":2730,"▁question":2731,"tem":2732,"▁Tra":2733,"ting":2734,"▁cor":2735,"▁custom":2736,"▁weil":2737,"▁ben":2738,"ready":2739,"▁Aut":2740,"▁day":2741,"▁gest":2742,"▁future":2743,"▁haben.":2744,"zus":2745,"▁believe":2746,"ktur":2747,"res":2748,"itor":2749,"▁ze":2750,"ters":2751,"▁air":2752,"iver":2753,"▁som":2754,"▁aller":2755,"▁therefore":2756,"▁Stand":2757,"-F":2758,"ante":2759,"war":2760,"ulation":2761,"ason":2762,"▁respons":2763,"zug":2764,"ahre":2765,"▁free":2766,"▁viele":2767,"akt":2768,"▁allen":2769,"orte":2770,"ell":2771,"▁seiner":2772,"]]":2773,"ers.":2774,"▁already":2775,"▁today":2776,"▁darauf":2777,"▁That":2778,"ittee":2779,"▁environment":2780,"ron":2781,"▁design":2782,"esell":2783,"ismus":2784,"▁hat,":2785,"▁Möglichkeit":2786,"▁voll":2787,"üh":2788,"▁But":2789,"et,":2790,"▁Ziel":2791,"let":2792,"▁inst":2793,"▁project":2794,"ritt":2795,"▁cann":2796,"▁compet":2797,"▁größ":2798,"▁Them":2799,"▁et":2800,"▁Finanz":2801,"▁Daten":2802,"▁eing":2803,"▁pres":2804,"ope":2805,"▁0":2806,"▁Rah":2807,"▁Region":2808,"▁To":2809,"imin":2810,"▁proposal":2811,"itiz":2812,"▁sag":2813,"its":2814,"amm":2815,"▁Lage":2816,"▁cannot":2817,"ving":2818,"▁fac":2819,"ws":2820,"cr":2821,"▁bietet":2822,"▁certain":2823,"okrat":2824,"curity":2825,"▁pers":2826,"▁area":2827,"esse":2828,"▁eas":2829,"▁follow":2830,"▁Problem":2831,"▁prev":2832,"öl":2833,"▁open":2834,"other":2835,"▁ach":2836,"los":2837,"▁schon":2838,"geben":2839,"aterial":2840,"▁Med":2841,"▁mir":2842,"mar":2843,"▁before":2844,"▁int":2845,"lä":2846,"raph":2847,"ationen":2848,"▁redu":2849,"▁seit":2850,"▁And":2851,"▁repr":2852,"▁kl":2853,"▁individ":2854,"▁Mein":2855,"▁befind":2856,"▁jetzt":2857,"▁present":2858,"leist":2859,"▁neg":2860,"▁Verein":2861,"aher":2862,"▁Ro":2863,"▁System":2864,"fra":2865,"ahn":2866,"orn":2867,"une":2868,"▁lif":2869,"▁einige":2870,"▁Rechts":2871,"▁hal":2872,"olid":2873,"▁dafür":2874,"▁Energ":2875,"klär":2876,"▁[[":2877,"▁word":2878,"▁put":2879,"▁&":2880,"ased":2881,"ble":2882,"▁impro":2883,"nahme":2884,"lagen":2885,"tain":2886,"ird":2887,"▁Gemein":2888,"EN":2889,"▁Herrn":2890,"ungsant":2891,"▁point":2892,"ential":2893,"▁Tran":2894,"isierung":2895,"ccess":2896,"fahren":2897,"ulture":2898,"reib":2899,"iber":2900,"▁Pol":2901,"▁Russ":2902,"▁integr":2903,"ajor":2904,"▁ple":2905,"ilit":2906,"ified":2907,"▁Rahmen":2908,"eich":2909,"▁financial":2910,"▁Kommiss":2911,"▁city":2912,"▁change":2913,"▁meet":2914,"welt":2915,"▁histor":2916,"ies.":2917,"▁Amer":2918,"▁öff":2919,"ies,":2920,"▁activ":2921,"grund":2922,"▁during":2923,"▁je":2924,"press":2925,"ode":2926,"▁pass":2927,"ised":2928,"▁rev":2929,"▁Zimmer":2930,"▁offers":2931,"▁institution":2932,"▁citiz":2933,"▁allem":2934,"▁invest":2935,"iert.":2936,"▁zurück":2937,"äm":2938,"komm":2939,"▁ihren":2940,"ppen":2941,"▁comple":2942,"ove":2943,"▁gef":2944,"▁prom":2945,"▁position":2946,"▁fol":2947,"▁Serv":2948,"▁said":2949,"▁deut":2950,"ichter":2951,"▁Jahre":2952,"raf":2953,"ia,":2954,"iving":2955,"20":2956,"ather":2957,"▁global":2958,"▁nun":2959,"▁large":2960,"▁modern":2961,"200":2962,"▁Uns":2963,"▁achie":2964,"▁2009":2965,"▁energ":2966,"-c":2967,"aben":2968,"▁ref":2969,"▁saf":2970,"▁el":2971,"▁Kommissar":2972,"▁examp":2973,"▁liegt":2974,"▁ask":2975,"aum":2976,"ics":2977,"▁Bei":2978,"▁Ö":2979,"▁Wor":2980,"abei":2981,"▁quality":2982,"ilt":2983,"nov":2984,"▁applic":2985,"▁major":2986,"▁Aussch":2987,"▁hat.":2988,"punkt":2989,"▁member":2990,"▁cour":2991,"▁cost":2992,"▁Internet":2993,"halts":2994,"▁famil":2995,"antwort":2996,"gress":2997,"▁entsp":2998,"▁cas":2999,"ins":3000,"ativ":3001,"▁Für":3002,"▁program":3003,"▁since":3004,"▁besch":3005,"▁besonder":3006,"ek":3007,"lichkeit":3008,"▁strateg":3009,"reit":3010,"▁debate":3011,"gend":3012,"iend":3013,"▁necess":3014,"ern,":3015,"▁condition":3016,"unter":3017,"▁Als":3018,"ether":3019,"▁art":3020,"▁far":3021,"▁Go":3022,"▁Ad":3023,"▁eng":3024,"nisse":3025,"isl":3026,"▁unseren":3027,"▁Kin":3028,"asch":3029,"besondere":3030,"▁Pal":3031,"▁Gew":3032,"itive":3033,"▁coop":3034,"come":3035,"gang":3036,"▁technolog":3037,"▁Eine":3038,"gestell":3039,"ilities":3040,"vention":3041,"▁Sh":3042,"omat":3043,"▁child":3044,"▁Our":3045,"▁amend":3046,"▁contr":3047,"▁wurden":3048,"▁common":3049,"▁würde":3050,"▁With":3051,"▁Maßnahmen":3052,"▁Spe":3053,"▁Best":3054,"▁each":3055,"-T":3056,"▁adop":3057,"anc":3058,"▁Unternehmen":3059,"▁bin":3060,"ßen":3061,"ield":3062,"amer":3063,"▁che":3064,"▁sollte":3065,"ärk":3066,"▁matter":3067,"haf":3068,"eschäft":3069,"▁Form":3070,"▁meine":3071,"▁Gesch":3072,"ually":3073,"▁sollten":3074,"▁Informationen":3075,"tig":3076,"▁Ph":3077,"▁solution":3078,"▁Ger":3079,"▁Eng":3080,"▁standard":3081,"▁Arbeits":3082,"-R":3083,"▁means":3084,"▁Politik":3085,"omen":3086,"▁data":3087,"▁Bo":3088,"▁author":3089,"▁including":3090,"▁stay":3091,"opp":3092,"▁30":3093,"ipp":3094,"▁während":3095,"▁bud":3096,"ret":3097,"gew":3098,"zen":3099,"-D":3100,"schied":3101,"▁etwas":3102,"loss":3103,"▁allow":3104,"-K":3105,"▁Ur":3106,"cip":3107,"ablish":3108,"▁country":3109,"▁However,":3110,"ways":3111,"an,":3112,"▁found":3113,"▁Wer":3114,"iele":3115,"▁/":3116,"▁areas":3117,"▁Und":3118,"▁Vorschlag":3119,"▁respect":3120,"▁fra":3121,"orth":3122,"▁Bild":3123,"▁colle":3124,"▁doch":3125,"▁stud":3126,"ffen":3127,"▁sozial":3128,"▁Res":3129,"hält":3130,"▁three":3131,"häng":3132,"ders":3133,"bed":3134,"▁give":3135,"strument":3136,"▁einge":3137,"▁democ":3138,"▁rece":3139,"1.":3140,"▁ensure":3141,"▁sein,":3142,"ves":3143,"linie":3144,"ürlich":3145,"uge":3146,"ily":3147,"al,":3148,"▁erm":3149,"▁next":3150,"ized":3151,"▁addition":3152,"▁further":3153,"▁tradition":3154,"fang":3155,"▁few":3156,"▁thank":3157,"▁tun":3158,"▁discuss":3159,"▁Länder":3160,"In":3161,"▁object":3162,"stimm":3163,"▁Deut":3164,"gleich":3165,"▁imm":3166,"▁build":3167,"▁success":3168,"▁fil":3169,"▁Bl":3170,"inen":3171,"▁organis":3172,"▁cal":3173,"▁Unterstütz":3174,"▁Durch":3175,"▁second":3176,"▁control":3177,"of":3178,"▁Fall":3179,"▁provide":3180,"gre":3181,"▁services":3182,"iate":3183,"ion,":3184,"zept":3185,"▁ander":3186,"unde":3187,"eschäf":3188,"▁Lös":3189,"▁Committee":3190,"▁gar":3191,"ohn":3192,"weg":3193,"▁einmal":3194,"▁|":3195,"▁Stadt":3196,"on,":3197,"elf":3198,"▁insbesondere":3199,"zieh":3200,"ziel":3201,"▁pay":3202,"▁det":3203,"▁War":3204,"▁employ":3205,"▁(1":3206,"▁Qual":3207,"setzung":3208,"lungs":3209,"▁Qu":3210,"trä":3211,"▁link":3212,"por":3213,"chten":3214,"▁star":3215,"▁establish":3216,"▁grow":3217,"▁außer":3218,"▁du":3219,"orm":3220,"▁Rest":3221,"▁verl":3222,"▁read":3223,"▁bestimm":3224,"▁Verfüg":3225,"▁abs":3226,"ule":3227,"ried":3228,"ash":3229,"▁Ital":3230,"▁Techn":3231,"▁Zug":3232,"kunft":3233,"jekt":3234,"▁ear":3235,"▁wirk":3236,"▁Komp":3237,"▁Group":3238,"ining":3239,"▁that,":3240,"▁beim":3241,"utes":3242,"▁em":3243,"▁service":3244,"-m":3245,"▁pop":3246,"falls":3247,"▁opport":3248,"▁inde":3249,"▁sk":3250,"▁Markt":3251,"igin":3252,"ren":3253,"-E":3254,"▁finden":3255,"▁ersten":3256,"▁shall":3257,"pend":3258,"▁Schw":3259,"▁25":3260,"▁ho":3261,"▁erreich":3262,"▁Zusammenarbeit":3263,"▁necessary":3264,"ma":3265,"unic":3266,"▁did":3267,"ultural":3268,"▁schw":3269,"▁Programm":3270,"politik":3271,"▁14":3272,"ien,":3273,"▁add":3274,"▁terr":3275,"▁Webs":3276,"ordin":3277,"▁princip":3278,"▁bl":3279,"ruct":3280,"'t":3281,"▁begr":3282,"▁drei":3283,"▁vo":3284,"▁action":3285,"▁zusammen":3286,"▁legisl":3287,"▁ä":3288,"▁X":3289,"▁Tag":3290,"▁security":3291,"▁pract":3292,"▁Spiel":3293,"tschafts":3294,"▁Cl":3295,"bau":3296,"▁taken":3297,"▁Mad":3298,"▁simp":3299,"▁invol":3300,"AT":3301,"igen,":3302,"▁erst":3303,"bo":3304,"▁health":3305,"ald":3306,"▁ret":3307,"örder":3308,"▁key":3309,"▁Änderungsant":3310,"ross":3311,"dress":3312,"äd":3313,"▁entwick":3314,"▁kann.":3315,"▁lead":3316,"enk":3317,"▁char":3318,"ordnung":3319,"burg":3320,"stellung":3321,"AN":3322,"bewer":3323,"iste":3324,"atte":3325,"ht,":3326,"ared":3327,"▁while":3328,"▁Tr":3329,"▁inform":3330,"esser":3331,"▁bro":3332,"urz":3333,"▁wirtschaft":3334,"gether":3335,"nell":3336,"lect":3337,"▁Dienst":3338,"ichts":3339,"▁sicher":3340,"▁reason":3341,"▁16":3342,"cing":3343,"zess":3344,"▁ir":3345,"rodu":3346,"▁located":3347,"tes":3348,"▁situation":3349,"▁wish":3350,"rache":3351,"ktionen":3352,"▁Deb":3353,"joy":3354,"▁represent":3355,"▁Namen":3356,"▁power":3357,"rop":3358,"▁Da":3359,"▁protection":3360,"▁given":3361,"gangen":3362,"arch":3363,"leit":3364,"heiten":3365,"ES":3366,"IN":3367,"▁implement":3368,"▁Comp":3369,"▁Euro":3370,"▁come":3371,"schrif":3372,"ands":3373,"▁and,":3374,"▁Parlaments":3375,"earch":3376,"iation":3377,"▁refer":3378,"▁Ländern":3379,"▁Regierung":3380,"▁br":3381,"▁products":3382,"▁Sw":3383,"osition":3384,"▁writ":3385,"▁seinen":3386,"ests":3387,"▁Geschäf":3388,"▁Vol":3389,"rad":3390,"▁Rom":3391,"▁17":3392,"ains":3393,"ktor":3394,"kten":3395,"▁können,":3396,"ilfe":3397,"▁bar":3398,"üf":3399,"allen":3400,"▁Port":3401,"▁tre":3402,"▁They":3403,"iew":3404,"▁comb":3405,"wirk":3406,"▁Dar":3407,"▁Americ":3408,"man":3409,"▁Red":3410,"co":3411,"▁always":3412,"▁Ob":3413,"schein":3414,"▁komp":3415,"▁Besch":3416,"▁Bel":3417,"▁sens":3418,"▁Kolle":3419,"▁case":3420,"▁wäre":3421,"▁better":3422,"cell":3423,"▁Kol":3424,"▁net":3425,"▁start":3426,"▁United":3427,"ichterst":3428,"▁show":3429,"ustrie":3430,"▁akt":3431,"▁Beit":3432,"▁mult":3433,"ivil":3434,"▁why":3435,"ettbewer":3436,"voll":3437,"führung":3438,"kon":3439,"ling":3440,"▁geht":3441,"erstell":3442,"▁Nutz":3443,"entrum":3444,"▁Not":3445,"ialog":3446,"▁too":3447,"▁(A":3448,"▁glaub":3449,"fre":3450,"▁energy":3451,"▁complete":3452,"▁dank":3453,"wendung":3454,"▁gehör":3455,"arte":3456,"▁wicht":3457,"▁Unterstützung":3458,"▁rele":3459,"▁Umwelt":3460,"▁2010":3461,"▁2008":3462,"zü":3463,"▁hö":3464,"spro":3465,"bereich":3466,"ämp":3467,"rechte":3468,"▁hope":3469,"iod":3470,"▁result":3471,"▁fav":3472,"▁La":3473,"▁cho":3474,"▁letzten":3475,"-b":3476,"▁Community":3477,"sequ":3478,"atch":3479,"▁Energie":3480,"▁muß":3481,"iert,":3482,"less":3483,"▁issue":3484,"▁Kr":3485,"ikan":3486,"blick":3487,"▁Entscheid":3488,"▁measures":3489,"▁Bedeut":3490,"reg":3491,"obil":3492,"clus":3493,"▁using":3494,"ierungs":3495,"▁mov":3496,"▁50":3497,"undheit":3498,"▁Ko":3499,"▁consum":3500,"▁ble":3501,"▁reach":3502,"ising":3503,"▁legal":3504,"▁sing":3505,"▁Sk":3506,"▁entfern":3507,"▁law":3508,"▁sector":3509,"▁around":3510,"rän":3511,"ge,":3512,"▁13":3513,"igten":3514,"▁conne":3515,"▁Was":3516,"▁transport":3517,"ölk":3518,"▁event":3519,"▁current":3520,"▁Wel":3521,"▁Ser":3522,"abil":3523,"▁Lebens":3524,"load":3525,"▁deren":3526,"▁rep":3527,"-G":3528,"▁production":3529,"ucht":3530,"markt":3531,"▁What":3532,"pflich":3533,"▁vote":3534,"▁Gu":3535,"eite":3536,"▁welche":3537,"esellschaft":3538,"▁sein.":3539,"pecial":3540,"ets":3541,"▁USA":3542,"bild":3543,"ervor":3544,"ately":3545,"ged":3546,"iter":3547,"▁clos":3548,"▁inner":3549,"lungen":3550,"▁short":3551,"▁Ergeb":3552,"▁non":3553,"▁rapp":3554,"▁bel":3555,"▁Famil":3556,"▁rooms":3557,"▁Fun":3558,"▁tour":3559,"▁Hier":3560,"wards":3561,"▁Mrs":3562,"▁based":3563,"itäten":3564,"sk":3565,"▁whether":3566,"▁großen":3567,"▁Kunden":3568,"▁große":3569,"▁mor":3570,"▁individual":3571,"agen":3572,"altung":3573,"lich,":3574,"▁Situ":3575,"hof":3576,"▁less":3577,"▁lim":3578,"app":3579,"▁crit":3580,"▁diffic":3581,"▁centre":3582,"uten":3583,"▁extre":3584,"ünst":3585,"▁become":3586,"▁together":3587,"ctive":3588,"ites":3589,"▁When":3590,"ott":3591,"schaften":3592,"▁near":3593,"▁sl":3594,"▁Aber":3595,"▁These":3596,"▁another":3597,"▁1.":3598,"▁particularly":3599,"▁Fol":3600,"esen":3601,"▁government":3602,"eder":3603,"ice.":3604,"ategor":3605,"ferenz":3606,"▁International":3607,"▁dist":3608,"▁state":3609,"oten":3610,"▁Schutz":3611,"ibution":3612,"▁lea":3613,"▁24":3614,"-L":3615,"umen":3616,"▁research":3617,"kauf":3618,"▁trade":3619,"▁field":3620,"ros":3621,"▁Auch":3622,"▁zahl":3623,"▁industr":3624,"▁dabei":3625,"ße":3626,"upp":3627,"druck":3628,"▁Bus":3629,"▁Vertrag":3630,"ice,":3631,"-C":3632,"▁Bank":3633,"▁Restaur":3634,"▁him":3635,"ify":3636,"▁men":3637,"▁Kinder":3638,"▁100":3639,"aden":3640,"▁rapporte":3641,"▁care":3642,"▁working":3643,"▁Regel":3644,"▁Beispiel":3645,"▁bekann":3646,"aster":3647,"▁Tur":3648,"▁bene":3649,"▁Air":3650,"▁notwend":3651,"▁Berichterst":3652,"▁(S":3653,"▁join":3654,"▁Ben":3655,"▁km":3656,"▁call":3657,"▁met":3658,"▁dav":3659,"ern.":3660,"▁resolution":3661,"room":3662,"le.":3663,"▁hervor":3664,"ichten":3665,"werk":3666,"iar":3667,"ules":3668,"▁wurd":3669,"ined":3670,"ckt":3671,"▁2007":3672,"▁öffent":3673,"\".":3674,"astr":3675,"▁UN":3676,"▁organ":3677,"ikel":3678,"▁entsprech":3679,"▁visit":3680,"▁local":3681,"isher":3682,"arante":3683,"roll":3684,"▁Zahl":3685,"▁Recht":3686,"▁specific":3687,"▁friend":3688,"ender":3689,"▁Proble":3690,"▁darüber":3691,"ätze":3692,"▁erforder":3693,"▁Wirtschafts":3694,"ON":3695,"ique":3696,"▁company":3697,"igkeiten":3698,"wach":3699,"▁restaur":3700,"▁Stud":3701,"▁decision":3702,"vest":3703,"▁citizens":3704,"▁break":3705,"▁aff":3706,"▁San":3707,"alle":3708,"▁resul":3709,"hö":3710,"▁beach":3711,"▁subject":3712,"pecially":3713,"ural":3714,"▁book":3715,"▁ann":3716,"▁gegenüber":3717,"▁eben":3718,"▁schnell":3719,"▁jeder":3720,"▁address":3721,"▁hoff":3722,"ion.":3723,"ty":3724,"ording":3725,"▁Gä":3726,"▁tax":3727,"▁El":3728,"▁various":3729,"äuf":3730,"▁brauch":3731,"▁exist":3732,"▁cours":3733,"▁New":3734,"▁Fahr":3735,"▁enjoy":3736,"ength":3737,"▁run":3738,"gaben":3739,"▁Weg":3740,"fäh":3741,"lock":3742,"▁Viel":3743,"▁col":3744,"▁EUR":3745,"▁Lie":3746,"▁di":3747,"▁experience":3748,"▁gesam":3749,"gemein":3750,"▁however,":3751,"üt":3752,"iges":3753,"\",":3754,"▁Fort":3755,"▁ur":3756,"▁page":3757,"▁Präsident!":3758,"▁sowohl":3759,"▁step":3760,"▁Wahl":3761,"▁typ":3762,"▁Haushalts":3763,"▁old":3764,"hang":3765,"veral":3766,"▁Mark":3767,"▁Fragen":3768,"imate":3769,"▁bew":3770,"eign":3771,"50":3772,"▁basis":3773,"adies":3774,"▁guarante":3775,"schutz":3776,"▁weitere":3777,"▁profession":3778,"▁beh":3779,"▁aim":3780,"▁Mal":3781,"▁näch":3782,"til":3783,"▁Gar":3784,"ocument":3785,"▁difficult":3786,"ogen":3787,"ia.":3788,"raum":3789,"▁eigenen":3790,"▁third":3791,"▁Ende":3792,"▁occ":3793,"▁dort":3794,"▁Ihrer":3795,"▁natürlich":3796,"▁Stra":3797,"▁pack":3798,"heb":3799,"▁Preis":3800,"▁beaut":3801,"▁comfort":3802,"▁it.":3803,"▁really":3804,"use":3805,"▁meiner":3806,"▁budget":3807,"▁China":3808,"geord":3809,"ücks":3810,"▁deal":3811,"isation":3812,"text":3813,"▁sum":3814,"▁commit":3815,"▁speak":3816,"▁nie":3817,"▁arbeit":3818,"▁cooperation":3819,"▁politischen":3820,"▁Haupt":3821,"▁klar":3822,"wand":3823,"▁Pre":3824,"enten":3825,"▁effort":3826,"asser":3827,"▁distr":3828,"▁innov":3829,"▁Park":3830,"üd":3831,"▁prior":3832,"▁month":3833,"ingungen":3834,"isches":3835,"▁Geschäfts":3836,"▁staff":3837,"angen":3838,"eten":3839,"spl":3840,"▁needs":3841,"▁cris":3842,"▁programm":3843,"▁account":3844,"▁gent":3845,"▁period":3846,"▁Deutsch":3847,"uc":3848,"▁erfolg":3849,"▁Gegen":3850,"▁though":3851,"chan":3852,"isen":3853,"▁Forsch":3854,"▁tot":3855,"geleg":3856,"▁teil":3857,"i.":3858,"▁origin":3859,"30":3860,"▁Mehr":3861,"ungen.":3862,"cellent":3863,"▁proced":3864,"▁mot":3865,"ünft":3866,"ifiz":3867,"▁verschiedenen":3868,"▁rapporteur":3869,"▁11":3870,"▁wirklich":3871,"▁Tour":3872,"ograph":3873,"▁nam":3874,"▁food":3875,"-V":3876,"▁hoch":3877,"gabe":3878,"▁top":3879,"▁innerhalb":3880,"zuf":3881,"▁nor":3882,"▁besonders":3883,"ly.":3884,"ober":3885,"▁Berichterstatter":3886,"arn":3887,"▁Ausschuss":3888,"▁especially":3889,"▁negot":3890,"▁create":3891,"▁daher":3892,"genommen":3893,"AR":3894,"el,":3895,"lich.":3896,"▁problems":3897,"▁Zwe":3898,"oment":3899,"▁Minister":3900,"▁plan":3901,"▁Treat":3902,"▁turn":3903,"by":3904,"▁Alle":3905,"c.":3906,"ig,":3907,"▁private":3908,"stoff":3909,"▁water":3910,"▁Fest":3911,"▁Rolle":3912,"inter":3913,"ton":3914,"ension":3915,"▁perform":3916,"istic":3917,"-H":3918,"▁treat":3919,"▁press":3920,"IT":3921,"▁approach":3922,"▁personal":3923,"▁vielen":3924,"▁Jan":3925,"yl":3926,"▁betr":3927,"▁close":3928,"▁Lin":3929,"▁million":3930,"▁Natur":3931,"▁zwar":3932,"▁verwend":3933,"▁gener":3934,"▁soc":3935,"uter":3936,"duc":3937,"oor":3938,"ec":3939,"▁terms":3940,"▁reform":3941,"▁prop":3942,"▁Wettbewer":3943,"▁favour":3944,"▁Seite":3945,"▁enter":3946,"▁dra":3947,"olf":3948,"asse":3949,"▁among":3950,"▁(P":3951,"▁job":3952,"ht.":3953,"▁Kollegen":3954,"hmen":3955,"▁internationalen":3956,"row":3957,"▁ihnen":3958,"iol":3959,"▁itself":3960,"zip":3961,"▁someth":3962,"eiten":3963,"▁Terr":3964,"▁langu":3965,"▁ess":3966,"ugen":3967,"▁Kolleg":3968,"rieden":3969,"▁Gru":3970,"▁initi":3971,"▁several":3972,"bene":3973,"▁general":3974,"▁Dire":3975,"▁struct":3976,"glichen":3977,"ival":3978,"▁doub":3979,"▁Wind":3980,"▁Chr":3981,"▁install":3982,"▁Afr":3983,"▁resour":3984,"▁material":3985,"ination":3986,"imal":3987,"leb":3988,"ature":3989,"mework":3990,"gen,":3991,"▁Disk":3992,"▁Richtlinie":3993,"ts.":3994,"▁document":3995,"tember":3996,"▁town":3997,"▁direkt":3998,"▁role":3999,"▁increas":4000,"▁Software":4001,"▁Op":4002,"▁webs":4003,"ipt":4004,"▁Verbrauch":4005,"▁Ihren":4006,"ritte":4007,"uth":4008,"▁regul":4009,"▁natur":4010,"ände":4011,"partment":4012,"▁Uhr":4013,"▁No":4014,"▁enc":4015,"▁dür":4016,"▁besteht":4017,"▁Woch":4018,"▁hinaus":4019,"▁gl":4020,"▁let":4021,"▁inc":4022,"▁pat":4023,"wh":4024,"▁single":4025,"▁port":4026,"ksam":4027,"▁Strateg":4028,"wär":4029,"▁Thema":4030,"▁mar":4031,"ünf":4032,"cher":4033,"eg":4034,"mos":4035,"▁automat":4036,"oren":4037,"▁davon":4038,"haus":4039,"▁whole":4040,"dings":4041,"▁introdu":4042,"führt":4043,"iety":4044,"▁(C":4045,"▁gewähr":4046,"▁\"S":4047,"▁aufge":4048,"ived":4049,"▁Kü":4050,"▁she":4051,"▁excellent":4052,"▁progress":4053,"▁away":4054,"bet":4055,"▁course":4056,"amt":4057,"▁serious":4058,"▁alles":4059,"▁peace":4060,"▁Zukunft":4061,"-in":4062,"d.":4063,"▁lo":4064,"IS":4065,"▁Union.":4066,"▁kind":4067,"ches":4068,"▁beginn":4069,"ts,":4070,"▁creat":4071,"redit":4072,"▁opin":4073,"▁mean":4074,"nehmer":4075,"▁gentlem":4076,"▁something":4077,"ards":4078,"▁wurde,":4079,"zeichnet":4080,"▁management":4081,"lik":4082,"gric":4083,"▁sup":4084,"▁2000":4085,"▁function":4086,"▁konn":4087,"ennt":4088,"ably":4089,"▁Fisch":4090,"uellen":4091,"▁Seiten":4092,"▁following":4093,"lauf":4094,"hens":4095,"▁understand":4096,"ittle":4097,"▁tro":4098,"▁Weise":4099,"▁list":4100,"▁making":4101,"ima":4102,"▁particip":4103,"wä":4104,"affen":4105,"ations.":4106,"thing":4107,"-1":4108,"▁ermöglich":4109,"▁steht":4110,"▁Transp":4111,"uchen":4112,"▁Berlin":4113,"ity.":4114,"▁Emp":4115,"fehl":4116,"▁crisis":4117,"▁House":4118,"though":4119,"▁europäische":4120,"cel":4121,"▁going":4122,"▁ans":4123,"▁contact":4124,"▁Frauen":4125,"▁accept":4126,"▁forward":4127,"▁waren":4128,"▁anal":4129,"▁benef":4130,"▁sett":4131,"▁Frank":4132,"produ":4133,"▁World":4134,"▁mone":4135,"▁extrem":4136,"ners":4137,"▁My":4138,"▁Gesundheit":4139,"▁gra":4140,"▁erste":4141,"▁members":4142,"▁Probleme":4143,"▁once":4144,"▁software":4145,"▁gentlemen,":4146,"▁stark":4147,"lag":4148,"▁Rep":4149,"▁range":4150,"▁towards":4151,"legenheit":4152,"ache":4153,"▁bal":4154,"ca":4155,"▁wurde.":4156,"▁befindet":4157,"▁198":4158,"▁express":4159,"▁genau":4160,"▁Univers":4161,"ody":4162,"uh":4163,"ury":4164,"▁absol":4165,"▁don":4166,"ots":4167,"▁einzel":4168,"▁Invest":4169,"rieb":4170,"▁Million":4171,"▁recog":4172,"▁dest":4173,"▁continue":4174,"▁mention":4175,"CH":4176,"indung":4177,"▁Zusammenhang":4178,"▁Gleich":4179,"cken":4180,"▁walk":4181,"▁issu":4182,"-0":4183,"ologie":4184,"▁hät":4185,"▁post":4186,"ference":4187,"▁Abgeord":4188,"▁communic":4189,"rechen":4190,"▁feel":4191,"▁ident":4192,"rael":4193,"▁(D":4194,"▁Car":4195,"▁often":4196,"itäts":4197,"▁Nov":4198,"▁until":4199,"omb":4200,"▁land":4201,"▁Pe":4202,"▁milit":4203,"asst":4204,"▁Kar":4205,"emp":4206,"▁unserem":4207,"▁Gäste":4208,"gän":4209,"▁Madam":4210,"yr":4211,"▁App":4212,"halten.":4213,"outh":4214,"▁time,":4215,"▁week":4216,"2.":4217,"wirtschaft":4218,"▁Artikel":4219,"▁nutz":4220,"armon":4221,"▁beiden":4222,"▁National":4223,"▁aid":4224,"stum":4225,"uff":4226,"▁ant":4227,"sprache":4228,"▁defin":4229,"▁Rück":4230,"▁finanz":4231,"fect":4232,"usätz":4233,"uell":4234,"▁2.":4235,"as,":4236,"▁strong":4237,"▁2006":4238,"ype":4239,"▁sagen,":4240,"▁Do":4241,"▁Entschließ":4242,"vent":4243,"tract":4244,"▁Span":4245,"▁Bedeutung":4246,"▁Can":4247,"▁Kultur":4248,"ächst":4249,"▁Met":4250,"OR":4251,"ym":4252,"stimmung":4253,"onn":4254,"idence":4255,"ences":4256,"▁bieten":4257,"isions":4258,"▁weltw":4259,"leicht":4260,"ment.":4261,"▁opportunity":4262,"zimmer":4263,"plan":4264,"▁little":4265,"ativen":4266,"ally,":4267,"bei":4268,"ußen":4269,"▁Verantwort":4270,"-f":4271,"ment,":4272,"▁Jul":4273,"▁Fil":4274,"▁rather":4275,"▁keep":4276,"▁Demokrat":4277,"▁bz":4278,"ars":4279,"▁growth":4280,"▁Sep":4281,"▁stehen":4282,"ika":4283,"r.":4284,"▁activities":4285,"▁mind":4286,"schriften":4287,"imum":4288,"ij":4289,"half":4290,"ocus":4291,"▁hard":4292,"full":4293,"▁Dieses":4294,"uft":4295,"erien":4296,"aps":4297,"ity,":4298,"▁Bas":4299,"▁Fraktion":4300,"edom":4301,"▁check":4302,"pekt":4303,"▁ve":4304,"▁Deutschland":4305,"weil":4306,"▁quite":4307,"go":4308,"▁il":4309,"mäß":4310,"▁Mo":4311,"▁Weit":4312,"▁life":4313,"▁Union,":4314,"▁seem":4315,"▁fast":4316,"mor":4317,"▁Staaten":4318,"▁Service":4319,"▁sw":4320,"AS":4321,"▁begrü":4322,"▁Organis":4323,"▁Partner":4324,"ean":4325,"ison":4326,"▁phot":4327,"▁ihn":4328,"▁tas":4329,"▁bzw.":4330,"assen.":4331,"▁elect":4332,"▁sug":4333,"▁Hotels":4334,"▁Sc":4335,"▁dev":4336,"ämpf":4337,"bour":4338,"▁indem":4339,"igt,":4340,"stra":4341,"▁chang":4342,"ises":4343,"▁behalf":4344,"▁Schluss":4345,"fall":4346,"▁Commissioner":4347,"agn":4348,"icle":4349,"arian":4350,"ino":4351,"enzen":4352,"letz":4353,"age,":4354,"räge":4355,"▁women":4356,"ethod":4357,"▁Deshalb":4358,"▁qual":4359,"ommend":4360,"▁least":4361,"▁Cent":4362,"▁try":4363,"▁children":4364,"▁four":4365,"genden":4366,"▁Stell":4367,"▁gesag":4368,"mosph":4369,"▁Dienstleist":4370,"ails":4371,"▁big":4372,"▁effic":4373,"▁relations":4374,"▁spiel":4375,"▁include":4376,"abhäng":4377,"▁Sa":4378,"▁signific":4379,"▁remain":4380,"▁näm":4381,"▁weniger":4382,"▁might":4383,"▁verw":4384,"teilung":4385,"▁lab":4386,"wohl":4387,"füll":4388,"▁increase":4389,"iful":4390,"▁etwa":4391,"the":4392,"▁Char":4393,"ter,":4394,"▁gute":4395,"▁State":4396,"ure,":4397,"▁Sozial":4398,"onger":4399,"ively":4400,"▁fully":4401,"amental":4402,"▁ideal":4403,"▁done":4404,"▁Ass":4405,"▁verfü":4406,"▁persön":4407,"onds":4408,"▁park":4409,"▁positive":4410,"▁erhalten":4411,"▁zahlreich":4412,"ica":4413,"▁welcome":4414,"ization":4415,"einander":4416,"▁After":4417,"enen":4418,"▁agree":4419,"ides":4420,"▁Erfahr":4421,"zeitig":4422,"▁kurz":4423,"▁sogar":4424,"▁Projekt":4425,"▁pur":4426,"▁September":4427,"▁content":4428,"▁framework":4429,"▁having":4430,"▁jeden":4431,"ratic":4432,"▁ladies":4433,"▁directive":4434,"hunder":4435,"▁conditions":4436,"▁bor":4437,"▁admin":4438,"äge":4439,"recht":4440,"icial":4441,"▁Pat":4442,"ety":4443,"▁Punkt":4444,"▁nah":4445,"▁Geld":4446,"▁an.":4447,"völk":4448,"▁Per":4449,"OM":4450,"▁educ":4451,"▁along":4452,"▁risk":4453,"self":4454,"-W":4455,"▁continu":4456,"ification":4457,"selves":4458,"▁arch":4459,"ächlich":4460,"ellen":4461,"met":4462,"▁Hilfe":4463,"gen.":4464,"bereit":4465,"▁log":4466,"▁pa":4467,"▁Austr":4468,"baren":4469,"auer":4470,"▁Situation":4471,"racht":4472,"▁issues":4473,"sweise":4474,"▁Priv":4475,"▁recommend":4476,"immt":4477,"rank":4478,"▁Ange":4479,"▁above":4480,"▁gerade":4481,"▁hour":4482,"eits":4483,"▁Tod":4484,"▁unterschied":4485,"▁kann,":4486,"▁companies":4487,"tag":4488,"▁Institution":4489,"▁Millionen":4490,"▁machen":4491,"▁fair":4492,"oph":4493,"ric":4494,"▁oth":4495,"verb":4496,"lean":4497,"esehen":4498,"fast":4499,"▁adopted":4500,"ai":4501,"▁nicht,":4502,"▁example,":4503,"▁nämlich":4504,"iere":4505,"ostel":4506,"▁suf":4507,"erecht":4508,"▁essential":4509,"▁network":4510,"▁Dank":4511,"▁bitte":4512,"▁Sal":4513,"▁Zugang":4514,"igen.":4515,"uz":4516,"tigen":4517,"▁Tats":4518,"▁Tür":4519,"▁strength":4520,"▁Web":4521,"iberal":4522,"▁ihm":4523,"atis":4524,"▁statt":4525,"wahl":4526,"▁flo":4527,"age.":4528,"unst":4529,"▁seinem":4530,"▁ü":4531,"most":4532,"ief":4533,"▁taking":4534,"▁viol":4535,"▁Leben":4536,"ierungen":4537,"frage":4538,"anst":4539,"ce,":4540,"▁led":4541,"▁charac":4542,"▁40":4543,"▁entire":4544,"bank":4545,"▁Bezug":4546,"▁makes":4547,"▁meisten":4548,"▁tool":4549,"▁class":4550,"▁Dieser":4551,"stant":4552,"lei":4553,"▁bank":4554,"▁stre":4555,"▁transpar":4556,"ager":4557,"ure.":4558,"eum":4559,"▁called":4560,"▁bleib":4561,"▁bede":4562,"▁darf":4563,"▁flex":4564,"▁agric":4565,"▁Unsere":4566,"unehm":4567,"▁bath":4568,"▁send":4569,"▁politische":4570,"▁Chin":4571,"▁return":4572,"▁text":4573,"bare":4574,"äum":4575,"▁constru":4576,"liches":4577,"reicht":4578,"▁never":4579,"ex":4580,"ül":4581,"▁provided":4582,"▁Janu":4583,"igr":4584,"▁Kap":4585,"▁focus":4586,"▁wesent":4587,"▁Buch":4588,"▁genann":4589,"word":4590,"▁time.":4591,"▁eur":4592,"rift":4593,"▁Zust":4594,"▁Initi":4595,"▁line":4596,"aten,":4597,"ruktur":4598,"▁gre":4599,"ünsch":4600,"▁ak":4601,"igital":4602,"▁2005":4603,"▁ebenfalls":4604,"find":4605,"▁stellt":4606,"▁anges":4607,"▁Rechte":4608,"▁gib":4609,"▁name":4610,"▁wahr":4611,"▁(E":4612,"▁Frei":4613,"amb":4614,"▁instrument":4615,"▁(F":4616,"▁One":4617,"▁location":4618,"aussch":4619,"▁family":4620,"vement":4621,"▁Grün":4622,"▁freedom":4623,"▁Verkehr":4624,"▁Verhand":4625,"▁attention":4626,"side":4627,"berg":4628,"▁Gesetz":4629,"▁Produktion":4630,"henden":4631,"bon":4632,"▁Antw":4633,"▁Entwicklungs":4634,"▁pot":4635,"ured":4636,"▁Europe.":4637,"▁Gl":4638,"ideo":4639,"▁provides":4640,"▁tele":4641,"▁recht":4642,"▁ren":4643,"▁Sel":4644,"wohn":4645,"erst":4646,"urf":4647,"▁demand":4648,"▁Ide":4649,"▁cover":4650,"▁Text":4651,"rolle":4652,"▁home":4653,"▁responsibility":4654,"▁sehen":4655,"AL":4656,"issen,":4657,"atives":4658,"▁Lösung":4659,"▁neu":4660,"▁beautiful":4661,"▁deliver":4662,"▁Em":4663,"▁Sub":4664,"is,":4665,"▁etc.":4666,"ufact":4667,"▁öffentlichen":4668,"irc":4669,"▁Nor":4670,"iken":4671,"▁derzeit":4672,"▁appropr":4673,"benso":4674,"han":4675,"▁online":4676,"now":4677,"▁rela":4678,"▁talk":4679,"▁recent":4680,"▁Nicht":4681,"▁Jahres":4682,"▁course,":4683,"rieg":4684,"apan":4685,"▁Unternehm":4686,"ested":4687,"ampf":4688,"▁dom":4689,"▁perfect":4690,"▁due":4691,"züglich":4692,"▁Just":4693,"▁team":4694,"▁importance":4695,"▁(B":4696,"▁Kosten":4697,"▁Verw":4698,"▁Hö":4699,"▁Produkt":4700,"▁Flug":4701,"▁mass":4702,"▁rules":4703,"▁sport":4704,"wür":4705,"ta":4706,"ustain":4707,"äus":4708,"ive,":4709,"▁Beschäft":4710,"issenschaft":4711,"▁Früh":4712,"greif":4713,"▁Rei":4714,"▁yet":4715,"▁vol":4716,"▁ihrem":4717,"▁head":4718,"▁Jahrhunder":4719,"▁Angeb":4720,"▁Produkte":4721,"lease":4722,"zustell":4723,"▁site":4724,"▁Europas":4725,"▁bedeute":4726,"▁known":4727,"iled":4728,"▁price":4729,"▁\"T":4730,"▁Prof":4731,"▁TV":4732,"▁easy":4733,"-O":4734,"▁holid":4735,"▁keinen":4736,"schließlich":4737,"rimin":4738,"ustry":4739,"▁Commissioner,":4740,"▁Groß":4741,"▁simply":4742,"▁Jun":4743,"uk":4744,"▁2004":4745,"▁Israel":4746,"▁Members":4747,"▁Wes":4748,"zogen":4749,"al.":4750,"ledge":4751,"▁method":4752,"telle":4753,"verkehr":4754,"äll":4755,"spolitik":4756,"▁left":4757,"ser":4758,"aged":4759,"forderungen":4760,"▁zusätz":4761,"ations,":4762,"dern,":4763,"▁nationalen":4764,"ban":4765,"ilf":4766,"▁Cont":4767,"ception":4768,"▁Tre":4769,"fore,":4770,"illa":4771,"▁Funktion":4772,"lemen":4773,"unds":4774,"▁Rates":4775,"99":4776,"▁moment":4777,"▁table":4778,"▁test":4779,"▁road":4780,"▁II":4781,"▁weiterhin":4782,"▁greater":4783,"iting":4784,"unächst":4785,"cript":4786,"▁sal":4787,"▁arr":4788,"▁sure":4789,"▁erwar":4790,"▁verste":4791,"▁fish":4792,"▁rad":4793,"▁Sitz":4794,"▁schließ":4795,"▁Wach":4796,"▁müssen.":4797,"ig.":4798,"▁heiß":4799,"▁environmental":4800,"hib":4801,"▁Fortsch":4802,"astru":4803,"▁ja":4804,"▁young":4805,"▁(s":4806,"ption":4807,"▁Christ":4808,"ücksichtig":4809,"▁Ag":4810,"▁light":4811,"▁central":4812,"▁kosten":4813,"▁building":4814,"▁heart":4815,"▁einigen":4816,"▁guest":4817,"frastru":4818,"▁stärk":4819,"änger":4820,"OS":4821,"▁customers":4822,"halten,":4823,"spruch":4824,"inge":4825,"iations":4826,"sen":4827,"▁moder":4828,"▁Cas":4829,"term":4830,"▁Design":4831,"unities":4832,"AD":4833,"▁heraus":4834,"▁Far":4835,"igent":4836,"▁fa":4837,"imes":4838,"▁abge":4839,"▁natural":4840,"▁manufact":4841,"▁Bem":4842,"▁erklär":4843,"▁things":4844,"▁reserv":4845,"▁attra":4846,"▁23":4847,"▁Leist":4848,"▁farm":4849,"▁an,":4850,"ift":4851,"▁systems":4852,"▁besser":4853,"▁benö":4854,"▁total":4855,"▁Mor":4856,"ances":4857,"▁music":4858,"▁deshalb":4859,"▁authorities":4860,"▁capital":4861,"▁max":4862,"unch":4863,"fully":4864,"▁quick":4865,"▁unver":4866,"assen,":4867,"▁infl":4868,"▁Plan":4869,"arf":4870,"▁Wohn":4871,"ürz":4872,"▁cla":4873,"▁tem":4874,"▁Fot":4875,"schlag":4876,"enc":4877,"▁verfüg":4878,"▁democra":4879,"▁parl":4880,"▁worden":4881,"läss":4882,"▁relax":4883,"▁Apr":4884,"aler":4885,"▁Aussprache":4886,"▁dessen":4887,"▁competition":4888,"i-":4889,"▁Sport":4890,"▁aufgrund":4891,"atic":4892,"▁effective":4893,"ie,":4894,"▁pub":4895,"oting":4896,"▁interess":4897,"ceed":4898,"▁extra":4899,"▁Bezieh":4900,"nete":4901,"▁money":4902,"▁learn":4903,"fte":4904,"▁value":4905,"▁programme":4906,"ance,":4907,"▁achieve":4908,"▁Pra":4909,"m.":4910,"▁lar":4911,"▁aspect":4912,"▁technical":4913,"▁Govern":4914,"▁May":4915,"▁meeting":4916,"▁wichtige":4917,"▁increasing":4918,"ning":4919,"▁sour":4920,"▁wenig":4921,"fin":4922,"sid":4923,"▁Will":4924,"ant,":4925,"ames":4926,"äsent":4927,"▁share":4928,"▁Besuch":4929,"▁Dok":4930,"stück":4931,"hing":4932,"erous":4933,"gestellt":4934,"atal":4935,"▁Wort":4936,"uelle":4937,"▁gilt":4938,"anze":4939,"▁request":4940,"▁November":4941,"igur":4942,"▁according":4943,"▁via":4944,"▁besten":4945,"▁appear":4946,"▁Kunst":4947,"▁significant":4948,"▁erfolgreich":4949,"zentr":4950,"▁z.":4951,"▁Mitarbeit":4952,"▁Menschenrechte":4953,"▁beispiel":4954,"▁partners":4955,"▁Ansicht":4956,"▁Benutz":4957,"▁fundamental":4958,"us,":4959,"▁longer":4960,"▁nichts":4961,"▁internal":4962,"60":4963,"ären":4964,"▁Schul":4965,"▁facilities":4966,"▁example":4967,"▁Nä":4968,"äter":4969,"omfort":4970,"alität":4971,"-Pro":4972,"▁Bro":4973,"▁verein":4974,"▁enough":4975,"change":4976,"▁obl":4977,"▁setz":4978,"▁Bevölk":4979,"▁Von":4980,"▁solche":4981,"platz":4982,"▁\"A":4983,"▁responsible":4984,"treten":4985,"▁character":4986,"jen":4987,"mals":4988,"▁version":4989,"pflicht":4990,"▁ern":4991,"▁disk":4992,"/200":4993,"▁Brit":4994,"▁caus":4995,"▁Meinung":4996,"▁First":4997,"▁könnte":4998,"▁erne":4999,"▁vorgesch":5000,"▁nächsten":5001,"▁Sol":5002,"EC":5003,"▁Mensch":5004,"▁Förder":5005,"▁Verbraucher":5006,"▁oft":5007,"▁industry":5008,"▁Such":5009,"▁Industrie":5010,"▁konk":5011,"▁lange":5012,"▁verbunden":5013,"▁minutes":5014,"ios":5015,"▁\"D":5016,"▁prevent":5017,"orted":5018,"▁maintain":5019,"▁thing":5020,"▁Auss":5021,"▁vier":5022,"▁Program":5023,"▁Gemeinschaft":5024,"▁civil":5025,"▁Ira":5026,"ublik":5027,"frist":5028,"heim":5029,"n,":5030,"▁Bud":5031,"▁currently":5032,"▁April":5033,"▁müssen,":5034,"iner":5035,"schluss":5036,"▁all,":5037,"▁ed":5038,"▁terror":5039,"ians":5040,"stadt":5041,"haltung":5042,"▁assist":5043,"▁clearly":5044,"IC":5045,"▁Stad":5046,"ench":5047,"B.":5048,"roffen":5049,"▁Website":5050,"▁wollen":5051,"▁web":5052,"▁Nord":5053,"2,":5054,"▁sustain":5055,"▁Ir":5056,"▁prec":5057,"▁Fern":5058,"verständ":5059,"▁Abstimmung":5060,"▁days":5061,"▁Fehl":5062,"drück":5063,"has":5064,"▁Wasser":5065,"▁Klima":5066,"irt":5067,"▁illeg":5068,"hem":5069,"US":5070,"▁is,":5071,"▁Co":5072,"▁sele":5073,"el.":5074,"▁mount":5075,"▁proposals":5076,"oid":5077,"▁Umsetzung":5078,"▁benutz":5079,"▁Insel":5080,"▁application":5081,"▁Bü":5082,"▁Wirtschaft":5083,"▁zie":5084,"▁Wachstum":5085,"▁Struktur":5086,"▁featur":5087,"▁versch":5088,"unkte":5089,"▁mess":5090,"cep":5091,"▁Selbst":5092,"▁Aug":5093,"▁stor":5094,"▁verbess":5095,"▁betre":5096,"teile":5097,"▁foreign":5098,"▁Bau":5099,"isc":5100,"▁low":5101,"ce.":5102,"▁voted":5103,"▁201":5104,"AP":5105,"▁extremely":5106,"orr":5107,"fassung":5108,"za":5109,"▁Gre":5110,"▁entscheid":5111,"istischen":5112,"afen":5113,"▁Netz":5114,"▁-,":5115,"rab":5116,"▁Verfügung":5117,"▁Mot":5118,"▁From":5119,"▁servic":5120,"▁Dam":5121,"▁recogn":5122,"mbH":5123,"▁Raum":5124,"griff":5125,"▁camp":5126,"▁197":5127,"▁lassen":5128,"▁weiß":5129,".0":5130,"▁AG":5131,"▁gemeinsamen":5132,"▁cultural":5133,"ysteme":5134,"ency":5135,"▁jeweil":5136,"iten":5137,"▁2003":5138,"▁item":5139,"▁amendments":5140,"▁contain":5141,"▁Erfolg":5142,"▁kont":5143,"-d":5144,"▁Kons":5145,"▁Grundlage":5146,"▁them.":5147,"▁Druck":5148,"land,":5149,"ynam":5150,"▁Ort":5151,"▁Soc":5152,"ommod":5153,"ritten":5154,"iable":5155,"▁bedeut":5156,"lang":5157,"▁wohl":5158,"neten":5159,"▁Trans":5160,"▁Pf":5161,"ichtet":5162,"▁Cour":5163,"▁vielleicht":5164,"▁Qualität":5165,"▁wind":5166,"▁safety":5167,"dam":5168,"▁hatte":5169,"▁prep":5170,"▁lat":5171,"obile":5172,"hend":5173,"▁Version":5174,"ave":5175,"inzip":5176,"▁Off":5177,"schaft,":5178,"▁GmbH":5179,"play":5180,"▁Einz":5181,"tet,":5182,"▁Bek":5183,"▁upon":5184,"▁Treaty":5185,"ee":5186,"▁circ":5187,"▁erziel":5188,"▁user":5189,"▁expect":5190,"▁charge":5191,"▁Musik":5192,"▁demokrat":5193,"▁sty":5194,"▁wissen,":5195,"▁separ":5196,"▁Parte":5197,"idency":5198,"▁challen":5199,"▁Commission's":5200,"u.":5201,"▁Ihrem":5202,"▁geben":5203,"lands":5204,"▁Auswirk":5205,"▁Wieder":5206,"ely,":5207,"▁Tages":5208,"▁Please":5209,"▁Son":5210,"ork":5211,"achten":5212,"▁bevor":5213,"▁zust":5214,"▁lot":5215,"▁Personen":5216,"▁Tro":5217,"▁Krit":5218,"amous":5219,"▁erreicht":5220,"inner":5221,"schn":5222,"▁corre":5223,"ri":5224,"▁fünf":5225,"▁beispielsweise":5226,"▁directly":5227,"▁protect":5228,"mitted":5229,"▁live":5230,"ine,":5231,"techn":5232,"ller":5233,"idd":5234,"EL":5235,"ona":5236,"▁Außen":5237,"sichtlich":5238,"würd":5239,"▁ö":5240,"▁Einsatz":5241,"▁comfortable":5242,"onstr":5243,"vert":5244,"ented":5245,"bl":5246,"bie":5247,"atten":5248,"▁countries.":5249,"ilder":5250,"▁fight":5251,"▁gestell":5252,"▁By":5253,"▁pool":5254,"istan":5255,"andid":5256,"aging":5257,"▁Kön":5258,"▁proposed":5259,"▁Daher":5260,"▁Mär":5261,"crib":5262,"▁Außer":5263,"▁Windows":5264,"-,":5265,"▁Damen":5266,"▁werde":5267,"merksam":5268,"▁guarantee":5269,"▁Tele":5270,"ms":5271,"▁situated":5272,"anten":5273,"▁targe":5274,"▁Date":5275,"deut":5276,"▁Heraus":5277,"▁optim":5278,"▁eith":5279,"▁Meer":5280,"▁Book":5281,"▁Ebene":5282,"öffentlich":5283,"▁Anwendung":5284,"▁allerdings":5285,"▁previous":5286,"▁Wert":5287,"▁normal":5288,"▁angeb":5289,"▁sozialen":5290,"▁Stre":5291,"▁weltweit":5292,"ien.":5293,"um,":5294,"▁happ":5295,"▁regional":5296,"ate.":5297,"▁verst":5298,"▁einges":5299,"mut":5300,"▁indic":5301,"best":5302,"▁war,":5303,"gebung":5304,"▁daran":5305,"▁required":5306,"▁costs":5307,"▁client":5308,"▁Blick":5309,"hes":5310,"ppe":5311,"ance.":5312,"▁Prozess":5313,"▁States.":5314,"▁stellen":5315,"val":5316,"▁übern":5317,"▁Fund":5318,"▁Reihe":5319,"▁bit":5320,"▁Erweit":5321,"ww.":5322,"▁mag":5323,"▁Gebiet":5324,"▁More":5325,"▁Lis":5326,"▁d'":5327,"▁kleinen":5328,"ise,":5329,"▁Öff":5330,"▁created":5331,"▁South":5332,"ilater":5333,"▁ausgest":5334,"▁60":5335,"▁comes":5336,"▁stim":5337,"▁happen":5338,"▁Prot":5339,"TM":5340,"▁clean":5341,"▁Aktiv":5342,"▁surround":5343,"ana":5344,"stall":5345,"▁please":5346,"lier":5347,"▁Arbeitspl":5348,"ette":5349,"bahn":5350,"▁21":5351,"ound":5352,"▁kommt":5353,"ump":5354,"▁Erklär":5355,"vant":5356,"▁Den":5357,"▁apply":5358,"▁soon":5359,"▁improve":5360,"▁amb":5361,"sh":5362,"▁Schwe":5363,"▁höch":5364,"▁Hinblick":5365,"▁Mod":5366,"▁statement":5367,"TO":5368,"▁\"E":5369,"▁Werk":5370,"cent":5371,"▁resources":5372,"▁Hoch":5373,"hab":5374,"-In":5375,"▁final":5376,"ided":5377,"▁pict":5378,"▁Nähe":5379,"▁Europe,":5380,"▁€":5381,"▁Mont":5382,"▁schwier":5383,"spräsident":5384,"▁Integr":5385,"ired":5386,"trie":5387,"▁accommod":5388,"▁funktion":5389,"▁monitor":5390,"▁developing":5391,"unik":5392,"▁views":5393,"▁French":5394,"▁richt":5395,"hörden":5396,"▁immed":5397,"ommen.":5398,"▁verschiedene":5399,"vin":5400,"bel":5401,"▁pages":5402,"▁Su":5403,"ast,":5404,"▁Aff":5405,"lossen":5406,"▁schaff":5407,"▁möchten":5408,"▁almost":5409,"▁altern":5410,"ymb":5411,"▁card":5412,"▁results":5413,"▁Ziele":5414,"▁analys":5415,"RO":5416,"öhn":5417,"ibr":5418,"▁vill":5419,"eless":5420,"erc":5421,"▁democratic":5422,"ikt":5423,"▁additional":5424,"▁cut":5425,"▁institutions":5426,"....":5427,"orf":5428,"▁Room":5429,"chsel":5430,"▁que":5431,"▁Japan":5432,"▁findet":5433,"usst":5434,"▁Steuer":5435,"▁points":5436,"▁schrift":5437,"üssel":5438,"▁Diskuss":5439,"▁climate":5440,"▁file":5441,"lack":5442,"▁pow":5443,"aking":5444,"▁Platz":5445,"▁Investition":5446,"▁Gesellschaft":5447,"▁gemeinsame":5448,"▁travel":5449,"▁Zentrum":5450,"IP":5451,"▁\"W":5452,"▁es,":5453,"▁regulation":5454,"▁review":5455,"ennen":5456,"▁Kir":5457,"wind":5458,"▁Änderungsantrag":5459,"system":5460,"▁house":5461,"▁EC":5462,"▁actually":5463,"▁encour":5464,"▁Doch":5465,"▁Rechn":5466,"▁exam":5467,"ulate":5468,"▁Unser":5469,"▁contract":5470,"▁lack":5471,"▁deutlich":5472,"▁kommen":5473,"▁Süd":5474,"▁akzept":5475,"pendent":5476,"L)":5477,".000":5478,"iment":5479,"ilar":5480,"ube":5481,"▁tats":5482,"▁hold":5483,"lied":5484,"▁vollständ":5485,"▁betra":5486,"▁Mill":5487,"que":5488,"ipped":5489,"▁download":5490,"▁Demokratie":5491,"▁appropriate":5492,"▁dialog":5493,"barkeit":5494,"▁Rad":5495,"▁Richtung":5496,"▁Sicherheits":5497,"▁schein":5498,"hinder":5499,"prüf":5500,"▁holiday":5501,"richtung":5502,"▁Beg":5503,"▁bess":5504,"▁Arch":5505,"igungs":5506,"▁official":5507,"such":5508,"ding":5509,"▁enl":5510,",000":5511,"▁Ausdruck":5512,"▁receive":5513,"▁allgemein":5514,"▁Kle":5515,"▁\"F":5516,"pre":5517,"▁Vorschläge":5518,"▁27":5519,"▁developed":5520,"▁Nie":5521,"▁American":5522,"ID":5523,"frei":5524,"▁thus":5525,"erra":5526,"tended":5527,"▁world.":5528,"▁connection":5529,"adurch":5530,"▁assoc":5531,"▁Dat":5532,"▁Bedingungen":5533,"▁Germany":5534,"rechts":5535,"▁Ergebnis":5536,"▁professional":5537,"-st":5538,"▁gesamten":5539,"gesehen":5540,"▁Iran":5541,"chs":5542,"feld":5543,"atory":5544,"auber":5545,"▁Interesse":5546,"▁contrib":5547,"▁Verantwortung":5548,"▁erwä":5549,"▁implementation":5550,"▁vor,":5551,"öll":5552,"▁training":5553,"▁States,":5554,"▁Vertre":5555,":00":5556,"ished":5557,"anced":5558,"▁publish":5559,"▁West":5560,"▁school":5561,"▁Kolleginnen":5562,"▁Portug":5563,"▁questions":5564,"ators":5565,"ood":5566,"▁suggest":5567,"▁propert":5568,"▁rat":5569,"▁erk":5570,"▁ce":5571,"▁Frieden":5572,"atisf":5573,"ane":5574,"▁umfass":5575,"ielle":5576,"▁Antwort":5577,"▁\"B":5578,"erseits":5579,"stead":5580,"▁equip":5581,"▁red":5582,"tet.":5583,"▁Lond":5584,"ims":5585,"gn":5586,"jähr":5587,"iellen":5588,"linien":5589,"achen":5590,"▁famous":5591,"▁cop":5592,"▁einzelnen":5593,"▁times":5594,"▁wurden.":5595,"ate,":5596,"▁\"M":5597,"▁unique":5598,"▁stop":5599,"▁posit":5600,"▁hon":5601,"▁harmon":5602,"partments":5603,"aß":5604,"▁held":5605,"▁Pak":5606,"▁wide":5607,"orge":5608,"▁Ant":5609,"ense":5610,"▁Führ":5611,"▁Position":5612,"ternal":5613,"▁Entscheidung":5614,"▁throughout":5615,"aul":5616,"▁General":5617,"▁Mitglieder":5618,"▁gemeinsam":5619,"▁bisher":5620,"▁efforts":5621,"clud":5622,"▁ebenso":5623,"arbeitung":5624,"▁leb":5625,"▁answer":5626,"▁Du":5627,".\"":5628,"▁See":5629,"▁Herstell":5630,"▁Binnen":5631,"▁exclus":5632,"▁emphas":5633,"ländern":5634,"dern.":5635,"alled":5636,"▁context":5637,"indest":5638,"▁draw":5639,"fähigkeit":5640,"▁impact":5641,"▁principle":5642,"▁behand":5643,"▁technology":5644,"▁Außerdem":5645,"▁Dec":5646,"ässt":5647,"haps":5648,"▁Auswirkungen":5649,"▁äußer":5650,"▁Denn":5651,"▁train":5652,"or,":5653,"▁Verfahren":5654,"▁pleas":5655,"▁transl":5656,"▁space":5657,"▁looking":5658,"▁Acc":5659,"▁solid":5660,"▁eleg":5661,"tt":5662,"ipf":5663,"ox":5664,"▁five":5665,"jekte":5666,"gl":5667,"▁Team":5668,"▁past":5669,"▁type":5670,"▁Zur":5671,"▁living":5672,"ume":5673,"▁potential":5674,"orre":5675,"▁designed":5676,"▁wider":5677,"▁000":5678,"äche":5679,".00":5680,"▁enable":5681,"▁jedem":5682,"▁countries,":5683,"▁strengthen":5684,"▁machen.":5685,"▁Gemeinschafts":5686,"lling":5687,"▁ever":5688,"ological":5689,"▁Pap":5690,"▁brauchen":5691,"▁univers":5692,"▁North":5693,"acy":5694,"wel":5695,"▁Ris":5696,"▁consequ":5697,"▁proper":5698,"▁Debatte":5699,"▁*":5700,"▁takes":5701,"▁Währ":5702,"fil":5703,"kn":5704,"esh":5705,"ommer":5706,"ging":5707,"▁internationale":5708,"▁Zum":5709,"▁across":5710,"▁Dialog":5711,"ester":5712,"▁aud":5713,"onom":5714,"▁wirtschaftlichen":5715,"▁Reform":5716,"▁colleag":5717,"▁Mil":5718,"zif":5719,"▁Vereinigten":5720,"▁80":5721,"zw":5722,"▁Staats":5723,"▁record":5724,"▁Bestimm":5725,"▁sit":5726,"▁everything":5727,"bar.":5728,"igt.":5729,"▁lik":5730,"▁benefit":5731,"▁mechan":5732,"bru":5733,"▁took":5734,"▁certainly":5735,"▁early":5736,"▁seen":5737,"ingen":5738,"▁Bre":5739,"prochen":5740,"▁(T":5741,"na":5742,"▁adopt":5743,"stellen":5744,"▁eth":5745,"▁divers":5746,"ählen":5747,"▁erhö":5748,"1,":5749,"ada":5750,"▁aus.":5751,"▁complex":5752,"ama":5753,"▁hinter":5754,"▁Turke":5755,"▁Strategie":5756,"geben.":5757,"oint":5758,"▁hom":5759,"▁projects":5760,"ted.":5761,"temp":5762,"handlung":5763,"▁contribution":5764,"teid":5765,"▁existing":5766,"▁dürfen":5767,"leis":5768,"▁report.":5769,"▁Kos":5770,"▁weiteren":5771,"▁zuf":5772,"▁night":5773,"▁wichtig,":5774,"▁gleichzeitig":5775,"umente":5776,"ones":5777,"▁Let":5778,"▁Leit":5779,"▁search":5780,"▁website":5781,"ball":5782,"on.":5783,"▁strategy":5784,"▁either":5785,"gegen":5786,"▁relig":5787,"ämpfung":5788,"▁Terror":5789,"▁aktiv":5790,"▁Jug":5791,"▁sorg":5792,"kr":5793,"▁Kraft":5794,"fortun":5795,"▁neben":5796,"▁amendment":5797,"-p":5798,"ränk":5799,"▁später":5800,"airs":5801,"wie":5802,"▁coordin":5803,"länder":5804,"▁Zus":5805,"▁legislation":5806,"odell":5807,"▁richtig":5808,"▁profit":5809,"▁sei":5810,"▁versuch":5811,"▁although":5812,"▁auf,":5813,"▁wurden,":5814,"▁Commission,":5815,"esserung":5816,"▁Ins":5817,"▁neues":5818,"▁changes":5819,"▁Hol":5820,"▁Flugh":5821,"▁traditional":5822,"▁wollen,":5823,"▁breakfast":5824,"cke":5825,"▁cross":5826,"▁parliament":5827,"▁Beitrag":5828,"oz":5829,"-h":5830,"▁jede":5831,"▁knowledge":5832,"ush":5833,"▁opinion":5834,"▁Fischere":5835,"▁concerning":5836,"▁erstell":5837,"▁side":5838,"▁lux":5839,"▁Handels":5840,"▁sea":5841,"▁absolute":5842,"▁(2":5843,"▁Inform":5844,"▁völl":5845,"unk":5846,"ables":5847,"▁intens":5848,"▁Türke":5849,"int":5850,"▁becom":5851,"▁aware":5852,"▁Vertra":5853,"▁Geschichte":5854,"▁denk":5855,"▁PC":5856,"lle":5857,"▁High":5858,"▁outside":5859,"stre":5860,"ungsver":5861,"serv":5862,"gency":5863,"n't":5864,"▁Restaurant":5865,"▁half":5866,"▁gegenwär":5867,"▁related":5868,"ari":5869,"▁Präsidentin,":5870,"at,":5871,"geln":5872,"▁CD":5873,"entur":5874,"▁Verpflicht":5875,"AM":5876,"▁basic":5877,"▁Parliament,":5878,"▁arg":5879,"▁fort":5880,"▁extens":5881,"▁mer":5882,"▁demonstr":5883,"▁Diskussion":5884,"▁English":5885,"▁movement":5886,"▁beit":5887,"▁los":5888,"▁leading":5889,"kra":5890,"▁rund":5891,"▁Gebie":5892,"▁community":5893,"▁original":5894,"arten":5895,"▁Schlussel":5896,"abl":5897,"zös":5898,"▁culture":5899,"haft":5900,"▁1,":5901,"▁Paris":5902,"ET":5903,"▁Fuß":5904,"▁conflic":5905,"ipl":5906,"▁idea":5907,"▁Technolog":5908,"mark":5909,"▁policies":5910,"range":5911,"▁(M":5912,"pression":5913,"statt":5914,"▁Stabil":5915,"men,":5916,"ED":5917,"▁Online":5918,"▁groups":5919,"▁enlarge":5920,"▁it,":5921,"▁gab":5922,"▁unseres":5923,"▁assess":5924,"urt":5925,"▁Förderung":5926,"affung":5927,"▁prakt":5928,"▁joint":5929,"▁you,":5930,"▁Verhandlungen":5931,"▁spr":5932,"termin":5933,"bildung":5934,"▁involved":5935,"▁Familien":5936,"▁Luft":5937,"emb":5938,"▁Kampf":5939,"▁schwer":5940,"seit":5941,"▁digital":5942,"▁military":5943,"haupt":5944,"▁IS":5945,"▁Barcel":5946,"üb":5947,"▁wichtigen":5948,"äss":5949,"▁berücksichtig":5950,"grat":5951,"alter":5952,"▁verd":5953,"▁Febru":5954,"▁interests":5955,"▁Minuten":5956,"▁Standard":5957,"▁Link":5958,"endes":5959,"erb":5960,"iterran":5961,"▁upd":5962,"▁unterstützt":5963,"▁fail":5964,"▁sec":5965,"▁avoid":5966,"▁included":5967,"-t":5968,"ausch":5969,"ums":5970,"prise":5971,"▁firm":5972,"▁oblig":5973,"▁consult":5974,"in.":5975,"gangenen":5976,"action":5977,"gende":5978,"gesetz":5979,"▁sound":5980,"▁Kern":5981,"▁spezie":5982,"▁$":5983,"gern":5984,"▁amount":5985,"iddle":5986,"▁report,":5987,"and,":5988,"▁Schritt":5989,"face":5990,"▁this,":5991,"▁entwickel":5992,"▁jedes":5993,"▁Volk":5994,"▁Ed":5995,"istrat":5996,"lant":5997,"▁advant":5998,"▁1999":5999,"▁conclus":6000,"ires":6001,"▁August":6002,"▁Imm":6003,"▁Sup":6004,"lös":6005,"quis":6006,"▁(N":6007,"▁Since":6008,"▁allows":6009,"▁erwähn":6010,"▁Cor":6011,"▁gesagt":6012,"▁Beziehungen":6013,"▁includes":6014,"ingt":6015,"▁Einzel":6016,"▁wa":6017,"▁durchge":6018,"▁verfügt":6019,"▁Konferenz":6020,"▁Rel":6021,"▁Wettbewerbs":6022,"itness":6023,"▁\"P":6024,"▁Dokument":6025,"g.":6026,"uck":6027,"▁Instrument":6028,"▁Proz":6029,"▁years.":6030,"▁transfer":6031,"ias":6032,"▁commer":6033,"aring":6034,"iated":6035,"▁prim":6036,"▁emer":6037,"▁later":6038,"hung":6039,"▁hous":6040,"▁true":6041,"öst":6042,"▁guests":6043,"▁Vis":6044,"▁wegen":6045,"staat":6046,"AC":6047,"eff":6048,"▁satisf":6049,"▁spend":6050,"▁reich":6051,"▁standards":6052,"▁Liste":6053,"▁Lux":6054,"aly":6055,"▁Interessen":6056,"os,":6057,"▁Che":6058,"▁Kop":6059,"▁Thank":6060,"▁poor":6061,"▁Abkommen":6062,"otion":6063,"▁angem":6064,"▁warm":6065,"bring":6066,"▁Änderungsanträge":6067,"ühl":6068,"▁plann":6069,"▁Forschung":6070,"▁confirm":6071,"jahr":6072,"▁Now":6073,"▁completely":6074,"ourn":6075,"tragen":6076,"▁schön":6077,"▁suit":6078,"▁Verbesserung":6079,"▁Abgeordneten":6080,"ole":6081,"▁capac":6082,"▁(H":6083,"▁vorlie":6084,"▁move":6085,"▁darstell":6086,"▁majority":6087,"▁macht":6088,"▁Prior":6089,"able.":6090,"igkeit,":6091,"▁lok":6092,"▁gemacht":6093,"fen,":6094,"▁Notwend":6095,"▁wunder":6096,"▁regarding":6097,"▁erlaub":6098,"ress":6099,"▁Pass":6100,"▁ich,":6101,"▁verantwort":6102,"pite":6103,"▁option":6104,"issab":6105,"▁Sie,":6106,"▁Bad":6107,"▁solutions":6108,"▁doing":6109,"▁kleine":6110,"▁broad":6111,"▁jud":6112,"▁Damit":6113,"▁airport":6114,"ife":6115,"▁Volks":6116,"▁limit":6117,"▁attack":6118,"vious":6119,"pected":6120,"▁force":6121,"iance":6122,"gesetzt":6123,"ymbol":6124,"erve":6125,"istration":6126,"▁purch":6127,"▁+":6128,"▁customer":6129,"SE":6130,"▁war.":6131,"uclear":6132,"▁Aufent":6133,"deck":6134,"▁needed":6135,"▁unabhäng":6136,"ikanischen":6137,"▁Urlaub":6138,"▁Cons":6139,"▁Forder":6140,"▁Home":6141,"▁\"C":6142,"▁Ober":6143,"▁Lissab":6144,"▁Aktion":6145,"▁mehrere":6146,"▁hinsichtlich":6147,"▁built":6148,"▁Handel":6149,"▁Here":6150,"fluss":6151,"put":6152,"▁aus,":6153,"▁Ausschusses":6154,"▁cru":6155,"▁face":6156,"isiert":6157,"hende":6158,"▁agricultural":6159,"▁valu":6160,"▁Institutionen":6161,"▁wonder":6162,"▁keyword":6163,"▁herr":6164,"leben":6165,"▁IT":6166,"▁below":6167,"abel":6168,"▁Frankreich":6169,"ano":6170,"▁investment":6171,"gehen":6172,"▁citizen":6173,"▁erheb":6174,"ant.":6175,"▁err":6176,"▁Imp":6177,"▁Regionen":6178,"▁language":6179,"▁Nutzung":6180,"▁fran":6181,"▁Bereichen":6182,"ava":6183,"▁self":6184,"▁Sant":6185,"▁einger":6186,"▁ganze":6187,"▁economy":6188,"▁handelt":6189,"▁wichtigsten":6190,"▁industrial":6191,"ine.":6192,"▁sun":6193,"-N":6194,"▁22":6195,"eln.":6196,"▁nachhalt":6197,"▁ganzen":6198,"▁Jed":6199,"▁Eff":6200,"oppel":6201,"▁nature":6202,"▁Dienstleistungen":6203,"▁Verordnung":6204,"▁wobei":6205,"en!":6206,"ying":6207,"▁Ukra":6208,"▁Gelegenheit":6209,"▁Auswahl":6210,"▁south":6211,"▁Ze":6212,"ko":6213,"▁Kontrolle":6214,"minister":6215,"▁gerne":6216,"aving":6217,"uted":6218,"▁Museum":6219,"▁features":6220,"sitz":6221,"▁trotz":6222,"▁experien":6223,"dom":6224,"▁Veranst":6225,"eln,":6226,"▁huge":6227,"▁machen,":6228,"ips":6229,"▁Möglichkeiten":6230,"geben,":6231,"▁popular":6232,"▁Amend":6233,"oft":6234,"iers":6235,"lam":6236,"▁för":6237,"erweise":6238,"▁ill":6239,"lav":6240,"▁Verbindung":6241,"▁genie":6242,"▁code":6243,"▁glaube,":6244,"folgt":6245,"40":6246,"▁fall":6247,"undes":6248,"▁front":6249,"▁Erweiterung":6250,"grif":6251,"itect":6252,"▁Gree":6253,"-term":6254,"▁Sim":6255,"gef":6256,"▁garant":6257,"sterreich":6258,"entwick":6259,"iveness":6260,"umb":6261,"▁nothing":6262,"▁beein":6263,"▁rail":6264,"▁direction":6265,"▁Binnenmarkt":6266,",\"":6267,"pass":6268,"▁Court":6269,"zer":6270,"ops":6271,"▁Wirk":6272,"▁Bevölkerung":6273,"schließend":6274,"ourc":6275,"▁Anfang":6276,"▁cooper":6277,"alten":6278,"▁grund":6279,"▁this.":6280,"▁themselves":6281,"▁model":6282,"iesen":6283,"▁employment":6284,"▁Schaffung":6285,"▁nahe":6286,"▁spac":6287,"▁irgend":6288,"▁Les":6289,"▁gehen":6290,"▁years,":6291,"möglichkeit":6292,"▁Angebot":6293,"▁policy.":6294,"▁correct":6295,"▁Play":6296,"▁vict":6297,"wander":6298,"▁Up":6299,"▁erfüll":6300,"mann":6301,"▁events":6302,"▁ruh":6303,"ar,":6304,"▁congrat":6305,"▁sagen":6306,"osed":6307,"▁mittel":6308,"▁contains":6309,"▁apartment":6310,"▁received":6311,"▁Bitte":6312,"▁veh":6313,"▁Reise":6314,"▁offen":6315,"▁konkre":6316,"▁Fach":6317,"▁concerns":6318,"▁Club":6319,"▁carry":6320,"▁parts":6321,"ienste":6322,"▁Gebä":6323,"▁Global":6324,"▁requirements":6325,"▁E-M":6326,"pid":6327,"▁28":6328,"änden":6329,"VD":6330,"mehr":6331,"▁Landes":6332,"▁Management":6333,"▁Augen":6334,"▁Innov":6335,"▁Social":6336,"▁efficient":6337,"▁oil":6338,"▁presented":6339,"▁3.":6340,"▁Central":6341,"▁highly":6342,"▁bekannt":6343,"▁heut":6344,"▁Liefer":6345,"▁Wein":6346,"▁Darüber":6347,"▁frü":6348,"gesamt":6349,"▁scient":6350,"▁seems":6351,"▁successful":6352,"örper":6353,"▁Erst":6354,"ität,":6355,"ught":6356,"▁einzig":6357,"alien":6358,"▁click":6359,"▁entfernt.":6360,"▁frei":6361,"▁comprom":6362,"▁Some":6363,"▁pain":6364,"imension":6365,"▁führen":6366,"▁Amster":6367,"▁exc":6368,"▁Voraus":6369,"▁!":6370,"/9":6371,"as.":6372,"▁Zweit":6373,"▁mal":6374,"▁Roman":6375,"▁exchange":6376,"▁ut":6377,"ätigkeit":6378,"▁ein.":6379,"▁Mich":6380,"▁Bef":6381,"istische":6382,"▁völlig":6383,"▁kulture":6384,"▁lässt":6385,"▁Of":6386,"▁Ho":6387,"uel":6388,"▁area.":6389,"halte":6390,"▁Strand":6391,"▁Pan":6392,"▁Material":6393,"▁Mic":6394,"▁Second":6395,"▁furn":6396,"▁carried":6397,"▁which,":6398,"utt":6399,"▁Anzahl":6400,"▁Post":6401,"ge.":6402,"▁whose":6403,"▁block":6404,"itch":6405,"▁floor":6406,"ragen,":6407,"▁Council,":6408,"inne":6409,"atell":6410,"lies":6411,"▁häuf":6412,"chter":6413,"▁works":6414,"▁seek":6415,"▁Leg":6416,"▁communication":6417,"erkenn":6418,"▁negotiations":6419,"gelegt":6420,"▁year.":6421,"▁erinn":6422,"▁history":6423,"aktion":6424,"▁double":6425,"abor":6426,"▁Term":6427,"▁sex":6428,"-St":6429,"▁gefähr":6430,"ällen":6431,"esten":6432,"▁Balk":6433,"▁parties":6434,"▁Zeitpunkt":6435,"▁Krieg":6436,"▁eig":6437,"▁verg":6438,"-Fra":6439,"▁others":6440,"▁anz":6441,"apt":6442,"▁Lat":6443,"▁subsid":6444,"▁wom":6445,"▁500":6446,"▁perm":6447,"▁sent":6448,"▁dang":6449,"astic":6450,"▁Transport":6451,"▁Firm":6452,"▁Wochen":6453,"ón":6454,"▁bathroom":6455,"▁coll":6456,"▁Verwendung":6457,"▁vorgeschlagen":6458,"▁Entschließung":6459,"buch":6460,"▁Freiheit":6461,"izien":6462,"irit":6463,"▁mountain":6464,"OL":6465,"▁expl":6466,"▁Further":6467,"▁Jugend":6468,"▁Mag":6469,"immt,":6470,"will":6471,"▁überzeug":6472,"▁ground":6473,"▁objective":6474,"▁commercial":6475,"IL":6476,"▁meinen":6477,"PE":6478,"▁Solid":6479,"▁großer":6480,"▁guten":6481,"ental":6482,"▁traff":6483,"äst":6484,"▁border":6485,"RE":6486,"▁hoffe,":6487,"▁similar":6488,"▁meinem":6489,"▁tell":6490,"▁six":6491,"cy,":6492,"ruf":6493,"▁fehl":6494,"ka":6495,"▁Business":6496,"▁gegeben":6497,"▁gehört":6498,"▁Lauf":6499,"▁Berg":6500,"mitteln":6501,"▁diskut":6502,"12":6503,"▁Mac":6504,"▁obtain":6505,"▁active":6506,"organis":6507,"▁anzu":6508,"ight.":6509,"mat":6510,"atast":6511,"▁states":6512,"▁künft":6513,"▁Col":6514,"▁zunächst":6515,"▁Türkei":6516,"▁Män":6517,"▁nehmen":6518,"▁restaurant":6519,"IM":6520,"itel":6521,"▁months":6522,"▁commitment":6523,"▁dep":6524,"▁eigene":6525,"▁export":6526,"osen":6527,"stitute":6528,"▁gesamte":6529,"okoll":6530,"ficient":6531,"▁stress":6532,"▁regions":6533,"▁Ham":6534,"unt":6535,"▁shown":6536,"▁196":6537,"▁dre":6538,"▁atmosph":6539,"klus":6540,"ache,":6541,"ätzen":6542,"just":6543,"igte":6544,"▁soziale":6545,"ierenden":6546,"mm":6547,"osp":6548,"▁nuclear":6549,"acc":6550,"▁pan":6551,"▁Develop":6552,"merk":6553,"▁task":6554,"ay,":6555,"▁Lisbon":6556,"rieben":6557,"▁erreichen":6558,"▁vorhand":6559,"one,":6560,"▁dynam":6561,"▁Presidency":6562,"▁former":6563,"lad":6564,"fält":6565,"▁Well":6566,"▁Sil":6567,"alu":6568,"▁Dez":6569,"▁Wahr":6570,"bewert":6571,"▁Rot":6572,"▁Golf":6573,"▁Log":6574,"▁ständ":6575,"▁Inde":6576,"▁Dan":6577,"▁Ferien":6578,"▁established":6579,"ader":6580,"▁Kosov":6581,"-Z":6582,"▁Behörden":6583,"▁dring":6584,"▁Get":6585,"▁equipped":6586,"▁Hinter":6587,"isted":6588,"ech":6589,"▁gibt,":6590,"lass":6591,"▁Ele":6592,"▁possibility":6593,"wegen":6594,"▁latest":6595,"▁tatsächlich":6596,"▁promote":6597,"▁eindeut":6598,"artige":6599,"▁Article":6600,"licken":6601,"▁opportunities":6602,"▁Mehrheit":6603,"bedingungen":6604,"▁verwendet":6605,"▁Kommission,":6606,"programm":6607,"▁Beschl":6608,"nissen":6609,"▁miss":6610,"mitt":6611,"▁90":6612,"yd":6613,"▁Eigen":6614,"▁Zw":6615,"▁=":6616,"▁ernst":6617,"▁Lissabon":6618,"▁station":6619,"▁Debian":6620,"▁Während":6621,"legen,":6622,"▁Bra":6623,"▁York":6624,"▁behind":6625,"▁society":6626,"▁gleichen":6627,"ühm":6628,"de,":6629,"▁internet":6630,"iglich":6631,"▁guid":6632,"▁übr":6633,"▁angen":6634,"sv":6635,"▁came":6636,"▁engine":6637,"▁Nieder":6638,".com":6639,"▁sofort":6640,"▁depend":6641,"▁Parliament's":6642,"▁note":6643,"weisen,":6644,"▁Arg":6645,"▁Sum":6646,"imming":6647,"▁leicht":6648,"▁you.":6649,"▁funds":6650,"▁rein":6651,"formen":6652,"▁Finally,":6653,"▁Wettbewerb":6654,"▁phys":6655,"▁Ratspräsident":6656,"▁you'":6657,"gra":6658,"wart":6659,"ape":6660,"▁Spain":6661,"ächt":6662,"rought":6663,"▁Dabei":6664,"rief":6665,"▁äußerst":6666,"▁Republic":6667,"unsch":6668,"▁Tat":6669,"tige":6670,"▁register":6671,"where":6672,"▁Hostel":6673,"tern,":6674,"▁komplet":6675,"▁choose":6676,"▁26":6677,"ing.com":6678,"▁schö":6679,"▁welcom":6680,"▁70":6681,"▁leaders":6682,"oo":6683,"▁atmosphere":6684,"▁bi":6685,"▁Einführung":6686,"▁providing":6687,"▁summer":6688,"▁prepared":6689,"▁Pers":6690,"▁rich":6691,"▁IN":6692,"▁Convention":6693,"▁death":6694,"▁betriff":6695,"▁societ":6696,"▁asked":6697,"▁Gruppe":6698,"▁Net":6699,"▁Government":6700,"▁Aud":6701,"▁Stellung":6702,"▁simple":6703,"fen.":6704,"▁(G":6705,"▁af":6706,"▁Russia":6707,"vision":6708,"▁exhib":6709,"▁criter":6710,"io.":6711,"▁betreff":6712,"▁somit":6713,"▁größten":6714,"▁Staat":6715,"annt":6716,"▁higher":6717,"▁external":6718,"▁deta":6719,"▁Ergebnisse":6720,"rehens":6721,"▁Amsterdam":6722,"▁prob":6723,"5,":6724,"▁schle":6725,"▁Krise":6726,"▁angenommen":6727,"akter":6728,"▁words":6729,"▁links":6730,"▁entste":6731,"▁Programme":6732,"▁à":6733,"sprech":6734,"▁reduce":6735,"▁Themen":6736,"▁users":6737,"▁Weiter":6738,"▁Install":6739,"urteil":6740,"▁elekt":6741,"▁prepar":6742,"▁Konfl":6743,"▁Kontakt":6744,"▁König":6745,"▁verpflich":6746,"▁workers":6747,"▁prices":6748,"rang":6749,"▁Tex":6750,"ommen,":6751,"▁condu":6752,"▁year,":6753,"quare":6754,"▁innovative":6755,"▁Loc":6756,"iot":6757,"▁Macht":6758,"▁\"L":6759,"▁friendly":6760,"▁non-":6761,"▁display":6762,"▁hohen":6763,"▁Don":6764,"▁umf":6765,"▁thanks":6766,"iens":6767,"▁Juni":6768,"▁beteil":6769,"▁terra":6770,"▁Gra":6771,"ary,":6772,"igration":6773,"▁recently":6774,"▁wid":6775,"3.":6776,"▁Ents":6777,"▁submitted":6778,"ibilities":6779,"▁zentral":6780,"ara":6781,"▁lay":6782,"▁Agr":6783,"▁empf":6784,"▁300":6785,"▁unterstützen":6786,"employ":6787,"rachen":6788,"▁Informations":6789,"▁Ged":6790,"▁Verfügung.":6791,"▁Oct":6792,"▁Vereinbar":6793,"▁neigh":6794,"emin":6795,"amera":6796,"ronic":6797,"xis":6798,"▁gives":6799,"itting":6800,"▁regular":6801,"opping":6802,"▁Di":6803,"altungs":6804,"▁Standpunkt":6805,"▁Kommunik":6806,"älle":6807,"▁architect":6808,"▁discover":6809,"▁setting":6810,"▁vern":6811,"issions":6812,"cret":6813,"▁Gemeins":6814,"ulgar":6815,"fert":6816,"üsse":6817,"▁agreed":6818,"▁lassen.":6819,"▁perhaps":6820,"▁decisions":6821,"▁treatment":6822,"roat":6823,"iat":6824,"▁Sicht":6825,"▁Eing":6826,"▁belieb":6827,"▁suffer":6828,"▁credit":6829,"▁sustainable":6830,"▁Komprom":6831,"▁foot":6832,"ifft":6833,"▁increased":6834,"▁zweiten":6835,"ych":6836,"med":6837,"▁une":6838,"▁Gefahr":6839,"▁Erach":6840,"▁British":6841,"▁erschein":6842,"-An":6843,"▁system.":6844,"▁image":6845,"▁beginning":6846,"▁E-Mail":6847,"▁regel":6848,"industrie":6849,"▁lediglich":6850,"ausschuss":6851,"▁Akt":6852,"rec":6853,"verständlich":6854,"▁billion":6855,"▁meines":6856,"resp":6857,"▁Neben":6858,"▁market.":6859,"▁island":6860,"bek":6861,"isch,":6862,"▁draft":6863,"chten,":6864,"▁Cal":6865,"▁March":6866,"▁Bekämpfung":6867,"▁Dis":6868,"spiel":6869,"▁leave":6870,"-w":6871,"zeuge":6872,"▁Ost":6873,"▁Mai":6874,"▁initiative":6875,"▁St.":6876,"▁announ":6877,"▁Organisation":6878,"tent":6879,"▁Commission.":6880,"▁December":6881,"oking":6882,"iedr":6883,"▁Mitarbeiter":6884,"ille":6885,"▁added":6886,"iction":6887,"▁Anwend":6888,"▁amer":6889,"▁Aufgabe":6890,"va":6891,"▁Abend":6892,"ürf":6893,"▁describ":6894,"▁us.":6895,"▁obwohl":6896,"▁WTO":6897,"▁Integration":6898,"▁cases":6899,"▁gross":6900,"▁Herzen":6901,"▁bestimmte":6902,"▁Russland":6903,"adem":6904,"▁coming":6905,"▁accep":6906,"ast.":6907,"▁bezie":6908,"▁Erachtens":6909,"▁considered":6910,"ight,":6911,"▁decl":6912,"stellungen":6913,"nehmen,":6914,"vorschriften":6915,"ierter":6916,"EM":6917,"ieg":6918,"▁Ke":6919,"▁zahlreiche":6920,"ini":6921,"▁independent":6922,"oh":6923,"▁ten":6924,"▁choice":6925,"▁construction":6926,"▁Sektor":6927,"ibl":6928,"3,":6929,"▁Okt":6930,"▁les":6931,"▁Personal":6932,"usion":6933,"schw":6934,"▁series":6935,"ilos":6936,"▁bestimmten":6937,"gründ":6938,"5.":6939,"ces.":6940,"▁repla":6941,"▁Transpar":6942,"sprün":6943,"▁x":6944,"▁board":6945,"▁education":6946,"▁anderer":6947,"▁highl":6948,"▁Gewalt":6949,"▁Ress":6950,"▁Wohl":6951,"fragen":6952,"▁Woche":6953,"▁\"G":6954,"rid":6955,"▁Überein":6956,"▁City":6957,"cy.":6958,"ghan":6959,"'.":6960,"▁zweite":6961,"▁zeigt":6962,"zehn":6963,"▁Enter":6964,"▁hätte":6965,"▁supported":6966,"-up":6967,"▁ähn":6968,"▁track":6969,"▁sor":6970,"reiben":6971,"ais":6972,"▁fal":6973,"▁people.":6974,"▁gesetz":6975,"▁decided":6976,"▁Tage":6977,"hren":6978,"▁shows":6979,"▁Solidar":6980,"▁rate":6981,"▁Ru":6982,"▁Dom":6983,"▁außerdem":6984,"▁north":6985,"▁erweit":6986,"▁Italian":6987,"▁Film":6988,"▁Dezember":6989,"▁Open":6990,"-Fraktion":6991,"▁entfernt":6992,"▁Aspe":6993,"▁relevant":6994,"▁Änderungen":6995,"son":6996,"▁virt":6997,"▁Verkehrs":6998,"▁brought":6999,"▁Real":7000,"▁administrat":7001,"▁wirtschaftliche":7002,"▁London":7003,"▁population":7004,"here":7005,"▁Höhe":7006,"▁effe":7007,"▁nice":7008,"▁Afric":7009,"▁bestät":7010,"5%":7011,"▁Western":7012,"▁hours":7013,"k,":7014,"geber":7015,"▁veröffentlich":7016,"nern":7017,"▁dadurch":7018,"ism,":7019,"80":7020,"over,":7021,"▁Initiative":7022,"▁ord":7023,"▁game":7024,"immung":7025,"▁(d":7026,"▁gemäß":7027,"nehmen.":7028,"arily":7029,"▁tw":7030,"▁Af":7031,"inal":7032,"lla":7033,"▁restaurants":7034,"inger":7035,"any":7036,"▁it's":7037,"fahrt":7038,"▁darin":7039,"▁neuer":7040,"z,":7041,"▁erster":7042,"▁Star":7043,"▁mentioned":7044,"▁lic":7045,"▁repe":7046,"▁ermöglicht":7047,"▁Privat":7048,"icherung":7049,"▁1998":7050,"▁(L":7051,"▁high-":7052,"▁euro":7053,"terne":7054,"grupp":7055,"end,":7056,"fonds":7057,"äg":7058,"▁democracy":7059,"▁französ":7060,"▁prot":7061,"▁remains":7062,"xim":7063,"▁Belg":7064,"▁Nur":7065,"▁einzige":7066,"▁Oper":7067,"▁centur":7068,"▁Sl":7069,"▁ausreich":7070,"-l":7071,"▁mobile":7072,"▁Vertrags":7073,"▁fix":7074,"▁enthalten":7075,"11":7076,"fon":7077,"▁Je":7078,"▁creating":7079,"▁expla":7080,"anischen":7081,"merksamkeit":7082,"▁deep":7083,"unden.":7084,"▁solidar":7085,"stag":7086,"▁solchen":7087,"▁grundleg":7088,"▁instead":7089,"onse":7090,"▁produced":7091,"▁exec":7092,"▁improvement":7093,"▁largest":7094,"▁easily":7095,"estens":7096,"▁sus":7097,"conomic":7098,"▁hohe":7099,"view":7100,"▁date":7101,"NG":7102,"gab":7103,"▁became":7104,"▁media":7105,"z.":7106,"▁scre":7107,"▁renov":7108,"▁Aufmerksamkeit":7109,"▁computer":7110,"▁2002":7111,"▁würd":7112,"▁future.":7113,"▁Har":7114,"uis":7115,"ournal":7116,"▁thous":7117,"▁Grand":7118,"▁B.":7119,"▁führt":7120,"immt.":7121,"▁relationship":7122,"▁vergangenen":7123,"▁relativ":7124,"▁reached":7125,"zustellen,":7126,"▁z.B.":7127,"▁schütz":7128,"orten":7129,"▁u.":7130,"häl":7131,"▁Nat":7132,"▁Unterk":7133,"▁bein":7134,"▁chem":7135,"▁host":7136,"▁conference":7137,"▁stability":7138,"ctors":7139,"▁Sam":7140,"▁obvious":7141,"▁Turkey":7142,"▁determin":7143,"▁accord":7144,"ery":7145,"▁disp":7146,"▁Det":7147,"▁body":7148,"▁October":7149,"▁gelten":7150,"▁Kre":7151,"▁pleased":7152,"entlichkeit":7153,"▁29":7154,"bert":7155,"▁verbind":7156,"▁Organ":7157,"▁concerned":7158,"▁Camp":7159,"▁Unternehmens":7160,"träge":7161,"▁Kommissar,":7162,"uit":7163,"yond":7164,"anlage":7165,"▁Frühstück":7166,"▁2001":7167,"▁l'":7168,"s:":7169,"▁resol":7170,"▁don't":7171,"▁Booking.com":7172,"lare":7173,"itzer":7174,"▁hervorrag":7175,"S.":7176,"▁ändern":7177,"besch":7178,"ases":7179,"▁Down":7180,"▁unterst":7181,"▁quickly":7182,"▁bedeutet":7183,"▁regards":7184,"schnitt":7185,"▁speed":7186,"ering":7187,"▁film":7188,"▁Mart":7189,"▁allein":7190,"▁Neu":7191,"ter.":7192,"▁Europe's":7193,"▁End":7194,"▁purs":7195,"▁fact,":7196,"▁jün":7197,"▁procedure":7198,"▁Möglichkeit,":7199,"▁medium":7200,"▁Alt":7201,"ritts":7202,"▁everyone":7203,"gliche":7204,"▁Rights":7205,"▁section":7206,"▁supply":7207,"▁Bestell":7208,"▁size":7209,"▁particular,":7210,"kommens":7211,"iko":7212,"licht":7213,"▁party":7214,"▁einschließlich":7215,"▁Parliament.":7216,"▁cause":7217,"ämt":7218,"anzen":7219,"tex":7220,"▁Oktober":7221,"▁tun,":7222,"▁performance":7223,"-2":7224,"▁konzentr":7225,"fühl":7226,"ollar":7227,"▁hear":7228,"▁liberal":7229,"▁Schweiz":7230,"ufen":7231,"▁Server":7232,"▁minor":7233,"▁distribution":7234,"▁variety":7235,"mäßig":7236,"ählt":7237,"etary":7238,"▁gain":7239,"▁news":7240,"▁Lösungen":7241,"oder":7242,"▁path":7243,"▁Fed":7244,"▁eigentlich":7245,"reibung":7246,"aschinen":7247,"▁June":7248,"▁green":7249,"▁Öffentlichkeit":7250,"cement":7251,"▁Zeich":7252,"▁mil":7253,"▁Kan":7254,"aper":7255,"porate":7256,"▁Familie":7257,"▁dut":7258,"▁France":7259,"▁Sm":7260,"▁Pla":7261,"▁hand,":7262,"kraft":7263,"▁package":7264,"ley":7265,"▁partner":7266,"▁Booking.com:":7267,"▁Last":7268,"▁keiner":7269,"▁Städ":7270,"▁Erzeug":7271,"EP":7272,"▁video":7273,"▁beschäft":7274,"ienen":7275,"▁King":7276,"▁exact":7277,"▁here.":7278,"▁Gästebewert":7279,"▁www.":7280,"▁possible.":7281,"▁muss.":7282,"länd":7283,"ibil":7284,"▁well-":7285,"▁Folgen":7286,"▁Democ":7287,"▁labour":7288,"▁Cap":7289,"▁century":7290,"▁creation":7291,"eting":7292,"ately,":7293,"▁achieved":7294,"asons":7295,"▁Bundes":7296,"ford":7297,"▁san":7298,"▁accoun":7299,"enntnis":7300,"▁auch,":7301,"▁legislative":7302,"▁wissen":7303,"▁Every":7304,"▁committee":7305,"▁alten":7306,"▁würden":7307,"▁Regierungen":7308,"ente":7309,"▁tä":7310,"zusch":7311,"ograf":7312,"▁Transparenz":7313,"▁compon":7314,"▁Erfahrung":7315,"▁Beschäftigung":7316,"▁Wider":7317,"aft":7318,"▁Fortschritte":7319,"us.":7320,"▁forder":7321,"▁historical":7322,"▁dise":7323,"▁Adr":7324,"▁Spanish":7325,"ben.":7326,"▁principles":7327,"▁Angelegenheit":7328,"▁Arbeitnehmer":7329,"▁appe":7330,"▁sta":7331,"▁relation":7332,"iterranean":7333,"ourcen":7334,"itial":7335,"▁leider":7336,"an.":7337,"etimes":7338,"▁klein":7339,"▁people,":7340,"▁got":7341,"itions":7342,"▁Landwir":7343,"▁Kur":7344,"▁befinden":7345,"▁bod":7346,"kont":7347,"▁besitz":7348,"▁purpos":7349,"ierende":7350,"▁Gipf":7351,"▁Basis":7352,"▁Val":7353,"▁div":7354,"▁Bilder":7355,"▁agreements":7356,"4.":7357,"▁Empfehl":7358,"▁During":7359,"▁insgesamt":7360,"auch":7361,"▁Tradition":7362,"▁conven":7363,"ategorien":7364,"▁agend":7365,"▁launch":7366,"70":7367,"▁Ansatz":7368,"▁Exper":7369,"▁giving":7370,"▁Prinzip":7371,"▁work.":7372,"-U":7373,"richtungen":7374,"ent.":7375,"▁Ist":7376,"▁schließlich":7377,"▁comprehens":7378,"ored":7379,"▁center":7380,"wes":7381,"iegel":7382,"▁pen":7383,"▁Inn":7384,"ugg":7385,"lob":7386,"▁wenige":7387,"legung":7388,"▁sense":7389,"nahmen":7390,"▁diejen":7391,"ifik":7392,"▁America":7393,"▁so,":7394,"▁prefer":7395,"öffnet":7396,"▁concept":7397,"▁evalu":7398,"▁violence":7399,"▁Hung":7400,"▁goods":7401,"or.":7402,"▁Ere":7403,"▁reports":7404,"▁Maßnah":7405,"▁mem":7406,"▁Mut":7407,"immen":7408,"freund":7409,"▁dialogue":7410,"▁Gesundheits":7411,"▁files":7412,"preis":7413,"▁Tatsache,":7414,"▁Mult":7415,"▁said,":7416,"▁stra":7417,"▁Auftrag":7418,"▁employe":7419,"mission":7420,"▁Lebensmittel":7421,"▁4.":7422,"ney":7423,"▁programmes":7424,"4,":7425,"▁fell":7426,"kt,":7427,"▁erreichen.":7428,"▁nehm":7429,"ground":7430,"in!":7431,"▁ein,":7432,"▁markets":7433,"▁influ":7434,"ena":7435,"▁Linux":7436,"▁unmittel":7437,"▁abgesch":7438,"▁aufz":7439,"▁budge":7440,"este":7441,"▁häufig":7442,"▁berühm":7443,"ise.":7444,"▁pressure":7445,"▁She":7446,"▁brit":7447,"▁pal":7448,"sprozess":7449,"▁März":7450,"ategories":7451,"▁Benutzer":7452,"ology":7453,"▁Sign":7454,"▁ab.":7455,"ben,":7456,"▁Union's":7457,"▁Schwier":7458,"▁Cost":7459,"otes":7460,"▁Verl":7461,"lossen.":7462,"icles":7463,"▁Preise":7464,"▁values":7465,"▁objectives":7466,"▁Afghan":7467,"▁age":7468,"▁CO":7469,"▁worth":7470,"):":7471,"▁policy,":7472,"▁consumer":7473,"▁west":7474,"▁Veränder":7475,"▁started":7476,"achs":7477,"▁höher":7478,"▁limited":7479,"▁bra":7480,"cer":7481,"isp":7482,"▁ca.":7483,"▁Untersuch":7484,"▁freund":7485,"▁highest":7486,"▁governments":7487,"▁discussion":7488,"ummer":7489,"▁response":7490,"ills":7491,"▁ihres":7492,"▁Many":7493,"▁nicht.":7494,"▁angesichts":7495,"▁observ":7496,"▁Bulgar":7497,"▁Iraq":7498,"ungs-":7499,"▁Betrieb":7500,"kommen,":7501,"▁grat":7502,"▁threat":7503,"▁forms":7504,"frastruct":7505,"streng":7506,"▁Ol":7507,"▁Bestimmungen":7508,"▁Although":7509,"▁extend":7510,"▁round":7511,"enew":7512,"oper":7513,"▁Alp":7514,"▁Vorsitz":7515,"▁perfe":7516,"iews":7517,"▁ult":7518,"gesellschaft":7519,"▁kannst":7520,"▁niedr":7521,"▁verm":7522,"▁bleibt":7523,"▁geben,":7524,"▁effects":7525,"▁(R":7526,"▁dafür,":7527,"▁Mann":7528,"▁Gal":7529,"▁bezüglich":7530,"▁aktuellen":7531,"▁Flor":7532,"OT":7533,"▁integrated":7534,"▁Juli":7535,"▁rule":7536,"▁written":7537,"▁useful":7538,"▁Meine":7539,"aign":7540,"läuf":7541,"usch":7542,"▁stock":7543,"ously":7544,"setzungen":7545,"▁stattfind":7546,"▁allowed":7547,"-mail":7548,"▁Your":7549,"▁dein":7550,"▁fisher":7551,"▁aspects":7552,"▁won":7553,"ism.":7554,"▁Flü":7555,"▁weder":7556,"▁Erklärung":7557,"▁1997":7558,"▁numerous":7559,"▁spirit":7560,"kt.":7561,"▁Hel":7562,"▁Anfrage":7563,"!!":7564,"▁cy":7565,"zwe":7566,"▁ursprün":7567,"▁darin,":7568,"arbeiten":7569,"▁emb":7570,"▁zeit":7571,"▁select":7572,"▁(in":7573,"▁europäischer":7574,"operation":7575,"sych":7576,"▁wan":7577,"▁zehn":7578,"▁detail":7579,"▁Bemüh":7580,"▁mut":7581,"▁bad":7582,"▁(\"":7583,"▁Free":7584,"▁January":7585,"head":7586,"▁affect":7587,"▁helpful":7588,"▁East":7589,"▁DVD":7590,"▁reality":7591,"legen.":7592,"▁schl":7593,"▁sonst":7594,"▁pover":7595,"▁Republik":7596,"▁garden":7597,"mosphäre":7598,"▁Januar":7599,"izient":7600,"▁Centre":7601,"krä":7602,"order":7603,"uls":7604,"▁interesting":7605,"▁Swed":7606,"at.":7607,"▁Micros":7608,"▁consist":7609,"R)":7610,"ces,":7611,"▁morgen":7612,"▁accomp":7613,"▁Mobil":7614,"▁Beginn":7615,"▁popul":7616,"▁Barcelona":7617,"▁Schließ":7618,"▁Nr.":7619,"▁constant":7620,"▁Koh":7621,"zuführ":7622,"wa":7623,"▁statt.":7624,"ends":7625,"▁Stelle":7626,"▁produce":7627,"▁eher":7628,"▁erneut":7629,"▁Bahn":7630,"▁indeed":7631,"▁teach":7632,"▁lauf":7633,"arbeitet":7634,"▁unemploy":7635,"▁Dinge":7636,"▁Medien":7637,"▁occas":7638,"▁crucial":7639,"vis":7640,"▁Zeit,":7641,"▁Heute":7642,"ent,":7643,"▁offering":7644,"▁ausdrück":7645,"üst":7646,"▁Zentral":7647,"▁ausgestatte":7648,"▁drink":7649,"▁beyond":7650,"▁beton":7651,"▁Ereign":7652,"lehn":7653,"▁accommodation":7654,"▁Aktivitäten":7655,"▁Hal":7656,"▁payment":7657,"ilosoph":7658,"▁Beteil":7659,"uert":7660,"▁perman":7661,"▁Armut":7662,"▁legit":7663,"▁kam":7664,"▁capacity":7665,"▁har":7666,"▁wir,":7667,"▁Test":7668,"▁ign":7669,"▁Mos":7670,"able,":7671,"▁Dr":7672,"grenz":7673,"▁integration":7674,"itude":7675,"▁Anforderungen":7676,"▁entsprechenden":7677,"▁Stunden":7678,"▁undert":7679,"▁notwendig":7680,"▁begrüß":7681,"▁paid":7682,"no":7683,"rich":7684,"▁mis":7685,"▁equal":7686,"polit":7687,"ero":7688,"▁Villa":7689,"staaten":7690,"▁krit":7691,"▁wissenschaft":7692,"▁\"R":7693,"ic,":7694,"▁finden.":7695,"▁humanit":7696,"atastrop":7697,"▁Are":7698,"▁van":7699,"ilateral":7700,"▁Beruf":7701,"▁bem":7702,"▁Sprache":7703,"zeichnung":7704,"▁Fehler":7705,"▁practical":7706,"one.":7707,"▁fig":7708,"spricht":7709,"maßnahmen":7710,"▁Innen":7711,"ated.":7712,"▁hinzu":7713,"▁lower":7714,"▁öffentliche":7715,"▁Flughafen":7716,"▁konnte":7717,"▁Notwendigkeit":7718,"IA":7719,"board":7720,"▁Schlusselwor":7721,"▁Winter":7722,"▁super":7723,"▁balance":7724,"▁Gruppen":7725,"▁enthält":7726,"iability":7727,"pret":7728,"▁langfrist":7729,"falt":7730,"▁Sinne":7731,"▁places":7732,"more,":7733,"▁Spezial":7734,"▁Party":7735,"▁Entscheidungen":7736,"irmen":7737,"ev":7738,"teuer":7739,"essen,":7740,"▁morn":7741,"▁sufficient":7742,"6,":7743,"▁Agrar":7744,"ammlung":7745,"▁alternative":7746,"urb":7747,"▁Bedürf":7748,"weisen":7749,"park":7750,"-to":7751,"▁Tagesordnung":7752,"▁TH":7753,"▁2,":7754,"▁kil":7755,"▁Hous":7756,"möglich":7757,"ony":7758,"niss":7759,"▁früher":7760,"▁verhin":7761,"UR":7762,"▁reasons":7763,"▁geeign":7764,"▁feature":7765,"onnen":7766,"angeb":7767,"▁Nachbar":7768,"stein":7769,"kommen.":7770,"▁Java":7771,"end.":7772,"meid":7773,"▁arbeiten":7774,"iveau":7775,"▁equipment":7776,"▁provision":7777,"▁infrastruct":7778,"▁Restaurants":7779,"▁Dr.":7780,"▁Punkte":7781,"▁las":7782,"▁reduction":7783,"▁ey":7784,"és":7785,"▁Wunsch":7786,"ST":7787,"cription":7788,"▁Dritt":7789,"▁weak":7790,"▁Ak":7791,"▁measure":7792,"▁steps":7793,"▁ship":7794,"▁Kredit":7795,"ocol":7796,"▁minimum":7797,"page":7798,"▁ol":7799,"▁\"H":7800,"{{":7801,"legt":7802,"▁Herz":7803,"▁Völk":7804,"▁property":7805,"▁tomor":7806,"▁Prüf":7807,"▁erhält":7808,"▁frequ":7809,"irl":7810,"▁Las":7811,"▁\"I":7812,"▁präsent":7813,"▁soll.":7814,"ik,":7815,"▁genannten":7816,"liz":7817,"stellen,":7818,"▁pie":7819,"▁Gast":7820,"der,":7821,"▁jüng":7822,"▁vorher":7823,"▁modified":7824,"▁Even":7825,"▁anderem":7826,"▁kostenlos":7827,"dienst":7828,"▁5.":7829,"▁efficien":7830,"estic":7831,"▁Palest":7832,"▁congratulate":7833,"▁Site":7834,"▁implemen":7835,"▁drive":7836,"▁Public":7837,"▁Human":7838,"▁rates":7839,"▁Sommer":7840,"▁Tier":7841,"19":7842,"▁Mass":7843,"▁leis":7844,"▁partnership":7845,"vere":7846,"▁study":7847,"▁charm":7848,"ürger":7849,"▁Security":7850,"▁bild":7851,"▁loss":7852,"▁Mitgliedstaat":7853,"lim":7854,"▁Vorschriften":7855,"▁Ven":7856,"▁office":7857,"▁writing.":7858,"hold":7859,"schaft.":7860,"ehm":7861,"▁liegen":7862,"▁source":7863,"▁Bot":7864,"ischem":7865,"ages.":7866,"▁Berichts":7867,"▁renew":7868,"▁quiet":7869,"▁trip":7870,"▁hotels":7871,"▁reference":7872,"▁tex":7873,"▁claim":7874,"▁gehören":7875,"▁relating":7876,"bezogen":7877,"▁passen":7878,"▁gek":7879,"▁gran":7880,"mö":7881,"▁paar":7882,"▁kur":7883,"letzt":7884,"▁funding":7885,"▁practice":7886,"wertung":7887,"front":7888,"▁Metho":7889,"▁bedroom":7890,"▁Änderung":7891,"ite.":7892,"pose":7893,"▁syn":7894,"▁Protokoll":7895,"rupt":7896,"DF":7897,"▁wollen.":7898,"▁goes":7899,"▁historic":7900,"▁ski":7901,"▁Gest":7902,"▁wr":7903,"-Re":7904,"▁Grenzen":7905,"▁wichtiger":7906,"▁restr":7907,"▁message":7908,"▁critic":7909,"▁unterstützen.":7910,"uffet":7911,"▁types":7912,"▁Mc":7913,"▁Vergangen":7914,"▁maximum":7915,"▁well.":7916,"▁betrifft,":7917,"▁zunehm":7918,"▁Stock":7919,"m,":7920,"riff":7921,"frastruktur":7922,"▁Kn":7923,"▁Amendment":7924,"▁circum":7925,"ures.":7926,"▁territor":7927,"cle":7928,"▁requires":7929,"6.":7930,"▁Behandlung":7931,"▁Gas":7932,"schreit":7933,"▁exception":7934,"▁Finanzierung":7935,"▁Bürgerinnen":7936,"▁animal":7937,"▁Gerichts":7938,"▁Präsidenten":7939,"ändert":7940,"ico":7941,"ures,":7942,"▁Erd":7943,"ide.":7944,"▁element":7945,"▁denke,":7946,"theless":7947,"▁Atmosphäre":7948,"▁illegal":7949,"-con":7950,"▁sollen":7951,"▁starting":7952,"üs":7953,"▁Cop":7954,"▁Vertreter":7955,"▁ful":7956,"-Off":7957,"II":7958,"▁Italien":7959,"▁Sitzung":7960,"schloss":7961,"▁gas":7962,"▁besondere":7963,"griffen":7964,"▁recon":7965,"▁das,":7966,"▁campaign":7967,"▁Gebäude":7968,"▁sprech":7969,"▁Firma":7970,"▁accordance":7971,"▁hop":7972,"ilfen":7973,"▁Linie":7974,"▁email":7975,"▁Natürlich":7976,"▁server":7977,"▁will,":7978,"▁Aller":7979,"engen":7980,"iker":7981,"▁Mess":7982,"▁Lang":7983,"▁Airport":7984,"▁unbed":7985,"▁muss,":7986,"▁(3":7987,"ilen":7988,"bar,":7989,"volle":7990,"▁hatten":7991,"▁initial":7992,"▁Minder":7993,"▁Koordin":7994,"▁While":7995,"▁schriftlich.":7996,"▁günst":7997,"▁levels":7998,"▁rapid":7999,"T)":8000,"▁ded":8001,"▁urg":8002,"15":8003,"▁sechs":8004,"▁Pet":8005,"-Mit":8006,"▁buy":8007,"▁Wass":8008,"▁manufactur":8009,"izin":8010,"LA":8011,"▁subst":8012,"▁Investitionen":8013,"▁mitt":8014,"▁Altern":8015,"▁Saf":8016,"▁Ess":8017,"▁Ac":8018,"men.":8019,"▁Dav":8020,"▁Gef":8021,"▁sollte.":8022,"▁Technologie":8023,"▁194":8024,"so":8025,"iell":8026,"▁Berat":8027,"▁Therefore,":8028,"▁plat":8029,"▁Computer":8030,"▁operating":8031,"▁mensch":8032,"üg":8033,"bre":8034,"ted,":8035,"▁offiz":8036,"▁Milliar":8037,"aint":8038,"▁extent":8039,"legenheiten":8040,"verfahren":8041,"▁Id":8042,"achtung":8043,"legation":8044,"▁begrüße":8045,"▁warum":8046,"▁actions":8047,"▁sämt":8048,"▁Verteid":8049,"▁Lassen":8050,"▁mechanism":8051,"--":8052,"▁level.":8053,"see":8054,"▁advert":8055,"ordn":8056,"▁\"N":8057,"▁jobs":8058,"stitutional":8059,"leistet":8060,"▁d.":8061,"▁Vergangenheit":8062,"cies":8063,"▁Mand":8064,"▁remov":8065,"ängt":8066,"▁provisions":8067,"▁worldw":8068,"▁Conference":8069,"}}":8070,"▁addition,":8071,"oker":8072,"▁fishing":8073,"▁richtige":8074,"▁bill":8075,"▁begin":8076,"▁Green":8077,"▁damage":8078,"▁zahlreichen":8079,"▁happy":8080,"standen":8081,"oto":8082,"▁Gel":8083,"▁assistance":8084,"▁staat":8085,"istics":8086,"▁eingeb":8087,"',":8088,"▁zu,":8089,"▁Terrorismus":8090,"land.":8091,"▁betroffen":8092,"▁case,":8093,"hafte":8094,"▁Jahrhundert":8095,"▁offered":8096,"▁caused":8097,"bus":8098,"ächen":8099,"▁entwickelt":8100,"▁genutz":8101,"PS":8102,"▁uner":8103,"▁Menschenrechts":8104,"▁daily":8105,"▁benötig":8106,"▁Anstreng":8107,"▁Umgebung":8108,"▁Fäh":8109,"▁welches":8110,"▁könnten":8111,"▁us,":8112,"▁consumers":8113,"ugs":8114,"▁interested":8115,"▁bur":8116,"▁respond":8117,"▁jeweiligen":8118,"▁erhalten.":8119,"▁selection":8120,"folge":8121,"wesen":8122,"▁organiz":8123,"▁Hoff":8124,"etzen.":8125,"▁ban":8126,"asc":8127,"▁John":8128,"▁requirement":8129,"▁Bereiche":8130,"▁Bu":8131,"▁Rede":8132,"▁einheit":8133,"▁halten":8134,"▁probably":8135,"handel":8136,"scheiden":8137,"▁comprehensive":8138,"13":8139,"▁motor":8140,"▁applied":8141,"\")":8142,"▁Auto":8143,"▁Vergleich":8144,"▁priority":8145,"schö":8146,"ki":8147,"chen,":8148,"▁scientific":8149,"▁election":8150,"▁Regeln":8151,"▁Projekte":8152,"▁heißt":8153,"una":8154,"▁Aufenthalt":8155,"▁colour":8156,"annten":8157,"▁seines":8158,"▁symbol":8159,"zielle":8160,"▁counter":8161,"▁gestellt":8162,"St":8163,"▁größte":8164,"▁saying":8165,"▁Doppel":8166,"ernen":8167,"IV":8168,"▁ehem":8169,"liegen":8170,"▁Goog":8171,"▁PH":8172,"▁ko":8173,"▁gee":8174,"▁candid":8175,"▁arrange":8176,"▁bald":8177,"orsitz":8178,"▁valid":8179,"▁anim":8180,"▁Soll":8181,"▁Option":8182,"▁cert":8183,"▁Download":8184,"▁season":8185,"▁gere":8186,"▁wat":8187,"▁Gesell":8188,"▁Opfer":8189,"▁Monaten":8190,"▁außerhalb":8191,"▁hör":8192,"▁reflect":8193,"-based":8194,"▁hor":8195,"bezieh":8196,"st,":8197,"▁Systems":8198,"iately":8199,"▁rul":8200,"▁Fernse":8201,"▁zuständ":8202,"▁Eas":8203,"▁exerc":8204,"▁sprechen":8205,"ities.":8206,"▁beträ":8207,"▁neighbour":8208,"▁sort":8209,"▁usw.":8210,"sam":8211,"▁Menschen,":8212,"▁11.":8213,"▁apprec":8214,"▁world,":8215,"▁befür":8216,"▁Supp":8217,"▁Industr":8218,"▁Frankf":8219,"▁Ire":8220,"ruit":8221,"▁tät":8222,"ustausch":8223,"▁zumindest":8224,"▁applications":8225,"io,":8226,"▁tourist":8227,"back":8228,"▁clar":8229,"▁Straßen":8230,"▁Präsidentschaft":8231,"▁stets":8232,"▁sometimes":8233,"▁distance":8234,"▁(K":8235,"▁Zivil":8236,"▁Gene":8237,"▁schaffen,":8238,"▁entsprechend":8239,"▁Microsoft":8240,"upts":8241,"▁ways":8242,"▁darum":8243,"▁Ord":8244,"▁gemein":8245,"▁else":8246,"sequent":8247,"figur":8248,"▁bringen":8249,"▁Viele":8250,"▁Mediterranean":8251,"zentrum":8252,"▁Bal":8253,"▁beant":8254,"-re":8255,"ral":8256,"▁despite":8257,"▁enorm":8258,"▁process.":8259,"▁matters":8260,"▁\"K":8261,"▁SM":8262,"mand":8263,"▁details":8264,"gänz":8265,"▁bege":8266,"prü":8267,"atalog":8268,"konom":8269,"▁genug":8270,"künft":8271,"▁sil":8272,"▁award":8273,"▁NAT":8274,"kunf":8275,"erstör":8276,"▁Dann":8277,"▁long-term":8278,"▁influence":8279,"▁honour":8280,"▁verab":8281,"▁area,":8282,"ückt":8283,"ünstler":8284,"▁historischen":8285,"▁verkauf":8286,"icket":8287,"▁Gründen":8288,"▁genu":8289,"glied":8290,"▁cast":8291,"▁Et":8292,"reichen":8293,"▁secure":8294,"/0":8295,"▁remember":8296,"▁sehen,":8297,"▁Del":8298,"zeichn":8299,"▁Dazu":8300,"▁shop":8301,"ients":8302,"▁lost":8303,"▁coup":8304,"amin":8305,"utive":8306,"▁Modell":8307,"book":8308,"-in-Off":8309,"▁handel":8310,"▁Swiss":8311,"▁Versuch":8312,"▁inf":8313,"▁fant":8314,"▁S.":8315,"▁Video":8316,"▁AC":8317,"▁Russian":8318,"▁EU.":8319,"▁Services":8320,"▁mann":8321,"▁today.":8322,"▁meaning":8323,"▁prem":8324,"icy":8325,"aren":8326,"▁investig":8327,"▁Affairs":8328,"▁annual":8329,"▁vertra":8330,"▁village":8331,"orgung":8332,"▁ergreif":8333,"▁habe,":8334,"▁services.":8335,"scheinlich":8336,"▁blo":8337,"▁late":8338,"▁heutigen":8339,"▁slow":8340,"2)":8341,"▁e-mail":8342,"▁substant":8343,"▁Est":8344,"iant":8345,"▁ready":8346,"ktive":8347,"▁Einwander":8348,"▁halte":8349,"▁cohes":8350,"▁heav":8351,"▁Bürgern":8352,"▁University":8353,"ue,":8354,"▁Regierungs":8355,"▁absolutely":8356,"ist,":8357,"h.":8358,"▁Development":8359,"▁Landwirtschaft":8360,"▁Voll":8361,"gehend":8362,"peratur":8363,"▁Drit":8364,"▁crimin":8365,"▁Nun":8366,"▁auf.":8367,"▁bessere":8368,"▁Islam":8369,"▁them,":8370,"▁affe":8371,"▁hotel.":8372,"▁Kapital":8373,"▁Start":8374,"quem":8375,"8,":8376,"hältnis":8377,"nit":8378,"▁Prem":8379,"▁swimming":8380,"▁UK":8381,"▁Bildung":8382,"▁persönlichen":8383,"▁advantage":8384,"nam":8385,"pack":8386,"▁benefits":8387,"▁base":8388,"1)":8389,"▁Hinsicht":8390,"rats":8391,"▁Nationen":8392,"▁insp":8393,"▁spezif":8394,"▁growing":8395,"▁EU's":8396,"▁folgenden":8397,"▁decor":8398,"pool":8399,"▁größer":8400,"▁Inhalt":8401,"▁club":8402,"▁scheint":8403,"▁uns,":8404,"▁lands":8405,"▁sav":8406,"▁stage":8407,"▁competit":8408,"▁Flex":8409,"▁anerk":8410,"▁finally":8411,"▁thought":8412,"gy":8413,"▁trying":8414,"▁Def":8415,"DE":8416,"ünsche":8417,"▁Verfass":8418,"▁ausschließlich":8419,"▁Praxis":8420,"▁published":8421,"▁vital":8422,"▁geben.":8423,"16":8424,"5-0":8425,"führt.":8426,"ION":8427,"standing":8428,"▁Furthermore,":8429,"gül":8430,"▁overall":8431,"cape":8432,"▁Arbeitslos":8433,"ages,":8434,"▁effizient":8435,"▁verurs":8436,"▁Einige":8437,"▁therefore,":8438,"▁Aufgaben":8439,"▁Gespr":8440,"▁purpose":8441,"nd":8442,"▁jähr":8443,"▁brand":8444,"barer":8445,"▁Fällen":8446,"▁wes":8447,"▁Ihres":8448,"▁specif":8449,"▁Kosovo":8450,"hilfe":8451,"▁fire":8452,"▁ourselves":8453,"▁technischen":8454,"▁Gold":8455,"▁Eigent":8456,"▁view,":8457,"date":8458,"▁Sonder":8459,"▁überhaupt":8460,"ifen":8461,"▁day.":8462,"unden,":8463,"▁deutschen":8464,"-Ver":8465,"komp":8466,"oom":8467,"▁sieht":8468,"vollen":8469,"▁Tagen":8470,"inian":8471,"▁bleiben":8472,"▁zukünft":8473,"▁too,":8474,"▁vorgesehen":8475,"▁nutzen":8476,"ated,":8477,"ie.":8478,"▁italien":8479,"▁analysis":8480,"▁verfügen":8481,"enken":8482,"▁Kauf":8483,"▁argument":8484,"▁President-in-Off":8485,"▁separate":8486,"▁195":8487,"umin":8488,"ibe":8489,"unternehmen":8490,"▁collection":8491,"▁stärker":8492,"▁offens":8493,"▁Wissen":8494,"▁EU,":8495,"▁July":8496,"▁strategic":8497,"iertel":8498,"auen":8499,"▁system,":8500,"▁world's":8501,"▁Eind":8502,"▁yourself":8503,"▁modernen":8504,"▁expert":8505,"prech":8506,"▁goal":8507,"▁Sprach":8508,"▁Hilf":8509,"▁Maß":8510,"▁that.":8511,"▁hostel":8512,"▁resort":8513,"▁vollständig":8514,"▁wiederhol":8515,"▁simpl":8516,"▁cred":8517,"sprü":8518,"▁Cy":8519,"▁Agre":8520,"▁Allerdings":8521,"tempt":8522,"▁materials":8523,"▁disapp":8524,"▁wrong":8525,"liefer":8526,"▁Österreich":8527,"acht,":8528,"ato":8529,"ästin":8530,"▁Herausforder":8531,"▁accession":8532,"▁Georg":8533,"last":8534,"vo":8535,"IF":8536,"▁fahr":8537,"▁heard":8538,"▁erforderlich":8539,"▁Krank":8540,"▁Größ":8541,"▁street":8542,"▁politic":8543,"▁status":8544,"▁gam":8545,"▁geze":8546,"▁(w":8547,"▁gibt.":8548,"▁wanted":8549,"möglichkeiten":8550,"▁circumst":8551,"ügen":8552,"imat":8553,"▁Bemühungen":8554,"SS":8555,"▁Only":8556,"▁monitoring":8557,"▁ehemal":8558,"ität.":8559,"▁Opt":8560,"urance":8561,"lymp":8562,"▁zudem":8563,"wise":8564,"▁Agreement":8565,"▁35":8566,"▁Tal":8567,"▁wine":8568,"ener":8569,"▁Miss":8570,"enze":8571,"▁distrib":8572,"25":8573,"tere":8574,"▁Ang":8575,"▁occup":8576,"▁verstär":8577,"▁Its":8578,"▁kürz":8579,"▁today,":8580,"▁Directive":8581,"▁Falls":8582,"▁zweit":8583,"//":8584,"▁cell":8585,"▁compromise":8586,"▁Liberal":8587,"▁allgemeinen":8588,"affe":8589,"▁ability":8590,"ifizierung":8591,"mens":8592,"hotel":8593,"▁elements":8594,"9,":8595,"▁listen":8596,"▁sales":8597,"▁privaten":8598,"▁Obwohl":8599,"▁\"The":8600,"hood":8601,"▁einsetz":8602,"ägt":8603,"ira":8604,"▁lies":8605,"▁Antrag":8606,"▁Kompromiss":8607,"▁Trotz":8608,"▁150":8609,"▁teleph":8610,"▁verlang":8611,"▁Secondly,":8612,"▁NATO":8613,"▁länd":8614,"▁dipl":8615,"▁electronic":8616,"▁würde.":8617,"▁Glaub":8618,"ymp":8619,"▁way,":8620,"▁love":8621,"▁flexible":8622,"QL":8623,"äte":8624,"▁unterb":8625,"▁Ukraine":8626,"▁Council.":8627,"SP":8628,"ione":8629,"▁Wann":8630,"▁ab,":8631,"bad":8632,"▁Ausgang":8633,"▁country.":8634,"▁gesagt,":8635,"lose":8636,"▁(FR)":8637,"▁fresh":8638,"sprogramm":8639,"▁ausgezeichnet":8640,"▁Amb":8641,"▁datab":8642,"ösen":8643,"sicherheit":8644,"▁inn":8645,"▁deine":8646,"▁Tor":8647,"▁chance":8648,"▁placed":8649,"ja":8650,"cker":8651,"▁worden.":8652,"alyse":8653,"▁Tätigkeit":8654,"▁Anerkenn":8655,"▁sinn":8656,"▁Erk":8657,"▁tit":8658,"▁People":8659,"▁Zimmer,":8660,"uber":8661,"▁enterpr":8662,"▁vor.":8663,"▁God":8664,"▁rom":8665,"zy":8666,"▁Freiz":8667,"omet":8668,"▁Grenz":8669,"▁endlich":8670,"▁hot":8671,"ely.":8672,"▁Schritte":8673,"▁Aspekte":8674,"▁jem":8675,"▁spect":8676,"▁Chinese":8677,"▁parking":8678,"▁Leute":8679,"os.":8680,"▁voting":8681,"attet":8682,"▁gerecht":8683,"▁bringen.":8684,"▁Öl":8685,"obby":8686,"▁länger":8687,"▁Forschungs":8688,"▁concentr":8689,"agraph":8690,"uern":8691,"▁spok":8692,".m.":8693,"▁negative":8694,"▁plant":8695,"undred":8696,"▁fear":8697,"▁hol":8698,"▁Mex":8699,"▁luxur":8700,"umm":8701,"▁Vertrauen":8702,"▁produz":8703,"▁natür":8704,"▁autom":8705,"17":8706,"uren":8707,"▁Mer":8708,"▁Mün":8709,"▁möglich,":8710,"▁remind":8711,"gt.":8712,"▁geht,":8713,"▁way.":8714,"▁Folge":8715,"▁ethn":8716,"▁Verkauf":8717,"ande":8718,"grad":8719,"▁shopping":8720,"kosten":8721,"▁geforder":8722,"▁anc":8723,"▁Prä":8724,"▁gelang":8725,"ares":8726,"▁kaum":8727,"ite,":8728,"▁dram":8729,"▁mainly":8730,"▁formul":8731,"▁Dub":8732,"▁Herren!":8733,"abkommen":8734,"▁Guest":8735,"▁größere":8736,"▁jun":8737,"igungen":8738,"▁automatisch":8739,"▁Moreover,":8740,"▁touch":8741,"▁country,":8742,"▁rights.":8743,"▁reag":8744,"▁letzte":8745,"▁Ausschuß":8746,"▁arm":8747,"avig":8748,"▁walking":8749,"▁whom":8750,"▁Beweg":8751,"hrte":8752,"▁Überwach":8753,"▁Gesamt":8754,"abr":8755,"▁Grie":8756,"▁proceed":8757,"▁affected":8758,"▁occur":8759,"▁umfang":8760,"▁regulations":8761,"▁operation":8762,"▁elegant":8763,"-e":8764,"aw":8765,"▁beide":8766,"▁dar.":8767,"meer":8768,"▁Milliarden":8769,"▁Ressourcen":8770,"▁auszu":8771,"▁po":8772,"▁komfort":8773,"lichkeiten":8774,"▁worked":8775,"lines":8776,"▁Zweck":8777,"▁Bade":8778,"23":8779,"▁Us":8780,"▁Erfahrungen":8781,"etzen":8782,"▁Hostels":8783,"▁coast":8784,"uly":8785,"▁Acht":8786,"▁talking":8787,"▁consequences":8788,"▁folgt":8789,"für":8790,"▁discrimin":8791,"▁falls":8792,"ive.":8793,"▁bezahl":8794,"▁Schiff":8795,"and.":8796,"▁AL":8797,"▁comment":8798,"-de":8799,"▁friends":8800,"▁Präsidentin!":8801,"bt":8802,"▁rights,":8803,"▁Qualitäts":8804,"▁enlargement":8805,"▁childr":8806,"▁reduced":8807,"▁Slo":8808,"▁Zweif":8809,"▁began":8810,"änge":8811,"▁box":8812,"ärkung":8813,"▁sites":8814,"▁Bon":8815,"▁wünsch":8816,"benen":8817,"▁entspricht":8818,"▁Falle":8819,"▁soll,":8820,"mus":8821,"▁Sache":8822,"▁zusätzliche":8823,"▁encourage":8824,"gruppe":8825,"▁watch":8826,"▁increasingly":8827,"▁Google":8828,"ssystem":8829,"▁intended":8830,"**":8831,"werte":8832,"▁style":8833,"▁Immobil":8834,"8.":8835,"▁ausführ":8836,"▁products.":8837,"▁confidence":8838,"struktur":8839,"▁expressed":8840,"▁contribute":8841,"zech":8842,"sätze":8843,"▁compl":8844,"▁Annahme":8845,"▁Besonder":8846,"▁Dro":8847,"▁stabil":8848,"▁Entschließungsant":8849,"9.":8850,"▁Bur":8851,"▁Licht":8852,"▁cos":8853,"▁Schwer":8854,"▁intell":8855,"gere":8856,"ehen":8857,"▁opening":8858,"▁betrifft":8859,"gebie":8860,"akte":8861,"▁now,":8862,"gt,":8863,"▁Nacht":8864,"▁1990":8865,"▁apartments":8866,"▁instruments":8867,"▁Versch":8868,"reiber":8869,"▁calls":8870,"▁guidel":8871,"izienz":8872,"▁administrative":8873,"▁speziell":8874,"▁Ann":8875,"▁expens":8876,"cul":8877,"▁IP":8878,"▁Stil":8879,"ionen":8880,"▁tal":8881,"▁sollte,":8882,"▁militär":8883,"ham":8884,"▁elektron":8885,"▁unbedingt":8886,"verläss":8887,"▁safe":8888,"ategie":8889,"▁His":8890,"▁suitable":8891,"▁structural":8892,"▁Elekt":8893,"▁setzen":8894,"ices.":8895,"▁Werte":8896,"▁perspect":8897,"tlich":8898,"enty":8899,"▁Stellen":8900,"ors,":8901,"▁Liber":8902,"▁ersch":8903,"folger":8904,"▁Frage,":8905,"▁Dre":8906,"▁Sing":8907,"▁mill":8908,"▁Kollegen!":8909,"▁Einfluss":8910,"las":8911,"▁nimmt":8912,"A.":8913,"E)":8914,"▁powerful":8915,"▁Agentur":8916,"▁ensuring":8917,"imb":8918,"%.":8919,"▁Paul":8920,"▁unfortun":8921,"reiche":8922,"▁doubt":8923,"ING":8924,"90":8925,"het":8926,"▁structure":8927,"ästinens":8928,"▁herz":8929,"▁angemessen":8930,"▁medic":8931,"▁attempt":8932,"▁fellow":8933,"▁\"V":8934,"▁Rechtsvorschriften":8935,"▁surrounding":8936,"▁Körper":8937,"ray":8938,"▁speech":8939,"▁Nah":8940,"▁Also":8941,"folgen":8942,"strumente":8943,"äher":8944,"▁Vide":8945,"▁unterschiedlichen":8946,"▁voraus":8947,"▁News":8948,"▁chann":8949,"▁namely":8950,"▁Serb":8951,"▁Garant":8952,"▁dringend":8953,"▁bewusst":8954,"▁finden,":8955,"isely":8956,"gewöhn":8957,"qual":8958,"▁reduz":8959,"n.":8960,"▁committed":8961,"8)":8962,"▁AN":8963,"▁anything":8964,"ighted":8965,"▁Durchführung":8966,"▁challenges":8967,"▁Lab":8968,"▁more.":8969,"▁Spr":8970,"zeugen":8971,"▁Autom":8972,"▁zusam":8973,"▁verz":8974,"▁herunter":8975,"▁Ern":8976,"▁pictures":8977,"▁mid":8978,"esearch":8979,"▁mindestens":8980,"craft":8981,"24":8982,"inu":8983,"▁Haft":8984,"▁Anspruch":8985,"ide,":8986,"ael":8987,"▁fine":8988,"▁Any":8989,"▁gestal":8990,"▁waste":8991,"▁Card":8992,"▁Generation":8993,"▁intend":8994,"▁Agend":8995,"▁Archite":8996,"▁betrachte":8997,"▁poll":8998,"▁introduced":8999,"▁market,":9000,"hilfen":9001,"▁agriculture":9002,"▁immediately":9003,"p:":9004,"bü":9005,"▁Spieler":9006,"ifying":9007,"▁hochwert":9008,"aktiv":9009,"amber":9010,"▁automatically":9011,"reise":9012,"▁Wik":9013,"▁impos":9014,"ae":9015,"zul":9016,"▁black":9017,"▁nachdem":9018,"ivity":9019,"▁nö":9020,"▁church":9021,"▁quant":9022,"posit":9023,"▁sports":9024,"svorsitz":9025,"▁mehreren":9026,"coming":9027,"▁Zimm":9028,"▁Bestand":9029,"▁Bemerk":9030,"ium,":9031,"ückw":9032,"▁agen":9033,"▁geschütz":9034,"AG":9035,"▁Sinn":9036,"▁anders":9037,"▁Ident":9038,"▁Verhalten":9039,"▁Arab":9040,"▁committe":9041,"▁Vorteile":9042,"▁Ander":9043,"▁procedures":9044,"▁larger":9045,"▁wonderful":9046,"▁Each":9047,"▁Arbeitsplätze":9048,"igran":9049,"▁ausgew":9050,"▁Betrie":9051,"▁Regional":9052,"▁supports":9053,"iture":9054,"wser":9055,"▁entsprechende":9056,"▁IM":9057,"▁Fakt":9058,"▁Exp":9059,"▁(200":9060,"▁extensive":9061,"raw":9062,"▁platform":9063,"▁Board":9064,"ius":9065,"▁angeze":9066,"▁hundred":9067,"▁work,":9068,"bum":9069,"▁getting":9070,"▁referred":9071,"▁domin":9072,"▁fert":9073,"raten":9074,"▁ec":9075,"zimmer,":9076,"▁erleb":9077,"rans":9078,"▁activity":9079,"can":9080,"▁Olymp":9081,"▁reviews":9082,"artigen":9083,"bung":9084,"▁map":9085,"▁museum":9086,"▁Zwischen":9087,"fläche":9088,"▁summit":9089,"▁release":9090,"IG":9091,"▁kit":9092,"▁raised":9093,"▁traffic":9094,"▁dedic":9095,"▁Hintergrund":9096,"stieg":9097,"▁Most":9098,"▁erh":9099,"law":9100,"▁euch":9101,"▁ris":9102,"hnen,":9103,"▁detailed":9104,"künd":9105,"ps":9106,"▁usually":9107,"mack":9108,"ión":9109,"▁Einrichtung":9110,"idential":9111,"▁Konflikt":9112,"idge":9113,"▁serve":9114,"▁Prozent":9115,"▁Zweitens":9116,"▁demokratischen":9117,"▁aimed":9118,"▁Tem":9119,"ams":9120,"▁kontroll":9121,"▁Czech":9122,"▁Rev":9123,"▁Bay":9124,"▁frag":9125,"ola":9126,"▁(n":9127,"▁Verwaltung":9128,"▁ehr":9129,"▁dead":9130,"▁Wissenschaft":9131,"▁protected":9132,"▁Costa":9133,"▁Schlaf":9134,"▁colleagues":9135,"IE":9136,"▁Ev":9137,"▁Nahr":9138,"udem":9139,"▁ged":9140,"▁globalen":9141,"▁scen":9142,"▁restrict":9143,"▁Einsch":9144,"▁glaube":9145,"▁Cr":9146,"▁Assoc":9147,"▁Kind":9148,"▁ago":9149,"▁mand":9150,"▁According":9151,"onym":9152,"▁transparent":9153,"▁Dol":9154,"▁2020":9155,"▁gebracht":9156,"sichtig":9157,"▁Cast":9158,"p://":9159,"▁vac":9160,"ingu":9161,"▁facilit":9162,"▁einzu":9163,"▁Motor":9164,"▁wants":9165,"teilt":9166,"▁mic":9167,"▁rural":9168,"▁decide":9169,"▁flow":9170,"▁moderne":9171,"haften":9172,"▁services,":9173,"▁gefunden":9174,"▁Mitgliedstaaten,":9175,"▁actual":9176,"▁tools":9177,"▁eindeutig":9178,"uppen":9179,"itation":9180,"lagen,":9181,"ichen":9182,"ologischen":9183,"▁besonderen":9184,"▁..":9185,"▁entw":9186,"▁nationale":9187,"▁6.":9188,"▁unbe":9189,"▁conver":9190,"▁sich,":9191,"▁wood":9192,"▁Bew":9193,"▁Zeitraum":9194,"üste":9195,"▁Konzept":9196,"▁Reserv":9197,"IR":9198,"▁aktuelle":9199,"▁bind":9200,"verage":9201,"▁criteria":9202,"quality":9203,"spunkt":9204,"▁played":9205,"lying":9206,"▁mix":9207,"▁Komfort":9208,"▁budgetary":9209,"▁forces":9210,"▁documents":9211,"▁convin":9212,"wogen":9213,"▁Turk":9214,"izing":9215,"▁Abschluss":9216,"▁becoming":9217,"ities,":9218,"jected":9219,"▁institutional":9220,"▁Zudem":9221,"ulierung":9222,"▁spacious":9223,"hop":9224,"▁coff":9225,"▁Middle":9226,"▁Zunächst":9227,"▁zweif":9228,"7,":9229,"izenz":9230,"anken":9231,"▁Anerkennung":9232,"acht.":9233,"▁sub-c":9234,"ennen,":9235,"▁critical":9236,"▁dispos":9237,"▁Economic":9238,"cks":9239,"▁Tab":9240,"▁gelegen":9241,"▁bestehenden":9242,"▁Firmen":9243,"▁remark":9244,"▁tomorrow":9245,"freiheit":9246,"▁Griechen":9247,"▁rechts":9248,"▁plus":9249,"▁winter":9250,"▁unc":9251,"▁Code":9252,"▁Parteien":9253,"▁Lage,":9254,"▁Great":9255,"▁exactly":9256,"▁Wellness":9257,"▁sollten.":9258,"▁feed":9259,"▁target":9260,"▁Sand":9261,"▁danke":9262,"▁Prote":9263,"▁scr":9264,"▁Sach":9265,"▁forest":9266,"imme":9267,"▁Salz":9268,"▁Luxem":9269,"▁oben":9270,"▁running":9271,"▁Kore":9272,"▁corresp":9273,"▁representatives":9274,"▁Out":9275,"▁Vorbereit":9276,"▁Kenntnis":9277,"▁expected":9278,"▁vorge":9279,"▁Einkauf":9280,"brit":9281,"▁Other":9282,"▁Tar":9283,"▁Holz":9284,"▁multip":9285,"▁provider":9286,"▁introduction":9287,"▁selected":9288,"entwicklung":9289,"▁Zustimmung":9290,"▁setzt":9291,"▁Netzwerk":9292,"nel":9293,"▁möglicherweise":9294,"leistungen":9295,"▁erfolgt":9296,"▁Anpass":9297,"entrale":9298,"▁Patient":9299,"ved.":9300,"sport":9301,"▁earlier":9302,"▁abzu":9303,"▁changed":9304,"nahm":9305,"oon":9306,"gebiet":9307,"präsident":9308,"▁iP":9309,"▁Beitritts":9310,"ar.":9311,"▁tabled":9312,"cht,":9313,"▁öffentlich":9314,"laus":9315,"▁notwendigen":9316,"▁unterstützen,":9317,"▁Wettbewerbsfähigkeit":9318,"ureau":9319,"▁Mitte":9320,"▁ideas":9321,"▁medical":9322,"▁weap":9323,"▁Belar":9324,"azz":9325,"▁bedeutet,":9326,"▁bequem":9327,"oß":9328,"uard":9329,"ibly":9330,"chen.":9331,"▁(W":9332,"▁mad":9333,"rok":9334,"▁Gran":9335,"▁conflict":9336,"▁Research":9337,"fäll":9338,"▁Mitteilung":9339,"▁Unterkategorien":9340,"▁served":9341,"▁Waren":9342,"▁challenge":9343,"▁employees":9344,"▁Milit":9345,"▁darauf,":9346,"▁?":9347,"▁unit":9348,"▁Som":9349,"▁sub-categories":9350,"▁weiß,":9351,"▁I'":9352,"used":9353,"▁Bi":9354,"▁süd":9355,"▁Ap":9356,"▁rapporteur,":9357,"▁expand":9358,"▁abhäng":9359,"/E":9360,"-called":9361,"▁finanziellen":9362,"▁glob":9363,"▁Verfassung":9364,"▁spread":9365,"flü":9366,"▁jederzeit":9367,"▁Vill":9368,"▁represents":9369,"ba":9370,"meld":9371,"▁wesentlich":9372,"7)":9373,"▁Tun":9374,"stitut":9375,"eks":9376,"les,":9377,"lemente":9378,"▁cuis":9379,"selv":9380,"öm":9381,"▁thousands":9382,"▁Verwaltungs":9383,"▁Indeed,":9384,"▁managed":9385,"britann":9386,"lebr":9387,"▁comput":9388,"▁electric":9389,"ado":9390,"anden":9391,"▁kennen":9392,"▁Ba":9393,"▁Wahlen":9394,"▁acqu":9395,"u,":9396,"▁Homepage":9397,"▁Click":9398,"▁ausger":9399,"14":9400,"▁ade":9401,"▁Aufnahme":9402,"▁graph":9403,"either":9404,"▁competitive":9405,"zeichen":9406,"▁players":9407,"/2":9408,"▁Lehr":9409,"▁here,":9410,"▁defend":9411,"allel":9412,"▁likely":9413,"ragen":9414,"sprach":9415,"▁ries":9416,"▁explo":9417,"▁Center":9418,"house":9419,"▁Verpflichtungen":9420,"▁transparency":9421,"▁sold":9422,"▁freien":9423,"▁selbstverständlich":9424,"▁scope":9425,"rum":9426,"▁3,":9427,"▁Irak":9428,"▁400":9429,"▁stellen.":9430,"▁Moment":9431,"größ":9432,"▁criminal":9433,"▁precisely":9434,"▁Switzer":9435,"bas":9436,"ists,":9437,"▁centr":9438,"▁Found":9439,"▁Ky":9440,"▁zug":9441,"▁Infrastruktur":9442,"▁exhibition":9443,"▁Küche":9444,"▁zuletzt":9445,"▁compens":9446,"▁belong":9447,"bruch":9448,"▁Anstrengungen":9449,"izes":9450,"▁Schließlich":9451,"ives.":9452,"▁Pack":9453,"gestellt.":9454,"▁tempor":9455,"▁listed":9456,"▁geführt":9457,"▁Verbind":9458,"▁impress":9459,"altungen":9460,"▁Schengen":9461,"▁Frem":9462,"▁substantial":9463,"▁so-called":9464,"▁Break":9465,"▁win":9466,"▁demands":9467,"zep":9468,"▁accepted":9469,"▁life.":9470,"▁compar":9471,"▁Enterprise":9472,"▁entit":9473,"▁information.":9474,"clude":9475,"▁Solidarität":9476,"▁wachs":9477,"folgend":9478,"atik":9479,"▁approved":9480,"▁begrenz":9481,"▁Klein":9482,"▁visitors":9483,"▁Rein":9484,"▁Bec":9485,"zeiten":9486,"▁empfehl":9487,"▁window":9488,"DP":9489,"▁zu.":9490,"ices,":9491,"▁Waffen":9492,"▁durchgeführt":9493,"▁Abs":9494,"▁kauf":9495,"etzung":9496,"▁supporting":9497,"inc":9498,"▁Prag":9499,"▁gemüt":9500,"7.":9501,"▁brief":9502,"bit":9503,"▁lassen,":9504,"angs":9505,"▁save":9506,"▁Grundsatz":9507,"▁leader":9508,"▁presence":9509,"fu":9510,"▁spielen":9511,"▁rise":9512,"▁behandelt":9513,"annte":9514,"▁destro":9515,"▁wahrscheinlich":9516,"▁Top":9517,"▁gave":9518,"ervice":9519,"zone":9520,"▁nütz":9521,"▁vertre":9522,"▁darum,":9523,"fun":9524,"▁darunter":9525,"▁dage":9526,"▁implemented":9527,"▁Hause":9528,"▁not,":9529,"▁Schlüssel":9530,"ita":9531,"ut,":9532,"▁genommen":9533,"▁Vereinbarung":9534,"-20":9535,"▁Boden":9536,"ded":9537,"▁Sü":9538,"TA":9539,"▁gewünsch":9540,"▁offensicht":9541,"schuld":9542,"▁development.":9543,"6)":9544,"▁SP":9545,"▁jeweils":9546,"▁solidarity":9547,"▁went":9548,"▁dan":9549,"ner,":9550,"-y":9551,"▁recognis":9552,"krise":9553,"▁match":9554,"olden":9555,"▁improving":9556,"▁grenz":9557,"▁specifically":9558,"▁Power":9559,"▁convenient":9560,"s\"":9561,"konferenz":9562,"▁photograph":9563,"is.":9564,"▁Heil":9565,"▁Vereinten":9566,"▁Sehens":9567,"▁geschaffen":9568,"h,":9569,"▁bott":9570,"▁EAD":9571,"▁processing":9572,"▁bestehen":9573,"▁eingerichte":9574,"▁Av":9575,"▁7.":9576,"chmal":9577,"▁Begriff":9578,"▁gleiche":9579,"▁CO2":9580,"▁sicherlich":9581,"ften":9582,"▁produc":9583,"nungs":9584,"▁Angelegenheiten":9585,"▁Afghanistan":9586,"▁dah":9587,"▁Kriterien":9588,"▁ru":9589,"▁vorzu":9590,"▁know,":9591,"▁auth":9592,"gemäß":9593,"penden":9594,"▁IC":9595,"▁reading":9596,"▁Großbritann":9597,"attle":9598,"▁Agenda":9599,"stände":9600,"▁Krä":9601,"▁Abschließend":9602,"▁plants":9603,"▁Herausforderungen":9604,"▁Hy":9605,"ktiven":9606,"ücken":9607,"leistung":9608,"-Te":9609,"▁typical":9610,"▁farmers":9611,"oted":9612,"▁Phil":9613,"▁entweder":9614,"leiste":9615,"gebaut":9616,"▁Italy":9617,"▁alloc":9618,"▁erwarten":9619,"▁Kal":9620,"▁Spanien":9621,"▁Schwierigkeiten":9622,"▁interpret":9623,"▁Bruss":9624,"▁mobil":9625,"ata":9626,"▁supplier":9627,"▁machine":9628,"▁Suche":9629,"ores":9630,"▁refuge":9631,"ades":9632,"▁(4":9633,"▁Why":9634,"onen":9635,"-System":9636,"gemeine":9637,"▁kommen.":9638,"▁Lib":9639,"▁untern":9640,"portion":9641,"▁competitiveness":9642,"-Pl":9643,"LE":9644,"▁dealing":9645,"▁Bereit":9646,"▁tun.":9647,"▁sho":9648,"▁Lag":9649,"▁Never":9650,"▁persons":9651,"ikanische":9652,"▁tack":9653,"▁Klimawand":9654,"▁Entwurf":9655,"▁incor":9656,"f.":9657,"▁ISO":9658,"tempor":9659,"▁linked":9660,"▁delay":9661,"▁elimin":9662,"bourg":9663,"▁options":9664,"▁covered":9665,"▁too.":9666,"▁regret":9667,"▁welcher":9668,"quate":9669,"▁psych":9670,"▁forget":9671,"▁considerable":9672,"club":9673,"▁participation":9674,"hagen":9675,"▁Charakter":9676,"▁NI":9677,"▁Besucher":9678,"sper":9679,"-star":9680,"▁Africa":9681,"▁weeks":9682,"letter":9683,"zähl":9684,"▁chines":9685,"▁Plen":9686,"etzen,":9687,"▁photo":9688,"▁würde,":9689,"▁hosp":9690,"gewicht":9691,"ielt":9692,"▁Fore":9693,"▁Rh":9694,"punkte":9695,"▁kommenden":9696,"▁komplex":9697,"führt,":9698,"▁Sow":9699,"▁gern":9700,"▁Europa,":9701,"▁defic":9702,"▁Health":9703,"▁eingesetzt":9704,"ishing":9705,"uropa":9706,"▁zuvor":9707,"▁processes":9708,"▁exclusive":9709,"road":9710,"▁gegründ":9711,"▁Teile":9712,"▁white":9713,"▁Engagement":9714,"▁erhalten,":9715,"▁suc":9716,"▁Over":9717,"▁entgegen":9718,"▁klare":9719,"▁Ausgaben":9720,"▁genießen":9721,"de.":9722,"ünschen":9723,"▁peaceful":9724,"ossible":9725,"▁Portugal":9726,"▁Unfortun":9727,"ampag":9728,"▁Roma":9729,"-3":9730,"▁pleasant":9731,"fahrens":9732,"die":9733,"▁technische":9734,"▁stimme":9735,"▁Bos":9736,"▁Haltung":9737,"fahren,":9738,"▁193":9739,"▁trust":9740,"works":9741,"▁contra":9742,"▁Distr":9743,"▁é":9744,"▁Kurz":9745,"▁Installation":9746,"führer":9747,"▁paragraph":9748,"▁Unabhäng":9749,"▁moral":9750,"▁jur":9751,"▁Madrid":9752,"igem":9753,"▁Mir":9754,"alten,":9755,"▁Nutzen":9756,"▁stimm":9757,"▁relate":9758,"▁willing":9759,"ometer":9760,"▁refle":9761,"▁Verständ":9762,"richten":9763,"s-":9764,"iler":9765,"▁(b":9766,"▁percent":9767,"▁methods":9768,"▁powers":9769,"uropean":9770,"gruppen":9771,"▁sauber":9772,"struction":9773,"▁flexibility":9774,"MU":9775,"▁PHP":9776,"mod":9777,"▁Absatz":9778,"▁Dienste":9779,"▁ober":9780,"▁Leider":9781,"▁color":9782,"▁(the":9783,"isten,":9784,"auftrag":9785,"ga":9786,"spe":9787,"▁ausz":9788,"▁sitting":9789,"▁aufgenommen":9790,"▁opposition":9791,"▁Prov":9792,"▁withd":9793,"ih":9794,"▁trave":9795,"▁words,":9796,"irus":9797,"akes":9798,"▁strict":9799,"▁Kommunikation":9800,"ales":9801,"des":9802,"▁Menge":9803,"▁Karte":9804,"inder":9805,"ameter":9806,"▁Environment":9807,"▁teilweise":9808,"▁Spa":9809,"▁entry":9810,"inary":9811,"▁factor":9812,"18":9813,"schech":9814,"set":9815,"▁Haushalt":9816,"▁getan":9817,"lung,":9818,"▁waren,":9819,"▁Christian":9820,"forsch":9821,"▁adjust":9822,"anda":9823,"▁Mio.":9824,"wachs":9825,"▁russ":9826,"▁Fischerei":9827,"herstell":9828,"stechn":9829,"▁Währung":9830,"▁Innovation":9831,"4-0":9832,"▁told":9833,"▁Wander":9834,"▁Inhalte":9835,"lassen":9836,"kap":9837,"bew":9838,"▁Meter":9839,"zz":9840,"iding":9841,"▁verring":9842,"▁durchaus":9843,"▁Act":9844,"▁uses":9845,"▁Ausbildung":9846,"▁mail":9847,"ia's":9848,"▁schem":9849,"▁registr":9850,"▁Anteil":9851,"ya":9852,"▁alte":9853,"bericht":9854,"▁oppos":9855,"▁behav":9856,"▁sle":9857,"denk":9858,"▁Arten":9859,"▁Stabilität":9860,"sektor":9861,"▁law.":9862,"unehmen.":9863,"▁verfolg":9864,"▁bringen,":9865,"▁Übergang":9866,"cluded":9867,"▁32":9868,"▁gradu":9869,"▁lines":9870,"▁übernachten":9871,"▁Under":9872,"▁nieder":9873,"▁efficiency":9874,"▁rooms,":9875,"▁permanent":9876,"▁minister":9877,"▁entscheiden":9878,"▁führen.":9879,"gree":9880,"▁Vielen":9881,"▁resist":9882,"▁orient":9883,"▁Zeichen":9884,"RA":9885,"▁Mel":9886,"etten":9887,"eb":9888,"▁liebe":9889,"▁positiv":9890,"▁GN":9891,"▁fit":9892,"▁danken.":9893,"▁Mount":9894,"▁Status":9895,"▁Harmon":9896,"dete":9897,"crete":9898,"▁motion":9899,"pann":9900,"▁Bil":9901,"▁areas.":9902,"▁domestic":9903,"▁desire":9904,"▁Ul":9905,"▁It's":9906,"▁himself":9907,"▁Richtlinien":9908,"uan":9909,"wan":9910,"eh":9911,"edia":9912,"▁vertreten":9913,"▁becomes":9914,"▁Group.":9915,"5)":9916,"▁Black":9917,"▁entirely":9918,"ständen":9919,"/or":9920,"karte":9921,"▁followed":9922,"▁Aspekt":9923,"prüfung":9924,"▁versuchen,":9925,"▁Origin":9926,"▁pros":9927,"▁angegeben":9928,"▁environment.":9929,"eschrän":9930,"▁Partei":9931,"▁assessment":9932,"▁Februar":9933,"▁wert":9934,"▁myself":9935,"▁ständig":9936,"▁playing":9937,"▁President-in-Office":9938,"▁Reformen":9939,"▁mission":9940,"▁gestimmt,":9941,"▁Gründ":9942,"daten":9943,"▁Vien":9944,"▁Kenn":9945,"▁--":9946,"▁improved":9947,"umän":9948,"ples":9949,"▁bekommen":9950,"▁inside":9951,"▁superv":9952,"regel":9953,"▁Tool":9954,"▁combat":9955,"▁Kil":9956,"cknow":9957,"▁advanced":9958,"▁fle":9959,"▁absolut":9960,"esterday":9961,"▁konkrete":9962,"▁metres":9963,"▁easier":9964,"IB":9965,"▁player":9966,"▁Because":9967,"▁Königreich":9968,"▁says":9969,"gehen.":9970,"imit":9971,"▁clients":9972,"▁19.":9973,"▁imag":9974,"leitet":9975,"itter":9976,"▁elections":9977,"▁delivery":9978,"▁bezeichnet":9979,"ischen,":9980,"▁hinzuf":9981,"▁planning":9982,"▁plans":9983,"▁anderes":9984,"▁45":9985,"▁Got":9986,"▁prä":9987,"▁früh":9988,"iums":9989,"▁initiatives":9990,"fälle":9991,"▁lives":9992,"▁Eisen":9993,"▁Ratsvorsitz":9994,"▁region.":9995,"▁Erstens":9996,"▁möchten,":9997,"▁police":9998,"▁fühl":9999,"▁htt":10000,"vey":10001,"haber":10002,"opol":10003,"▁Once":10004,"▁opened":10005,"▁verurteil":10006,"stoffe":10007,"iro":10008,"▁Non":10009,"known":10010,"▁occasion":10011,"▁zul":10012,"iling":10013,"▁stated":10014,"▁Sehenswürd":10015,"▁images":10016,"accept":10017,"▁mich,":10018,"▁conduct":10019,"▁(EN":10020,"▁closely":10021,"▁klass":10022,"ued":10023,"▁sicher,":10024,"▁acknow":10025,"▁Bran":10026,"ystemen":10027,"▁helfen":10028,"▁parliamentary":10029,"▁Atlant":10030,"▁experienced":10031,"▁ancient":10032,"▁Konz":10033,"▁founded":10034,"fertig":10035,"▁service.":10036,"▁chair":10037,"-Hotel":10038,"-Sch":10039,"EA":10040,"▁Mail":10041,"▁wenigen":10042,"▁organisations":10043,"▁Gewähr":10044,"pla":10045,"▁hatte,":10046,"▁ago,":10047,"▁Kingdom":10048,"▁song":10049,"▁Straf":10050,"▁Roy":10051,"▁concerned,":10052,"9)":10053,"▁nächste":10054,"▁negotiation":10055,"▁and/or":10056,"ative,":10057,"▁surpr":10058,"▁erreichen,":10059,"gramme":10060,"▁Sprachen":10061,"▁Barros":10062,"▁dennoch":10063,"äck":10064,"▁promoting":10065,"ütze":10066,"oring":10067,"ickets":10068,"▁Asyl":10069,"▁geograph":10070,"wasser":10071,"▁möglichst":10072,"▁Warum":10073,"reck":10074,"▁Monate":10075,"▁length":10076,"▁zufrieden":10077,"▁accident":10078,"▁Band":10079,"iles":10080,"▁stehen.":10081,"▁discussed":10082,"▁Modern":10083,"tete":10084,"▁Garten":10085,"▁EADS":10086,"▁dangerous":10087,"▁pet":10088,"CO":10089,"]],":10090,"▁Bush":10091,"▁dro":10092,"box":10093,"▁Klicken":10094,"▁Mechan":10095,"▁Aufbau":10096,"▁00":10097,"rem":10098,"▁vere":10099,"▁load":10100,"▁lokalen":10101,"▁(c":10102,"▁promotion":10103,"▁information,":10104,"▁50%":10105,"zustellen.":10106,"▁Anges":10107,"▁February":10108,"▁gegenseit":10109,"organisation":10110,"asing":10111,"▁Osten":10112,"schul":10113,"rt":10114,"▁celebr":10115,"▁facing":10116,"▁Gipfel":10117,"▁(PL)":10118,"en?":10119,"▁Chance":10120,"▁connected":10121,"▁difference":10122,"▁Dennoch":10123,"▁Entschließungsantrag":10124,"▁session":10125,"▁sector.":10126,"▁associated":10127,"▁Flücht":10128,"▁m2":10129,"▁hotel,":10130,"▁Freund":10131,"▁Fle":10132,"finition":10133,"▁railway":10134,"▁television":10135,"▁defence":10136,"▁getroffen":10137,"▁geschlossen.":10138,"▁bear":10139,"▁Einhaltung":10140,"▁students":10141,"▁Hall":10142,"▁Allgemein":10143,"▁Santa":10144,"auern":10145,"▁\"O":10146,"▁dish":10147,"▁Private":10148,"heit,":10149,"▁fruit":10150,"▁room,":10151,"▁Flexibil":10152,"chten.":10153,"hoben":10154,"▁ausdrücklich":10155,"▁issue.":10156,"▁citizens.":10157,"ilden":10158,"▁poverty":10159,"hrase":10160,"▁safeg":10161,"unkten":10162,"▁festgeleg":10163,"gesell":10164,"▁Stoff":10165,"ids":10166,"▁\"s":10167,"▁vorgeleg":10168,"▁Nachfolgend":10169,"The":10170,"ärkten":10171,"▁freue":10172,"▁Alex":10173,"▁humanitarian":10174,"nter":10175,"▁Vorteil":10176,"▁finanzielle":10177,"▁bringt":10178,"▁umfasst":10179,"ask":10180,"▁again,":10181,"schrift":10182,"isieren":10183,"▁unto":10184,"▁1996":10185,"▁täglich":10186,"▁middle":10187,"▁Lam":10188,"▁signal":10189,"ENT":10190,"▁Pfl":10191,"C,":10192,"▁accur":10193,"▁endgül":10194,"▁unaccept":10195,"▁Inf":10196,"▁Gemeinsamen":10197,"▁condem":10198,"▁say,":10199,"maß":10200,"isierten":10201,"▁Fen":10202,"govern":10203,"öder":10204,"▁21.":10205,"▁kommen,":10206,"▁Straß":10207,"▁fäll":10208,"▁3D":10209,"▁collabor":10210,"häus":10211,"▁impossible":10212,"▁hätten":10213,"icks":10214,"S)":10215,"etze":10216,"▁Nations":10217,"▁however":10218,"▁generally":10219,"▁Kompon":10220,"mel":10221,"▁Vielfalt":10222,"▁establishment":10223,"▁(V":10224,"▁immediate":10225,"ags":10226,"▁daran,":10227,"▁implementing":10228,"▁unterschiedliche":10229,"▁Herstellung":10230,"zog":10231,"illing":10232,"ikal":10233,"▁verabschied":10234,"▁unge":10235,"▁degree":10236,"▁radio":10237,"ault":10238,"try":10239,"▁Mö":10240,"▁combination":10241,"▁Meinung,":10242,"en:":10243,"iffer":10244,"▁except":10245,"▁benötigen":10246,"▁Organisationen":10247,"führten":10248,"▁Note":10249,"▁Kritik":10250,"▁amerikanischen":10251,"▁Then":10252,"▁are,":10253,"▁Stein":10254,"▁sole":10255,"▁indire":10256,"▁gram":10257,"▁vorbe":10258,"deckt":10259,"▁evidence":10260,"▁Com":10261,"▁besuch":10262,"▁Stimme":10263,"▁ausgesch":10264,"lern":10265,"▁manage":10266,"▁Hotel,":10267,"▁gewähl":10268,"iano":10269,"▁Irish":10270,"▁comments":10271,"▁fulfil":10272,"▁Dorf":10273,"▁Bern":10274,"▁Immobilien":10275,"aste":10276,"▁Super":10277,"▁place.":10278,"▁understanding":10279,"kte,":10280,"▁reducing":10281,"▁Kollegen,":10282,"▁announced":10283,"▁Unternehmen,":10284,"oram":10285,"▁Saint":10286,"▁propose":10287,"▁recognition":10288,"iesen,":10289,"▁Nahrungs":10290,"▁Achtung":10291,"ige,":10292,"cia":10293,"krieg":10294,"▁übernachten?":10295,"orient":10296,"▁persönlich":10297,"▁denke":10298,"▁Umfang":10299,"itze":10300,"▁Strom":10301,"▁AK":10302,"▁Hamburg":10303,"▁sand":10304,"▁rent":10305,"▁MP":10306,"▁shared":10307,"▁Resort":10308,"▁discussions":10309,"▁Kompet":10310,"gu":10311,"ünen":10312,"ranken":10313,"wechsel":10314,"▁truly":10315,"▁erforderlichen":10316,"C.":10317,"▁Wo":10318,"▁Jahrzehn":10319,"amente":10320,"▁Jetzt":10321,"istor":10322,"sehen":10323,"▁fields":10324,"▁danken,":10325,"▁satell":10326,"▁compla":10327,"▁erleich":10328,"les.":10329,"▁au":10330,"▁Finn":10331,"▁tragen":10332,"▁applies":10333,"aub":10334,"▁excess":10335,"▁bir":10336,"▁sollen.":10337,"▁sollten,":10338,"▁background":10339,"▁agenda":10340,"ris":10341,"▁mist":10342,"▁Hard":10343,"iam":10344,"stad":10345,"▁Aussicht":10346,"▁effektiv":10347,"▁ahead":10348,"▁verstehen":10349,"leitung":10350,"▁Vielzahl":10351,"▁OS":10352,"▁cur":10353,"icken":10354,"licherweise":10355,"▁quar":10356,"▁permit":10357,"ärm":10358,"▁purchase":10359,"▁adapt":10360,"▁Währungs":10361,"▁Apartments":10362,"▁screen":10363,"▁Due":10364,"▁Standards":10365,"▁availability":10366,"▁fisheries":10367,"▁Völker":10368,"▁Stärkung":10369,"▁entertain":10370,"▁duty":10371,"▁wall":10372,"ücke":10373,"▁formal":10374,"▁Kommission.":10375,"▁Element":10376,"▁Stellungnahme":10377,"▁Wald":10378,"▁dauer":10379,"▁trag":10380,"▁possibilities":10381,"wurf":10382,"che,":10383,"▁Berichterstatterin":10384,"▁berücksichtigt":10385,"gment":10386,"▁menu":10387,"▁victims":10388,"utin":10389,"▁Einigung":10390,"▁votes":10391,"▁one.":10392,"▁constit":10393,"zwischen":10394,"kan":10395,"igung,":10396,"▁games":10397,"▁jetz":10398,"enhagen":10399,"▁Sehr":10400,"▁(19":10401,"itious":10402,"▁konnten":10403,"▁enth":10404,"▁membership":10405,"door":10406,"itors":10407,"etter":10408,"▁einiger":10409,"▁umgesetzt":10410,"▁Office":10411,"▁Arbeiten":10412,"▁hingew":10413,"▁10.":10414,"▁cohesion":10415,"jo":10416,"▁aufmerksam":10417,"▁phone":10418,"▁level,":10419,"▁Wall":10420,"▁opinion,":10421,"▁Gleichzeitig":10422,"▁•":10423,"▁könnte.":10424,"▁calling":10425,"▁Schön":10426,"-J":10427,"▁Produktions":10428,"▁leben":10429,"▁spl":10430,"▁begann":10431,"ando":10432,"▁isol":10433,"▁reception":10434,"▁marketing":10435,"▁genieß":10436,"gestellt,":10437,"▁Gott":10438,"▁erzeug":10439,"▁industry.":10440,"▁Polize":10441,"▁Support":10442,"leid":10443,"▁monetary":10444,"▁Colle":10445,"▁fixed":10446,"▁miteinander":10447,"ennen.":10448,"▁(EN)":10449,"▁there,":10450,"▁today's":10451,"▁Work":10452,"▁Prime":10453,"gers":10454,"ombin":10455,"EO":10456,"▁Tourismus":10457,"opt":10458,"▁Name":10459,"▁übrigen":10460,"▁Land,":10461,"iscal":10462,"nach":10463,"attform":10464,"▁darüber,":10465,"▁Zuständ":10466,"▁Bedarf":10467,"▁otherwise":10468,"▁transition":10469,"re,":10470,"▁delic":10471,"▁evening":10472,"▁Wege":10473,"▁greatest":10474,"▁urban":10475,"▁äl":10476,"ier,":10477,"ologische":10478,"▁sn":10479,"iente":10480,"▁20%":10481,"aschine":10482,"asil":10483,"▁Typ":10484,"▁Sonnen":10485,"▁Gästebewertungen":10486,"arischen":10487,"zeichnete":10488,"▁expend":10489,"▁ST":10490,"▁intention":10491,"ounts":10492,"▁una":10493,"stelle":10494,"ils":10495,"▁Paket":10496,"▁Beach":10497,"▁generation":10498,"▁hinweisen,":10499,"▁entdeck":10500,"▁Vo":10501,"erechn":10502,"▁Dateien":10503,"mental":10504,"um.":10505,"▁Pa":10506,"scher":10507,"▁üb":10508,"▁Geist":10509,"▁attach":10510,"▁Funktionen":10511,"▁unabhängig":10512,"▁Fonds":10513,"▁Angaben":10514,"▁schaffen":10515,"▁connect":10516,"▁vernünft":10517,"▁Frankfurt":10518,"▁hilf":10519,"-sized":10520,"64":10521,"▁gering":10522,"▁genutzt":10523,"▁richtigen":10524,"waren":10525,"▁e.":10526,"riminierung":10527,"▁Anw":10528,"▁Wi":10529,"fs":10530,"▁unless":10531,"▁laws":10532,"rüst":10533,"▁Verletz":10534,"▁cities":10535,"▁Datei":10536,"▁Parlament,":10537,"▁allowing":10538,"▁niemand":10539,"▁erwartet":10540,"▁Main":10541,"▁again.":10542,"▁schönen":10543,"utch":10544,"▁door":10545,"▁treff":10546,"▁Titel":10547,"ilot":10548,"▁Lo":10549,"ireless":10550,"iertes":10551,"▁Ear":10552,"▁Datenbank":10553,"▁entitled":10554,".S.":10555,"band":10556,"erver":10557,"üll":10558,"▁introduce":10559,"▁Check":10560,"▁erfahren":10561,"▁benutzt":10562,"aken":10563,"▁Digital":10564,"▁Rand":10565,"▁enormous":10566,"mon":10567,"▁Apartment":10568,"▁installation":10569,"▁notwendig,":10570,"▁divid":10571,"▁gegenwärtig":10572,"chem":10573,"GO":10574,"▁enables":10575,"▁concrete":10576,"yle":10577,"▁so.":10578,"temporary":10579,"▁(DE)":10580,"ichert":10581,"▁religious":10582,"ny":10583,"▁Turkish":10584,"▁konstru":10585,"▁intervention":10586,"öss":10587,"genommen.":10588,"ühren":10589,");":10590,"▁Fel":10591,"▁conclusion":10592,"▁Mun":10593,"▁Maschinen":10594,"▁8.":10595,"▁Germany,":10596,"zt":10597,"▁vision":10598,"▁Webseite":10599,"▁square":10600,"▁möglich.":10601,"▁Breakfast":10602,"union":10603,"▁Berichte":10604,"▁Teilnehmer":10605,"▁Palestinian":10606,"▁genuine":10607,"▁harm":10608,"tzeit":10609,"jährigen":10610,"▁bemü":10611,"▁überall":10612,"▁Mik":10613,"▁conv":10614,"▁products,":10615,"▁vul":10616,"▁20.":10617,"▁adoption":10618,"▁Sonn":10619,"▁convention":10620,"▁Nether":10621,"▁Lesung":10622,"▁danach":10623,"▁definition":10624,"▁Rechnungs":10625,"▁Firstly,":10626,"▁kitchen":10627,"▁Os":10628,"▁Chanc":10629,"ägen":10630,"▁banks":10631,"▁Analyse":10632,"werke":10633,"▁format":10634,"istisch":10635,"▁rock":10636,"▁Straße":10637,"▁risks":10638,"▁weiterer":10639,"bere":10640,"▁ones":10641,"▁approxim":10642,"uche":10643,"▁Zugriff":10644,"▁Michael":10645,"▁Veränderungen":10646,"▁0.":10647,"▁komplett":10648,"raucher":10649,"▁surface":10650,"▁Forderung":10651,"▁businesses":10652,"tert":10653,"▁dient":10654,"500":10655,"▁asyl":10656,"▁kulturellen":10657,"▁signed":10658,"▁appears":10659,":0":10660,"▁prospect":10661,"▁Angesichts":10662,"▁Wand":10663,"▁Technologien":10664,"▁Seine":10665,"viel":10666,"ilst":10667,"▁Interess":10668,"▁folgen":10669,"▁morning":10670,"▁there.":10671,"▁aims":10672,"▁Regelung":10673,"▁Kommissions":10674,"▁possible,":10675,"asts":10676,"▁future,":10677,"▁THE":10678,"▁technologies":10679,"▁vorliegenden":10680,"UT":10681,"▁besteht,":10682,"-r":10683,"▁Verst":10684,"▁unf":10685,"▁Welt.":10686,"▁Globalisierung":10687,"▁�":10688,"▁then,":10689,"plätze":10690,"▁camera":10691,"▁Justiz":10692,"▁sämtliche":10693,"▁Idee":10694,"▁zeigen":10695,"▁keinerlei":10696,"▁African":10697,"▁ging":10698,"▁jour":10699,"ooth":10700,"▁hy":10701,"ängen":10702,"ora":10703,"theless,":10704,"▁kons":10705,"rägen":10706,"ördert":10707,"▁earth":10708,"▁Custom":10709,"▁Leistungen":10710,"reu":10711,"alys":10712,"▁Ros":10713,"arten,":10714,"▁Rec":10715,"orden":10716,"▁Live":10717,"▁ausges":10718,"▁attractive":10719,"▁Gerichtshof":10720,"▁grenzüber":10721,"▁Cub":10722,"▁liter":10723,"▁Rechnung":10724,"ala":10725,"▁coordination":10726,"atever":10727,"▁administration":10728,"▁Prioritäten":10729,"▁sell":10730,"▁http://":10731,"tern.":10732,"-year":10733,"▁all.":10734,"▁romant":10735,"tzentrum":10736,"▁dedicated":10737,"▁Wechsel":10738,"▁forced":10739,"ürk":10740,"▁Hinweis":10741,"▁theor":10742,"▁regionalen":10743,"▁Very":10744,"▁declar":10745,"▁closed":10746,"▁ök":10747,"ein,":10748,"▁waren.":10749,"person":10750,"▁führen,":10751,"ey":10752,"▁Kurs":10753,"▁Meiner":10754,"▁Forderungen":10755,"verkehrs":10756,"▁Pakistan":10757,"▁ID":10758,"▁expression":10759,"▁Mittelmeer":10760,"LAN":10761,"▁zentrale":10762,"▁100%":10763,"▁folgende":10764,"▁Beitritt":10765,"▁Messe":10766,"ounge":10767,"▁installed":10768,"▁raise":10769,"▁Initiativen":10770,"▁reliable":10771,"▁USB":10772,"he,":10773,"▁revolution":10774,"▁Kindern":10775,"gas":10776,"▁Reich":10777,"▁PDF":10778,"ieten,":10779,"▁Kontroll":10780,"▁haupts":10781,"▁CH":10782,"ines,":10783,"▁vermeid":10784,"▁totally":10785,"▁verantwortlich":10786,"quar":10787,"▁Syn":10788,"▁development,":10789,"▁einver":10790,"▁beschrän":10791,"▁debt":10792,"▁fordern":10793,"▁Mat":10794,"▁developments":10795,"▁picture":10796,"▁strongly":10797,"äden":10798,"▁tief":10799,"▁aufzu":10800,"▁Foreign":10801,"▁2009.":10802,"ue.":10803,"▁pure":10804,"gehen,":10805,"wohner":10806,"▁cheap":10807,"▁succeed":10808,"▁Federal":10809,"anlagen":10810,"▁diss":10811,"arr":10812,"es:":10813,"active":10814,"wirt":10815,"▁on.":10816,"▁problem.":10817,"▁Lizenz":10818,"▁rech":10819,"▁Erhö":10820,"▁befürwor":10821,"▁convinced":10822,"▁compared":10823,"▁Produkten":10824,"▁Urs":10825,"▁qualit":10826,"▁Mond":10827,"▁Another":10828,"▁informed":10829,"▁mm":10830,"ida":10831,"▁enh":10832,"▁motiv":10833,"aries":10834,"▁combined":10835,"▁accompan":10836,"▁Festival":10837,"▁born":10838,"▁heißt,":10839,"stücks":10840,"▁Control":10841,"▁beru":10842,"▁estate":10843,"▁collect":10844,"achtet":10845,"▁prison":10846,"▁französischen":10847,"▁Systeme":10848,"▁establishing":10849,"▁reforms":10850,"▁wirks":10851,"aby":10852,"aves":10853,"▁defined":10854,"mittag":10855,"▁Leistungs":10856,"▁currency":10857,"▁Austrian":10858,"▁magn":10859,"▁emissions":10860,"▁spent":10861,"ragen.":10862,"▁Ihnen,":10863,"▁10%":10864,"▁por":10865,"▁Back":10866,"▁größeren":10867,"▁biggest":10868,"▁höchste":10869,"▁Halb":10870,"▁described":10871,"brauch":10872,"▁reprodu":10873,"▁available.":10874,"di":10875,"▁mainten":10876,"▁genet":10877,"▁Third":10878,"▁Casino":10879,"▁diplomat":10880,"▁forth":10881,"▁guidelines":10882,"jekten":10883,"▁ausgestattet":10884,"▁science":10885,"fle":10886,"▁beinhal":10887,"▁diejenigen,":10888,"▁golf":10889,"arta":10890,"▁anyone":10891,"▁pour":10892,"▁ow":10893,"▁engl":10894,"▁entwickeln":10895,"▁gewinn":10896,"▁grunds":10897,"▁Croat":10898,"▁languages":10899,"▁veget":10900,"3)":10901,"A,":10902,"▁Eindruck":10903,"hörde":10904,"mas":10905,"ource":10906,"itzen":10907,"▁worldwide":10908,"onial":10909,"▁vereinbar":10910,"▁effectively":10911,"utor":10912,"▁Formen":10913,"▁China,":10914,"▁spezielle":10915,"▁zusätzlich":10916,"▁beige":10917,"omin":10918,"▁Gebrauch":10919,"▁closer":10920,"▁gegenwärtigen":10921,"▁Kandid":10922,"▁Rob":10923,"▁Bis":10924,"-Bahn":10925,"▁worden,":10926,"▁meant":10927,"x,":10928,"▁Verz":10929,"▁Mindest":10930,"▁verbundenen":10931,"▁law,":10932,"▁grundsätz":10933,"▁Hafen":10934,"istik":10935,"▁patent":10936,"iov":10937,"▁Beschreibung":10938,"▁enfor":10939,"prinzip":10940,"▁31":10941,"▁continued":10942,"▁dir":10943,"▁Überwachung":10944,"igsten":10945,"▁gratul":10946,"▁button":10947,"▁Van":10948,"▁freuen":10949,"▁para":10950,"atoren":10951,"▁abgest":10952,"▁disaster":10953,"▁>":10954,"▁optimal":10955,"▁wäre,":10956,"▁anbie":10957,"▁politischer":10958,"▁großes":10959,"▁schaffen.":10960,"▁priorities":10961,"▁Wien":10962,"▁PPE":10963,"▁Bewertung":10964,"▁fest,":10965,"istence":10966,"▁reasonable":10967,"▁verwenden":10968,"▁Tatsache":10969,"▁Reaktion":10970,"ile,":10971,"-Programm":10972,"afr":10973,"▁Heimat":10974,"athed":10975,"▁paper":10976,"▁gutes":10977,"▁Haut":10978,"▁average":10979,"▁day,":10980,"aming":10981,"▁internationaler":10982,"erei":10983,"▁Vertrie":10984,"▁grant":10985,"▁Special":10986,"▁tried":10987,"▁zerstör":10988,"▁beruf":10989,"▁herrsch":10990,"▁out,":10991,"ancial":10992,"partner":10993,"▁Head":10994,"▁begl":10995,"▁müs":10996,"▁legitim":10997,"▁drawn":10998,"-00":10999,"cap":11000,"▁sectors":11001,"roff":11002,"▁systems.":11003,"▁12.":11004,"stät":11005,"▁erf":11006,"▁functions":11007,"CD":11008,"▁steig":11009,"▁laid":11010,"▁vollkommen":11011,"▁Engl":11012,"▁Deutsche":11013,"▁Ans":11014,"ammer":11015,"▁command":11016,"▁gesehen":11017,"▁solcher":11018,"▁Stadtzentrum":11019,"▁Eastern":11020,"look":11021,"fordern":11022,"▁sogen":11023,"▁Constitution":11024,"▁Foto":11025,"▁Bol":11026,"ines.":11027,"▁unable":11028,"▁liber":11029,"▁seven":11030,"▁Opp":11031,"▁Association":11032,"▁Technik":11033,"ibrary":11034,"▁Fitness":11035,"▁Ganz":11036,"▁contex":11037,"▁regime":11038,"iothe":11039,"▁Beteiligung":11040,"▁wesentlichen":11041,"▁erinnern,":11042,"▁destroy":11043,"vorschlag":11044,":30":11045,"▁(z.":11046,"22":11047,"▁saw":11048,"erap":11049,"▁Grunde":11050,"▁Ansicht,":11051,"▁Quest":11052,"leun":11053,"▁Tit":11054,"▁Dollar":11055,"▁rob":11056,"▁neither":11057,"teten":11058,"▁families":11059,"äne":11060,"öse":11061,"▁geht.":11062,"▁Vermitt":11063,"▁Palace":11064,"spar":11065,"ago":11066,"▁Verteidigung":11067,"▁Dimension":11068,"▁guarantees":11069,"▁expos":11070,"▁gründ":11071,"bald":11072,"▁verbesser":11073,"▁näher":11074,"▁erlaubt":11075,"▁Sea":11076,"▁korre":11077,"▁corporate":11078,"▁beglückw":11079,"lösung":11080,"itts":11081,"▁Todes":11082,"üter":11083,"▁interface":11084,"ibliothe":11085,"anim":11086,"heits":11087,"flug":11088,"▁äuß":11089,"▁route":11090,"▁Brüssel":11091,"▁sicherzustellen,":11092,"▁Sen":11093,"▁ergänz":11094,"ösch":11095,"▁Gegensatz":11096,"jet":11097,"windigkeit":11098,"▁Instrumente":11099,"▁innovation":11100,"▁Relig":11101,"aria":11102,"▁honourable":11103,"▁umfassende":11104,"▁Länder,":11105,"▁Wiederauf":11106,"utr":11107,"▁Where":11108,"▁Report":11109,"preise":11110,"▁Institute":11111,"▁Universität":11112,"▁definit":11113,"▁AR":11114,"▁enor":11115,"▁Kohäs":11116,"ibet":11117,"▁continues":11118,"▁stable":11119,"▁Gut":11120,"assung":11121,"▁financing":11122,"▁registered":11123,"-Sterne":11124,"▁out.":11125,"▁Drogen":11126,"▁balcon":11127,"▁chemical":11128,"▁kos":11129,"▁process,":11130,"ives,":11131,"okraten":11132,"▁ambitious":11133,"▁jene":11134,"▁Sor":11135,"▁helfen,":11136,"▁Fire":11137,"▁verlei":11138,"UN":11139,"▁support.":11140,"▁Erhol":11141,"▁Tim":11142,"▁unterstütze":11143,"▁Alban":11144,"▁bound":11145,"▁Trek":11146,"▁nutzen,":11147,"▁fern":11148,"reb":11149,"▁sched":11150,"▁thinking":11151,"▁appeal":11152,"▁Einrichtungen":11153,"▁Abgeordnete":11154,"yright":11155,"▁Poker":11156,"▁Beschäftigungs":11157,"▁highlight":11158,"▁Risiko":11159,"▁cook":11160,"aller":11161,"uzz":11162,"▁ECU":11163,"▁ep":11164,"ensions":11165,"▁city.":11166,"uste":11167,"▁participate":11168,"▁Today":11169,"▁entspann":11170,"ists.":11171,"▁Banken":11172,"▁Data":11173,"▁Verständnis":11174,"▁Tisch":11175,"▁sicherstell":11176,"▁relaxing":11177,"▁Bestandteil":11178,"▁stellen,":11179,"▁zeigen,":11180,"▁achieving":11181,"iche":11182,"▁Auffassung":11183,"isierte":11184,"klang":11185,"ador":11186,"-spe":11187,"▁Caf":11188,"▁vert":11189,"▁room.":11190,"ista":11191,"▁möchte,":11192,"▁freie":11193,"▁Forum":11194,"▁kept":11195,"ua":11196,"▁#":11197,"umn":11198,"▁sagte,":11199,"▁Good":11200,"▁condemn":11201,"-200":11202,"▁Cam":11203,"▁Greek":11204,"▁correspond":11205,"▁White":11206,"▁Hersteller":11207,"▁Kirche":11208,"▁wirksam":11209,"hy":11210,"▁self-":11211,"▁daraus":11212,"▁Auffass":11213,"anische":11214,"▁SD":11215,"▁Press":11216,"S,":11217,"▁Entwicklungen":11218,"▁Pool":11219,"▁compr":11220,"est,":11221,"▁erfre":11222,"▁Sorge":11223,"▁Apparte":11224,"▁minute":11225,"▁Bevölker":11226,"▁Worte":11227,"▁Anlage":11228,"▁Texte":11229,"▁Po":11230,"▁distin":11231,"▁Beim":11232,"▁items":11233,"▁vergleich":11234,"ointed":11235,"▁Latin":11236,"bieter":11237,"▁Bahnhof":11238,"ic.":11239,"▁urgent":11240,"abilities":11241,"▁geöffnet":11242,"▁compat":11243,"itten,":11244,"▁unten":11245,"▁elected":11246,"sb":11247,"ido":11248,"▁thre":11249,"▁Fert":11250,"▁speziellen":11251,"▁Bedürfnisse":11252,"▁surrounded":11253,"knü":11254,"omas":11255,"▁hoffe":11256,"▁sorgen,":11257,"SL":11258,"▁equality":11259,"▁experts":11260,"▁explain":11261,"▁yesterday":11262,"▁angesprochen":11263,"▁Priorität":11264,"ekt":11265,"gefähr":11266,"▁umwelt":11267,"log":11268,"▁Reis":11269,"▁analy":11270,"ras":11271,"▁Rent":11272,"▁privile":11273,"uses":11274,"olge":11275,"▁benach":11276,"rollen":11277,"line.":11278,"▁Ireland":11279,"▁Gefühl":11280,"▁trading":11281,"▁einfache":11282,"▁Jac":11283,"▁Nachdem":11284,"▁geschie":11285,"▁Definition":11286,"▁independen":11287,"▁erneuer":11288,"▁ap":11289,"▁Lord":11290,"produktion":11291,"▁Summit":11292,"▁pred":11293,"▁now.":11294,"eind":11295,"ula":11296,"▁rasch":11297,"▁britischen":11298,"▁Peter":11299,"▁wealth":11300,"testen":11301,"▁Niveau":11302,"▁accessible":11303,"▁Media":11304,"ase.":11305,"izz":11306,"▁Meeres":11307,"▁Führung":11308,"▁Datenschutz":11309,"governmental":11310,"▁Feld":11311,"▁sources":11312,"▁wählen":11313,"▁drug":11314,"▁temper":11315,"▁physical":11316,"handlungen":11317,"▁differences":11318,"▁surv":11319,"▁Klim":11320,"▁infrastructure":11321,"▁burden":11322,"▁exklus":11323,"▁attend":11324,"ombination":11325,"▁problems.":11326,"schläge":11327,"▁Schwed":11328,"▁zuge":11329,"ibel":11330,"erma":11331,"▁Architektur":11332,"▁(PT)":11333,"▁Katastrop":11334,"▁Gebieten":11335,"tellect":11336,"▁quot":11337,"▁Max":11338,"it,":11339,"▁reject":11340,"▁Schm":11341,"▁gestimmt.":11342,"▁Phot":11343,"verein":11344,"aket":11345,"▁print":11346,"▁Slow":11347,"hebung":11348,"▁entstand":11349,"▁Monat":11350,"▁translation":11351,"▁sorgfält":11352,"▁medium-sized":11353,"ef":11354,"▁fiscal":11355,"▁Weitere":11356,"▁Nik":11357,"ennis":11358,"▁philosoph":11359,"overy":11360,"grün":11361,"▁1995":11362,"▁Cre":11363,"▁organisation":11364,"▁Nam":11365,"▁moving":11366,"stattung":11367,"▁subs":11368,"▁arrival":11369,"▁Liberalisierung":11370,"OD":11371,"▁balanced":11372,"▁glass":11373,"entin":11374,"▁alt":11375,"▁adap":11376,"▁sagte":11377,"▁Farb":11378,"▁Betriebs":11379,"▁Located":11380,"SQL":11381,"▁Gaz":11382,"▁überprüf":11383,"▁dé":11384,"▁na":11385,"▁Herren,":11386,"▁Partnerschaft":11387,"▁III":11388,"▁beantwor":11389,"version":11390,"▁mittl":11391,"▁Gent":11392,"▁2010.":11393,"▁Leistung":11394,"A)":11395,"▁rig":11396,"▁safeguard":11397,"▁wunderschö":11398,"▁Day":11399,"▁36":11400,"▁consens":11401,"▁...\"":11402,"▁guter":11403,"-4":11404,"▁außerord":11405,"▁merely":11406,"grade":11407,"▁erweiter":11408,"▁micro":11409,"ashion":11410,"▁underg":11411,"▁Lake":11412,"▁article":11413,"obility":11414,"▁manchmal":11415,"schlossen":11416,"▁Unfortunately,":11417,"▁Bar,":11418,"▁failure":11419,"▁türk":11420,"▁angeboten":11421,"sec":11422,"▁mittels":11423,"wagen":11424,"▁sam":11425,"uting":11426,"▁reve":11427,"enden,":11428,"▁appar":11429,"▁income":11430,"▁Zeiten":11431,"▁Gegenteil":11432,"▁dagegen":11433,"▁entschieden":11434,"▁coffee":11435,"▁communities":11436,"▁hauptsächlich":11437,"mach":11438,"▁Arbeitsmarkt":11439,"▁ideale":11440,"▁preserv":11441,"▁spricht":11442,"▁pension":11443,"▁ermö":11444,"▁Front":11445,"▁Grundrechte":11446,"▁dete":11447,"▁ausländ":11448,"▁allgemeine":11449,"▁justice":11450,"eller":11451,"ternen":11452,"▁carefully":11453,"▁pun":11454,"▁sobald":11455,"▁assum":11456,"▁perfectly":11457,"▁Arbeitslosigkeit":11458,"▁someone":11459,"▁constantly":11460,"▁unemployment":11461,"▁Abstimm":11462,"▁möglichen":11463,"▁\"In":11464,"▁Erwart":11465,"▁Mutter":11466,"▁animals":11467,"zil":11468,"▁consists":11469,"▁situation.":11470,"▁asking":11471,"▁prevention":11472,"▁failed":11473,"-of":11474,"▁Square":11475,"▁anti-":11476,"▁putting":11477,"▁participants":11478,"agen,":11479,"▁Andre":11480,"▁sensitive":11481,"▁statements":11482,"▁Zoll":11483,"uble":11484,"räum":11485,"▁Austria":11486,"▁dar,":11487,"▁Market":11488,"▁ermöglichen":11489,"▁core":11490,"▁MEP":11491,"ancing":11492,"\"...":11493,"mögen":11494,"▁Beob":11495,"▁ausgewogen":11496,"ktop":11497,"▁pill":11498,"▁closed.":11499,"odurch":11500,"▁vorgeschlagenen":11501,"▁approximately":11502,"▁swe":11503,"▁Station":11504,"▁bringing":11505,"▁voice":11506,"technik":11507,"▁gewiss":11508,"▁programs":11509,"▁association":11510,"▁but,":11511,"qualität":11512,"▁released":11513,"▁glad":11514,"▁Unabhängigkeit":11515,"▁betonen,":11516,"ence,":11517,"▁Überzeug":11518,"▁debate.":11519,"▁braucht":11520,"gypt":11521,"▁Häl":11522,"▁Jeder":11523,"tritt":11524,"prüft":11525,"▁Nevertheless,":11526,"▁Kopf":11527,"wachstum":11528,"▁'s":11529,"reif":11530,"▁trend":11531,"▁Pic":11532,"auso":11533,"▁18.":11534,"▁jüngsten":11535,"▁assign":11536,"▁massive":11537,"▁Entspann":11538,"▁Syr":11539,"jection":11540,"▁fraud":11541,"▁Blog":11542,"▁eg":11543,"▁langen":11544,"iking":11545,"orough":11546,"▁Both":11547,"▁Trade":11548,"▁difficulties":11549,"iquid":11550,"▁Frühstücks":11551,"▁EN":11552,"▁Patienten":11553,"aker":11554,"▁Austral":11555,"▁grie":11556,"▁cool":11557,"▁submit":11558,"▁spot":11559,"▁proportion":11560,"▁nehmen.":11561,"▁norm":11562,"rier":11563,"▁blog":11564,"vereign":11565,"▁pointed":11566,"▁Vom":11567,"▁count":11568,"▁hands":11569,"▁areas,":11570,"▁sovereign":11571,"▁starke":11572,"▁Absicht":11573,"▁erzielt":11574,"▁Balkan":11575,"▁bestell":11576,"▁numbers":11577,"▁resulting":11578,"iefer":11579,"▁9.":11580,"▁Martin":11581,"gestellten":11582,"▁diesel":11583,"▁responsibilities":11584,"▁continuing":11585,"▁Ruhe":11586,"▁politisch":11587,"fung":11588,"▁Roll":11589,"▁Sur":11590,"▁Chem":11591,"▁Hauses":11592,"▁zurückge":11593,"▁hall":11594,"rahmen":11595,"▁id":11596,"▁Temp":11597,"▁Rumän":11598,"▁slight":11599,"▁Those":11600,"▁Enjoy":11601,"▁zugleich":11602,"▁herzlich":11603,"▁Sä":11604,"▁schöne":11605,"body":11606,"▁Eben":11607,"-Str":11608,"▁Los":11609,"▁Presse":11610,"▁you'll":11611,"]].":11612,"▁geworden":11613,"▁sector,":11614,"▁Ausführ":11615,"▁u":11616,"▁berecht":11617,"▁Militär":11618,"▁beob":11619,"▁250":11620,"▁conclude":11621,"▁betroffenen":11622,"▁wodurch":11623,"▁afford":11624,"ng":11625,"irk":11626,"▁medizin":11627,"schiede":11628,"▁contained":11629,"TP":11630,"▁bio":11631,"▁bereit,":11632,"▁Schne":11633,"▁outstanding":11634,"▁Pop":11635,"▁retain":11636,"▁booking":11637,"▁candidate":11638,"▁h.":11639,"▁properly":11640,"▁dig":11641,"▁Sun":11642,"▁4,":11643,"▁master":11644,"▁components":11645,"lichem":11646,"▁secret":11647,"ase,":11648,"▁Merk":11649,"▁(IT":11650,"▁rightly":11651,"▁vieler":11652,"▁luxury":11653,"▁JavaS":11654,"▁contemporary":11655,"▁re-":11656,"▁Repr":11657,"▁abst":11658,"▁Jo":11659,"▁prüf":11660,"▁terrace":11661,"▁genü":11662,"▁Mitglieds":11663,"▁Künstler":11664,"richtlinie":11665,"▁Links":11666,"▁gemeinschaft":11667,"▁Gesam":11668,"▁lov":11669,"▁Niederland":11670,"▁fuel":11671,"▁toler":11672,"2010":11673,"▁Maße":11674,"▁Chamber":11675,"▁charged":11676,"▁(The":11677,"▁sem":11678,"▁Revolution":11679,"▁speaking":11680,"▁Cypr":11681,"▁erklärt":11682,"▁stamm":11683,"pal":11684,"▁borders":11685,"▁Studio":11686,"E,":11687,"▁Eth":11688,"án":11689,"▁Beweis":11690,"▁capt":11691,"UM":11692,"ée":11693,"ime,":11694,"▁Today,":11695,"räft":11696,"▁persönliche":11697,"▁Teilnahme":11698,"▁Klimaanlage":11699,"reitung":11700,"▁Prakt":11701,"▁Koordinierung":11702,"▁Regulation":11703,"▁passed":11704,"▁verbessern.":11705,"▁Erklärungen":11706,"▁Diskriminierung":11707,"▁breakf":11708,"▁strengthening":11709,"üß":11710,"ellos":11711,"▁Zentralbank":11712,"▁nearly":11713,"▁Budget":11714,"▁therm":11715,"ura":11716,"olo":11717,"▁geword":11718,"▁leads":11719,"▁incorpor":11720,"▁beha":11721,"▁capable":11722,"▁jungen":11723,"sichts":11724,"▁Ve":11725,"▁Wür":11726,"▁chosen":11727,"▁Journal":11728,"information":11729,"▁echte":11730,"▁Pin":11731,"lossen,":11732,"▁School":11733,"▁einzus":11734,"▁Autor":11735,"▁dritten":11736,"▁Jose":11737,"▁wichtigste":11738,"==":11739,"entscheid":11740,"▁Weiß":11741,"▁Streit":11742,"▁2009,":11743,"▁Zuf":11744,"▁angep":11745,"▁authority":11746,"▁organised":11747,"elt.":11748,"ries":11749,"▁Bosn":11750,"bu":11751,"▁BM":11752,"▁amt":11753,"▁Fax":11754,"racht,":11755,"▁extended":11756,"▁Admin":11757,"▁Welche":11758,"▁Internationalen":11759,"▁vorbereit":11760,"▁password":11761,"75":11762,"stat":11763,"glieder":11764,"teilen":11765,"do":11766,"▁Telefon":11767,"▁Beschluss":11768,"▁Dort":11769,"▁Angriff":11770,"▁Schwar":11771,"▁waiting":11772,"▁Kaffe":11773,"▁attemp":11774,"ungsk":11775,"üssen":11776,"mlich":11777,"▁gut,":11778,"▁bestimmt":11779,"verbind":11780,"inning":11781,"▁Herren":11782,"-Kon":11783,"arbeiten,":11784,"haben":11785,"ausende":11786,"▁brings":11787,"umer":11788,"▁einzigen":11789,"▁requested":11790,"airs,":11791,"lete":11792,"▁Democrats":11793,"ieb":11794,"▁grammat":11795,"▁nar":11796,"▁seeking":11797,"▁verbessert":11798,"▁Erhöhung":11799,"losen":11800,"gänglich":11801,"▁Ebenso":11802,"▁Märkte":11803,"▁me,":11804,"▁Publik":11805,"ungsbereich":11806,"▁nachhaltige":11807,"meister":11808,"▁Nichtraucher":11809,"▁praktisch":11810,"gin":11811,"▁truth":11812,"▁parallel":11813,"▁Island":11814,"▁Europäer":11815,"▁gesetzt":11816,"▁lau":11817,"▁Ferienwohn":11818,"zig":11819,"istungs":11820,"äufer":11821,"▁zunehmend":11822,"▁asylum":11823,"management":11824,"▁vulner":11825,"▁Anlagen":11826,"ipping":11827,"▁southern":11828,"▁exercise":11829,"▁Dutch":11830,"▁Laufe":11831,"-Fraktion.":11832,"▁liability":11833,"uj":11834,"▁Regelungen":11835,"den,":11836,"ía":11837,"ipe":11838,"▁seitens":11839,"▁happened":11840,"▁consolid":11841,"▁claims":11842,"▁maxim":11843,"▁consideration":11844,"otenzial":11845,"lev":11846,"arbeiten.":11847,"▁Nutzer":11848,"▁Sud":11849,"▁acht":11850,"▁cult":11851,"▁ma":11852,"▁multiple":11853,"▁withdraw":11854,"▁Studien":11855,"uver":11856,"▁grenzüberschreit":11857,"▁hum":11858,"▁taste":11859,"setzen":11860,"▁ignor":11861,"▁explan":11862,"äten":11863,"▁bon":11864,"▁EP":11865,"▁Kor":11866,"OP":11867,"▁Via":11868,"▁fro":11869,"▁vide":11870,"▁Rich":11871,"▁Bill":11872,"▁themselv":11873,"▁qualifiz":11874,"CC":11875,"▁pick":11876,"▁Akte":11877,"▁Thanks":11878,"▁inhab":11879,"▁respekt":11880,"▁sieben":11881,"▁190":11882,"▁labor":11883,"verw":11884,"▁owners":11885,"▁Herausforderung":11886,"rant":11887,"▁database":11888,"Innen":11889,"▁п":11890,"edon":11891,"afft":11892,"▁reinfor":11893,"▁Royal":11894,"▁vielfält":11895,"▁vorgelegt":11896,"▁lag":11897,"issens":11898,"▁heat":11899,"▁dynamic":11900,"▁Belarus":11901,"▁Old":11902,"▁disch":11903,"▁{{":11904,"▁Problemen":11905,"▁eingesetz":11906,"▁contextual":11907,"▁immigration":11908,"▁Treffen":11909,"▁obviously":11910,"▁Kontin":11911,"▁sollen,":11912,"▁nationaler":11913,"▁besseren":11914,"/A":11915,"fest":11916,"▁regelmäßig":11917,"▁wishes":11918,"linge":11919,"▁remove":11920,"-how":11921,"▁trägt":11922,"▁Städte":11923,"▁primary":11924,"▁concep":11925,"werten":11926,"▁granted":11927,"▁ung":11928,"35":11929,"▁Rund":11930,"ova":11931,"▁Aufgrund":11932,"▁jen":11933,"▁Champ":11934,"fel":11935,"▁erg":11936,"▁Übern":11937,"stands":11938,"▁aktual":11939,"▁studies":11940,"▁Ideen":11941,"ufe":11942,"▁Graf":11943,"▁gewesen":11944,"ohann":11945,"herr":11946,"▁Two":11947,"▁Welt,":11948,"▁authent":11949,"▁Tai":11950,"▁kontext":11951,"▁verteid":11952,"zeß":11953,"unehmen,":11954,"▁Dublin":11955,"▁Großbritannien":11956,"▁names":11957,"▁sehen.":11958,"45":11959,"▁Jahrhunderts":11960,"▁Hälfte":11961,"aktionen":11962,"-cl":11963,"enntnisse":11964,"▁memor":11965,"▁Kooperation":11966,"▁klicken":11967,"▁ausreichend":11968,"▁Ban":11969,"decken":11970,"▁Besitz":11971,"karten":11972,"▁traditionellen":11973,"tellectual":11974,"phrase":11975,"▁emphasis":11976,"▁journal":11977,"rokrat":11978,"verse":11979,"▁presidency":11980,"yer":11981,"ending":11982,"▁arbeitet":11983,"▁write":11984,"▁Konk":11985,"atlant":11986,"▁fif":11987,"schätz":11988,"iform":11989,"iques":11990,"▁Wirt":11991,"selben":11992,"▁sinnvoll":11993,"racht.":11994,"▁Freizeit":11995,"▁Rules":11996,"endet":11997,"weisen.":11998,"▁terrorism":11999,"▁Sehenswürdigkeiten":12000,"▁Elemente":12001,"▁Hor":12002,"▁stands":12003,"quir":12004,"▁thereby":12005,"▁Financial":12006,"ague":12007,"▁deutsche":12008,"▁Berücksichtig":12009,"▁fried":12010,"▁habe.":12011,"kar":12012,"▁Verhältnis":12013,"▁meters":12014,"▁Mach":12015,"▁(v":12016,"▁diesbe":12017,"▁stehen,":12018,"▁Kategor":12019,"▁U.S.":12020,"ator,":12021,"embly":12022,"▁mutual":12023,"▁die,":12024,"▁Rem":12025,"▁Stück":12026,"▁48":12027,"uden":12028,"▁15.":12029,"▁Provin":12030,"▁Überprüfung":12031,"▁cle":12032,"comm":12033,"▁hyd":12034,"▁damals":12035,"▁Class":12036,"▁letter":12037,"▁Fotos":12038,"▁globale":12039,"▁Justice":12040,"▁Größe":12041,"olz":12042,"▁weiteres":12043,"▁ländlichen":12044,"▁sale":12045,"istenz":12046,"▁sorgen":12047,"▁Autob":12048,"▁Fortschritt":12049,"▁erfüllt":12050,"▁storage":12051,"▁Dach":12052,"▁hoffen,":12053,"▁voc":12054,"▁Kommissarin,":12055,"▁lern":12056,"▁amongst":12057,"▁Anpassung":12058,"▁kürzlich":12059,"▁einzelne":12060,"▁prepare":12061,"▁Veröffentlich":12062,"schirm":12063,"▁kost":12064,"▁Formular":12065,"▁klar,":12066,"▁changing":12067,"▁primarily":12068,"▁Rotary":12069,"▁Prüfung":12070,"▁Schif":12071,"handels":12072,"▁Vision":12073,"▁sprach":12074,"▁operations":12075,"▁17.":12076,"▁turned":12077,"▁Karten":12078,"▁society.":12079,"▁hatte.":12080,"mutz":12081,"▁Zweifel":12082,"rd":12083,"rot":12084,"▁Sek":12085,"▁Presiden":12086,"▁issues.":12087,"ler,":12088,"s)":12089,"▁Church":12090,"▁Teilen":12091,"▁technological":12092,"▁Tom":12093,"inde":12094,"ist.":12095,"trib":12096,"▁Flash":12097,"▁Riv":12098,"▁800":12099,"▁Gewinn":12100,"▁tourism":12101,"▁gespe":12102,"-Mitglied":12103,"▁satellite":12104,"▁service,":12105,"▁Que":12106,"artner":12107,"▁smaller":12108,"▁snow":12109,"ädt":12110,"▁unanim":12111,"▁Einklang":12112,"füllen":12113,"▁dealt":12114,"▁onto":12115,"▁Marken":12116,"▁AB":12117,"ermaßen":12118,"▁eight":12119,"▁Kong":12120,"abled":12121,"▁wait":12122,"▁Bio":12123,"▁alone":12124,"▁Unterkunft":12125,"▁territorial":12126,"▁dazu,":12127,"▁dur":12128,"▁5,":12129,"▁writing":12130,"▁qualified":12131,"▁griech":12132,"▁bran":12133,"▁selten":12134,"▁demokratische":12135,"▁Despite":12136,"▁systemat":12137,"▁imper":12138,"▁vielmehr":12139,"▁buildings":12140,"▁Irland":12141,"▁erw":12142,"▁Voraussetzungen":12143,"▁Follow":12144,"▁berühmten":12145,"▁OF":12146,"licit":12147,"▁update":12148,"▁i.":12149,"icon":12150,"▁Empfehlungen":12151,"▁(IT)":12152,"▁Jes":12153,"▁insurance":12154,"▁positions":12155,"▁inspir":12156,"ulated":12157,"▁Express":12158,"table":12159,"▁union":12160,"▁switch":12161,"endung":12162,"a\"":12163,"▁industry,":12164,"www.":12165,"unsten":12166,"▁leadership":12167,"▁gesellschaft":12168,"▁Sound":12169,"▁grand":12170,"rance":12171,"grundlage":12172,"▁Stunde":12173,"▁kleiner":12174,"▁junge":12175,"▁positiven":12176,"▁bureau":12177,"kreis":12178,"ringen":12179,"▁verbessern":12180,"hle":12181,"▁führenden":12182,"▁bleiben.":12183,"▁TV,":12184,"▁schneller":12185,"▁exceed":12186,"▁erscheint":12187,"altet":12188,"▁Kommissarin":12189,"▁Unterschied":12190,"splan":12191,"▁Schlusselwortern":12192,"kräfte":12193,"oot":12194,"▁blood":12195,"▁band":12196,"▁A3":12197,"▁finding":12198,"▁parad":12199,"▁Beihilfen":12200,"▁beauty":12201,"gelt":12202,"▁Fahrzeug":12203,"▁urge":12204,"▁Schlusselwortern,":12205,"▁Sein":12206,"▁Foundation":12207,"gien":12208,"▁leisten":12209,"äger":12210,"▁geänder":12211,"▁verk":12212,"▁Johann":12213,"▁festgelegt":12214,"▁component":12215,"ican":12216,"reiben.":12217,"▁named":12218,"DR":12219,"kor":12220,"iode":12221,"▁reason,":12222,"▁Anwendungen":12223,"▁systems,":12224,"▁zuverläss":12225,"▁Zahlungs":12226,"▁David":12227,"▁nötig":12228,"▁Germany.":12229,"▁Telef":12230,"▁rejected":12231,"▁120":12232,"▁Verfügbarkeit":12233,"▁Patent":12234,"öger":12235,"▁driving":12236,"86":12237,"bindung":12238,"▁Betr":12239,"▁bedarf":12240,"▁0,":12241,"ärkte":12242,"ategory":12243,"orgnis":12244,"▁ehemaligen":12245,"esign":12246,"▁schn":12247,"▁Mitteln":12248,"▁1980":12249,"▁president":12250,"▁completed":12251,"▁Freude":12252,"▁successfully":12253,"▁höchst":12254,"▁meist":12255,"cast":12256,"els,":12257,"▁nearby":12258,"▁Arm":12259,"▁Lou":12260,"▁Mitgliedern":12261,"▁country's":12262,"▁genannt":12263,"▁sprechen,":12264,"▁others.":12265,"itar":12266,"▁lock":12267,"ically,":12268,"▁dimension":12269,"▁Dadurch":12270,"▁Maria":12271,"-Be":12272,"ungsverfahren":12273,"▁würden.":12274,"äfen":12275,"got":12276,"▁Fac":12277,"▁Verk":12278,"▁discussing":12279,"▁earn":12280,"▁Director":12281,"▁Brazil":12282,"▁verbreit":12283,"-border":12284,"▁Aktionen":12285,"▁guide":12286,"▁Experten":12287,"▁Schaden":12288,"▁hervorge":12289,"▁derzeitigen":12290,"▁learning":12291,"▁Ep":12292,"endum":12293,"▁Vorbereitung":12294,"I)":12295,"l.":12296,"oler":12297,"▁Jean":12298,"▁ultim":12299,"vak":12300,"▁Bedro":12301,"▁Freunde":12302,"adow":12303,"▁Jack":12304,"▁Berücksichtigung":12305,"▁Know":12306,"▁finish":12307,"▁Wirkung":12308,"ington":12309,"▁finance":12310,"▁achievement":12311,"▁entre":12312,"▁2008.":12313,"▁Süden":12314,"▁verwe":12315,"▁gewisse":12316,"▁horiz":12317,"▁Munich":12318,"▁Programms":12319,"▁Mas":12320,"▁chain":12321,"▁Grad":12322,"▁GM":12323,"▁Rezept":12324,"mechan":12325,"▁weg":12326,"ours":12327,"▁penalt":12328,"▁Balt":12329,"utre":12330,"▁läuf":12331,"▁Präs":12332,"like":12333,"▁Roh":12334,"-the":12335,"kunfts":12336,"berecht":12337,"AB":12338,"netz":12339,"▁überzeugt,":12340,"▁instru":12341,"▁organization":12342,"▁Satell":12343,"▁Premier":12344,"TER":12345,"wood":12346,"▁Gener":12347,"vely":12348,"lair":12349,"elm":12350,"▁600":12351,"▁landwirtschaft":12352,"fers":12353,"fare":12354,"▁Kunde":12355,"ktivität":12356,"▁birth":12357,"▁Restaurant,":12358,"▁itself.":12359,"▁Botschaft":12360,"ст":12361,"▁crime":12362,"▁Afrika":12363,"ablen":12364,"▁Ereignisse":12365,"▁advertising":12366,"▁buffet":12367,"▁Win":12368,"▁sod":12369,"zust":12370,"▁Kombination":12371,"▁also,":12372,"▁models":12373,"▁Street":12374,"▁helping":12375,"▁EG":12376,"▁Export":12377,"▁configur":12378,"▁Before":12379,"▁Schwerpunkt":12380,"essor":12381,"▁Marketing":12382,"▁Kreat":12383,"▁welchen":12384,"ausschusses":12385,"▁lesen":12386,"oster":12387,"▁Phase":12388,"▁representative":12389,"▁Direkt":12390,"SC":12391,"ansion":12392,"▁question.":12393,"werb":12394,"▁engag":12395,"new":12396,"▁Glas":12397,"▁Holl":12398,"issionen":12399,"▁extreme":12400,"▁site.":12401,"▁volle":12402,"▁Wegen":12403,"▁outdoor":12404,"rist":12405,"-Ab":12406,"▁economy.":12407,"▁aktuell":12408,"uropäischen":12409,"▁Rub":12410,"▁16.":12411,"-Date":12412,"▁Company":12413,"heber":12414,"▁title":12415,"entwurf":12416,"▁below.":12417,"ics,":12418,"▁adequate":12419,"ayer":12420,"theit":12421,"going":12422,"▁subsidiar":12423,"▁courses":12424,"geiz":12425,"▁verf":12426,"▁transform":12427,"cluding":12428,"▁reviews.":12429,"▁Komment":12430,"▁bitten,":12431,"▁Angel":12432,"▁konkreten":12433,"▁übrig":12434,"▁Show":12435,"▁Vielleicht":12436,"▁Griechenland":12437,"▁sleep":12438,"gro":12439,"▁bilden":12440,"▁durchführ":12441,"▁spa":12442,"▁needs.":12443,"▁treffen":12444,"▁Zul":12445,"▁Registr":12446,"okument":12447,"▁wiederum":12448,"▁Zahlen":12449,"ors.":12450,"sph":12451,"▁fallen":12452,"▁vess":12453,"▁spending":12454,"systeme":12455,"▁suchen":12456,"▁erforderlich,":12457,"jährige":12458,"▁Prom":12459,"am,":12460,"▁Erwä":12461,"har":12462,"rest":12463,"▁13.":12464,"▁Herk":12465,"▁Geschäftsordnung":12466,"itime":12467,"▁Take":12468,"▁meetings":12469,"▁represen":12470,"züg":12471,"▁keines":12472,"▁houses":12473,"▁p.m.":12474,"▁figures":12475,"erry":12476,"iè":12477,"▁entlang":12478,"▁wild":12479,"▁fed":12480,"▁Hong":12481,"▁Fer":12482,"istry":12483,"▁co-":12484,"▁marked":12485,"▁kompliz":12486,"▁store":12487,"▁output":12488,"▁laut":12489,"▁moved":12490,"▁individuell":12491,"▁andererseits":12492,"termine":12493,"▁furnished":12494,"▁impl":12495,"-out":12496,"ema":12497,"▁Verpflichtung":12498,"▁fantastic":12499,"▁Austausch":12500,"ime.":12501,"▁conclusions":12502,"▁Gesetzgebung":12503,"km":12504,"▁Europa.":12505,"▁Karl":12506,"▁resolve":12507,"▁jemand":12508,"-I":12509,"▁Verbesser":12510,"sparte":12511,"▁rot":12512,"▁(9":12513,"▁Il":12514,"▁practices":12515,"▁kinds":12516,"▁schwierig":12517,"▁adj":12518,"▁Ta":12519,"▁sights":12520,"▁nochmals":12521,"▁feeling":12522,"x.":12523,"▁Master":12524,"▁audio":12525,"▁relatively":12526,"▁maintenance":12527,"▁dict":12528,"▁beiz":12529,"▁Fraktionen":12530,"▁Morgen":12531,"▁proud":12532,"▁Maßnahmen,":12533,"▁zeich":12534,"▁memory":12535,"isch.":12536,"▁river":12537,"ady":12538,"bahnhof":12539,"▁Hauptstadt":12540,"▁starken":12541,"▁vehicles":12542,"lichen,":12543,"▁hair":12544,"▁trial":12545,"owned":12546,"oftware":12547,"▁dog":12548,"▁fahren":12549,"ennung":12550,"▁unters":12551,"▁deiner":12552,"▁producers":12553,"V.":12554,"▁offensichtlich":12555,"▁diverse":12556,"▁Ton":12557,"▁reven":12558,"▁Haup":12559,"▁USA,":12560,"▁fördern.":12561,"▁pap":12562,"▁Fischer":12563,"ause,":12564,"▁steht.":12565,"▁fördern":12566,"▁reicht":12567,"▁Rock":12568,"▁reservation":12569,"▁seriously":12570,"▁plug":12571,"▁spezial":12572,"▁blue":12573,"▁latter":12574,"▁trotzdem":12575,"▁()":12576,"4)":12577,"vol":12578,"▁Valle":12579,"cont":12580,"▁Action":12581,"▁machines":12582,"▁appreciate":12583,"▁Alter":12584,"▁heavy":12585,"/C":12586,"rasch":12587,"▁Dafür":12588,"ört":12589,"▁Zusatz":12590,"nt":12591,"▁depart":12592,"▁Var":12593,"ifall":12594,"▁liefern":12595,"▁geist":12596,"▁copy":12597,"▁Genehm":12598,"▁Gästen":12599,"agt":12600,"▁halten.":12601,"▁begrüßen":12602,"▁Friedens":12603,"▁PR":12604,"▁Luf":12605,"▁Bör":12606,"▁fand":12607,"▁gepr":12608,"▁operate":12609,"iating":12610,"▁wähl":12611,"▁Risiken":12612,"▁geeignet":12613,"▁discharge":12614,"gese":12615,"enter":12616,"▁cold":12617,"▁House,":12618,"▁hoher":12619,"▁weight":12620,"▁causes":12621,"▁whatever":12622,"▁(5":12623,"▁decision-m":12624,"ettbewerbs":12625,"▁)":12626,"▁manufacturing":12627,"▁beginnt":12628,"atr":12629,"asse,":12630,"▁ziemlich":12631,"def":12632,"▁Franc":12633,"▁proposal.":12634,"▁centre.":12635,"▁crisis.":12636,"▁landscape":12637,"▁Küste":12638,"▁circumstances":12639,"▁repor":12640,"▁Spann":12641,"▁Aufgab":12642,"icherungs":12643,"▁Ziel,":12644,"▁Polen":12645,"▁versucht,":12646,"▁determined":12647,"car":12648,"▁falsch":12649,"▁story":12650,"▁Ausnahme":12651,"▁enterprises":12652,"▁whe":12653,"▁safet":12654,"▁packages":12655,"▁wollte":12656,"▁keeping":12657,"lechter":12658,"▁Hans":12659,"▁peop":12660,"versorgung":12661,"bestimm":12662,"▁point,":12663,"▁ziehen":12664,"ränkungen":12665,"▁Disc":12666,"▁Offen":12667,"▁obst":12668,"▁sets":12669,"▁od":12670,"▁temperature":12671,"uv":12672,"▁fill":12673,"füllung":12674,"▁Az":12675,"▁Turn":12676,"▁Exec":12677,"▁und/":12678,"urm":12679,"▁covers":12680,"▁Effizienz":12681,"▁User":12682,"▁Büro":12683,"▁Flexibilität":12684,"▁u.a.":12685,"region":12686,"▁Risik":12687,"beziehung":12688,"▁maß":12689,"▁Law":12690,"real":12691,"▁außergewöhn":12692,"itory":12693,"ismen":12694,"▁lös":12695,"▁helps":12696,"▁respective":12697,"ér":12698,"▁partn":12699,"▁others,":12700,"k.":12701,"▁wichtiges":12702,"▁Umweltschutz":12703,"▁anschließ":12704,"▁recognise":12705,"▁Amts":12706,"▁religi":12707,"▁cross-border":12708,"▁repeated":12709,"▁outcome":12710,"asten":12711,"▁corrupt":12712,"▁(I":12713,"lebnis":12714,"leisten,":12715,"▁delivered":12716,"imp":12717,"▁Männer":12718,"▁bodies":12719,"▁könnten.":12720,"▁Konsequ":12721,"kop":12722,"▁complic":12723,"▁zurück.":12724,"iest":12725,"27":12726,"▁beweg":12727,"▁comply":12728,"▁Umständen":12729,"▁regionale":12730,"▁(m":12731,"▁Profession":12732,"lause":12733,"▁Ländern,":12734,"▁crisis,":12735,"▁Malt":12736,"▁spielt":12737,"▁you're":12738,"▁dry":12739,"▁Häus":12740,"▁advance":12741,"▁corner":12742,"▁Obama":12743,"▁höhere":12744,"abling":12745,"▁eröffnet":12746,"▁genauso":12747,"▁district":12748,"▁Charter":12749,"▁Set":12750,"folgerungen":12751,"▁Yet":12752,"ierend":12753,"▁veränder":12754,"▁Touristen":12755,"V)":12756,"▁cloth":12757,"▁gewährleistet":12758,"ampagne":12759,"uy":12760,"▁thorough":12761,"allery":12762,"▁Grenze":12763,"ziehen":12764,"zahlung":12765,"▁Kranken":12766,"▁alter":12767,"▁structures":12768,"wareness":12769,"▁tasks":12770,"▁1000":12771,"▁Fremden":12772,"▁conditions.":12773,"▁erb":12774,"▁kommun":12775,"▁involving":12776,"▁Skype":12777,"▁italienischen":12778,"▁straight":12779,"hard":12780,"▁ye":12781,"unf":12782,"▁Korr":12783,"trächt":12784,"▁vast":12785,"▁Eisenbahn":12786,"vec":12787,"▁Altstadt":12788,"▁spectac":12789,"▁sicht":12790,"ary.":12791,"▁könnte,":12792,"▁previously":12793,"▁gül":12794,"▁vehicle":12795,"▁geleistet":12796,",00":12797,"▁gather":12798,"▁Burg":12799,"▁Baum":12800,"▁Cook":12801,"reiben,":12802,"▁planned":12803,"zin":12804,"▁criticism":12805,"nes":12806,"▁Pay":12807,"▁Gesicht":12808,"straße":12809,"▁Gästebewertungen.":12810,"▁weather":12811,"▁director":12812,"wegs":12813,"▁(s)":12814,"/S":12815,"▁zugänglich":12816,"▁umzus":12817,"▁action.":12818,"▁away.":12819,"▁Norden":12820,"▁sage":12821,"▁Indien":12822,"▁whilst":12823,"▁umfassenden":12824,"▁Refer":12825,"▁Monte":12826,"▁bekannten":12827,"▁unmittelbar":12828,"▁breat":12829,"utter":12830,"▁Termin":12831,"▁Temperatur":12832,"▁France,":12833,"▁charming":12834,"▁garantiert":12835,"ão":12836,"▁contents":12837,"EF":12838,"▁networks":12839,"▁Willen":12840,"▁Ferner":12841,"▁intellectual":12842,"usal":12843,"▁environment,":12844,"▁older":12845,"▁threaten":12846,"▁compliance":12847,"MS":12848,"oten.":12849,"lieb":12850,"▁gewährleisten,":12851,"▁util":12852,"▁koordin":12853,"▁matter.":12854,"▁a.":12855,"▁mobility":12856,"▁Alliance":12857,"▁ausgewähl":12858,"▁weltweiten":12859,"▁nehmen,":12860,"▁Wirtschafts-":12861,"▁minim":12862,"▁ca":12863,"▁hält":12864,"▁Realität":12865,"oke":12866,"▁conserv":12867,"▁flight":12868,"tragen.":12869,"▁Expl":12870,"▁und/oder":12871,"TE":12872,"▁kü":12873,"▁Recht,":12874,"▁Tax":12875,"▁Ungleich":12876,"▁attitude":12877,"26":12878,"▁notice":12879,"▁versucht":12880,"▁kurzem":12881,"▁relev":12882,"betrieb":12883,"▁Swedish":12884,"laufen":12885,"it.":12886,"itionen":12887,"▁Fluss":12888,"lagen.":12889,"▁solve":12890,"▁zusätzlichen":12891,"itage":12892,"▁MySQL":12893,"▁künftig":12894,"▁licens":12895,"'ll":12896,"▁residence":12897,"▁Britain":12898,"▁impression":12899,"▁girl":12900,"▁Award":12901,"▁dramat":12902,"▁Use":12903,"aschen":12904,"▁acts":12905,"▁1994":12906,"▁place,":12907,"▁historische":12908,"▁court":12909,"▁Vir":12910,"▁alarm":12911,"▁Heiz":12912,"▁nutzen.":12913,"▁Detail":12914,"▁Sens":12915,"▁Welcome":12916,"▁2011":12917,"▁Original":12918,"33":12919,"▁familiar":12920,"▁entered":12921,"▁Grupp":12922,"▁Gebiete":12923,"▁münd":12924,"▁favor":12925,"▁Wirklichkeit":12926,"dis":12927,"▁Mittelpunkt":12928,"▁Ren":12929,"▁dans":12930,"▁Liebe":12931,"▁ta":12932,"▁sofern":12933,"▁rare":12934,"▁felt":12935,"ubau":12936,"icking":12937,"▁grundlegenden":12938,"▁recommendations":12939,"%,":12940,"▁Hü":12941,"▁Manager":12942,"s.com":12943,"▁treated":12944,"ved,":12945,"fahren.":12946,"anges":12947,"äußer":12948,"▁Kann":12949,"▁Umgang":12950,"▁abgelehn":12951,"▁Proced":12952,"▁involvement":12953,"▁citizens,":12954,"▁purposes":12955,"▁Untersuchung":12956,"▁minut":12957,"▁advice":12958,"▁Nahrungsmittel":12959,"asen":12960,"▁Hindern":12961,"urger":12962,"▁voller":12963,"▁Signal":12964,"angebot":12965,"▁ausgestattet.":12966,"▁combating":12967,"politischen":12968,"chron":12969,"iced":12970,"▁Bericht,":12971,"▁extension":12972,"material":12973,"▁interior":12974,"▁dien":12975,"▁Wash":12976,"▁flat":12977,"isory":12978,"▁piece":12979,"▁renewable":12980,"▁steht,":12981,"▁lose":12982,"▁debate,":12983,"teren":12984,"▁verloren":12985,"▁Brussels":12986,"schlagen":12987,"▁shower":12988,"▁agreement.":12989,"leisten.":12990,"▁Like":12991,"▁wesentliche":12992,"tedly":12993,"▁use.":12994,"hindert":12995,"▁runs":12996,"▁Glück":12997,"▁obstac":12998,"▁important.":12999,"sprüche":13000,"▁AP":13001,"modell":13002,"▁Sov":13003,"▁läng":13004,"▁centre,":13005,"▁Umwel":13006,"▁Agrarpolitik":13007,"▁Tw":13008,"▁durchzuführ":13009,"▁helped":13010,"▁Comput":13011,"▁Angebote":13012,"▁bureauc":13013,"▁eigent":13014,"▁factors":13015,"▁GNU":13016,"▁enthus":13017,"▁weshalb":13018,"▁Dienstleistungs":13019,"ispiele":13020,"▁largely":13021,"päck":13022,"▁Ausland":13023,"elten":13024,"▁discrimination":13025,"▁Robert":13026,"▁Berufs":13027,"▁device":13028,"▁Greece":13029,"▁Ec":13030,"▁department":13031,"▁Auffassung,":13032,"▁Erinner":13033,"▁Unterschiede":13034,"▁Entwicklungsländern":13035,"▁schwierigen":13036,"kennen":13037,"▁cuisine":13038,"▁Schloss":13039,"ques":13040,"▁student":13041,"astronom":13042,"▁website.":13043,"ela":13044,"▁zuerst":13045,"andon":13046,"▁MS":13047,"▁one,":13048,"▁emphasise":13049,"▁erwähnt":13050,"▁Elect":13051,"els.":13052,"▁rank":13053,"▁kombin":13054,"▁Politiker":13055,"▁Delegation":13056,"station":13057,"apter":13058,"▁gestern":13059,"▁life,":13060,"▁consumption":13061,"▁schönsten":13062,"zza":13063,"▁Sad":13064,"▁agency":13065,"▁ermöglichen,":13066,"▁Erde":13067,"gesundheit":13068,"'A":13069,"▁2008,":13070,"rechn":13071,"▁Puert":13072,"igerung":13073,"▁Standort":13074,"fal":13075,"anger":13076,"▁SME":13077,"rochen":13078,"essene":13079,"▁telephone":13080,"▁shape":13081,"▁Ret":13082,"stehenden":13083,"▁Ohne":13084,"▁commitments":13085,"roph":13086,"▁Policy":13087,"metho":13088,"▁skills":13089,"-free":13090,"ances,":13091,"▁hervorragende":13092,"icip":13093,"▁Europeans":13094,"teen":13095,"what":13096,"▁(O":13097,"▁Friend":13098,"▁glauben,":13099,"sie":13100,"▁exclusively":13101,"▁Sund":13102,"▁Asia":13103,"▁evaluation":13104,"▁Ca":13105,"▁Regul":13106,"▁Räum":13107,"ämpfen":13108,"▁patient":13109,"▁Norm":13110,"▁change.":13111,"▁gewährleisten.":13112,"▁launched":13113,"eler":13114,"▁newly":13115,"▁niemals":13116,"ießen":13117,"isieren.":13118,"▁gesprochen":13119,"▁incent":13120,"▁Council's":13121,"th,":13122,"▁Diskussionen":13123,"▁illustr":13124,"friend":13125,"▁Instead":13126,"s...":13127,"▁zweifellos":13128,"▁Product":13129,"▁Eltern":13130,"▁tätig":13131,"▁serves":13132,"▁eigenes":13133,"▁England":13134,"▁protecting":13135,"▁Befug":13136,"▁drawing":13137,"ische,":13138,"▁determine":13139,"▁gewes":13140,"▁ausgezeichnete":13141,"▁individuals":13142,"tigt":13143,"▁darstellt.":13144,"▁überw":13145,"anging":13146,"▁consistent":13147,"how":13148,"▁schwar":13149,"ancy":13150,"urd":13151,"▁Agency":13152,"fähig":13153,"▁reserve":13154,"▁Minutes":13155,"▁location,":13156,"▁direkte":13157,"▁Landschaft":13158,"▁betreffenden":13159,"▁neuesten":13160,"▁Mall":13161,"▁Schuld":13162,"▁boat":13163,"▁issue,":13164,"▁inzwischen":13165,"▁Atom":13166,"▁Four":13167,"▁spring":13168,"▁gil":13169,"▁verändern":13170,"verletz":13171,"▁bekommen.":13172,"▁unterstützt.":13173,"▁14.":13174,"ieß":13175,"itäre":13176,"▁limits":13177,"▁Stahl":13178,"▁Methoden":13179,"▁underm":13180,"ktors":13181,"▁Gegend":13182,"▁beträcht":13183,"/1":13184,"▁Wolf":13185,"▁cer":13186,"▁getr":13187,"oben.":13188,"▁faced":13189,"▁institutions.":13190,"▁hospit":13191,"▁strugg":13192,"▁Kost":13193,"▁\"J":13194,"▁vergessen":13195,"institution":13196,"▁Luc":13197,"▁awareness":13198,"▁в":13199,"▁Agric":13200,"uss,":13201,"▁exem":13202,"▁SO":13203,"▁competence":13204,"▁betrachtet":13205,"una,":13206,"▁on,":13207,"▁ausgezeichneten":13208,"▁natürlichen":13209,"▁Grundsätze":13210,"▁stimmen":13211,"uens":13212,"cken,":13213,"▁registration":13214,"AV":13215,"dessen":13216,"▁cards":13217,"▁etc":13218,"▁page.":13219,"▁Perspekt":13220,"▁mel":13221,"▁opposed":13222,"▁Allgemeinen":13223,"▁Div":13224,"▁Prin":13225,"▁Gesetze":13226,"▁Wil":13227,"▁USD":13228,"▁fasc":13229,"▁Energy":13230,"▁inhabit":13231,"lege":13232,"▁advoc":13233,"▁2.0":13234,"ischung":13235,"▁gewalt":13236,"▁millions":13237,"▁Zusätz":13238,"▁cases,":13239,"örter":13240,"▁beaches":13241,"▁Farben":13242,"▁(10":13243,"rachten":13244,"▁Kapaz":13245,"▁sides":13246,"▁mur":13247,"schäd":13248,"▁Plaza":13249,"▁Konflik":13250,"fuhr":13251,"▁prohib":13252,"▁spanischen":13253,"▁Nachfrage":13254,"▁decis":13255,"▁Kyoto":13256,"▁represented":13257,"▁commission":13258,"▁behaup":13259,"▁well,":13260,"ismus,":13261,"nen,":13262,"▁i.e.":13263,"▁kommer":13264,"rote":13265,"schule":13266,"▁Ladies":13267,"▁grundlegende":13268,"cal":13269,"id,":13270,"▁monument":13271,"▁zeigt,":13272,"▁einerseits":13273,"weich":13274,"▁important,":13275,"▁Gedanken":13276,"organ":13277,"▁Town":13278,"lett":13279,"irol":13280,"▁abroad":13281,"▁controls":13282,"stood":13283,"▁cancel":13284,"▁controll":13285,"▁commun":13286,"ziehen.":13287,"kurs":13288,"▁phen":13289,"▁musste":13290,"▁Garden":13291,"▁significantly":13292,"▁beinhaltet":13293,"arl":13294,"▁intensiv":13295,"▁dich":13296,"täus":13297,"▁Parlaments,":13298,"▁Nahen":13299,"▁anwes":13300,"▁prove":13301,"▁Handeln":13302,"▁looks":13303,"▁Their":13304,"▁adul":13305,"▁detaill":13306,"▁ursprünglichen":13307,"rob":13308,"▁Ausgangspunkt":13309,"▁spät":13310,"▁Mangel":13311,"▁estim":13312,"uttle":13313,"▁Ungar":13314,"▁remaining":13315,"▁abol":13316,"unicip":13317,"▁Kroat":13318,"klärung":13319,"▁opposite":13320,"eminar":13321,"▁George":13322,"▁extraordin":13323,"▁Veranstaltung":13324,"▁sexual":13325,"-min":13326,"85":13327,"▁weiterge":13328,"▁Klar":13329,"▁GDP":13330,"▁Worten":13331,"▁faith":13332,"▁operational":13333,"▁valuable":13334,"▁leisure":13335,"▁menschlichen":13336,"uds":13337,"▁Opposition":13338,"▁Viertel":13339,"-Reg":13340,"▁(NL)":13341,"▁vous":13342,"▁coher":13343,"▁Spiele":13344,"▁Details":13345,"▁leaving":13346,"▁examples":13347,"▁gold":13348,"well":13349,"tele":13350,"▁feststellen,":13351,"miss":13352,"▁33":13353,"▁2007.":13354,"▁Harmonisierung":13355,"▁kommt,":13356,"▁seat":13357,"obe":13358,"CHT":13359,"▁Frid":13360,"▁Verd":13361,"▁Budge":13362,"wers":13363,"▁fab":13364,"▁Wähl":13365,"▁Pflanzen":13366,"▁sin":13367,"nehmern":13368,"▁Personen,":13369,"▁Jedes":13370,"▁certific":13371,"isierungs":13372,"▁Hostelsclub":13373,"cling":13374,"▁veran":13375,"reichung":13376,"▁Zuständigkeit":13377,"strategie":13378,"▁Allian":13379,"▁result,":13380,"▁Stabilitäts":13381,"▁Empfehlung":13382,"iess":13383,"▁beteiligt":13384,"▁unterbreit":13385,"▁cab":13386,"▁Schulden":13387,"lan":13388,"inational":13389,"▁Ath":13390,"▁Wahrheit":13391,"▁exceptional":13392,"▁Pia":13393,"▁zahlen":13394,"▁weapons":13395,"▁push":13396,"tragung":13397,"▁Kommun":13398,"rap":13399,"▁steel":13400,"TML":13401,"gence":13402,"▁(or":13403,"uts":13404,"▁Leitlinien":13405,"▁constructive":13406,"▁budget.":13407,"▁Schad":13408,"▁payments":13409,"▁Gard":13410,"▁activities.":13411,"▁volunt":13412,"looking":13413,"▁talks":13414,"▁Geschmack":13415,"lated":13416,"▁Massen":13417,"ario":13418,"▁mode":13419,"iring":13420,"▁gemacht.":13421,"ateful":13422,"formance":13423,"ania":13424,"raum,":13425,"▁mehr.":13426,"▁Year":13427,"▁India":13428,"▁künftigen":13429,"▁Secret":13430,"▁UNO":13431,"▁GU":13432,"▁soft":13433,"▁Edition":13434,"igu":13435,"▁remote":13436,"-Adr":13437,"▁höchsten":13438,"▁manner":13439,"/D":13440,"alleng":13441,"wald":13442,"▁Tiere":13443,"estr":13444,"▁soweit":13445,"▁Einkaufs":13446,"▁Inner":13447,"▁gebaut":13448,"ipel":13449,"▁si":13450,"▁Dauer":13451,"▁collective":13452,"▁Kollege":13453,"▁unterschiedlich":13454,"onymous":13455,"era":13456,"▁holidays":13457,"da":13458,"▁catalog":13459,"ünfte":13460,"pap":13461,"▁dark":13462,"enture":13463,"▁equally":13464,"▁involve":13465,"▁holding":13466,"▁vorhanden":13467,"▁jährlich":13468,"▁Kompetenz":13469,"▁deleg":13470,"▁Group,":13471,"▁settlement":13472,"▁Küsten":13473,"▁automatic":13474,"▁Einstellung":13475,"▁Arz":13476,"▁recip":13477,"▁(z.B.":13478,"gener":13479,"▁vergessen,":13480,"▁AD":13481,"▁verschiedener":13482,"▁addressed":13483,"▁Westen":13484,"▁creates":13485,"▁Kas":13486,"▁Therm":13487,"OW":13488,"ulating":13489,"▁Budap":13490,"gesellschaften":13491,"▁anspruch":13492,"▁Stimm":13493,"▁agencies":13494,"▁nob":13495,"▁creative":13496,"▁youth":13497,"▁eingerichtet":13498,"▁Nap":13499,"▁photos":13500,"▁temporary":13501,"inuier":13502,"▁Through":13503,"▁region,":13504,"▁Zustand":13505,"▁will.":13506,"▁Behinder":13507,"▁Voraussetzung":13508,"▁Einwanderung":13509,"▁Tschech":13510,"legt.":13511,"nischen":13512,"▁gelöst":13513,"▁Antworten":13514,"agg":13515,"▁beseit":13516,"▁institutions,":13517,"▁spaces":13518,"▁couple":13519,"-5":13520,"▁anstatt":13521,"▁Maastr":13522,"▁davon,":13523,"▁vereinfach":13524,"▁witness":13525,"▁cry":13526,"rain":13527,"▁uneing":13528,"▁Engine":13529,"ziplin":13530,"▁Service,":13531,"▁artists":13532,"▁Switzerland":13533,"pa":13534,"▁catch":13535,"steuer":13536,"laden":13537,"▁stone":13538,"▁werden?":13539,"▁Direct":13540,"gyp":13541,"▁acquis":13542,"azier":13543,"▁doesn't":13544,"▁Hohen":13545,"▁37":13546,"▁BSE":13547,"ighten":13548,"freie":13549,"▁Wild":13550,"▁magaz":13551,"▁Fenster":13552,"▁obligations":13553,"sc":13554,"▁reveal":13555,"izit":13556,"▁aircraft":13557,"▁Airbus":13558,"oe":13559,"▁bezug":13560,"▁Vice":13561,"▁Barcelon":13562,"▁trib":13563,"▁Geschäft":13564,"cohol":13565,"▁Update":13566,"▁Drittländern":13567,"▁Late":13568,"▁offenen":13569,"▁dritte":13570,"▁Brasil":13571,"▁hardware":13572,"▁riesigen":13573,"▁consensus":13574,"▁wettbewerbs":13575,"▁territory":13576,"heben":13577,"▁conducted":13578,"▁hill":13579,"▁leistungs":13580,"▁aufgeforder":13581,"▁aftern":13582,"▁Ware":13583,"▁constitution":13584,"29":13585,"én":13586,"antly":13587,"▁einzigartige":13588,"▁verpflichtet":13589,"▁iron":13590,"▁(and":13591,"actions":13592,"▁Ter":13593,"elt,":13594,"▁River":13595,"klass":13596,"er's":13597,"▁Eis":13598,"ciliation":13599,"▁diejenigen":13600,"▁verfügbar":13601,"▁übernehmen":13602,"▁Festlegung":13603,"▁because,":13604,"▁Monetary":13605,"▁proposal,":13606,"49":13607,"▁gets":13608,"ugos":13609,"▁race":13610,"▁Papier":13611,"▁consc":13612,"▁cars":13613,"▁testing":13614,"28":13615,"▁Word":13616,"▁children.":13617,"▁versuchen":13618,"▁Executive":13619,"ML":13620,"▁page,":13621,"▁Gründe":13622,"absichtig":13623,"▁Music":13624,"▁Polish":13625,"rak":13626,"▁breite":13627,"lles":13628,"...\"":13629,"zahlt":13630,"▁facilitate":13631,"▁(f":13632,"▁Gleichgewicht":13633,"p.":13634,"rate":13635,"▁Indones":13636,"▁ball":13637,"▁navig":13638,"▁Wal":13639,"▁Arme":13640,"▁geräum":13641,"▁900":13642,"▁devices":13643,"▁zugunsten":13644,"▁amounts":13645,"▁Meinungs":13646,"ès":13647,"▁verständ":13648,"▁up.":13649,"▁Tru":13650,"akten":13651,"▁Sanktionen":13652,"▁phenomen":13653,"▁Schule":13654,"ew":13655,"�r":13656,"▁mögliche":13657,"GB":13658,"▁DE":13659,"▁Verring":13660,"mitten":13661,"▁Methode":13662,"▁hit":13663,"▁PRO":13664,"ard,":13665,"iary":13666,"▁content,":13667,"▁kurze":13668,"▁Noch":13669,"▁bekomm":13670,"reibt":13671,"▁orders":13672,"TR":13673,"▁Network":13674,"▁WLAN":13675,"ky":13676,"▁Denk":13677,"einer":13678,"▁binding":13679,"zent":13680,"▁Event":13681,"▁Block":13682,"▁identify":13683,"▁caf":13684,"▁liv":13685,"▁supposed":13686,"räume":13687,"▁Time":13688,"▁knows":13689,"▁pleasure":13690,"▁gekommen":13691,"orter":13692,"▁patients":13693,"▁amaz":13694,"▁obligation":13695,"▁Vienna":13696,"▁drop":13697,"▁Himm":13698,"▁recommended":13699,"▁kulturelle":13700,"▁avec":13701,"▁ungefähr":13702,"▁challeng":13703,"▁foll":13704,"▁Struct":13705,"/L":13706,"▁Fälle":13707,"▁einfachen":13708,"▁Tagung":13709,"▁Kandidaten":13710,"▁mitten":13711,"▁sagt":13712,"▁Studie":13713,"▁Übereinstimmung":13714,"▁präz":13715,"▁Indian":13716,"▁irre":13717,"▁stylish":13718,"▁Regierungskonferenz":13719,"▁dem,":13720,"▁verstehen,":13721,"▁wissenschaftlichen":13722,"▁emission":13723,"▁metal":13724,"▁Apart":13725,"▁northern":13726,"hält,":13727,"rating":13728,"▁Krie":13729,"▁supplement":13730,"▁Informationen,":13731,"▁Strukturfonds":13732,"iox":13733,"▁zuständigen":13734,"▁Lu":13735,"▁ruhigen":13736,"▁zentralen":13737,"▁People's":13738,"▁Wachstums":13739,"▁hatten,":13740,"akete":13741,"▁Übersetzung":13742,"▁Nic":13743,"▁wechsel":13744,"▁(ES":13745,"▁Entwicklungsländer":13746,"▁obtained":13747,"▁unfor":13748,"▁rück":13749,"▁Beispiele":13750,"▁gefährd":13751,"▁außen":13752,"▁economies":13753,"▁parlament":13754,"▁dream":13755,"▁Umfeld":13756,"▁Geheim":13757,"▁rooms.":13758,"ker":13759,"▁termin":13760,"▁schwed":13761,"-time":13762,"igrants":13763,"▁sla":13764,"▁unmöglich":13765,"▁List":13766,"ausend":13767,"far":13768,"▁Solar":13769,"▁Alternative":13770,"a)":13771,"▁wären":13772,"▁Übersetz":13773,"▁applicable":13774,"▁Fähigkeit":13775,"gut":13776,"schau":13777,"schluß":13778,"wirklich":13779,"▁Mold":13780,"▁HD":13781,"▁Urspr":13782,"▁Bildungs":13783,"но":13784,"▁dinner":13785,"▁faster":13786,"▁Jer":13787,"▁abandon":13788,"▁presentation":13789,"▁universal":13790,"▁architecture":13791,"▁recover":13792,"▁recovery":13793,"ichte,":13794,"ur,":13795,"otte":13796,"▁grounds":13797,"▁programme.":13798,"▁besitzt":13799,"65":13800,"hnt":13801,"▁point.":13802,"▁Minderheiten":13803,"▁father":13804,"▁kontinuier":13805,"▁ehrgeiz":13806,"▁Vorbe":13807,"▁unacceptable":13808,"▁vorz":13809,"ohlen":13810,"▁informiert":13811,"▁Tatsächlich":13812,"ichten.":13813,"▁({{":13814,"▁consultation":13815,"organisationen":13816,"▁schlecht":13817,"▁früheren":13818,"▁tut":13819,"▁nation":13820,"-Ber":13821,"ml":13822,"▁pursu":13823,"▁Erwartungen":13824,"down":13825,"ruh":13826,"▁Protection":13827,"anne":13828,"lared":13829,"▁verwende":13830,"▁sodass":13831,"▁regulatory":13832,"▁fighting":13833,"▁unent":13834,"▁politics":13835,"▁Bor":13836,"▁Schn":13837,"▁außerordentlich":13838,"▁Ausführung":13839,"▁Safety":13840,"▁classic":13841,"▁eye":13842,"▁Viet":13843,"▁Bedenken":13844,"▁mother":13845,"▁react":13846,"▁depends":13847,"iour":13848,"▁KMU":13849,"▁Lim":13850,"▁hin,":13851,"▁Verbrechen":13852,"▁geschaff":13853,"griffe":13854,"Un":13855,"▁ticket":13856,"▁Bedeutung.":13857,"▁uneingeschrän":13858,"▁pharm":13859,"gä":13860,"▁Polit":13861,"▁setzen.":13862,"▁Automobil":13863,"▁Trag":13864,"▁Entlast":13865,"▁naturally":13866,"▁Subsid":13867,"▁zustimm":13868,"folio":13869,"hält.":13870,"▁Anze":13871,"odes":13872,"▁Dev":13873,"▁terrorist":13874,"▁Wird":13875,"ärke":13876,"struktion":13877,"▁Gewicht":13878,"▁versions":13879,"▁destru":13880,"▁fordere":13881,"▁Adresse":13882,"▁hundreds":13883,"▁Tarif":13884,"zeichnis":13885,"▁fragen,":13886,"▁jedoch,":13887,"▁protest":13888,"▁Brand":13889,"▁city,":13890,"▁verpflichtet,":13891,"▁tail":13892,"ating,":13893,"▁Menü":13894,"a's":13895,"▁Abschnitt":13896,"▁einzuf":13897,"ading":13898,"▁beachten":13899,"▁zählen":13900,"ade,":13901,"▁Bedeutung,":13902,"abilität":13903,"▁tob":13904,"▁Theater":13905,"ne.":13906,"▁Pflich":13907,"100":13908,"▁magnific":13909,"liste":13910,"spap":13911,"▁fashion":13912,"▁situation,":13913,"▁unverzüglich":13914,"erse":13915,"▁grateful":13916,"▁derartige":13917,"▁attract":13918,"▁Kreis":13919,"idel":13920,"▁deposit":13921,"▁incomp":13922,"▁Optim":13923,"▁bilateral":13924,"▁define":13925,"▁guaranteed":13926,"▁attacks":13927,"▁recognised":13928,"▁Kategorie":13929,"▁gehen.":13930,"▁personally":13931,"▁destination":13932,"▁visual":13933,"▁bottom":13934,"▁benötigt":13935,"▁bann":13936,"▁Anton":13937,"▁gewissen":13938,"▁Arbeitsplatz":13939,"▁nachhaltigen":13940,"krit":13941,"enden.":13942,"▁Shop":13943,"▁ermut":13944,"▁Pension":13945,"▁discovered":13946,"▁Brenn":13947,"▁destin":13948,"ussts":13949,"▁confirmed":13950,"▁Infl":13951,"▁group,":13952,"▁Boot":13953,"▁solar":13954,"▁abgeschlossen":13955,"▁impressive":13956,"▁geschützt":13957,"▁proof":13958,"▁geändert":13959,"▁Mountain":13960,"rechten":13961,"▁Bauern":13962,"▁derart":13963,"▁Europol":13964,"▁NE":13965,"▁umfassen":13966,"▁Satur":13967,"▁möchten.":13968,"▁Är":13969,"▁Beste":13970,"▁beitragen":13971,"▁album":13972,"worfen":13973,"▁bewahr":13974,"ates,":13975,"rovers":13976,"▁entfernt,":13977,"'re":13978,"▁AM":13979,"▁ergriffen":13980,"▁House.":13981,"▁Thomas":13982,"▁Nachricht":13983,"▁EU-Mitglied":13984,"▁notwendige":13985,"▁Ersatz":13986,"▁tatsäch":13987,"▁Camping":13988,"на":13989,"ailing":13990,"ilding":13991,"▁lovely":13992,"▁markets.":13993,"weisung":13994,"sa":13995,"ichern":13996,"▁category":13997,"▁Blut":13998,"▁multinational":13999,"andal":14000,"▁ster":14001,"acion":14002,"▁Slovak":14003,"▁invite":14004,"▁vorange":14005,"▁Poland":14006,"▁joined":14007,"ventions":14008,"meldung":14009,"▁liegt.":14010,"▁division":14011,"▁Congress":14012,"nen.":14013,"hrist":14014,"▁intensive":14015,"oub":14016,"▁anti":14017,"▁Anti":14018,"▁kurzen":14019,"gemeinschaft":14020,"▁österreich":14021,"▁pollution":14022,"▁welfare":14023,"▁Einheit":14024,"behörden":14025,"▁bedro":14026,"▁Amerika":14027,"arp":14028,"▁enthalten.":14029,"enkung":14030,"▁Food":14031,"▁verfolgt":14032,"▁2007,":14033,"▁Verfahrens":14034,"▁Armen":14035,"▁Umgeb":14036,"▁Verringerung":14037,"▁erfüllen":14038,"▁freiwill":14039,"68":14040,"▁U-Bahn":14041,"▁verdient":14042,"▁expenditure":14043,"▁protocol":14044,"▁ought":14045,"▁visible":14046,"▁gehen,":14047,"▁Ausstellung":14048,"▁Framework":14049,"▁Eigenschaften":14050,"▁refr":14051,"▁mitge":14052,"▁economy,":14053,"▁Hilfs":14054,"CE":14055,"▁Anfragen":14056,"▁species":14057,"▁Speicher":14058,"enken,":14059,"der.":14060,"▁Legal":14061,"▁stopp":14062,"▁noise":14063,"orgt":14064,"▁Fair":14065,"▁erlä":14066,"uminium":14067,"örd":14068,"▁Verbot":14069,"▁unternommen":14070,"▁schne":14071,"▁Strategien":14072,"▁improvements":14073,"▁Krankheit":14074,"▁\"c":14075,"▁acceptable":14076,"▁pas":14077,"▁Lt":14078,"▁century.":14079,"ergie":14080,"▁dining":14081,"level":14082,"ances.":14083,"che.":14084,"▁Whether":14085,"sichtigen":14086,"▁arms":14087,"▁welchem":14088,"▁eingeführt":14089,"▁Einbeziehung":14090,"ärken":14091,"▁Krimin":14092,"▁issued":14093,"▁Landwirte":14094,"▁independence":14095,"▁inhabitants":14096,"ergeb":14097,"deb":14098,"▁kurzfrist":14099,"▁Steu":14100,"C)":14101,"ete":14102,"▁(J":14103,"▁targets":14104,"-g":14105,"▁kontakt":14106,"▁Gentoo":14107,"▁Hof":14108,"▁Zyp":14109,"richtig":14110,"öp":14111,"iser":14112,"▁shops":14113,"▁calcul":14114,"▁verstärkt":14115,"▁symp":14116,"▁interessante":14117,"▁flights":14118,"▁Author":14119,"▁string":14120,"▁verehrte":14121,"ikas":14122,"▁Quark":14123,"▁vot":14124,"▁Verträge":14125,"▁bieten.":14126,"▁mechanisms":14127,"▁Find":14128,"▁Ziffer":14129,"▁Konzep":14130,"▁Road":14131,"▁Rome":14132,"▁übertragen":14133,"▁Radio":14134,"▁sac":14135,"▁Anliegen":14136,"kohol":14137,"▁\"Die":14138,"▁gespiel":14139,"i's":14140,"einen":14141,"▁Krisen":14142,"bach":14143,"kul":14144,"▁oral":14145,"▁Holid":14146,"idden":14147,"▁understood":14148,"▁legislation.":14149,"ausschuß":14150,"fänger":14151,"kur":14152,"▁camer":14153,"stellen.":14154,"▁muß.":14155,"▁domain":14156,"▁beeindruck":14157,"▁frequently":14158,"▁und,":14159,"▁NGO":14160,"▁30%":14161,"hot":14162,"▁antw":14163,"▁gezw":14164,"legungen":14165,"▁Muse":14166,"heben,":14167,"beweg":14168,"▁Abhäng":14169,"▁IB":14170,"▁delegation":14171,"▁somewhat":14172,"▁betrie":14173,"▁2010,":14174,"▁careful":14175,"▁Inseln":14176,"▁bemerk":14177,"▁Lager":14178,"▁Luxembourg":14179,"▁Pact":14180,"UNG":14181,"▁Access":14182,"neter":14183,"▁Dokumente":14184,"▁So,":14185,"▁maintaining":14186,"▁AV":14187,"▁requirements.":14188,"▁Klimawandel":14189,"▁corresponding":14190,"aret":14191,"▁schnelle":14192,"▁Kreuz":14193,"▁benefic":14194,"▁Veranstaltungen":14195,"▁direkten":14196,"▁problem,":14197,"▁figure":14198,"atre":14199,"▁ER":14200,"▁advantages":14201,"▁Player":14202,"▁gemacht,":14203,"G)":14204,"▁34":14205,"▁Gestaltung":14206,"▁Subsidiar":14207,"▁ende":14208,"crip":14209,"▁ethnic":14210,"▁drivers":14211,"▁(Be":14212,"▁Wesent":14213,"▁Aktien":14214,"▁verwand":14215,"▁Bucht":14216,"▁OR":14217,"ventionen":14218,"▁Besonders":14219,"▁Kilometer":14220,"ifications":14221,"▁rub":14222,"▁root":14223,"▁suffering":14224,"▁distric":14225,"▁staatlichen":14226,"▁Gründung":14227,"▁appoint":14228,"tendlich":14229,"▁wann":14230,"▁reichen":14231,"▁producing":14232,"▁Ra":14233,"▁geltenden":14234,"prochen,":14235,"▁depending":14236,"▁würden,":14237,"▁erleben":14238,"▁{":14239,"▁awa":14240,"märkte":14241,"aten.":14242,"▁erstellt":14243,"▁repeat":14244,"▁agreement,":14245,"▁Japanese":14246,"▁mir,":14247,"SA":14248,"▁delighted":14249,"▁fitness":14250,"▁Nos":14251,"▁Individ":14252,"▁hängt":14253,"▁Verbesserungen":14254,"code":14255,"▁Ausgabe":14256,"▁Problem,":14257,"▁money.":14258,"tung":14259,"▁input":14260,"▁Franz":14261,"▁Aktual":14262,"▁Bibliothe":14263,"▁accompanied":14264,"▁besuchen":14265,"▁currenc":14266,"itten":14267,"▁Ferr":14268,"▁skin":14269,"▁danger":14270,"fac":14271,"▁Konsens":14272,"▁lebens":14273,"▁journey":14274,"bürger":14275,"▁Hoffnung":14276,"▁trop":14277,"▁Technology":14278,"▁Life":14279,"▁worksh":14280,"▁festzu":14281,"▁handelt,":14282,"▁eingesch":14283,"▁pattern":14284,"zure":14285,"▁Gericht":14286,"▁zufolge":14287,"prochen.":14288,"kommunik":14289,"▁Zwei":14290,"▁funktioniert":14291,"▁nahezu":14292,"len":14293,"▁(e.":14294,"▁attraction":14295,"▁dienen":14296,"▁Inst":14297,"▁existence":14298,"▁compensation":14299,"▁mostly":14300,"▁cooperation.":14301,"▁Übereinkommen":14302,"▁Lö":14303,"▁facility":14304,"▁Dank,":14305,"▁Maastricht":14306,"▁apart":14307,"▁categor":14308,"vertre":14309,"▁38":14310,"▁preis":14311,"▁vote.":14312,"einamer":14313,"stoffen":14314,"▁höheren":14315,"▁healthy":14316,"▁showing":14317,"▁Bewegung":14318,"▁beträgt":14319,"▁Entfern":14320,"▁gezeigt,":14321,"usche":14322,"▁Beding":14323,"▁ordnungs":14324,"zellen":14325,"▁com.":14326,"▁Wirtschaftswachstum":14327,"▁westlichen":14328,"▁Spazier":14329,"▁scale":14330,"▁1970":14331,"▁Persön":14332,"▁restruct":14333,"▁solange":14334,"▁seeing":14335,"▁distingu":14336,"▁Sony":14337,"▁vollständige":14338,"gor":14339,"ag,":14340,"▁returned":14341,"▁Dal":14342,"instrument":14343,"▁Nice":14344,
[...]
