#version: 0.2 - Trained by `huggingface/tokenizers`
e n
e r
i n
▁ a
▁ t
▁ d
c h
e s
o n
▁t h
u n
i t
i s
▁ s
▁ w
a t
i e
o r
a n
▁th e
r e
▁ b
▁ o
a l
a r
▁ in
▁ f
i ch
▁ m
t e
i on
▁ e
▁a n
u r
a s
l e
▁ p
▁ c
▁ un
▁ h
u s
▁ S
en t
g e
▁o f
r o
▁ n
▁ v
in g
un g
▁an d
▁t o
▁ A
l l
e d
▁d ie
o m
▁d er
▁un d
▁ E
▁ I
i g
s t
i c
▁b e
▁ M
▁ is
▁ D
▁ T
▁e in
▁ B
▁ P
i r
▁ z
i m
▁ g
e l
u t
r a
t er
e m
i l
en ,
▁ W
e t
o l
at ion
d er
e it
▁ F
▁ l
a m
▁ re
▁ G
t en
h r
i es
u m
o p
▁ K
c t
▁ H
i d
s ch
▁ R
u l
▁ k
u f
▁ C
b er
i v
en .
l ich
▁ V
▁f or
a b
o t
ü r
is ch
ich t
i er
en d
▁T h
▁ on
▁d as
▁z u
▁ L
an d
er e
▁d en
l y
es t
es s
▁th at
o s
▁ U
c e
om m
e in
er s
▁p ro
▁a l
o w
▁w h
a ch
▁v on
▁ r
or t
▁ ge
▁ im
u ch
a d
▁s t
it h
▁ y
▁I n
▁w ir
k t
▁ N
i f
▁c on
in d
▁is t
g en
▁v er
▁ er
v er
▁w ith
▁a uf
▁w e
▁f ür
ur op
a y
i ll
▁d es
▁ it
v e
▁m it
▁a re
t s
▁ Z
▁ 1
▁a s
c k
▁s o
▁ (
▁d e
d en
▁Th e
d e
▁n e
is s
▁y o
▁d ies
▁S t
a f
▁E urop
p p
at e
m ent
t ,
i k
t h
▁s e
q u
▁ 2
is t
0 0
▁U n
e ,
a g
isch en
i b
▁V er
s ,
▁al s
a k
▁ein e
us t
▁e x
t .
▁d em
f or
a h
▁th is
it y
▁ O
u g
s .
un d
▁h a
i al
▁A n
▁S ie
an t
▁ j
▁ or
an n
▁n icht
▁ J
▁w er
ar t
▁c o
ung en
n e
▁n ot
iv e
ü ber
s te
p e
▁ -
▁s ich
ä n
▁a ll
▁ le
u b
f f
i en
te l
l a
▁R e
▁b y
w e
ro m
▁ha ve
en s
▁das s
ig h
▁a t
▁ es
a in
▁a us
as s
al l
ul d
er n
▁D ie
▁yo u
▁s h
m en
u p
o d
▁w ill
s p
▁a b
om p
ie l
▁ über
a us
▁un s
u re
n en
▁P r
a ge
▁wh ich
▁m e
iss ion
te d
▁w as
z e
r an
▁a uch
▁S ch
l ie
ig en
▁f rom
a hr
h al
ar d
ung s
d u
o ch
▁ um
▁B e
e .
o uld
▁s ind
▁s ch
▁W e
▁ us
ter n
t r
omm ission
▁P ro
. .
o g
▁ ch
▁ i
id ent
▁p r
▁Europ e
▁ ent
▁v or
▁wir d
▁E n
f er
▁h as
es ch
▁h ab
an g
sch af
i z
i p
ct ion
m er
p ort
en n
ö n
▁w or
it ion
s s
u d
g r
▁r es
o c
o us
▁ en
▁E r
ic k
us s
o k
▁P ar
▁w ie
▁d a
isch e
u e
o ur
t z
▁h e
ur ch
er r
▁c an
for m
▁m an
et z
ab le
▁a m
i ge
f t
i re
k eit
▁h at
▁E in
▁ ich
▁s ein
▁c omp
a p
▁A r
o st
b en
▁o der
am ent
▁o ur
as t
i a
o tel
c c
er v
▁z ur
p r
▁als o
b eit
▁Europe an
is e
b e
m e
▁s ie
om e
▁ "
▁M it
r u
ation al
ic al
h eit
ul t
o ll
▁a d
is h
▁A us
er t
l o
at ed
es ,
or e
es e
a re
o ut
▁wer den
der n
▁ein er
▁k ön
id e
▁d o
ol it
r it
lich en
in e
h e
or d
te ll
h l
th er
▁W ir
▁2 00
▁G e
ar k
f ü
▁un ter
e ct
es .
▁wer d
ü n
p t
h er
▁Par l
' s
ig n
ä t
▁n ach
▁ qu
a c
▁ein en
ä r
▁Un ion
▁be i
▁yo ur
h en
▁it s
v el
▁p art
o un
t ra
▁t e
▁D as
e ar
ut ion
▁a g
▁re g
t w
ation s
▁d urch
▁g ro
▁F ra
an k
i an
at en
a u
ak e
▁B er
s e
end en
schaf t
y ste
▁s u
▁s p
▁b ut
ug h
▁I t
ar y
▁w ur
em ber
▁g o
▁ ro
g lich
g er
▁A b
c ial
▁I ch
▁V or
ä s
▁th ere
le m
ic e
▁M r
igh t
p er
u te
▁ 3
c on
▁a pp
▁H err
ö r
h re
an z
▁C ommission
▁d ar
▁E U
im m
▁t ra
u al
▁w ar
r ie
▁1 9
c l
os e
▁w ould
▁s pe
▁m ö
ge b
an ce
▁ –
a il
▁z um
o v
▁the ir
it e
i le
re at
ch te
er m
yste m
▁ein em
ch t
m p
h n
er en
▁g en
▁con t
▁b es
lich e
il d
ra m
▁be en
y ,
u ß
ch n
▁A l
on g
le g
▁m ore
▁Europ ä
▁a r
kt ion
ut z
▁T e
▁k ann
▁Th is
ü ck
▁D e
a ck
a ct
▁dies e
ü ss
▁L e
▁a cc
▁n ur
▁d is
os s
▁c omm
▁co un
▁C h
▁Un ter
at es
▁S p
on t
w er
o b
▁A uf
▁sh ould
▁ .
▁G r
am e
▁p l
▁be t
ah l
▁H otel
▁wor k
ier ung
▁on e
▁hab en
▁t im
l and
l ic
▁ ,
▁ne w
el t
▁D er
st en
y .
er ,
end e
▁ up
äs ident
▁c l
g es
▁S e
ein e
a uf
z u
ier t
▁so ll
g an
▁F or
ik e
▁J ahr
▁o ut
▁dies er
▁o b
a v
ch e
ig keit
▁Pr es
as e
t o
▁K ommission
l d
▁j ed
ä hr
re ich
a ,
▁p re
▁coun tr
g ram
▁D ies
▁in d
▁ver y
b ar
▁E s
re e
▁p er
▁in ter
▁z w
▁wh o
▁o ther
▁da ß
▁n och
ne h
▁pro du
it ies
▁m ust
form ation
n er
ten .
▁i hr
in k
.. .
on e
▁e v
▁s te
▁p e
▁the y
▁w eit
d ition
▁ne ed
▁of f
ge l
p ro
te t
p l
▁wur de
w o
i ent
r at
▁werd en.
ll en
▁n o
▁b er
on s
en z
▁me hr
ion s
▁in tern
▁on ly
▁y ear
▁f e
▁Pres ident
▁be c
▁su pp
▁con s
▁Pr äsident
em ent
▁st r
▁a ber
m it
ol og
▁f ind
ad e
▁ 5
▁U m
g lie
o in
el y
l in
▁w enn
▁ab out
▁l ike
▁p olit
te il
sch l
k e
▁ 4
p os
▁kön n
at er
ib le
en ce
ent r
ch en
▁an y
i ous
h t
▁m üss
c ed
▁ Y
le ich
▁se hr
▁pro v
) .
an ge
▁g es
▁Re g
vel op
g t
▁t ran
ung ,
al t
al ly
w end
▁uns er
n ah
b lem
▁e ff
c ess
am p
f e
ol le
j ect
▁al le
▁s ow
ie d
i ament
▁ ra
ü tz
ar beit
▁Ar beit
on der
▁f in
▁Parl ament
r ing
is m
▁re c
▁kön nen
▁th ese
▁s erv
▁s ol
le d
omm en
▁Mit glie
i o
▁d ire
us am
fü hr
ul ar
at z
▁M ember
▁v ie
ow n
f ahr
ers on
▁h in
p h
il ity
te ,
▁im port
’ s
x t
icht ig
▁dies em
st it
ä l
▁M en
▁S o
sch en
i der
ir st
a .
op le
st a
ing s
▁ge gen
▁ if
än d
▁de velop
ing ,
▁t r
f l
▁w el
▁s uch
f ol
▁re port
▁i hre
o ok
or s
w n
ing .
▁Europä ischen
ra g
f en
ier en
▁g r
it ät
▁the m
c es
▁p ol
u en
ment s
▁b is
▁s ub
▁l a
ate g
aus e
usam men
▁in s
sch e
if ic
▁re l
▁m y
▁Parl iament
h nen
▁Z eit
▁o ver
it u
▁M a
▁2 0
▁ist ,
▁in to
▁pe ople
lie ß
▁w ere
▁ge w
▁N e
▁we ll
st r
an s
iv en
c re
▁ge m
▁b est
▁ Ü
▁intern ational
m al
er g
▁A s
es ent
) ,
▁v iel
▁s ome
- S
at ive
▁c om
in n
▁mö chte
hal t
▁s ystem
▁wh at
en e
l ung
c il
ich er
▁in v
▁Mitglie d
▁M ar
con om
▁President ,
▁a ct
ü hr
um ent
▁d if
b s
▁h ier
▁m ark
▁O r
ar ge
▁h igh
at ur
f r
re i
h and
for e
▁C oun
▁ein es
urop ä
▁I m
ent ion
▁Ü ber
▁h otel
▁k n
o u
ig er
▁h er
▁b ed
u ll
▁countr ies
▁f irst
k te
▁l oc
▁th an
w or
▁in cl
▁us e
▁v om
▁m ost
olit ik
ver y
ie t
▁M e
k s
z eit
▁h el
▁N ach
ä ch
▁de c
s el
▁h is
▁ Q
▁l ie
ay s
▁gro ß
▁part ic
am en
ö glich
al e
▁müss en
▁v ers
a ce
▁und er
▁wh en
ed .
ation ,
▁pol ic
ro ugh
▁werd en,
st and
it z
re ch
▁tim e
pe ct
▁Coun cil
▁K on
it te
▁j ust
▁En tw
h m
un den
ation .
▁sow ie
▁d am
▁b as
k l
▁le g
▁n ow
▁H e
▁ag ain
▁e uropä
▁L and
▁supp ort
et t
än der
ib t
ste ll
t re
▁a ut
▁m ach
▁g u
▁Ber icht
igh ts
▁dies es
▁F l
▁I hr
etz t
we en
on d
▁m ake
stit ution
▁P l
▁e conom
▁h ow
▁ro om
st ütz
▁p la
▁R at
▁w o
r y
▁man y
▁bet ween
j e
▁C omm
ar m
▁as s
▁pro pos
ot h
▁f re
▁ 6
▁re qu
hal b
▁m o
gram m
▁f r
f ter
ab e
▁te chn
at ing
c y
▁p oss
▁p ar
ur s
▁zw ischen
ö s
w are
▁B ed
▁Ver b
b st
w ir
▁ber eit
▁im p
z ie
▁k on
▁Entw ick
▁wor ld
o ff
ub lic
▁mark et
is ter
▁p os
▁t ake
f ul
u er
re d
▁Mitglied sta
▁Men schen
▁import ant
▁En t
d r
e ver
is ten
c ted
▁f o
z ial
esch ä
▁bec ause
▁ist .
▁In tern
▁s el
le ar
at t
at h
▁s on
h ör
▁o p
▁uns ere
▁n ational
it ä
▁ '
at ter
▁A ll
w ard
▁m in
▁go od
al ity
▁wh ere
is ion
ly ,
▁k eine
▁G es
▁ver b
▁h and
▁I hre
▁g reat
▁re m
d em
ver n
▁U S
n is
h o
▁t wo
ed ,
▁a v
▁in formation
▁m ein
or y
▁M in
o te
o ugh
▁e mp
▁Pro du
al s
▁ „
ra uch
ic t
o ,
a x
ur n
r ä
i um
▁e very
▁p oin
tra g
n et
ö ff
▁ein z
▁w ay
▁h ad
ag es
▁e le
▁Gr und
▁con c
l ish
▁ end
t schaft
ic es
m in
▁b ie
am il
ro l
at s
▁pro blem
▁ev en
ur es
ess ion
▁th rough
af f
la ub
f ort
ung .
▁I f
▁19 9
▁is s
a ut
▁ Ä
▁ [
er .
a ir
l es
▁th ose
▁ge t
▁s a
el s
for der
s etz
ur ing
id en
▁Ar t
ass en
▁produ ct
▁and eren
▁an ge
▁s c
oun t
ere ich
▁ 7
▁F in
ce pt
▁A m
▁be f
uß er
▁t ak
hal ten
im mer
d ay
un kt
▁im mer
▁I hnen
isch er
ere in
▁or der
▁F r
▁m ay
ur r
▁Z usammen
um an
▁se e
▁m ade
▁S eit
▁wird .
▁be g
l ick
▁for m
ig ung
▁W enn
▁dis c
▁Fra u
r if
ess en
u es
it al
▁d ann
gan is
▁E x
▁ 8
▁1 0
sch ie
▁vie w
▁a c
▁kn ow
un ity
sp r
▁St ates
iv ers
▁ “
▁g ibt
c om
▁be ing
▁dire ct
▁n um
erm an
▁H aus
▁B es
it ed
▁r est
▁f act
▁k e
▁Th ere
▁weit er
we ise
i or
iv es
▁W h
sch ließ
▁be lie
▁partic ular
▁app ro
▁wie der
▁c ent
ist r
00 0
▁dif fer
▁dam it
▁dies en
ust r
y s
it t
g est
▁c ar
st er
▁M an
h ne
s icht
▁z we
▁tran s
▁g er
▁incl ud
▁o wn
v or
le x
▁O n
▁B ereich
▁g anz
ten s
te .
b al
a ur
▁G ro
▁bes te
▁pro cess
fol g
er k
icher heit
▁de f
ein s
▁res p
el n
f ach
in ess
▁D es
le ,
▁d el
re ad
ult ur
neh men
▁m on
al k
1 0
▁K omm
ever ,
ze ich
▁ge b
▁C on
ol d
ö ß
än dern
▁Dies e
▁r ight
▁b us
▁ag re
h en,
- P
▁g esch
all s
▁A t
▁Mitgliedsta aten
▁Europ a
p art
▁qu est
a z
▁m us
▁m ain
▁w ichtig
▁ex p
▁k ein
▁p h
▁b u
▁H and
▁m uss
▁unser er
äl t
h in
▁st and
iss en
o ol
et h
el d
▁Ge b
▁s itu
▁re al
▁hab en,
o y
▁comp an
▁ 9
ow er
ig t
ro und
i x
▁hel p
▁h ere
▁s m
schaf ts
ill ion
k ommen
▁son dern
▁ ...
▁Z u
ß nah
p iel
or g
▁Y ou
▁G em
▁de b
▁a fter
▁In ter
▁sein e
n ung
▁jed och
▁polit ical
ent s
kt iv
in ce
te gr
en g
- M
▁Europä ische
ach t
ru ck
▁aus ge
▁p ublic
▁pla ce
▁ ide
▁g ut
▁In formation
▁in cre
▁conc ern
g esch
ow s
mit tel
▁pro te
▁B r
▁poss ible
el le
w .
▁p erson
▁c re
▁B ar
▁B ür
▁reg ion
re is
än g
▁Sch l
▁s im
iss e
schie den
ir on
▁e tw
▁c lear
▁w ür
▁wird ,
▁s er
▁h uman
er al
▁s ay
ier en.
öglich keit
ä tz
▁co uld
er ation
▁develop ment
▁b ring
▁d r
▁sind ,
▁In d
▁he ute
is k
le ment
w eit
n der
▁num ber
sche id
▁cont in
▁Vor schl
▁s ame
fü g
b ens
i ,
▁of fer
y p
▁ne ue
▁econom ic
▁c urr
▁ est
▁g leich
- B
f ern
▁Te il
a j
▁o pp
▁St a
ert ain
▁with in
▁eff ect
▁st at
neh m
ge t
i ß
▁w en
▁St r
▁H er
▁r ights
▁k omm
k en
h en.
an ts
v en
s atz
ze ug
it i
▁Ä nder
▁sind .
▁f est
▁w ant
▁F ran
ent lich
▁do es
ke hr
in nen
▁s tell
▁av ail
▁F re
▁1 5
▁tran sp
in a
▁sel bst
▁again st
▁bereit s
up t
ä hl
▁m uch
h ip
▁m ich
▁f und
▁v al
w ay
▁b oth
iv id
▁d at
▁l ang
▁B et
ad t
wor k
la ge
an der
▁v is
we is
entr al
- A
▁pro f
▁H ow
▁könn en.
ich te
o ck
ier te
in ,
▁ihr er
lo bal
▁f un
▁s ur
st ru
▁le vel
▁mö glich
o .
l er
▁v ar
▁H a
▁s ign
▁f ühr
st änd
▁h ist
lo y
e p
▁I s
v iron
ä re
▁e qu
ft ware
b es
▁m ed
ust om
▁H in
▁europä ischen
at or
▁o hne
et .
▁W ie
▁p ra
▁n at
▁E ur
▁be k
▁prov id
▁V ers
▁con f
▁pl ay
ch ts
if f
u x
▁f ull
▁reg ard
▁and ere
b r
age ment
▁R icht
▁so cial
▁ne uen
▁c r
▁G erman
▁W elt
viron ment
o ver
er ung
▁b re
p f
le gen
ur g
p ar
▁differ ent
▁Entwick lung
▁K l
▁zwe i
▁den n
▁th ink
▁fin an
▁ex per
▁gro up
▁with out
▁le tz
ir m
▁1 8
▁st ill
ous e
w ick
h a
ier ten
▁year s
▁e igen
e ut
▁me as
▁Präsident ,
m b
▁ ens
un der
w ort
c ur
ra ft
▁M on
▁1 2
▁S icherheit
▁o per
g ar
▁cons ider
ent ly
▁ad v
▁Fra ge
▁l ong
- s
ol ution
▁th en
ction s
▁G en
▁M us
f ass
i qu
▁acc ess
ct or
▁gem eins
▁us ed
▁b o
▁F e
▁pr iv
▁m od
h or
▁o pt
l ine
▁l ast
▁S te
is ts
▁P art
ä ß
▁polic y
o hl
▁w oll
▁t erm
▁m ak
▁spe c
lich er
▁f l
oll ow
E R
▁ver schieden
▁ ers
ähr end
ßnah men
n ess
▁ge l
▁P erson
▁d own
▁pr in
▁hab e
ost en
▁go vern
▁at t
al en
▁s et
▁den en
▁unter stütz
▁agre ement
▁avail able
▁c ap
▁Bür ger
▁requ ire
con d
ung en,
im e
▁b ack
ut ure
onder e
v ed
h ol
ib ility
▁inter est
u de
ten d
ier en,
▁ab le
▁k le
ra ch
w ert
▁Jahr en
▁K ont
ur ther
z ahl
ab ility
in es
▁spe cial
▁bus iness
al th
▁da zu
y n
ge m
ien ce
▁ein fach
▁St at
v ers
i ze
f ic
ün d
ical ly
ien st
k un
t en,
▁D em
▁sm all
r icht
▁Mit tel
ä h
▁l ook
af ür
is piel
▁quest ion
ers ,
t ing
te m
▁T ra
▁c or
▁c ustom
▁b en
▁A ut
▁we il
read y
▁hab en.
▁d ay
▁g est
▁f uture
z us
▁belie ve
kt ur
r es
ter s
it or
▁z e
▁a ir
iv er
▁s om
▁all er
▁there fore
▁St and
- F
ul ation
an te
w ar
as on
▁resp ons
z ug
ah re
▁f ree
▁vie le
a kt
▁all en
or te
e ll
▁sein er
] ]
▁al ready
▁to day
ers .
▁dar auf
▁Th at
itte e
▁en vironment
▁des ign
r on
ese ll
ism us
▁hat ,
▁v oll
▁B ut
▁M öglichkeit
ü h
le t
▁Z iel
▁in st
et ,
rit t
▁c ann
▁pro ject
▁comp et
▁gr öß
▁Th em
▁e t
▁Fin anz
▁D aten
▁e ing
op e
▁pr es
▁R ah
▁Reg ion
▁T o
im in
▁propos al
it iz
▁s ag
it s
am m
▁L age
▁cann ot
v ing
w s
▁f ac
c r
▁bie tet
▁c ertain
ok rat
cur ity
▁are a
▁p ers
ess e
▁e as
▁f ollow
▁Pro blem
▁pre v
▁op en
ö l
ot her
▁a ch
l os
▁sch on
ge ben
ater ial
▁M ed
▁m ir
m ar
▁be fore
▁in t
l ä
ra ph
ation en
▁s eit
▁re du
▁An d
▁ 0
▁re pr
▁k l
▁ind ivid
▁M ein
▁bef ind
▁j etzt
▁pr esent
le ist
▁V erein
▁ne g
ah er
▁R o
▁S ystem
f ra
ah n
un e
or n
▁l if
▁ein ige
▁Re chts
▁h al
ol id
▁d afür
▁En erg
kl är
▁wor d
▁[ [
▁p ut
as ed
▁ &
b le
▁im pro
nah me
la gen
t ain
ir d
▁Gem ein
▁Herr n
ungs ant
▁poin t
ent ial
E N
▁T ran
is ierung
cc ess
fahr en
ult ure
re ib
i ber
▁P ol
▁R uss
▁in tegr
aj or
▁p le
il it
if ied
▁Rah men
e ich
▁finan cial
▁Komm iss
▁c ity
▁ch ange
▁me et
w elt
▁hist or
▁A mer
▁ öff
▁act iv
gr und
▁d uring
▁j e
▁ %
pr ess
o de
is ed
▁p ass
ies .
▁re v
▁Z immer
▁off ers
▁in stitution
ies ,
▁c itiz
▁al lem
ier t.
▁inv est
▁zur ück
ä m
k omm
▁ihr en
pp en
▁comp le
o ve
▁ge f
▁pro m
▁pos ition
▁f ol
▁S erv
▁sa id
▁de ut
ich ter
▁J ahre
iv ing
ra f
2 0
at her
▁g lobal
▁n un
▁l arge
▁mo dern
ia ,
▁Un s
▁ach ie
▁200 9
2 00
▁en erg
ab en
- c
▁re f
▁s af
▁e l
▁Kommiss ar
▁ex amp
▁lie gt
ic s
▁as k
a um
▁Be i
▁ Ö
▁W or
abe i
▁qu ality
il t
n ov
▁m ajor
▁app lic
▁hat .
▁Aus sch
▁co ur
p unkt
▁m ember
▁co st
▁Intern et
hal ts
▁f amil
gr ess
ant wort
▁ent sp
in s
▁c as
▁F ür
at iv
▁pro gram
▁s ince
▁b esch
▁bes onder
e k
lich keit
▁str ateg
re it
▁deb ate
g end
i end
▁ne cess
ern ,
▁con dition
un ter
▁Al s
▁ar t
et her
▁f ar
▁G o
▁A d
▁en g
n isse
is l
▁uns eren
▁K in
as ch
▁P al
bes ondere
▁Ge w
c ome
it ive
▁co op
g ang
▁techn olog
ges tell
▁Ein e
il ities
v ention
▁S h
om at
▁ch ild
▁O ur
▁am end
▁con tr
▁comm on
▁wur den
▁wür de
▁W ith
▁S pe
▁Ma ßnahmen
- T
▁e ach
▁B est
▁ad op
▁Unter nehmen
▁b in
an c
ß en
iel d
am er
▁ch e
är k
▁m atter
▁soll te
h af
eschä ft
▁For m
▁m eine
▁G esch
ual ly
▁soll ten
t ig
▁Information en
▁P h
▁sol ution
▁G er
▁En g
▁stand ard
▁Arbeit s
- R
▁me ans
▁P olitik
▁dat a
om en
▁B o
▁aut hor
▁includ ing
▁st ay
op p
i pp
▁w ährend
▁b ud
▁3 0
re t
ge w
- D
z en
sch ied
▁etw as
l oss
- K
▁all ow
▁U r
▁countr y
c ip
ab lish
▁How ever,
w ays
▁fo und
ie le
▁W er
▁are as
m an
▁Un d
▁Vorschl ag
▁res pect
▁f ra
ort h
▁B ild
▁c olle
▁d och
▁ /
▁st ud
ff en
▁R es
▁so zial
h ält
▁th ree
h äng
der s
b ed
▁g ive
str ument
▁ein ge
▁dem oc
▁re ce
v es
▁ens ure
▁sein ,
lin ie
1 .
ür lich
u ge
il y
▁ne xt
iz ed
▁ad dition
▁er m
▁f urther
▁tra dition
f ang
▁fe w
al ,
▁th ank
▁t un
▁disc uss
▁L änder
▁De ut
▁ob ject
st imm
I n
g leich
▁su ccess
▁bu ild
▁f il
▁B l
in en
▁or ganis
▁Unter stütz
▁c al
▁im m
▁D urch
▁se cond
▁cont rol
o f
▁F all
▁prov ide
g re
▁serv ices
i ate
ze pt
▁and er
un de
eschä f
ion ,
▁Comm ittee
▁L ös
▁g ar
o hn
we g
▁ein mal
▁St adt
▁ins besondere
el f
zie h
z iel
▁d et
▁p ay
▁W ar
▁emp loy
▁Q ual
on ,
setz ung
▁Q u
l ungs
tr ä
▁l ink
p or
ch ten
▁st ar
▁est ablish
▁a ußer
▁d u
▁gro w
▁R est
▁re ad
▁ver l
▁best imm
u le
▁Ver füg
▁ab s
rie d
▁It al
as h
▁Te chn
▁Z ug
kun ft
je kt
▁e ar
▁wir k
▁K omp
m a
▁Gro up
in ing
▁that ,
ut es
▁be im
▁serv ice
▁p op
f alls
▁opp ort
▁in de
▁s k
▁Mar kt
ig in
r en
- E
▁er sten
▁find en
an ,
▁sh all
▁Sch w
p end
▁2 5
▁h o
▁er reich
▁Zusammen arbeit
▁necess ary
un ic
▁e m
▁d id
ultur al
▁sch w
▁1 4
▁Pro gramm
p olitik
i en,
▁ad d
▁t err
▁We bs
ord in
▁prin cip
▁b l
ru ct
▁ |
▁be gr
▁d rei
or m
▁v o
▁a ction
▁z usammen
▁leg isl
▁ X
▁ ä
▁T ag
▁se curity
▁pra ct
t schafts
▁Sp iel
▁C l
b au
▁tak en
▁M ad
▁sim p
▁inv ol
A T
ig en,
b o
▁er st
▁he alth
▁re t
al d
ör der
▁ke y
▁Änder ungsant
ro ss
▁kann .
dr ess
ä d
▁ent wick
▁le ad
en k
▁ch ar
ord nung
stell ung
b urg
A N
be wer
is te
at te
h t,
are d
▁T r
▁wh ile
- m
▁in form
ess er
▁b ro
ur z
▁wir tschaft
ge ther
▁1 6
ne ll
le ct
▁D ienst
icht s
▁sich er
▁re ason
c ing
z ess
▁ ir
ro du
t es
▁loc ated
▁situ ation
▁w ish
ra che
ktion en
▁De b
j oy
▁repr esent
▁p ower
▁N amen
ro p
▁D a
▁prote ction
▁g iven
gan gen
le it
▁Eur o
heit en
▁imp lement
E S
I N
▁C omp
ar ch
▁c ome
sch rif
and s
▁and ,
i ation
▁Parlament s
ear ch
▁re fer
▁L ändern
▁Reg ierung
▁b r
▁product s
▁S w
os ition
▁w rit
▁1 7
▁sein en
est s
▁G eschäf
ra d
▁R om
▁V ol
ain s
kt or
▁könn en,
k ten
il fe
▁b ar
ü f
all en
▁P ort
ie w
▁t re
▁The y
▁com b
wir k
▁D ar
c o
▁Amer ic
▁R ed
▁al ways
▁O b
sch ein
▁k omp
▁B esch
▁B el
▁s ens
▁K olle
▁c ase
▁w äre
▁K ol
▁bet ter
ce ll
▁n et
▁Un ited
▁st art
ichter st
▁sh ow
ust rie
▁a kt
▁B eit
▁m ult
iv il
▁wh y
ett bewer
▁( 1
v oll
l ing
führ ung
k on
▁ge ht
ers tell
▁N utz
entr um
▁N ot
▁to o
ial og
▁g laub
▁energ y
f re
▁comple te
▁d ank
wend ung
ar te
▁ge hör
▁w icht
▁Unterstütz ung
▁re le
▁Um welt
▁20 10
▁200 8
z ü
▁h ö
sp ro
ber eich
ä mp
▁h ope
re chte
▁res ult
i od
▁L a
▁f av
▁ch o
▁letz ten
▁Comm unity
se qu
- b
at ch
▁Energ ie
▁m uß
ier t,
l ess
▁iss ue
▁K r
ik an
b lick
▁Ent scheid
▁meas ures
▁Bed eut
ob il
re g
cl us
▁us ing
ier ungs
▁5 0
▁m ov
und heit
▁K o
▁cons um
is ing
▁b le
▁re ach
▁leg al
▁S k
▁la w
▁s ing
▁ent fern
▁se ctor
▁1 3
▁a round
r än
ig ten
▁con ne
ge ,
▁W as
▁transp ort
öl k
▁ev ent
▁W el
▁curr ent
▁S er
ab il
▁Le bens
▁der en
▁re p
▁produ ction
- G
uch t
lo ad
mar kt
▁Wh at
pf lich
▁v ote
▁G u
eit e
▁sein .
▁wel che
esell schaft
▁( A
et s
▁US A
pe cial
b ild
at ely
erv or
ge d
it er
▁cl os
▁in ner
▁sh ort
l ungen
▁Er geb
▁n on
▁F amil
▁ra pp
▁be l
▁room s
▁F un
▁to ur
ward s
▁H ier
▁Mr s
▁bas ed
itä ten
s k
▁groß en
▁K unden
▁wh ether
▁groß e
▁individ ual
▁m or
lich ,
alt ung
▁S itu
ho f
a gen
▁l ess
▁l im
▁c rit
a pp
▁dif fic
▁cent re
ut en
▁ex tre
it es
ün st
▁bec ome
ct ive
▁to gether
▁W hen
ot t
schaf ten
▁ne ar
▁s l
▁A ber
▁Th ese
▁an other
▁F ol
▁particular ly
es en
▁govern ment
ed er
fer enz
ateg or
▁Intern ational
▁d ist
▁st ate
▁2 4
▁Sch utz
▁1 .
o ten
ib ution
ic e.
▁le a
▁res earch
um en
- L
k auf
▁tra de
▁f ield
ro s
ß e
▁A uch
▁z ahl
▁d abei
u pp
▁ind ustr
d ruck
▁B us
▁Ver trag
▁B ank
▁m en
▁1 00
▁Rest aur
▁h im
- C
if y
▁Kin der
ad en
▁rapp orte
▁c are
ic e,
▁work ing
▁Be ispiel
▁Re gel
▁bek ann
as ter
▁T ur
▁A ir
▁b ene
▁not wend
▁Ber ichterst
▁j oin
▁B en
▁k m
▁c all
ern .
▁m et
▁da v
▁res olution
ro om
▁h ervor
ich ten
wer k
ul es
▁wur d
i ar
in ed
c kt
▁200 7
▁öff ent
le .
as tr
▁U N
▁or gan
ik el
▁vis it
▁entsp rech
▁loc al
ish er
ro ll
ar ante
▁Z ahl
▁Re cht
▁spec ific
▁fr iend
en der
▁Pro ble
▁dar über
iqu e
ät ze
▁Wir tschafts
▁er forder
O N
▁compan y
igkeit en
w ach
▁rest aur
▁St ud
▁dec ision
v est
▁citiz ens
▁bre ak
▁S an
▁a ff
al le
▁res ul
h ö
▁sub ject
▁be ach
ur al
pecial ly
▁b ook
▁an n
▁gegen über
▁e ben
▁sch nell
▁jed er
▁ad dress
t y
▁h off
ord ing
▁G ä
▁t ax
▁E l
▁var ious
ä uf
▁b rauch
ion .
▁Ne w
▁ex ist
▁co urs
▁F ahr
▁en joy
eng th
▁r un
g aben
▁We g
f äh
lo ck
▁V iel
▁c ol
▁EU R
▁L ie
▁d i
▁exper ience
▁ges am
gem ein
ü t
ig es
▁how ever,
▁F ort
▁ ur
▁p age
▁Präsident !
▁sow ohl
▁ste p
▁o ld
▁W ahl
▁Haus halts
▁t yp
▁M ark
h ang
ver al
▁Fra gen
im ate
▁be w
e ign
ad ies
▁bas is
▁gu arante
sch utz
5 0
▁weit ere
▁prof ession
▁M al
▁a im
▁be h
▁n äch
t il
▁( S
▁G ar
oc ument
▁diffic ult
o gen
ra um
▁eigen en
▁th ird
▁En de
▁o cc
▁d ort
▁Ihr er
▁nat ürlich
▁St ra
▁p ack
he b
▁P reis
▁be aut
▁com fort
▁re ally
us e
ia .
▁Ch ina
▁mein er
▁bud get
▁it .
ge ord
is ation
ück s
▁de al
te xt
▁s um
▁comm it
▁spe ak
▁n ie
▁ar beit
▁coop eration
▁polit ischen
▁Ha upt
▁kl ar
w and
▁P re
ent en
▁eff ort
▁d istr
ass er
▁in nov
▁Par k
ü d
▁pr ior
▁mon th
isch es
ing ungen
▁Geschäf ts
▁st aff
an gen
et en
sp l
▁need s
▁acc ount
▁cr is
▁Deut sch
▁pro gramm
▁g ent
▁per iod
▁er folg
u c
▁Ge gen
ch an
▁th ough
is en
▁For sch
▁to t
ge leg
▁te il
3 0
▁or igin
ung en.
▁Me hr
▁pro ced
cell ent
ün ft
▁m ot
if iz
▁1 1
▁verschieden en
▁rapporte ur
▁T our
▁wirk lich
og raph
▁fo od
▁n am
- V
▁n or
i .
▁h och
g abe
▁to p
▁inner halb
z uf
▁besonder s
ar n
▁Berichterst atter
▁Aussch uss
o ber
▁es pecially
▁neg ot
ly .
▁cre ate
▁d aher
gen ommen
A R
lich .
▁problem s
▁Z we
▁Min ister
▁ :
om ent
▁pl an
b y
▁T reat
▁t urn
▁Al le
c .
el ,
ig ,
▁priv ate
▁w ater
st off
▁F est
▁R olle
ens ion
t on
in ter
ist ic
▁per form
▁t reat
▁pr ess
- H
I T
▁J an
▁appro ach
▁person al
▁viel en
▁be tr
▁cl ose
y l
▁L in
▁N atur
▁m illion
▁zw ar
▁ver wend
ut er
" .
▁so c
▁gen er
o or
du c
▁re form
▁pro p
e c
▁W ettbewer
" ,
▁fav our
▁Seit e
ass e
▁ent er
▁d ra
ol f
▁term s
h t.
▁am ong
▁j ob
▁Kolle gen
ro w
h men
▁international en
▁i hnen
i ol
▁its elf
z ip
▁som eth
▁T err
eit en
▁lang u
▁ ess
u gen
▁Kol leg
▁G ru
rie den
▁in iti
▁se veral
ben e
▁gen eral
▁D ire
▁st ruct
iv al
g lichen
▁do ub
▁W ind
▁C hr
▁inst all
▁A fr
▁res our
in ation
▁m aterial
le b
im al
at ure
me work
g en,
▁D isk
▁Richt linie
▁d ocument
tem ber
▁to wn
▁dire kt
▁ro le
▁So ftware
▁incre as
▁O p
▁we bs
ip t
▁Verb rauch
▁Ihr en
ts .
▁( P
rit te
ut h
▁n atur
än de
part ment
▁N o
▁reg ul
▁U hr
▁en c
▁d ür
▁W och
▁hin aus
▁beste ht
w h
▁g l
▁le t
▁in c
▁p at
▁sing le
▁p ort
ks am
▁Str ateg
w är
▁Them a
▁m ar
ün f
ch er
m os
▁aut omat
e g
▁dav on
or en
iet y
h aus
▁who le
d ings
▁int rodu
führ t
▁gew ähr
▁auf ge
iv ed
▁K ü
' t
▁sh e
▁ex cellent
▁l o
▁pro gress
▁cour se
▁a way
b et
am t
▁ser ious
▁all es
▁pe ace
▁Zu kunft
ch es
- in
▁k ind
▁beg inn
I S
▁c reat
▁Union .
d .
red it
▁op in
neh mer
▁gent lem
▁me an
ard s
▁someth ing
ts ,
▁wurde ,
zeich net
▁man agement
gr ic
l ik
▁s up
▁200 0
▁fun ction
▁kon n
enn t
ab ly
▁F isch
ue llen
▁Seit en
▁follow ing
la uf
▁under stand
h ens
itt le
▁t ro
im a
▁l ist
▁We ise
▁mak ing
▁partic ip
w ä
af fen
th ing
ation s.
▁erm öglich
▁ste ht
▁Tran sp
▁Ber lin
uch en
▁H ouse
▁E mp
fe hl
▁cris is
▁europä ische
th ough
c el
▁go ing
▁an s
▁cont act
▁Fra uen
▁ac cept
▁for ward
▁an al
▁war en
▁bene f
▁Fran k
▁s ett
ity .
pro du
▁Wor ld
▁m one
▁extre m
n ers
▁M y
▁Ges undheit
▁g ra
▁member s
▁ers te
▁Proble me
▁on ce
▁so ftware
C H
▁gentlem en,
▁st ark
l ag
▁19 8
▁Re p
▁r ange
c a
▁to wards
ach e
legen heit
▁wurde .
▁b al
▁befind et
▁ex press
▁gen au
od y
ur y
▁Un ivers
u h
ot s
▁abs ol
▁einz el
▁d on
▁In vest
rie b
▁M illion
▁rec og
▁contin ue
▁d est
▁m ention
ind ung
▁Zusammen hang
▁G leich
▁w alk
ck en
▁iss u
olog ie
▁h ät
▁p ost
fer ence
▁Ab geord
▁comm unic
▁fe el
re chen
- 0
▁ ident
ra el
▁C ar
▁N ov
▁of ten
itä ts
▁un til
om b
▁l and
▁P e
▁K ar
▁m ilit
as st
em p
▁unser em
▁Gä ste
g än
hal ten.
▁Mad am
y r
▁A pp
out h
▁tim e,
▁we ek
wir tschaft
▁Art ikel
▁n utz
arm on
▁be iden
▁N ational
▁a id
st um
▁an t
uf f
2 .
sp rache
▁def in
▁R ück
▁fin anz
f ect
us ätz
ue ll
▁str ong
▁200 6
y pe
- 1
▁sag en,
▁D o
▁Sp an
▁Ent schließ
v ent
tra ct
▁2 .
▁C an
▁Bedeut ung
as ,
▁K ultur
äch st
▁M et
en ces
stimm ung
O R
is ions
id ence
on n
▁bie ten
▁wel tw
le icht
▁opport unity
y m
z immer
pl an
▁J ul
▁l ittle
at iven
ally ,
uß en
▁Ver antwort
be i
ment .
- f
▁Se p
▁F il
ar s
▁r ather
▁ke ep
▁Dem okrat
▁b z
ment ,
▁grow th
▁ste hen
ik a
r .
▁activ ities
▁m ind
schrif ten
im um
i j
hal f
▁h ard
oc us
f ull
er ien
uf t
▁Dies es
ap s
▁B as
▁Fra ktion
ed om
▁che ck
▁lif e
pe kt
g o
▁Deutsch land
we il
▁v e
▁qu ite
▁ il
m äß
▁M o
▁W eit
▁f ast
▁se em
ity ,
▁Union ,
▁Sta aten
▁Serv ice
m or
▁s w
A S
▁( D
▁begr ü
▁Or ganis
▁Part ner
is on
ass en.
▁ph ot
e an
▁i hn
▁t as
▁bz w.
▁ele ct
▁s ug
▁S c
▁Hotel s
▁de v
ämp f
b our
▁ind em
ig t,
in o
is es
st ra
▁ch ang
▁be half
▁Schl uss
f all
▁Commission er
ic le
ag n
ar ian
le tz
enz en
rä ge
▁w omen
eth od
▁Des halb
▁qu al
omm end
▁le ast
▁C ent
▁child ren
age ,
▁tr y
▁f our
g enden
▁S tell
▁ges ag
mos ph
ail s
▁Dienst leist
▁b ig
▁eff ic
▁S a
▁rel ations
▁sp iel
▁incl ude
ab häng
▁sign ific
▁rem ain
▁wen iger
▁n äm
▁m ight
teil ung
▁ver w
th e
▁l ab
wo hl
fü ll
▁incre ase
if ul
▁etw a
▁Ch ar
▁g ute
▁St ate
ic a
▁So zial
on ger
iv ely
ament al
▁full y
▁d one
iz ation
▁ide al
▁A ss
ter ,
▁ver fü
ond s
▁pers ön
▁p ark
▁pos itive
ure ,
▁zahl reich
▁wel come
▁er halten
ein ander
▁A fter
en en
▁ag ree
▁Sep tember
id es
▁Er fahr
zeit ig
▁k urz
▁so gar
▁p ur
▁Pro jekt
▁cont ent
▁fra mework
▁ha ving
▁jed en
▁l adies
rat ic
▁direct ive
▁condition s
h under
▁b or
▁ad min
ä ge
▁P at
re cht
ic ial
et y
▁P unkt
▁n ah
▁an .
▁G eld
▁P er
v ölk
▁e duc
O M
▁al ong
▁r isk
sel f
ific ation
sel ves
▁contin u
- W
g en.
äch lich
e llen
m et
▁H ilfe
▁ar ch
▁ )
ber eit
▁A ustr
▁l og
▁p a
bar en
au er
▁Situ ation
ra cht
▁iss ues
s weise
▁Pr iv
▁rec ommend
imm t
▁An ge
▁ger ade
▁ab ove
ran k
▁h our
eit s
▁compan ies
▁T od
▁unter schied
▁kann ,
t ag
▁In stitution
▁Million en
▁f air
op h
▁o th
r ic
ver b
f ast
▁mach en
le an
ese hen
a i
▁adop ted
▁nicht ,
ier e
▁examp le,
▁näm lich
os tel
▁s uf
▁S al
ere cht
▁ess ential
ig en.
▁net work
▁D ank
▁b itte
▁Zug ang
u z
t igen
▁T ats
▁T ür
▁str ength
▁We b
iber al
▁i hm
at is
▁st att
w ahl
▁f lo
un st
▁sein em
▁ ü
m ost
ie f
▁tak ing
▁v iol
▁Le ben
ier ungen
fra ge
an st
▁le d
▁char ac
age .
▁ent ire
b ank
▁Be zug
▁4 0
ag er
▁mak es
▁me isten
▁cl ass
▁to ol
st ant
▁Dies er
le i
▁b ank
▁st re
▁transp ar
e um
ce ,
▁cal led
▁ble ib
▁bed e
▁dar f
▁f lex
une hm
▁a gric
▁Uns ere
▁N or
▁b ath
▁s end
▁polit ische
▁Jan u
▁ret urn
ure .
▁Ch in
▁te xt
b are
ä um
lich es
re icht
▁con stru
▁ne ver
▁K ap
ü l
▁provid ed
ig r
e x
▁f ocus
▁B uch
▁w esent
▁gen ann
w ord
▁e ur
rif t
▁l ine
▁Z ust
▁In iti
▁tim e.
ün sch
at en,
▁g re
ru ktur
▁a k
▁200 5
ig ital
▁eben falls
f ind
▁g ib
▁an ges
▁stell t
▁Re chte
▁n ame
▁w ahr
▁F rei
▁in strument
am b
▁O ne
▁loc ation
▁famil y
aus sch
v ement
▁Gr ün
▁fre edom
▁Ver kehr
s ide
▁Ver hand
▁att ention
ber g
▁Ges etz
▁Produ ktion
h enden
▁( C
b on
▁An tw
▁Entwick lungs
ure d
▁G l
▁p ot
ide o
▁provid es
▁te le
▁re cht
▁r en
▁S el
wo hn
er st
ur f
▁I de
▁dem and
▁Europ e.
▁h ome
▁co ver
▁Te xt
rol le
A L
▁respons ibility
at ives
iss en,
▁se hen
▁Lös ung
▁ne u
▁beaut iful
▁del iver
▁E m
▁S ub
▁et c.
uf act
▁öffent lichen
ir c
ik en
▁der zeit
▁( E
▁appro pr
bens o
h an
▁re la
n ow
▁t alk
▁rec ent
▁N icht
▁Jahr es
▁on line
rie g
▁cours e,
ap an
is ,
▁Unter nehm
es ted
amp f
▁d ue
▁per fect
▁d om
zü glich
▁J ust
▁te am
▁import ance
▁( F
▁Ver w
▁K osten
▁H ö
▁Produ kt
▁Fl ug
▁m ass
▁r ules
t a
▁s port
w ür
ust ain
ä us
▁B eschäft
▁Fr üh
issen schaft
gre if
iv e,
▁Re i
▁y et
▁ihre m
▁v ol
▁he ad
▁Jahr hunder
▁An geb
▁Produ kte
▁s ite
le ase
zus tell
▁kn own
▁Europ as
▁bede ute
▁pr ice
ile d
▁Pro f
ust ry
▁eas y
▁T V
▁h olid
- O
▁kein en
schließ lich
r imin
▁Gro ß
▁Commission er,
▁simp ly
▁200 4
▁J un
▁Is rael
u k
▁Member s
▁W es
z ogen
led ge
▁m ethod
tel le
ä ll
ver kehr
▁le ft
sp olitik
s er
age d
forder ungen
▁z usätz
dern ,
▁national en
▁C ont
b an
il f
al .
cept ion
ill a
ation s,
for e,
▁T re
▁Fun ktion
und s
le men
▁R ates
▁t est
▁t able
▁m oment
▁ro ad
T he
it ing
▁great er
▁weiter hin
▁I I
un ächst
cr ipt
▁s al
▁ar r
▁s ure
▁er war
▁vers te
▁f ish
▁ra d
▁müss en.
9 9
▁S itz
▁sch ließ
▁W ach
ig .
▁he iß
▁environment al
h ib
▁Fort sch
astr u
▁j a
▁yo ung
pt ion
▁Chr ist
ücks ichtig
▁A g
▁l ight
▁c entral
▁he art
▁k osten
▁build ing
s id
▁ein igen
fr astru
▁gu est
▁st ärk
▁custom ers
än ger
halt en,
O S
spr uch
s en
in ge
i ations
▁mo der
▁C as
▁Des ign
un ities
A D
ter m
▁her aus
im es
▁F ar
ig ent
▁f a
▁ab ge
▁natur al
▁th ings
▁man ufact
▁res erv
▁B em
▁er klär
▁( B
▁at tra
▁2 3
▁Le ist
▁an ,
▁f arm
if t
▁system s
▁b esser
▁ben ö
▁tot al
an ces
▁mus ic
▁des halb
▁author ities
▁M or
▁cap ital
▁m ax
un ch
full y
▁qu ick
▁un ver
ass en,
▁in fl
▁Pl an
ar f
▁W ohn
ür z
▁c la
▁t em
▁A pr
▁F ot
schl ag
▁ver füg
▁democ ra
▁par l
lä ss
▁rela x
al er
▁Aus sprache
▁wor den
en c
▁d essen
▁compet ition
i -
▁S port
▁auf grund
▁effect ive
▁p ub
at ic
ot ing
▁inter ess
▁mone y
ce ed
▁M ay
▁ex tra
▁Be zieh
ne te
▁val ue
▁le arn
▁program me
f te
ie ,
▁achie ve
▁P ra
▁l ar
▁as pect
▁techn ical
n ing
' '
am es
▁Go vern
▁meet ing
▁wicht ige
▁increas ing
m .
▁so ur
▁wen ig
ance ,
▁W ill
f in
äs ent
▁sh are
▁Bes uch
▁Nov ember
h ing
▁D ok
st ück
er ous
an t,
gestell t
▁W ort
at al
u elle
▁g ilt
an ze
▁requ est
ig ur
▁acc ording
▁v ia
▁bes ten
▁z .
▁K unst
▁app ear
▁signific ant
▁erfolg reich
z entr
▁Mit arbeit
▁Menschen rechte
▁part ners
▁be ispiel
▁Ben utz
▁An sicht
▁fund amental
▁l onger
▁nicht s
▁intern al
6 0
är en
▁Sch ul
▁examp le
▁fac ilities
▁N ä
-P ro
ä ter
om fort
▁B ro
al ität
▁v erein
▁en ough
us ,
ch ange
▁ob l
▁s etz
▁Be völk
▁V on
▁sol che
pl atz
▁respons ible
▁vers ion
▁charac ter
j en
mal s
tre ten
pflich t
▁er n
▁dis k
/ 200
▁B rit
▁F irst
▁Mein ung
▁c aus
▁könn te
▁er ne
▁vor gesch
▁näch sten
▁S ol
▁Men sch
E C
▁ind ustry
▁F örder
▁Verbrauch er
▁of t
▁S uch
▁Ind ustrie
▁kon k
▁l ange
▁verb unden
▁min utes
i os
▁prev ent
or ted
▁main tain
▁A uss
▁th ing
▁Pro gram
▁v ier
▁Gemein schaft
▁c ivil
▁I ra
▁Apr il
ub lik
fr ist
he im
▁B ud
ian s
in er
▁curr ently
▁müss en,
schl uss
▁e d
st adt
▁terr or
▁all ,
n ,
halt ung
▁ass ist
en ch
▁St ad
▁clear ly
B .
ro ffen
I C
▁Webs ite
▁N ord
▁we b
▁I r
▁s ustain
▁woll en
▁d ays
▁pre c
▁F ern
ver ständ
▁ 000
▁Ab stimmung
▁Fe hl
h as
dr ück
ir t
h em
▁Kl ima
▁W asser
▁il leg
▁C o
▁se le
▁is ,
2 ,
▁m ount
▁propos als
o id
▁A ug
▁Um setzung
▁ben utz
▁applic ation
U S
▁In sel
▁B ü
▁Wir tschaft
▁z ie
▁Wach stum
▁St ruktur
▁fe atur
▁ver sch
un kte
el .
▁m ess
▁Sel bst
ce p
A P
▁st or
▁verb ess
▁bet re
te ile
▁for eign
is c
▁B au
z a
▁l ow
▁vo ted
▁20 1
▁extrem ely
▁G re
or r
▁ent scheid
fass ung
ist ischen
af en
ra b
▁N etz
▁19 7
▁Verfüg ung
▁D am
▁F rom
▁recog n
▁M ot
▁serv ic
mb H
ce .
gr iff
▁R aum
▁c amp
▁we iß
s h
▁A G
▁gemeins amen
en cy
▁c ultural
yste me
▁200 3
▁l assen
▁je weil
it en
. 0
▁cont ain
▁amend ments
▁it em
▁Er folg
▁k ont
▁K ons
- d
▁Grund lage
▁D ruck
yn am
▁S oc
▁Or t
omm od
rit ten
i able
▁them .
▁bed eut
l ang
▁wo hl
net en
land ,
▁P f
▁Tran s
▁C our
▁viel leicht
▁Qual ität
▁w ind
▁saf ety
d am
▁l at
ich tet
▁hat te
▁pre p
ob ile
▁Vers ion
a ve
in zip
▁G mbH
▁O ff
pl ay
schaf t,
▁Ein z
te t,
▁Be k
▁Treat y
h end
▁up on
e e
▁us er
▁c irc
▁er ziel
▁ch arge
▁ex pect
▁Mus ik
▁dem okrat
▁st y
▁w issen,
iden cy
▁se par
s uch
▁Par te
▁ch allen
▁Ihre m
▁ge ben
▁Aus wirk
▁Wie der
u .
el y,
▁T ages
▁S on
or k
▁P lease
ach ten
▁be vor
▁l ot
▁z ust
▁Person en
▁T ro
am ous
▁K rit
▁er reicht
in ner
sch n
▁cor re
r i
▁f ünf
land s
▁beispiel sweise
▁direct ly
▁prote ct
ll er
mit ted
te chn
▁l ive
on a
E L
▁A ußen
id d
wür d
sicht lich
▁Ein satz
▁ ö
▁comfort able
ver t
on str
en ted
b l
b ie
at ten
▁countries .
il der
▁f ight
ag ing
▁ges tell
▁p ool
▁B y
and id
in e,
ist an
▁K ön
▁propos ed
▁D aher
▁A ußer
▁M är
cr ib
▁Wind ows
▁D amen
▁wer de
mer ksam
▁guarante e
▁Te le
- ,
▁situ ated
an ten
▁t arge
▁Her aus
▁D ate
de ut
▁opt im
▁Me er
▁e ith
▁B ook
öff entlich
▁E bene
▁An wendung
▁aller dings
▁prev ious
▁W ert
▁nor mal
▁an geb
▁St re
▁sozial en
i en.
m s
▁weltw eit
▁ha pp
▁region al
▁ver st
▁eing es
m ut
▁ind ic
b est
um ,
geb ung
▁war ,
▁dar an
▁require d
▁cost s
ate .
▁cl ient
▁B lick
pp e
▁Pro zess
v al
▁über n
▁F und
▁stell en
▁Stat es.
▁Rei he
▁Er weit
▁m ag
w w.
▁b it
▁M ore
▁Geb iet
▁L is
▁kle inen
▁S outh
ance .
h es
▁Ö ff
▁cre ated
an a
il ater
▁aus gest
T M
▁6 0
▁com es
▁ha ppen
▁st im
▁Pro t
▁c lean
▁A ktiv
▁sur round
st all
▁ple ase
et te
▁2 1
l ier
▁Arbeit spl
b ahn
o und
T O
is e,
▁komm t
um p
v ant
▁Er klär
▁D en
▁app ly
▁so on
▁impro ve
▁Sch we
▁am b
▁hö ch
▁Hin blick
▁M od
▁stat ement
▁resour ces
▁W erk
c ent
h ab
▁H och
- In
▁fin al
▁p ict
id ed
▁Nä he
▁ €
▁M ont
▁schw ier
spr äsident
ire d
▁In tegr
tr ie
▁acc ommod
▁fun ktion
▁mon itor
▁develop ing
▁Fr ench
un ik
▁view s
omm en.
▁Europ e,
▁r icht
hör den
▁imm ed
v in
▁verschieden e
b el
▁ ‘
▁p ages
▁S u
▁sch aff
▁A ff
loss en
▁mö chten
▁al tern
▁al most
▁resul ts
y mb
▁c ard
as t,
▁Z iele
▁anal ys
R O
ö hn
ib r
▁v ill
el ess
▁democ ratic
i kt
er c
▁institution s
▁c ut
▁addition al
or f
▁Ro om
▁J apan
ch sel
▁qu e
▁find et
us st
▁Ste uer
▁poin ts
▁sch rift
üss el
▁Disk uss
▁cl imate
▁f ile
ak ing
la ck
▁Pl atz
▁Invest ition
▁G esellschaft
▁gemeins ame
▁tra vel
▁p ow
▁reg ulation
s ystem
▁Z entrum
▁es ,
▁rev iew
I P
▁h ouse
▁K ir
en nen
w ind
▁Änderungsant rag
▁E C
▁act ually
▁enc our
▁D och
▁Re chn
ul ate
▁ex am
▁Uns er
▁con tract
▁l ack
▁deut lich
▁S üd
ub e
▁ak zept
pend ent
▁k ommen
L )
il ar
im ent
▁t ats
▁h old
lie d
▁voll ständ
▁be tra
▁M ill
qu e
▁down load
▁Demokrat ie
ipp ed
▁R ad
▁appropr iate
▁d ialog
bar keit
▁Richt ung
▁Sicherheit s
▁sch ein
▁b ess
hin der
pr üf
▁Be g
richt ung
▁holid ay
ig ungs
▁Ar ch
▁off icial
d ing
▁en l
▁Aus druck
▁rece ive
▁all gemein
▁K le
p re
▁German y
▁2 7
▁N ie
▁Vorschl äge
▁develop ed
▁Americ an
I D
f rei
▁th us
er ra
tend ed
▁conne ction
ad urch
▁ass oc
▁D at
▁Bed ingungen
▁Ergeb nis
rech ts
▁profession al
▁I ran
▁gesam ten
g esehen
- st
ch s
at ory
f eld
au ber
▁contr ib
▁Inter esse
t t
▁Verantwort ung
▁er wä
▁world .
▁implement ation
▁tra ining
▁vor ,
ö ll
ish ed
▁Stat es,
▁Ver tre
an ced
▁pub lish
▁W est
: 00
▁sch ool
▁Kolleg innen
▁Port ug
▁quest ions
at ors
o od
▁sug gest
▁prop ert
▁er k
an e
▁r at
▁c e
atis f
▁um fass
▁F rieden
iel le
▁Antw ort
te t.
ers eits
ste ad
▁equ ip
im s
▁re d
▁L ond
g n
j ähr
ie llen
lin ien
▁tim es
▁f amous
▁c op
ach en
▁wurd en.
▁einzel nen
▁un ique
▁st op
a ß
▁pos it
▁h on
part ments
▁h armon
▁hel d
ens e
▁P ak
or ge
▁w ide
▁F ühr
▁An t
▁P osition
ate ,
tern al
▁Gen eral
cl ud
▁through out
▁Entscheid ung
▁Mitglie der
▁b isher
▁gemeins am
▁effort s
a ul
▁le b
▁Se e
▁e benso
▁D u
arbeit ung
▁ans wer
▁H erstell
▁De c
dern .
▁B innen
▁ex clus
▁emp has
l ändern
▁con text
al led
▁technolog y
ind est
▁princip le
▁dra w
fäh igkeit
▁imp act
▁be hand
▁Außer dem
äs st
h aps
▁Auswirk ungen
▁ä ußer
▁D enn
▁tra in
▁Ver fahren
▁ple as
▁trans l
▁sp ace
▁look ing
▁sol id
▁A cc
▁e leg
▁p ast
ip f
▁f ive
▁l iving
je kte
o x
▁t ype
um e
▁Te am
▁Z ur
g l
▁pot ential
or re
▁design ed
▁w ider
or ,
▁1 ,
ä che
▁mach en.
▁en able
. 00
▁jed em
▁strength en
▁countries ,
ac y
▁Gemein schafts
ll ing
▁e ver
▁P ap
▁N orth
olog ical
▁un ivers
▁brauch en
▁R is
w el
▁con sequ
▁pro per
▁Deb atte
▁tak es
1 ,
f il
▁W ähr
▁ *
k n
g ing
es h
omm er
▁Z um
▁international e
▁ac ross
es ter
▁D ialog
▁a ud
on om
▁wirtschaft lichen
▁Re form
▁colle ag
▁M il
z if
▁8 0
▁Verein igten
z w
▁Sta ats
▁rec ord
ig t.
▁every thing
bar .
▁Best imm
▁s it
▁benef it
▁l ik
▁me chan
b ru
▁to ok
▁certain ly
▁ear ly
▁se en
ing en
▁B re
n a
ad a
pro chen
▁adop t
▁d ivers
ste llen
▁e th
▁er hö
ähl en
am a
▁aus .
▁comp lex
oin t
. 000
geb en.
▁" S
▁hin ter
▁Tur ke
▁Strateg ie
▁project s
ted .
te mp
▁h om
hand lung
▁contr ibution
▁exist ing
te id
le is
▁report .
▁dür fen
on es
▁K os
▁weit eren
▁n ight
▁z uf
on .
▁wichtig ,
▁gleich zeitig
umen te
▁L et
▁L eit
▁se arch
▁webs ite
▁strateg y
b all
▁eith er
▁rel ig
▁Terr or
ämpf ung
ge gen
▁J ug
▁s org
▁a ktiv
k r
▁amend ment
▁K raft
▁ne ben
fort un
rän k
air s
- p
▁sp äter
▁legisl ation
w ie
▁co ordin
l änder
▁Z us
▁r ichtig
ode ll
▁vers uch
▁prof it
▁se i
▁auf ,
▁wurd en,
ess erung
▁Commission ,
▁al though
▁In s
▁chang es
▁ne ues
▁H ol
▁Fl ugh
▁tradition al
▁woll en,
ck e
▁break fast
▁c ross
▁parl iament
▁Beit rag
▁know ledge
o z
▁opin ion
▁jed e
▁s ide
▁Fisch ere
▁concern ing
▁se a
- h
us h
▁ers tell
▁l ux
▁Hand els
▁absol ute
s erv
▁In form
ab les
▁v öll
un k
in t
▁Tür ke
▁in tens
▁bec om
▁a ware
▁Ver tra
▁P C
▁Gesch ichte
▁den k
l le
▁H igh
s eit
▁out side
A M
st re
gen cy
ungs ver
ar i
▁Restaur ant
▁C D
▁hal f
▁gegen wär
▁rel ated
▁Präsident in,
gel n
ent ur
▁Ver pflicht
▁Eng lish
▁bas ic
▁m er
▁Parliament ,
▁ex tens
▁ar g
▁for t
▁dem onstr
▁Diskuss ion
▁mov ement
▁l os
▁be it
▁lead ing
k ra
▁r und
▁Geb ie
▁origin al
ar ten
▁comm unity
E T
▁Par is
▁Schluss el
z ös
at ,
▁c ulture
haf t
▁polic ies
▁F uß
E D
ab l
▁conf lic
▁ide a
ip l
m ark
▁Techn olog
▁Commission 's
ran ge
st att
▁St abil
pr ession
▁On line
m en,
ur t
▁enl arge
▁g ab
▁group s
▁unser es
▁ass ess
▁Förder ung
aff ung
▁pra kt
▁join t
▁it ,
▁Verhand lungen
pr ise
▁s pr
ter min
bild ung
▁invol ved
▁you ,
▁Fe bru
▁L uft
▁Famil ien
▁I S
em b
▁K ampf
▁sch wer
▁d igital
▁milit ary
ha upt
▁Bar cel
ü b
▁wicht igen
▁ber ücksichtig
ä ss
al ter
gr at
▁interest s
▁ver d
▁L ink
▁Min uten
▁Stand ard
end es
er b
iter ran
▁up d
▁f ail
▁se c
▁unterstütz t
▁includ ed
▁av oid
in .
- t
aus ch
um s
▁f irm
▁obl ig
▁cons ult
gangen en
▁Aug ust
▁K ern
a ction
g ende
ges etz
▁ $
▁spe zie
▁so und
idd le
g ern
▁am ount
▁report ,
▁Sch ritt
f ace
▁entwick el
▁this ,
▁E d
▁jed es
▁Vol k
ir es
ist rat
l ant
▁199 9
▁C or
▁adv ant
▁con clus
▁S up
▁- ,
▁Im m
and ,
l ös
qu is
▁S ince
▁all ows
▁erwä hn
▁gesag t
▁Bezieh ungen
▁includ es
ing t
▁Einz el
▁w a
▁durch ge
▁Kon ferenz
▁verfü gt
▁R el
▁Wettbewer bs
A C
it ness
g .
▁Dok ument
i as
u ck
▁In strument
▁trans fer
ar ing
▁Pro z
▁comm er
▁year s.
i ated
▁l ater
▁e mer
▁pr im
▁tr ue
▁gu ests
h ung
ö st
▁h ous
sta at
▁V is
▁we gen
▁sp end
▁s atisf
e ff
▁standard s
▁re ich
▁L iste
▁L ux
▁Inter essen
al y
▁C he
▁K op
▁Th ank
ot ion
▁p oor
▁Ab kommen
▁war m
▁ange m
b ring
▁Änderungsant räge
ü hl
▁pl ann
▁Forsch ung
▁conf irm
j ahr
▁complete ly
os ,
▁N ow
our n
o le
tra gen
▁sch ön
▁su it
▁Verb esserung
able .
▁Abgeord neten
▁cap ac
▁major ity
▁vor lie
▁dar stell
▁mo ve
▁mach t
▁Pr ior
igkeit ,
▁l ok
f en,
▁Not wend
▁gem acht
▁w under
▁P ass
▁regard ing
if e
▁er laub
r ess
▁solution s
▁ich ,
▁ver antwort
p ite
▁Sie ,
iss ab
▁opt ion
▁do ing
▁B ad
▁kle ine
▁bro ad
▁j ud
▁Dam it
▁Vol ks
▁air port
▁att ack
▁war .
▁for ce
▁lim it
v ious
ian ce
istr ation
pe cted
ges etzt
ymb ol
er ve
▁p urch
S E
▁custom er
uc lear
▁Auf ent
de ck
▁need ed
▁ +
▁un abhäng
ikan ischen
▁H ome
▁Ur laub
▁C ons
▁O ber
▁For der
▁L issab
▁A ktion
▁mehr ere
▁hin sichtlich
▁bu ilt
▁( N
▁Hand el
▁H ere
p ut
fl uss
▁Ausschuss es
▁c ru
▁aus ,
▁f ace
h ende
is iert
▁agric ultural
▁w onder
▁h err
▁key word
le ben
ab el
▁bel ow
▁Frank reich
▁Institution en
▁I T
an o
▁invest ment
▁val u
ge hen
▁langu age
▁citiz en
▁er heb
▁er r
▁I mp
▁Region en
▁f ran
av a
▁Nutz ung
▁econom y
▁Bereich en
▁S ant
an t.
▁sel f
eln .
▁2 2
▁eing er
▁g anze
▁wichtig sten
▁hand elt
▁industr ial
▁nat ure
▁s un
▁nach halt
▁ganz en
▁J ed
- N
▁E ff
opp el
▁( M
▁Dienstleist ungen
▁Ver ordnung
▁wo bei
▁( H
en !
y ing
▁U kra
▁Ge legenheit
▁Aus wahl
k o
▁so uth
▁Z e
in e.
▁Kont rolle
av ing
min ister
▁ger ne
s itz
u ted
▁Mus eum
▁featur es
▁tro tz
▁exper ien
d om
ip s
▁mach en,
eln ,
▁Ver anst
▁h uge
ier s
geb en,
▁Möglichkeit en
▁pop ular
o ft
▁Am end
l am
▁f ör
, 000
er weise
▁ ill
la v
▁Verb indung
▁gen ie
▁co de
▁glaub e,
▁G ree
fol gt
4 0
▁f all
▁fr ont
und es
▁Erweit erung
it ect
gr if
▁S im
ge f
- term
▁gar ant
ster reich
ent wick
▁not hing
iven ess
▁be ein
um b
▁ra il
▁dire ction
▁Binnen markt
p ass
z er
▁Cour t
op s
▁Wir k
▁Bevölk erung
schließ end
▁An fang
our c
▁them selves
▁this .
▁coop er
▁gr und
▁mod el
al ten
▁employ ment
ies en
▁Sch affung
▁nah e
▁L es
▁sp ac
▁ir gend
m öglichkeit
▁Angeb ot
▁year s,
▁ge hen
▁corre ct
▁polic y.
▁Pl ay
▁v ict
▁er füll
w ander
▁U p
ar ,
m ann
▁ev ents
▁r uh
▁con grat
os ed
▁mit tel
▁sa gen
▁cont ains
▁a partment
▁rece ived
▁B itte
▁ve h
▁Re ise
▁off en
▁konk re
▁par ts
▁concern s
▁F ach
▁Cl ub
▁car ry
ien ste
▁Geb ä
▁G lobal
▁require ments
▁2 8
▁E -M
p id
än den
▁ !
V D
▁Man agement
▁Land es
▁A ugen
me hr
▁In nov
▁Soc ial
▁effic ient
▁o il
▁pres ented
▁C entral
▁he ut
▁high ly
▁bekann t
▁W ein
▁Lie fer
▁Dar über
▁fr ü
ugh t
▁3 .
ges amt
▁sc ient
▁seem s
▁success ful
▁Er st
ör per
▁cl ick
as .
itä t,
▁entfern t.
▁einz ig
al ien
▁f rei
im ension
▁comp rom
▁p ain
▁S ome
▁Am ster
▁ex c
▁Vor aus
▁m al
/ 9
▁Z weit
▁Rom an
▁führ en
▁ein .
▁M ich
▁ex change
▁ ut
ät igkeit
▁Be f
ist ische
▁völl ig
▁l ässt
▁k ulture
▁O f
u el
▁H o
hal te
▁Str and
▁P an
▁M ic
▁M aterial
▁5 00
▁are a.
▁Se cond
▁f urn
▁car ried
ge .
▁which ,
ut t
▁An zahl
▁P ost
2 )
▁b lock
▁wh ose
▁flo or
rag en,
▁Council ,
it ch
▁work s
in ne
l ies
ate ll
▁h äuf
ch ter
▁communic ation
▁see k
▁negot iations
▁Le g
erk enn
▁year .
▁hist ory
s )
geleg t
▁er inn
ab or
▁doub le
a ktion
▁se x
▁part ies
es ten
▁gef ähr
▁T erm
▁B alk
-S t
ä llen
▁L at
▁oth ers
▁K rieg
▁Zeit punkt
▁e ig
▁ver g
-F ra
▁an z
ap t
▁w om
▁sub sid
▁p erm
▁s ent
▁d ang
ast ic
ó n
▁Transp ort
▁F irm
▁Woch en
▁co ll
▁bath room
▁Ver wendung
▁vorgesch lagen
▁Entschließ ung
b uch
iz ien
▁Frei heit
ir it
O L
▁ex pl
▁Jug end
▁d '
▁M ag
▁F urther
▁mount ain
imm t,
w ill
▁über zeug
▁gro und
▁object ive
P E
▁commer cial
I L
ent al
▁S olid
▁mein en
▁groß er
▁gut en
▁tra ff
ä st
▁hoff e,
R E
▁bor der
k a
▁sim ilar
▁mein em
▁s ix
▁te ll
r uf
▁fe hl
▁Bus iness
▁ge geben
▁19 6
▁Ber g
c y,
▁L auf
mittel n
▁gehör t
▁disk ut
▁M ac
or ganis
▁ob tain
▁act ive
▁an zu
▁st ates
▁C ol
m at
at ast
▁k ünft
▁Türke i
▁z unächst
▁M än
▁restaur ant
▁ne hmen
it el
I M
▁commit ment
▁de p
▁eigen e
▁ex port
os en
stit ute
▁gesam te
ok oll
fic ient
▁reg ions
▁str ess
igh t.
▁H am
▁sh own
un t
▁d re
▁at mosph
kl us
j ust
ach e,
ätz en
m m
ig te
▁sozial e
ier enden
▁month s
os p
▁n uclear
ay ,
a cc
▁p an
▁De velop
mer k
▁Lis bon
▁tas k
2 5
rie ben
▁vor hand
▁Pres idency
▁d ynam
▁for mer
▁S il
l ad
▁erreich en
f ält
▁We ll
▁De z
al u
▁D an
▁W ahr
▁R ot
be wert
▁L og
▁G olf
▁st änd
▁In de
▁F erien
▁establish ed
on e,
a der
▁Kos ov
- Z
▁Be hörden
▁d ring
▁G et
▁equ ipped
▁Hin ter
is ted
e ch
▁E le
▁gib t,
l ass
▁poss ibility
we gen
▁lat est
lick en
▁tats ächlich
▁Art icle
▁prom ote
▁ein deut
art ige
▁opport unities
▁Mehr heit
bed ingungen
▁verwend et
▁Kommission ,
pro gramm
▁Besch l
n issen
▁m iss
▁9 0
mit t
▁soc iety
y d
▁E igen
▁st ation
▁Lissab on
▁Z w
▁Deb ian
▁ern st
▁B ra
▁W ährend
leg en,
▁ =
▁Y ork
de ,
▁beh ind
▁gleich en
ü hm
▁intern et
ig lich
s v
▁ü br
▁an gen
▁gu id
▁Nie der
▁eng ine
▁c ame
. com
▁you .
▁so fort
▁de pend
▁no te
▁Ar g
weis en,
▁S um
imm ing
▁le icht
▁re in
for men
▁Fin ally,
▁Wettbewer b
▁fund s
▁ph ys
▁Rat spräsident
g ra
w art
a pe
▁Sp ain
ä cht
rough t
▁D abei
rie f
wh ere
▁äußer st
▁Rep ublic
▁T at
un sch
▁reg ister
t ige
▁2 6
▁H ostel
tern ,
o o
▁komp let
▁cho ose
ing. com
▁sch ö
▁lea ders
▁atmosph ere
▁b i
▁wel com
▁Ein führung
▁provid ing
▁sum mer
▁P ers
▁I N
▁r ich
▁prep ared
▁7 0
▁Con vention
▁de ath
f en.
▁Govern ment
▁betr iff
▁ask ed
▁N et
▁Gru ppe
▁A ud
▁simp le
▁Stell ung
▁Russ ia
▁a f
v ision
▁soc iet
▁ex hib
▁crit er
▁betre ff
io .
▁som it
▁größ ten
▁Sta at
▁high er
ann t
▁ex ternal
▁det a
▁Ergeb nisse
re hens
▁Amster dam
▁sch le
▁pro b
▁Kr ise
ak ter
▁ent ste
▁an genommen
▁Program me
▁ à
sp rech
▁redu ce
▁Kont akt
▁us ers
▁Them en
▁word s
▁In stall
▁year ,
▁Weit er
ur teil
▁ele kt
▁Kon fl
▁work ers
▁pre par
▁Kön ig
▁ver pflich
▁pr ices
▁Te x
ran g
omm en,
▁con du
qu are
▁innov ative
▁L oc
▁non -
▁friend ly
ary ,
▁D on
▁M acht
i ot
▁G ra
▁dis play
▁ho hen
▁thank s
igr ation
▁um f
▁Jun i
▁be teil
▁t erra
▁rec ently
▁w id
▁3 00
▁O ct
▁sub mitted
▁En ts
ib ilities
3 .
ar a
▁z entral
ien s
▁l ay
▁A gr
▁emp f
emp loy
▁' '
ra chen
▁Verfüg ung.
▁Inform ations
▁G ed
▁Verein bar
▁ne igh
▁unterstütz en
amer a
em in
ron ic
x is
▁g ives
opp ing
itt ing
▁link s
▁reg ular
▁D i
alt ungs
▁Stand punkt
äl le
cre t
▁Komm unik
▁l assen.
▁arch itect
▁ver n
▁disc over
▁Gem eins
▁sett ing
ul gar
fer t
üss e
ission s
▁dec isions
▁agre ed
▁per haps
▁treat ment
ro at
i at
▁E ing
▁c redit
▁belie b
▁suf fer
▁S icht
▁sustain able
▁Mar ch
▁Komp rom
▁fo ot
if ft
▁incre ased
▁zw eiten
y ch
▁system .
▁un e
m ed
▁Brit ish
▁im age
▁Ge fahr
▁E rach
▁er schein
-A n
▁beginn ing
▁E-M ail
▁re gel
ind ustrie
▁led iglich
aussch uss
▁Dec ember
▁d raft
▁A kt
verständ lich
▁b illion
re c
▁market .
res p
▁Ne ben
▁mein es
▁is land
isch ,
be k
cht en,
▁C al
▁D is
▁Bek ämpfung
sp iel
▁lea ve
▁O st
ze uge
▁Ma i
▁initi ative
- w
▁St .
▁Organis ation
▁ann oun
il le
▁Commission .
1 2
t ent
ok ing
ied r
▁Mitarbeit er
ict ion
▁us .
▁add ed
v a
▁An wend
▁a mer
▁Auf gabe
▁Ab end
ür f
▁ob wohl
▁W TO
▁des crib
▁Integr ation
▁cas es
▁gro ss
▁Russ land
E M
▁bestimm te
▁Her zen
▁com ing
ad em
▁ac cep
in i
▁be zie
▁Erach tens
▁consider ed
▁de cl
▁K e
nehm en,
vor schriften
ier ter
stell ungen
ie g
▁zahlreich e
▁inde pendent
▁cho ice
as t.
▁Se ktor
▁t en
▁constru ction
us ion
ib l
▁O kt
▁l es
o h
▁ser ies
▁Person al
il os
▁C ity
sch w
3 ,
▁educ ation
▁bestimm ten
gr ünd
▁( G
▁rep la
▁ x
▁Transp ar
spr ün
▁w ww.
▁ander er
igh t,
▁bo ard
▁high l
▁Gew alt
▁R ess
▁W ohl
▁people .
fra gen
▁Woch e
c es.
▁Über ein
r id
g han
▁zw eite
▁En ter
ze hn
▁ze igt
▁tra ck
▁supp orted
▁ä hn
▁hät te
' .
- up
▁f al
▁s or
▁ges etz
reib en
▁dec ided
▁T age
hr en
c y.
▁r ate
▁sh ows
s on
▁Solid ar
.. ..
▁R u
▁D om
▁Fil m
▁Ital ian
▁außer dem
a is
▁n orth
▁er weit
▁Op en
▁Dez ember
-Fra ktion
▁rele vant
ism ,
▁As pe
▁entfern t
▁Änder ungen
▁v irt
▁Re al
▁Verkehr s
▁b rought
▁admin istrat
▁Lond on
▁wirtschaft liche
▁pop ulation
▁" F
h ere
▁Hö he
▁eff e
▁n ice
▁best ät
▁Wes tern
k ,
▁Afr ic
▁ver öffentlich
ge ber
▁g ame
5 ,
n ern
▁Initi ative
▁d adurch
over ,
▁or d
▁St ar
nehm en.
imm ung
1 1
8 0
an y
ar ily
▁gem äß
ll a
▁t w
▁A f
ing er
▁restaur ants
in al
z ,
▁dar in
fahr t
▁ne uer
▁er ster
▁mention ed
▁l ic
▁re pe
▁199 8
▁ermöglich t
▁Priv at
end ,
icher ung
▁democra cy
▁O per
▁hour s
▁eur o
ter ne
gr upp
ä g
f onds
▁Bel g
▁fran zös
▁pro t
▁rem ains
- l
x im
▁einz ige
▁N ur
▁S l
▁aus reich
▁m obile
▁Vertrag s
▁high -
▁cent ur
▁f ix
▁ent halten
f on
und en.
▁creat ing
▁J e
▁exp la
merksam keit
an ischen
▁de ep
▁solid ar
st ag
▁sol chen
▁grund leg
▁in stead
on se
▁produ ced
▁ex ec
▁impro vement
▁lar gest
▁eas ily
es tens
▁s us
conom ic
v iew
▁d ate
▁med ia
▁ho he
N G
g ab
▁comp uter
▁s cre
▁future .
▁bec ame
▁ren ov
▁Auf merksamkeit
▁wür d
▁B .
▁H ar
▁z. B.
ourn al
u is
▁Gr and
▁th ous
imm t.
▁führ t
▁relations hip
▁ver gangenen
z .
▁reach ed
▁rel ativ
▁N at
zustell en,
▁ u.
▁sch ütz
▁Oct ober
or ten
h äl
▁Unter k
▁be in
▁ch em
ct ors
▁h ost
▁st ability
▁con ference
▁S am
▁" A
er y
▁ob vious
▁Turke y
▁de termin
▁acc ord
▁dis p
▁D et
▁b ody
▁2 9
▁gel ten
▁K re
▁ple ased
ber t
entlich keit
▁concern ed
▁Or gan
▁verb ind
▁C amp
▁Unternehm ens
▁200 2
trä ge
▁Kommissar ,
▁200 1
u it
y ond
an lage
▁Früh stück
S .
▁D own
▁res ol
▁Book ing.com
as es
er ing
la re
▁hervor rag
itz er
▁ ändern
▁regard s
b esch
▁unter st
▁quick ly
▁bedeute t
schn itt
▁spe ed
ter .
▁fil m
▁new s
d ie
▁En d
▁Ne u
5 .
▁M art
▁alle in
▁p urs
▁fact ,
▁proced ure
2 4
▁j ün
▁Möglichkeit ,
▁every one
▁med ium
▁Al t
rit ts
▁supp ly
glich e
▁R ights
▁Bes tell
▁s ize
▁se ction
▁particular ,
ik o
▁part y
komm ens
▁Parliament .
▁c ause
▁ein schließlich
lich t
äm t
▁Okt ober
anz en
▁perform ance
▁J une
▁tun ,
▁kon zentr
te x
fü hl
▁Schwe iz
oll ar
▁l iberal
uf en
▁min or
▁Ser ver
▁distr ibution
▁he ar
▁var iety
mäß ig
▁( s
o der
et ary
ähl t
▁g ain
▁Lös ungen
▁F ed
▁p ath
n 't
▁Fran ce
▁gre en
▁eig entlich
asch inen
reib ung
ap er
▁K an
▁Öff entlichkeit
▁Z eich
c ement
▁m il
le y
▁S m
▁Famil ie
▁hand ,
▁well -
▁pack age
k raft
por ate
▁d ut
▁P la
E P
▁part ner
▁kein er
▁Booking.com :
▁L ast
▁St äd
▁Er zeug
▁v ideo
▁here .
▁possible .
▁b eschäft
▁K ing
▁mus s.
▁( L
▁ex act
▁Gäste bewert
▁cent ury
ien en
ition s
▁Dem oc
l änd
“ ,
ib il
▁report s
▁Fol gen
▁C ap
et ing
▁lab our
▁cre ation
as ons
▁achie ved
at ely,
▁B undes
S t
for d
▁s an
ennt nis
▁auch ,
▁legisl ative
▁comm ittee
us .
▁E very
b en.
en te
▁w issen
▁al ten
▁acc oun
▁Reg ierungen
▁t ä
zus ch
og raf
▁Transpar enz
▁comp on
▁wür den
▁Erfahr ung
af t
▁Beschäft igung
▁W ider
▁people ,
▁Fortsch ritte
▁Span ish
▁for der
▁histor ical
▁d ise
▁A dr
▁princip les
▁Ange legenheit
▁Arbeit nehmer
▁app e
▁st a
▁rel ation
iterran ean
▁le ider
ourc en
it ial
et imes
▁g ot
▁agreement s
▁kle in
an .
▁K ur
▁Land wir
▁befind en
▁b od
k ont
▁V al
ier ende
▁bes itz
▁pur pos
▁G ipf
▁Bas is
▁B ilder
▁d iv
▁Emp fehl
▁D uring
▁ins gesamt
▁Tra dition
7 0
ategor ien
▁con ven
▁work .
▁ag end
▁la unch
a uch
ent .
▁An satz
▁Ex per
▁Pr inzip
▁g iving
richt ungen
- U
▁I st
▁schließ lich
or ed
▁cent er
▁comp rehens
ie gel
▁p en
▁In n
ug g
w es
lo b
▁wen ige
▁sens e
▁Americ a
leg ung
nah men
▁die jen
if ik
▁so ,
or .
▁pre fer
▁con cept
öff net
▁H ung
▁viol ence
▁ev alu
▁good s
▁market s
▁E re
1 )
▁Ma ßnah
▁m em
▁M ut
▁dialog ue
im men
fre und
▁fil es
▁Gesundheit s
▁said ,
p reis
▁Tats ache,
▁M ult
m ission
▁st ra
ne y
▁Auf trag
▁employ e
▁erreich en.
▁Lebens mittel
▁programm es
en a
kt ,
▁ne hm
▁fe ll
▁4 .
in !
g round
▁ein ,
▁infl u
▁un mittel
olog y
▁Lin ux
▁ab gesch
▁auf z
es te
▁häuf ig
▁ber ühm
▁C ost
▁bud ge
▁S he
▁press ure
▁b rit
▁aspect s
▁p al
▁Mär z
spro zess
ategor ies
▁ab .
▁Benutz er
▁" D
▁S ign
b en,
ot es
loss en.
▁Schw ier
▁Ver l
▁val ues
ic les
▁object ives
▁Pre ise
▁Af ghan
▁a ge
▁nicht .
▁c a.
▁C O
▁w orth
▁consum er
c er
▁w est
▁Ver änder
▁polic y,
▁star ted
▁b ra
▁hö her
▁lim ited
ach s
▁Unter such
is p
▁form s
ill s
▁fre und
▁high est
▁govern ments
▁discuss ion
is e.
um mer
▁resp onse
▁ihr es
▁anges ichts
▁ob serv
▁B ulgar
ungs -
▁Ira q
▁Man y
▁Bet rieb
▁g rat
komm en,
▁th reat
▁effect s
frastru ct
str eng
▁O l
ism .
▁Bestimm ungen
▁ex tend
▁Al though
▁ro und
▁Al p
ene w
▁Vor sitz
▁per fe
op er
▁ ult
g esellschaft
▁kann st
ie ws
▁n iedr
▁ver m
▁ble ibt
▁geb en,
▁G al
▁dafür ,
▁M ann
▁be züglich
▁Fl or
▁akt uellen
▁r ule
▁integr ated
▁Jul i
O T
▁writ ten
▁use ful
▁M eine
a ign
lä uf
▁Janu ary
us ch
ous ly
▁st ock
▁allow ed
setz ungen
▁statt find
▁d ein
▁Y our
▁199 7
▁f isher
kt .
-m ail
▁Fl ü
▁w on
▁w eder
▁Erklär ung
▁num erous
▁sp irit
▁Parliament 's
R )
▁H el
▁An frage
▁c y
▁ur sprün
▁dar in,
▁z eit
▁e mb
z we
▁se lect
arbeit en
▁europä ischer
op eration
▁w an
s ych
▁E ast
▁ze hn
▁b ad
▁m ut
▁Bem üh
▁det ail
▁F ree
leg en.
! !
he ad
▁aff ect
▁help ful
▁D VD
▁re ality
▁gar den
▁sch l
▁son st
▁p over
or der
▁Rep ublik
▁Janu ar
ul s
mosph äre
iz ient
▁Cent re
k rä
at .
▁Sw ed
▁interest ing
▁Mic ros
▁cons ist
▁mor gen
▁acc omp
▁M obil
▁Beg inn
▁Barcel ona
▁pop ul
end s
▁N r.
▁con stant
▁Sch ließ
w a
▁Ko h
▁stat t.
zuf ühr
c es,
▁produ ce
▁S telle
▁B ahn
▁e her
▁erne ut
▁inde ed
▁te ach
▁l auf
arbeit et
▁un employ
▁D inge
n o
ent ,
... "
▁Med ien
▁occ as
▁cru cial
v is
▁Zeit ,
▁He ute
▁M os
▁offer ing
▁Z entral
▁aus drück
ü st
▁ausgest atte
▁accommod ation
le hn
▁bet on
▁dr ink
▁Ere ign
▁be yond
able ,
▁pay ment
▁Aktiv itäten
▁H al
▁capac ity
ilos oph
▁Be teil
▁p erman
▁D r
u ert
▁Ar mut
▁k am
▁leg it
▁wir ,
▁h ar
▁T est
▁integr ation
▁ ign
gr enz
▁An forderungen
itu de
▁entsprech enden
▁St unden
1 9
▁und ert
er o
▁notwend ig
▁begrü ß
ic ,
p olit
▁pa id
r ich
▁m is
▁equ al
▁V illa
sta aten
▁k rit
▁w issenschaft
▁find en.
ma ßnahmen
atast rop
▁A re
▁human it
▁v an
ilater al
▁Ber uf
▁be m
▁Sp rache
▁Fehl er
zeich nung
ated .
▁pract ical
▁f ig
▁Flugh afen
spr icht
▁In nen
▁l ower
▁hin zu
▁öffent liche
bo ard
▁Notwend igkeit
▁konn te
▁Schlussel wor
I A
▁W inter
▁sup er
▁bal ance
▁Gru ppen
▁ent hält
i ability
on e.
▁pla ces
▁lang frist
f alt
▁S inne
p ret
▁( in
▁Part y
▁Spe zial
▁Entscheid ungen
te uer
ir men
ess en,
▁m orn
mor e,
▁suf ficient
▁Agr ar
amm lung
▁altern ative
6 ,
on y
▁Bed ürf
ur b
p ark
▁T H
weis en
▁Tages ordnung
▁k il
- to
m öglich
▁frü her
n iss
▁ver hin
S T
v ere
▁re asons
U R
komm en.
▁ge eign
▁fe ature
end .
▁ »
an geb
on nen
▁H ous
ste in
▁J ava
▁Nach bar
▁equip ment
me id
ive au
▁step s
▁arbeit en
é s
▁prov ision
▁in frastruct
▁2 ,
▁Restaur ants
▁P unkte
▁D r.
▁l as
2 3
▁redu ction
cript ion
▁e y
▁W unsch
▁meas ure
▁D ritt
▁A k
▁we ak
4 ,
p age
▁sh ip
▁K redit
▁min imum
oc ol
4 .
▁o l
▁Her z
{ {
leg t
▁propert y
▁V ölk
▁Pr üf
▁to mor
▁er hält
▁fre qu
ir l
▁( R
-R e
▁soll .
▁L as
ik ,
▁pr äsent
▁genann ten
l iz
der ,
stell en,
▁p ie
▁vor her
▁G ast
▁jün g
▁mod ified
▁kosten los
d ienst
▁ander em
▁E ven
▁S ite
▁effic ien
est ic
▁dr ive
▁Pal est
▁congrat ulate
▁imp lemen
▁P ublic
▁r ates
▁T ier
▁H uman
▁5 .
▁S ommer
▁M ass
▁le is
▁hotel s
▁stud y
▁partners hip
ür ger
▁Bericht s
▁ch arm
schaf t.
▁b ild
▁Mitgliedsta at
▁V en
▁Se curity
h old
▁off ice
▁l oss
▁Vor schriften
l im
▁sour ce
1 5
’ t
▁writ ing.
e hm
▁B ot
isch em
▁lie gen
▁qu iet
▁r enew
▁tr ip
▁refer ence
▁te x
▁pract ice
▁cla im
▁gehör en
▁rel ating
be zogen
▁p assen
▁g ran
▁ge k
m ö
▁pa ar
▁k ur
▁fund ing
ag es.
letz t
p ose
fr ont
wert ung
▁Met ho
▁bed room
▁Änder ung
▁woll en.
▁Prot okoll
▁s yn
D F
r upt
▁go es
▁level s
it e.
▁histor ic
▁sk i
▁G est
▁unterstütz en.
▁w r
▁well .
▁mess age
▁wichtig er
▁Gr enzen
▁rest r
▁crit ic
uff et
▁typ es
▁max imum
▁M c
▁Ver gangen
I I
▁betriff t,
ic o
m ,
▁St ock
▁z unehm
▁K n
rif f
frastru ktur
▁Amend ment
c le
▁circ um
▁requ ires
▁ex ception
▁G as
▁Be handlung
▁terr itor
sch reit
6 .
▁Finanz ierung
▁Bürger innen
▁Ger ichts
▁Er d
▁Präsident en
änder t
▁an imal
▁ele ment
▁denk e,
th eless
▁At mosphäre
ü s
ur es.
▁illeg al
▁Ital ien
▁C op
▁start ing
▁Vertre ter
ur es,
▁soll en
▁f ul
- con
e v
schl oss
▁Sitz ung
▁g as
-O ff
▁bes ondere
▁3 5
▁sp rech
▁re con
▁camp aign
▁Gebä ude
grif fen
▁Firm a
▁das ,
▁accord ance
▁Lin ie
id e.
▁h op
il fen
▁will ,
ik er
▁em ail
▁Nat ürlich
T )
▁All er
▁ser ver
en gen
▁L ang
▁M ess
▁Air port
▁un bed
bar ,
▁mus s,
v olle
il en
▁Min der
▁Ko ordin
▁in itial
L A
▁schrift lich.
▁hat ten
▁Wh ile
▁g ünst
▁ra pid
▁d ed
▁ urg
▁19 4
▁P et
▁se chs
▁D av
▁bu y
▁W ass
s o
-M it
▁manufact ur
iz in
▁sub st
▁Investition en
▁A c
m en.
▁mit t
▁E ss
▁soll te.
▁Al tern
▁S af
▁Ge f
▁Techn ologie
▁Comp uter
ie ll
▁Ber at
ted ,
▁There fore,
▁oper ating
ü g
at form
▁men sch
b re
▁off iz
▁Mill iar
ain t
▁ex tent
legen heiten
▁I d
ver fahren
leg ation
acht ung
▁a ctions
ug s
▁job s
▁begrü ße
▁war um
▁Ver teid
▁level .
▁s ämt
- -
▁L assen
ord n
▁mechan ism
c ies
▁ad vert
stitution al
leis tet
▁ ́
▁Vergangen heit
▁M and
▁d .
▁rem ov
▁prov isions
än gt
ok er
▁world w
▁Con ference
} }
▁addition ,
▁Gre en
▁fish ing
▁b ill
▁dam age
▁richt ige
▁happ y
▁" M
▁zahlreich en
▁G el
▁beg in
land .
stand en
▁assist ance
P S
▁sta at
▁ein geb
ist ics
ot o
▁zu ,
▁Terror ismus
▁bet roffen
▁cas e,
▁us ,
haf te
▁Jahrhunder t
▁offer ed
1 3
▁caus ed
b us
ä chen
▁gen utz
▁entwick elt
▁un er
▁benö tig
se e
▁Menschen rechts
▁da ily
▁An streng
▁F äh
▁wel ches
▁Um gebung
▁( T
▁consum ers
▁J ohn
▁inter ested
' ,
▁er halten.
▁b ur
▁resp ond
▁könn ten
▁jeweil igen
▁sele ction
etz en.
fol ge
w esen
▁organ iz
▁H off
▁b an
as c
▁B u
▁Bereich e
▁require ment
▁Red e
▁ein heit
▁prob ably
hand el
▁mot or
▁comprehens ive
▁app lied
k i
sche iden
▁" W
▁hal ten
▁prior ity
un a
▁Aut o
sch ö
▁scient ific
▁Regel n
ch en,
▁ele ction
▁say ing
▁Pro jekte
▁heiß t
▁Aufent halt
ann ten
▁s ymbol
▁sein es
▁col our
ziel le
▁coun ter
▁größ te
▁D oppel
▁gestell t
▁Ver gleich
” .
▁e hem
ern en
▁Go og
▁Down load
▁" B
lie gen
I V
▁P H
▁k o
▁ge e
▁c andid
▁ar range
▁an im
▁b ald
ors itz
▁val id
▁S oll
▁c ert
▁g ere
▁G esell
▁se ason
▁Op fer
▁world ,
▁h or
▁O ption
▁außer halb
▁h ör
▁Mon aten
▁ref lect
-b ased
▁w at
ities .
i ately
be zieh
st ,
▁System s
▁E as
▁us w.
▁Fern se
▁zust änd
io ,
▁ex erc
▁be trä
▁r ul
▁sp rechen
▁neigh bour
s am
▁s ort
▁S upp
▁app rec
▁bef ür
▁matter s
▁Mensch en,
▁Frank f
▁I re
▁t ät
▁1 1.
ust ausch
▁zum indest
▁Ind ustr
ru it
▁applic ations
b ack
▁tour ist
▁dist ance
▁cl ar
▁Stra ßen
▁Präsident schaft
▁Micros oft
▁ste ts
▁Z ivil
▁G ene
▁som etimes
▁schaff en,
▁entsprech end
▁w ays
up ts
▁el se
▁Or d
▁dar um
▁gem ein
▁in f
sequ ent
f igur
r al
▁Med iterranean
z entrum
▁B al
▁process .
▁be ant
▁V iele
- re
▁S M
▁des pite
ient s
▁bring en
▁en orm
▁det ails
m and
gän z
▁be ge
kon om
atal og
pr ü
kun f
▁s il
▁gen ug
k ünft
▁N AT
erst ör
▁a ward
▁influ ence
▁D ann
▁hon our
▁ver ab
ünst ler
ü ckt
▁long -term
▁histor ischen
▁ver kauf
▁are a,
glie d
▁gen u
▁Grün den
ick et
▁ —
▁c ast
▁rem ember
▁E t
▁sec ure
reich en
/ 0
▁se hen,
zeich n
▁D el
▁Da zu
▁sh op
▁l ost
b ook
am in
▁co up
ut ive
▁M odell
▁hand el
▁Sw iss
▁S .
▁Vers uch
-in -Off
▁V ideo
▁f ant
▁A C
▁Serv ices
▁EU .
▁Russ ian
▁today .
ic y
▁m ann
▁vill age
▁mean ing
i ant
▁ «
▁pre m
▁Aff airs
▁invest ig
▁ann ual
▁ver tra
▁l ate
org ung
1 6
ar en
▁er greif
▁hab e,
▁b lo
▁E st
schein lich
▁sl ow
▁heut igen
▁" E
▁sub stant
▁read y
▁Univers ity
▁Develop ment
▁servic es.
s :
kt ive
▁Ein wander
▁e -mail
▁hal te
▁co hes
▁he av
▁Bür gern
▁Reg ierungs
▁absolute ly
▁them ,
h .
▁V oll
ge hend
▁Land wirtschaft
per atur
▁auf .
▁D rit
▁cr imin
▁N un
▁bess ere
▁Is lam
8 ,
▁St art
▁aff e
▁hotel .
qu em
▁Kap ital
hält nis
▁U K
▁Pre m
▁sw imming
▁b ase
▁Bild ung
▁advant age
n it
▁persön lichen
n am
p ack
u e,
▁benef its
▁Hin sicht
▁N ationen
▁grow ing
▁in sp
▁spe zif
is t,
▁fol genden
▁dec or
p ool
▁größ er
▁In halt
▁cl ub
▁schein t
▁l ands
▁ ).
▁un s,
▁st age
▁though t
D E
▁s av
g y
▁compet it
▁F lex
▁fin ally
▁an erk
▁try ing
▁De f
▁Ver fass
ün sche
▁geb en.
▁aus schließlich
d ate
führ t.
▁Pra xis
▁v ital
▁publish ed
stand ing
I ON
ca pe
5 -0
▁Further more,
g ül
▁over all
▁Arbeits los
▁eff izient
▁ver urs
▁br and
▁pur pose
▁Ein ige
▁Auf gaben
▁j ähr
▁Ges pr
▁there fore,
bar er
▁w es
▁F ällen
▁Ihr es
▁Kosov o
▁spec if
▁f ire
ag es,
▁our selves
▁19 5
▁G old
▁techn ischen
▁view ,
-V er
▁day .
▁E igent
▁Jul y
▁S onder
▁über haupt
n d
und en,
▁deut schen
k omp
if en
o om
▁sie ht
voll en
▁T agen
ated ,
in ian
▁zu künft
▁it alien
▁analys is
▁to o,
▁vor gesehen
▁nutz en
▁verfü gen
▁bleib en
▁K auf
▁arg ument
en ken
at o
▁separ ate
um in
▁President -in-Off
ateg ie
ib e
▁system ,
unter nehmen
▁EU ,
▁colle ction
▁stärk er
▁off ens
I F
▁W issen
▁strateg ic
ier tel
▁that .
▁E ind
▁your self
▁exp ert
▁moder nen
au en
▁Sp rach
p rech
▁go al
▁Ma ß
▁h ostel
▁H ilf
▁res ort
▁wieder hol
▁sim pl
▁C y
spr ü
▁vollständ ig
▁you '
▁c red
▁A gre
tem pt
▁Aller dings
▁wr ong
▁dis app
lie fer
▁Ö sterreich
v o
C O
▁Ge org
▁Heraus forder
äst in
l ast
ach t,
h ilfe
▁acc ession
▁material s
▁gib t.
▁he ard
▁stre et
▁f ahr
▁K rank
▁stat us
S S
▁Gr öß
▁erforder lich
▁ge ze
▁wan ted
▁polit ic
▁circum st
itä t.
möglichkeit en
▁Bemüh ungen
▁T al
im at
▁monitor ing
▁O pt
ü gen
▁On ly
ur ance
▁ehem al
▁g am
ly mp
▁w ine
w ise
▁zu dem
▁Agre ement
en er
▁( 3
▁( K
en ze
▁M iss
1 7
▁distr ib
ter e
▁An g
▁today ,
▁occ up
▁verst är
▁Dire ctive
▁I ts
▁k ürz
▁comprom ise
/ /
▁zw eit
▁c ell
m ens
▁F alls
▁L iberal
▁allgemein en
▁ele ments
ir a
af fe
▁ab ility
ifiz ierung
h otel
▁sal es
▁l isten
▁priv aten
▁würde .
▁15 0
▁Ob wohl
9 ,
ho od
▁ein setz
▁l ies
▁An trag
S P
ä gt
▁Komprom iss
▁Tro tz
▁tele ph
▁way ,
▁verl ang
▁Second ly,
▁NAT O
▁l änd
▁d ipl
▁elect ronic
▁Ukra ine
▁G laub
Q L
▁flex ible
y mp
ä te
▁l ove
ion e
▁Council .
▁unter b
▁W ann
▁ab ,
▁Aus gang
▁Am b
▁gesag t,
j a
l ose
spro gramm
▁T or
▁fr esh
▁ausge zeichnet
b ad
▁dat ab
s icherheit
▁in n
▁ch ance
▁countr y.
ck er
▁d eine
▁word en.
ös en
▁pla ced
aly se
▁T ätigkeit
▁An erkenn
▁vor .
▁s inn
▁t it
▁Pe ople
▁Er k
▁Zimmer ,
u ber
z y
▁enter pr
▁ rom
▁Fre iz
▁G od
▁Gr enz
om et
os .
▁Chin ese
▁h ot
▁end lich
▁bring en.
▁Sch ritte
▁Aspe kte
▁spe ct
▁j em
) :
▁Le ute
▁park ing
el y.
▁v oting
ob by
at tet
▁Ö l
▁g erecht
▁l änger
▁Forsch ungs
▁conc entr
ag raph
. m.
▁sp ok
▁(F R)
▁pl ant
u ern
▁neg ative
▁f ear
und red
▁Me x
▁h ol
▁lux ur
▁way .
▁Vertra uen
▁produ z
▁nat ür
g t.
ur en
▁M ün
▁aut om
▁M er
um m
▁möglich ,
▁rem ind
▁ge ht,
▁Ver kauf
▁eth n
▁Fol ge
and e
▁" P
▁sh opping
g rad
▁an c
▁Pr ä
ar es
▁D ub
▁gel ang
▁ge forder
▁k aum
k osten
▁d ram
▁main ly
▁form ul
▁rights .
▁Herr en!
▁Gu est
ab kommen
▁größ ere
▁j un
▁automat isch
▁More over,
▁to uch
ig ungen
▁re ag
▁letz te
▁Aussch uß
▁walk ing
▁countr y,
av ig
▁wh om
▁ar m
▁Union 's
it e,
hr te
▁Über wach
▁Ges amt
▁G rie
▁Be weg
▁pro ceed
ab r
▁affe cted
▁occ ur
▁um fang
▁regul ations
▁dar .
▁oper ation
▁eleg ant
▁be ide
me er
▁Milliar den
▁Ress ourcen
- e
a w
lin es
▁aus zu
▁k omfort
lichkeit en
▁p o
▁work ed
ive .
▁Zwe ck
▁co ast
▁B ade
▁U s
▁Erfahr ungen
▁Hostel s
▁consequ ences
▁A cht
▁talk ing
and .
▁disc rimin
▁fol gt
▁f alls
etz en
▁Sch iff
f ür
▁be zahl
▁A L
▁friend s
▁comm ent
▁rights ,
▁Präsident in!
- de
▁Qual itäts
b t
▁enlarge ment
▁redu ced
▁S lo
▁s ites
▁Zwe if
▁be gan
än ge
ärk ung
▁bo x
▁w ünsch
▁B on
ben en
▁ent spricht
▁F alle
ul y
▁soll ,
▁child r
▁Goog le
▁sty le
grupp e
m us
▁encour age
▁w atch
▁zusätz liche
▁S ache
▁increasing ly
* *
▁product s.
▁in tended
ss ystem
▁" C
wer te
” ,
▁Imm obil
▁aus führ
▁conf idence
stru ktur
8 .
▁express ed
▁contrib ute
“ .
ze ch
s ätze
▁comp l
▁An nahme
▁B ur
▁Bes onder
▁D ro
▁st abil
▁Sch wer
▁Entschließ ungsant
▁c os
▁L icht
▁in tell
g ere
▁now ,
▁open ing
e hen
▁199 0
▁betr ifft
9 .
geb ie
▁I P
ak te
g t,
▁a partments
▁Nach t
▁Ver sch
rei ber
▁guid el
▁c alls
▁instrument s
izien z
▁administrat ive
▁exp ens
▁spezie ll
A .
▁St il
▁An n
ion en
▁" ...
▁t al
▁soll te,
c ul
▁milit är
▁elekt ron
▁unbed ingt
▁saf e
ver läss
h am
▁Ele kt
- 2
▁suit able
▁struct ural
ent y
▁Wer te
▁pers pect
t lich
▁Stell en
▁setz en
▁H is
▁L iber
▁D re
▁er sch
fol ger
E )
▁Frage ,
l as
▁S ing
▁m ill
▁Kollegen !
▁n immt
▁Ein fluss
▁power ful
▁Ag entur
▁ens uring
im b
▁P aul
▁un fortun
reich e
ic es.
or s,
▁struct ure
▁doub t
h et
IN G
ästin ens
▁at tempt
▁angem essen
▁her z
▁med ic
▁fell ow
ra y
▁Rechts vorschriften
▁ ;
▁surround ing
▁K örper
▁it 's
▁N ah
▁spe ech
▁Ne ws
▁Als o
str umente
ä her
fol gen
▁unterschied lichen
▁V ide
▁vor aus
▁Ser b
▁ch ann
▁nam ely
▁dring end
▁bew usst
▁Gar ant
▁find en,
n .
qu al
is ely
gew öhn
▁redu z
▁challen ges
▁market ,
▁commit ted
▁A N
igh ted
▁any thing
ie .
▁S pr
▁Durch führung
▁Aut om
9 0
▁z usam
ze ugen
c raft
▁pict ures
▁mor e.
▁ver z
▁Gen eration
▁Er n
▁her unter
▁mind estens
▁m id
ese arch
a el
▁L ab
▁gest al
▁H aft
▁An spruch
▁was te
▁f ine
▁An y
▁l '
▁C ard
in u
▁in tend
▁A gend
▁W ik
iv ity
▁immed iately
▁betra chte
▁p oll
▁introdu ced
▁Arch ite
A G
▁agric ulture
b ü
a ktiv
▁b lack
▁Spiel er
ol a
ify ing
▁hoch wert
re ise
▁automat ically
h ilfen
z ul
am ber
▁im pos
▁nach dem
p :
▁n ö
▁ch urch
ium ,
▁qu ant
sv orsitz
▁A rab
▁mehr eren
pos it
▁Z imm
com ing
▁Bem erk
ück w
▁Best and
▁gesch ütz
▁S inn
▁a gen
▁sport s
▁Id ent
▁and ers
id e,
▁Vor teile
▁comm itte
▁Ver halten
▁An der
▁proced ures
▁lar ger
▁wonder ful
▁E ach
▁Arbeitspl ätze
ig ran
▁Region al
it ure
▁I M
▁ausge w
▁Bet rie
▁work ,
ws er
▁support s
▁entsprech ende
▁F akt
i us
▁Ex p
ra w
▁Bo ard
▁extens ive
▁pl atform
▁ange ze
▁don 't
▁h undred
b um
▁get ting
▁activ ity
▁f ert
▁refer red
zimmer ,
▁dom in
r aten
▁e c
▁er leb
▁O lymp
c an
ran s
art igen
▁rev iews
▁m ap
I G
b ung
▁mus eum
▁k it
▁Zw ischen
▁sum mit
▁ra ised
▁rele ase
fl äche
▁traff ic
▁Hinter grund
▁ded ic
8 )
st ieg
▁M ost
▁er h
▁r is
▁e uch
la w
hn en,
k ünd
▁deta iled
m ack
▁us ually
▁Cost a
i ón
id ge
▁Ein richtung
▁Re v
ident ial
▁Konfl ikt
a e
▁Proz ent
▁ser ve
▁Zweit ens
▁demokrat ischen
▁aim ed
▁T em
▁C zech
▁B ay
▁kont roll
▁f rag
▁Verw altung
I E
▁e hr
▁de ad
▁W issenschaft
▁prote cted
▁E v
▁Schl af
▁colleag ues
▁N ahr
ud em
▁global en
am s
▁restr ict
▁Ein sch
▁Ass oc
▁ag o
▁glaub e
▁sc en
▁C r
▁K ind
▁Mot or
▁m and
▁Acc ording
▁transpar ent
on ym
▁D ol
p s
▁v ac
▁20 20
s ichtig
▁C ast
▁geb racht
ing u
p: //
▁fac ilit
▁ein zu
▁w ants
▁r ural
▁dec ide
▁m ic
teil t
▁moder ne
▁fl ow
haf ten
▁Mitgliedsta aten,
▁gef unden
it ation
▁act ual
▁eindeut ig
▁ ..
u ppen
ich en
olog ischen
lag en,
I R
▁besonder en
▁ent w
▁servic es,
▁national e
▁un be
▁sich ,
▁wo od
▁6 .
▁con ver
▁Zeit raum
ver age
▁Be w
▁Res erv
▁criter ia
ü ste
▁Kon zept
▁tool s
▁akt uelle
ities ,
▁b ind
▁for ces
ly ing
qu ality
sp unkt
▁play ed
▁K omfort
▁budget ary
▁m ix
iz ing
▁Tur k
▁con vin
▁( w
wo gen
▁becom ing
▁Ab schluss
je cted
▁institution al
▁Z udem
▁M iddle
ul ierung
▁spac ious
▁co ff
▁Z unächst
▁document s
▁zwe if
iz enz
ach t.
ank en
▁Anerkenn ung
▁sub -c
h op
enn en,
▁crit ical
▁dis pos
7 ,
▁T ab
▁E conomic
▁tomor row
▁beste henden
▁F irmen
▁ge legen
▁rem ark
▁Grie chen
ck s
frei heit
▁re chts
▁( 2
▁w inter
▁pl us
▁un c
▁C ode
▁Lage ,
▁soll ten.
▁Parte ien
▁G reat
▁exact ly
▁fe ed
▁Well ness
▁S and
▁targe t
▁S ach
▁Pro te
▁dank e
▁sc r
▁Sal z
▁for est
▁Lux em
▁ ?
im me
▁O ut
▁run ning
▁o ben
▁K ore
▁cor resp
▁represent atives
▁vor ge
▁Vor bereit
▁ex pected
▁K enntnis
▁Ein kauf
▁O ther
b rit
▁T ar
n el
▁mult ip
▁Hol z
▁prov ider
▁introdu ction
▁sele cted
entwick lung
▁Zust immung
▁s etzt
entr ale
▁möglich erweise
leist ungen
▁Netz werk
▁An pass
▁Pat ient
▁er folgt
▁change d
▁ear lier
sp ort
▁ab zu
v ed.
nah m
geb iet
pr äsident
ar .
▁i P
▁Beit ritts
▁table d
▁unterstütz en,
▁öff entlich
ch t,
▁Mit te
▁notwend igen
la us
▁Wettbewerbs fähigkeit
ure au
▁med ical
▁we ap
ag o
o ß
▁Bel ar
▁bedeute t,
▁be quem
ib ly
az z
ch en.
▁ide as
▁conflic t
u ard
1 4
▁G ran
▁R esearch
f äll
▁serv ed
▁challen ge
▁Mit teilung
▁Unterk ategorien
▁m ad
ro k
▁War en
▁employe es
▁M ilit
▁darauf ,
▁S om
▁( d
▁un it
▁weiß ,
▁sub-c ategories
us ed
▁A p
▁B i
▁s üd
▁rapporteur ,
/ E
▁exp and
▁ab häng
-c alled
▁finanz iellen
▁g lob
b a
▁Ver fassung
▁sp read
fl ü
▁jeder zeit
▁V ill
e ks
▁represent s
▁T un
▁wesent lich
m eld
stit ut
lemen te
▁c uis
ö m
▁thous ands
ad o
▁Verw altungs
▁Inde ed,
▁man aged
brit ann
le br
sel v
▁elect ric
▁comp ut
▁B a
l es,
and en
u ,
▁C lick
▁ac qu
▁Home page
▁k ennen
▁Wahl en
▁aus ger
▁Cent er
▁a de
▁Auf nahme
▁g raph
▁here ,
eit her
h ouse
▁4 5
▁play ers
▁compet itive
zeich en
▁Le hr
alle l
▁lik ely
sp rach
▁4 00
▁def end
▁r ies
▁exp lo
▁ge d
ra gen
▁Verpflicht ungen
▁transpar ency
▁sol d
▁fre ien
▁selbst verständlich
▁stell en.
r um
▁sc ope
ists ,
▁Ira k
gr öß
▁M oment
▁crimin al
▁prec isely
▁Sw itzer
▁F ound
▁K y
▁c entr
b as
▁zu g
▁In frastruktur
▁3 ,
▁Kü che
▁zu letzt
▁comp ens
▁bel ong
iz es
br uch
▁Anstreng ungen
gestell t.
▁Schließ lich
▁P ack
▁exhib ition
▁tem por
▁l isted
▁Verb ind
alt ungen
▁im press
▁ge führt
▁Sch engen
▁Fre m
▁substant ial
▁Enter prise
▁so -called
▁Bre ak
▁information .
iv es.
▁dem ands
ze p
▁accep ted
▁w in
▁comp ar
▁ent it
cl ude
▁Solidar ität
▁w achs
▁appro ved
folg end
▁begr enz
at ik
▁zu .
▁R ein
▁Kle in
7 )
▁visit ors
▁Europe 's
zeit en
D P
/ 2
▁emp fehl
▁Be c
▁wind ow
▁W affen
▁durchge führt
▁Ab s
etz ung
in c
▁support ing
▁k auf
▁P rag
▁gem üt
b it
n ach
▁b rief
▁Democ rat
▁l assen,
▁Grund satz
ang s
▁sa ve
▁pres ence
▁r ise
f u
ic es,
▁lea der
it a
▁T op
▁dest ro
▁wahr scheinlich
ann te
▁not ,
▁behand elt
▁g ave
▁ver tre
ut ,
▁n ütz
z one
7 .
▁spiel en
f un
▁dar unter
▁dar um,
▁d age
▁implemen ted
T A
▁H ause
▁Schl üssel
▁lif e.
d ed
▁gen ommen
▁development .
▁Vereinbar ung
▁Bo den
▁S P
▁S ü
▁gew ünsch
▁solidar ity
▁offens icht
sch uld
erv ice
▁P ower
▁jeweil s
is .
▁w ent
▁d an
ol den
▁recog nis
kr ise
▁m atch
▁h tt
▁impro ving
▁gr enz
▁specif ically
▁conven ient
h ,
- y
kon ferenz
▁He il
▁phot ograph
n er,
▁Verein ten
▁A v
▁Se hens
▁7 .
▁process ing
▁b ott
▁E AD
▁einger ichte
▁beste hen
▁gesch affen
▁( W
ch mal
▁gleich e
▁CO 2
▁Be griff
▁sicher lich
f ten
n ungs
▁produ c
▁know ,
▁Ange legenheiten
▁Afghan istan
▁d ah
att le
▁Ital y
▁Krit erien
▁r u
▁vor zu
gem äß
▁aut h
▁Groß britann
-T e
▁read ing
L E
p enden
▁H y
at a
▁Agend a
▁K rä
st ände
▁Ab schließend
▁pl ants
kt iven
-S ystem
▁farm ers
▁Heraus forderungen
ück en
leist ung
▁typ ical
▁Span ien
▁K al
▁Ph il
le iste
o ted
geb aut
▁entw eder
▁all oc
▁mach ine
▁erwar ten
ad es
▁Br uss
or es
▁Schwier igkeiten
▁inter pret
▁komm en.
▁m obil
▁supp lier
▁Such e
▁ref uge
▁tun .
▁Wh y
gem eine
▁L ib
on en
▁un tern
port ion
-P l
▁competit iveness
1 8
▁Ber eit
▁deal ing
▁pers ons
▁IS O
▁sh o
▁Ne ver
ikan ische
▁t ack
▁Klima wand
▁" L
▁Entw urf
▁inc or
▁opt ions
f .
temp or
▁I C
▁link ed
▁del ay
▁el imin
▁Afr ica
bour g
qu ate
▁cover ed
▁reg ret
▁wel cher
▁for get
▁consider able
cl ub
▁particip ation
▁p sych
▁to o.
▁Char akter
▁N I
ha gen
▁Besuch er
sp er
▁we eks
-st ar
let ter
▁phot o
z ähl
etz en,
▁ch ines
▁Pl en
▁würde ,
▁h osp
▁F ore
gew icht
▁R h
iel t
p unkte
▁komm enden
▁komp lex
- 20
6 )
führ t,
▁g ern
▁def ic
▁S ow
▁Europ a,
▁19 3
▁He alth
ish ing
▁einges etzt
urop a
▁process es
de .
▁exclus ive
▁zu vor
▁wh ite
▁ge gründ
ro ad
▁er halten,
▁Eng agement
▁Te ile
▁su c
▁O ver
▁k lare
▁genie ßen
▁ent gegen
▁Aus gaben
▁peace ful
▁Portug al
▁" T
ün schen
oss ible
▁Rom a
amp ag
▁Un fortun
▁pleas ant
fahr ens
wor ks
▁techn ische
▁B os
▁stim me
▁H altung
fahr en,
▁tr ust
▁con tra
▁D istr
▁K urz
▁ é
▁client s
führ er
▁Install ation
▁Un abhäng
▁par agraph
▁mor al
s -
▁Mad rid
▁st imm
ige m
▁M ir
▁j ur
alt en,
▁rel ate
▁Nutz en
▁will ing
ome ter
▁pow ers
▁Ver ständ
▁ref le
▁method s
s pe
il er
r ichten
▁per cent
gr uppen
stru ction
M U
▁s auber
▁flex ibility
▁PH P
d es
▁Ab satz
▁o ber
▁D ienste
▁Le ider
▁col or
ist en,
auf trag
g a
m od
▁ ),
urop ean
▁aus z
▁Pro v
▁A ct
▁opp osition
▁s itting
ak es
▁auf genommen
▁with d
ir us
▁tra ve
▁str ict
i h
al es
▁Kommunik ation
▁K arte
▁word s,
s et
▁Sp a
▁Men ge
▁teil weise
ame ter
in der
▁ent ry
▁r uss
and a
▁En vironment
in ary
sche ch
l ung,
▁Haus halt
▁war en,
for sch
▁Christ ian
▁Innov ation
▁ad just
▁get an
▁fact or
wach s
▁M io.
▁Fischere i
ste chn
h erstell
▁Währ ung
4 -0
▁In halte
▁to ld
▁W ander
l assen
k ap
y a
be w
▁Me ter
id ing
▁ver ring
▁durch aus
z z
▁m ail
▁sch em
▁us es
▁Aus bildung
▁An teil
▁al te
den k
ber icht
▁opp os
▁beh av
▁s le
▁reg istr
unehm en.
▁Ar ten
ed ia
▁Stabil ität
▁l ines
▁ver folg
se ktor
▁bring en,
clud ed
▁Über gang
▁führ en.
▁efficien cy
R A
▁übern achten
▁Un der
▁nie der
▁gra du
o on
▁perman ent
g ree
▁room s,
▁min ister
▁or ient
▁ent scheiden
▁res ist
▁la w.
▁Viel en
▁M el
et ten
▁Zeich en
▁G N
▁lie be
▁posit iv
▁M ount
▁Stat us
cre te
▁areas .
▁dank en.
e h
▁f it
▁H armon
de te
p ann
▁U l
▁B il
▁mot ion
▁dom estic
▁des ire
▁3 2
e b
▁him self
w an
▁Richt linien
u an
▁becom es
▁Group .
▁B lack
▁entire ly
▁Or igin
/ or
k arte
st änden
prüf ung
▁versuch en,
▁As pekt
▁environment .
▁follow ed
▁ver treten
▁ange geben
▁pro s
esch rän
▁Febru ar
▁assess ment
▁Parte i
▁play ing
▁wer t
▁my self
▁ständ ig
▁m ission
▁Re formen
▁Gr ünd
▁gest immt,
d aten
▁V ien
I B
▁K enn
▁( the
▁impro ved
▁President-in-Off ice
pl es
um än
▁ins ide
▁sup erv
re gel
▁K il
▁comb at
▁T ool
ck now
▁adv anced
▁absol ut
▁f le
ge hen.
▁play er
ester day
▁konkre te
it ter
▁be kommen
▁met res
▁eas ier
▁König reich
▁s ays
▁plann ing
▁Bec ause
▁19 .
▁ele ctions
▁deliver y
▁im ag
▁be zeichnet
isch en,
leit et
▁hin zuf
im it
▁pl ans
▁ander es
▁G ot
ium s
▁region .
▁l ives
▁initi atives
▁pr ä
▁fr üh
f älle
▁E isen
▁Rat svorsitz
▁Erst ens
▁pol ice
ve y
▁mö chten,
▁f ühl
ha ber
op ol
▁On ce
▁ver urteil
▁open ed
stoff e
▁N on
i ro
▁im ages
▁occas ion
il ing
▁z ul
▁st ated
▁Sehens würd
ac cept
kn own
▁mich ,
▁condu ct
▁clos ely
▁kl ass
▁lo ad
u ed
▁sich er,
▁a cknow
▁B ran
yste men
▁anc ient
▁At lant
▁parliament ary
▁Febru ary
▁Kon z
▁found ed
▁experien ced
fer tig
-S ch
▁hel fen
▁organis ations
E A
▁ch air
▁M ail
▁wen igen
▁Gew ähr
-H otel
p la
▁hat te,
▁serv ice.
▁King dom
▁R oy
▁s ong
▁ag o,
▁St raf
▁- -
▁erreich en,
▁näch ste
▁and /or
gram me
▁sur pr
▁concern ed,
▁negot iation
ick ets
▁Bar ros
▁Sp rachen
ä ck
id s
▁denn och
or ing
▁prom oting
üt ze
il es
▁As yl
w asser
▁ge ograph
▁War um
▁möglich st
ativ e,
re ck
▁Mon ate
▁ste hen.
▁l ength
▁zuf rieden
▁B and
▁acc ident
▁discuss ed
▁Gar ten
▁Mo dern
▁EAD S
te te
▁dang erous
]] ,
▁p et
▁Bus h
▁d ro
▁K licken
bo x
▁Me chan
▁information ,
▁prom otion
zustell en.
▁Auf bau
▁v ere
▁lok alen
▁An ges
- 3
re m
▁gegen seit
as ing
organis ation
sch ul
▁EU 's
▁O sten
▁fac ing
▁ce lebr
▁sector .
▁Gipf el
en ?
r t
▁Ch ance
▁conne cted
▁(P L)
▁differ ence
▁Denn och
▁hotel ,
▁assoc iated
▁Entschließungsant rag
▁s ession
▁Flü cht
▁m 2
▁F le
▁Fre und
fin ition
▁tele vision
▁def ence
▁rail way
▁Sant a
▁gesch lossen.
▁stud ents
au ern
▁get roffen
▁Ein haltung
▁H all
▁be ar
▁All gemein
▁d ish
▁Priv ate
▁room ,
ch ten.
heit ,
▁Flex ibil
▁f ruit
▁199 6
▁pover ty
ho ben
▁ausdrück lich
▁issu e.
hr ase
ick s
▁citizen s.
il den
▁un to
▁saf eg
▁A lex
▁fest geleg
4 5
un kten
▁St off
▁vor geleg
▁" G
g esell
▁Nach folgend
▁fre ue
ärk ten
S )
▁again ,
▁humanit arian
▁Vor teil
▁finanz ielle
▁umf asst
n ter
▁m iddle
schrif t
9 )
▁tä glich
c ia
▁In f
EN T
▁sign al
C ,
is ieren
▁bring t
as k
▁P fl
ma ß
▁acc ur
▁end gül
▁un accept
▁L am
▁Gemeins amen
▁con dem
▁say ,
▁F en
▁N ations
▁komm en,
is ierten
go vern
ö der
ag s
▁3 D
▁f äll
tr y
▁coll abor
▁2 1.
▁imp ossible
a ult
h äus
▁how ever
et ze
▁hät ten
▁gener ally
m el
▁htt p://
▁Komp on
▁Viel falt
▁Stra ß
▁establish ment
z og
▁immed iate
▁Herstell ung
ill ing
ik al
▁dar an,
▁unterschied liche
▁implement ing
▁verab schied
▁un ge
▁de gree
▁rad io
▁comb ination
▁M ö
▁Mein ung,
▁ex cept
if fer
ian o
▁are ,
▁Organis ationen
▁benö tigen
führ ten
▁N ote
▁amer ikanischen
▁Th en
▁vor be
▁so le
▁Krit ik
▁g ram
▁ind ire
▁Ste in
▁C om
▁( EN
de ckt
▁bes uch
▁ev idence
▁St imme
▁aus gesch
▁Hotel ,
l ern
▁gew ähl
▁Ir ish
▁man age
▁comm ents
▁B ern
as te
▁place .
▁ful fil
▁D orf
▁Sup er
4 )
▁S aint
▁Immobil ien
▁understand ing
▁Unternehm en,
k te,
▁Kolleg en,
▁announ ced
▁redu cing
▁prop ose
▁recogn ition
ies en,
ige ,
or am
▁Nahr ungs
▁Acht ung
▁übernachten ?
k rieg
or ient
▁persön lich
C .
▁A K
▁den ke
it ze
▁Um fang
▁Ham burg
▁M P
▁s and
▁St rom
▁sh ared
▁r ent
▁Res ort
▁discuss ions
▁Komp et
ü nen
we chsel
▁tr uly
▁field s
▁erforder lichen
g u
ran ken
▁J etzt
▁Jahr zehn
amen te
▁bank s
▁W o
▁dank en,
▁s atell
▁F inn
▁comp la
▁er leich
se hen
▁( b
a ub
▁app lies
▁soll en.
ick en
▁ex cess
i am
r is
▁a u
▁b ir
▁tra gen
▁soll ten,
▁back ground
▁agend a
▁H ard
▁m ist
▁O S
▁scre en
ist or
▁Auss icht
▁effe ktiv
▁a head
leit ung
▁Viel zahl
l es.
▁verste hen
licher weise
▁qu ar
▁purch ase
▁c ur
ück e
▁perm it
st ad
▁ad apt
är m
▁Währ ungs
▁dut y
▁ 00
▁A partments
▁Stand ards
▁D ue
▁avail ability
▁fisher ies
▁Völk er
▁St ärkung
▁ent ertain
▁w all
▁E lement
▁for mal
▁Kommission .
▁tra g
▁da uer
▁Stellung nahme
▁W ald
▁poss ibilities
▁vict ims
g ment
w urf
▁men u
▁Berichterstatter in
▁berücksichtig t
▁g ames
ut in
▁Arbeit en
▁v otes
▁Ein igung
ig ung,
zw ischen
▁con stit
k an
▁j etz
d oor
ch e,
▁Se hr
en hagen
▁Off ice
it ious
it ors
▁ent h
▁könn te.
▁members hip
▁cohes ion
j o
▁ein iger
et ter
▁konn ten
▁um gesetzt
▁hin gew
▁level ,
▁10 .
▁auf merksam
▁ph one
▁on e.
▁W all
▁Gleich zeitig
▁ •
▁opin ion,
▁call ing
▁Sch ön
- J
▁Produktion s
and o
▁sp l
▁market ing
▁beg ann
▁( c
▁genie ß
▁is ol
▁re ception
gestell t,
enn en.
▁G ott
▁er zeug
▁Supp ort
le id
▁mon etary
▁Pol ize
▁there ,
▁C olle
▁le ben
▁fix ed
g ers
▁mit einander
en :
▁industr y.
▁Pr ime
▁N ame
▁Wor k
omb in
▁Tour ismus
E O
op t
▁übr igen
▁Land ,
isc al
att form
re ,
▁darüber ,
▁Zust änd
ien te
▁Bed arf
▁other wise
▁trans ition
▁del ic
il s
ier ,
▁great est
▁We ge
▁ äl
▁even ing
olog ische
▁T yp
▁s n
▁S T
um .
▁ur ban
▁Son nen
asch ine
▁Gästebewert ungen
oun ts
ar ischen
▁exp end
f s
as il
zeich nete
▁gen eration
▁un a
ste lle
▁do or
▁Pak et
▁int ention
▁V o
▁Be ach
▁hin weisen,
▁e .
▁P a
▁ent deck
ere chn
▁Date ien
ment al
▁Frankf urt
▁ü b
▁Ge ist
▁unabhäng ig
sch er
▁att ach
▁conne ct
▁Fun ktionen
▁An gaben
▁vern ünft
▁h ilf
▁F onds
-s ized
war en
▁genutz t
▁ger ing
▁richt igen
▁again .
rimin ierung
▁An w
▁W i
▁la ws
% .
▁L o
▁un less
r üst
▁M ain
▁Ver letz
▁sch affen
▁Parlament ,
▁allow ing
▁nie mand
▁Date i
▁tre ff
▁erwar tet
▁schö nen
▁T itel
ut ch
▁c ities
il ot
ire less
. S.
iert es
3 )
▁E ar
er ver
▁Daten bank
▁entit led
b and
ü ll
▁Che ck
y le
▁introdu ce
ak en
▁R and
▁benutz t
▁er fahren
▁D igital
▁enorm ous
G O
▁install ation
▁A partment
ch em
▁notwend ig,
▁gegenwär tig
▁d ivid
▁so .
▁en ables
▁con crete
tempor ary
m on
ich ert
▁(D E)
n y
▁relig ious
▁( n
▁Turk ish
gen ommen.
▁kon stru
ö ss
▁M aschinen
▁F el
▁inter vention
▁Break fast
▁M un
ühr en
▁Webs eite
▁conclus ion
z t
▁b orn
▁möglich .
▁s quare
▁v ision
▁8 .
▁(EN )
un ion
▁h arm
▁Ber ichte
▁genu ine
▁Teil nehmer
▁Palest inian
tz eit
jähr igen
▁bem ü
▁M ik
▁über all
▁adopt ion
▁v ul
▁con v
▁Stra ße
▁O s
▁S onn
▁20 .
▁con vention
▁on es
▁N ether
▁German y,
▁Les ung
▁kit chen
▁Rechn ungs
▁dan ach
▁First ly,
ä gen
▁Ch anc
▁An alyse
wer ke
▁form at
▁defin ition
▁ro ck
▁product s,
▁ris ks
ist isch
▁Mich ael
▁weiter er
uch e
▁appro xim
ber e
▁business es
▁0 .
▁Zug riff
▁komplet t
▁Veränder ungen
rauch er
▁sur face
▁( 200
▁Forder ung
▁future ,
▁d ient
▁as yl
ter t
▁kulture llen
▁there .
▁sign ed
▁Austr ia
▁( V
▁pros pect
▁appear s
5 )
▁Anges ichts
▁W and
▁Technolog ien
: 0
▁Wel t.
▁Inter ess
il st
▁morn ing
v iel
▁possible ,
▁technolog ies
▁Regel ung
▁S eine
▁Kommission s
▁aim s
as ts
▁fol gen
▁Ver st
▁beste ht,
▁vorlie genden
▁TH E
U T
▁c amera
▁un f
▁Global isierung
- r
or a
pl ätze
▁ �
▁th en,
▁Just iz
▁sämt liche
▁Ide e
▁ze igen
▁Afric an
▁keiner lei
▁h y
▁j our
o oth
theless ,
▁g ing
rä gen
▁k ons
än gen
▁ear th
örder t
▁C ustom
▁L ive
re u
al ys
▁all .
▁Leist ungen
al a
▁Re c
▁R os
▁C ub
▁aus ges
▁attra ctive
▁Gerichts hof
▁grenz über
or den
art en,
▁l iter
▁admin istration
▁Rechn ung
▁coordin ation
ate ver
tern .
▁Prior itäten
▁P DF
▁se ll
▁M at
▁We chsel
▁rom ant
tz entrum
▁Hin weis
▁dedic ated
ür k
-y ear
▁for ced
▁region alen
▁Ver y
▁decl ar
▁war en.
▁the or
e y
▁clos ed
▁ö k
ein ,
verkehr s
L AN
▁führ en,
p erson
▁K urs
▁Mein er
▁Pak istan
▁Forder ungen
▁Mittel meer
▁ex pression
▁I D
▁M esse
▁z entrale
▁fol gende
oun ge
▁Beit ritt
▁ra ise
▁inst alled
▁Initi ativen
▁rel iable
▁US B
▁Re ich
▁rev olution
iet en,
▁C H
▁Kin dern
g as
▁Kont roll
▁ver meid
▁ha upts
▁development ,
▁pict ure
h e,
▁tot ally
▁S yn
▁verantwort lich
qu ar
▁problem .
▁ein ver
▁deb t
▁develop ments
▁besch rän
▁for dern
▁strong ly
ä den
▁Fore ign
▁t ief
▁auf zu
▁p ure
▁2009 .
in es,
ge hen,
av es
wohn er
▁che ap
▁suc ceed
id a
▁on .
▁Fed eral
an lagen
act ive
▁d iss
▁L izenz
wir t
▁Fest ival
ar r
▁re ch
▁Er hö
▁befür wor
▁convin ced
▁M ond
▁Produ kten
▁comp ared
▁Ur s
▁qual it
ar ies
▁An other
▁inform ed
▁m m
▁en h
▁mot iv
▁comb ined
u e.
ab y
▁accomp an
▁Cont rol
▁heiß t,
st ücks
▁reform s
▁est ate
▁ber u
▁colle ct
ach tet
▁pr ison
▁französ ischen
▁establish ing
▁wir ks
rag en.
▁def ined
▁S ysteme
▁curr ency
▁Leist ungs
mit tag
▁m agn
▁Austr ian
▁sp ent
▁I hnen,
▁B ack
▁eng l
▁größ eren
▁em issions
▁Hal b
▁p or
▁big gest
▁höch ste
▁describ ed
d i
b rauch
▁re produ
▁available .
▁main ten
▁gen et
▁Cas ino
▁dipl omat
▁guidel ines
▁for th
▁Th ird
f le
je kten
▁ausgest attet
▁sc ience
A ,
▁bein hal
▁g olf
art a
▁diejen igen,
▁any one
▁o w
▁p our
▁langu ages
▁gew inn
▁R ob
our ce
▁gr unds
▁C roat
▁ve get
▁entwick eln
▁worldw ide
▁Eind ruck
m as
ut or
hör de
on ial
▁I '
▁effect ively
▁law ,
▁verein bar
itz en
▁zusätz lich
▁spe zielle
▁For men
▁be ige
▁clos er
▁Geb rauch
▁gegenwär tigen
x ,
▁K andid
ar ia
▁B is
-B ahn
▁word en,
▁me ant
om in
▁Chin a,
▁M indest
▁Ver z
▁verbunden en
▁grunds ätz
▁H afen
ist ik
i ov
▁schaff en.
▁Besch reibung
▁en for
pr inzip
▁3 1
▁pat ent
▁continu ed
▁d ir
▁Überwach ung
ig sten
▁but ton
▁par a
▁grat ul
▁V an
ator en
▁ab gest
▁fre uen
isten ce
▁wäre ,
▁dis aster
ile ,
▁opt imal
▁an bie
▁polit ischer
▁groß es
▁7 5
▁p aper
▁W ien
am ing
-Pro gramm
▁P PE
▁day ,
▁fest ,
C D
▁Be wertung
▁Tats ache
▁a verage
af r
▁Re aktion
▁reason able
▁prior ities
ath ed
▁verw enden
▁He imat
▁gut es
▁H aut
▁out ,
ere i
▁international er
▁Ver trie
▁gr ant
▁Spe cial
▁t ried
▁ber uf
▁herr sch
part ner
an cial
▁z erstör
▁He ad
▁beg l
ro ff
▁m üs
▁se ctors
▁dra wn
▁legit im
▁fun ctions
▁Eng l
- 00
▁system s.
▁12 .
▁er f
st ät
▁Deut sche
c ap
▁An s
▁ste ig
▁la id
▁voll kommen
am mer
▁comm and
▁Eas tern
▁sol cher
▁Stad tzentrum
for dern
▁so gen
▁Fot o
▁Con stitution
▁Assoc iation
▁g esehen
▁L ag
lo ok
▁B ol
▁un able
▁l iber
▁se ven
▁O pp
▁reg ime
▁Techn ik
▁F itness
▁G anz
ibr ary
iot he
▁Beteil igung
▁wesent lichen
▁erinn ern,
▁destro y
▁con tex
vor schlag
▁T it
▁ge ht.
▁sa w
er ap
▁Gr unde
: 30
▁ >
in es.
▁" H
▁Ansicht ,
▁Qu est
le un
▁D ollar
▁famil ies
▁Se a
▁ro b
ö se
te ten
▁n either
▁guarante es
ä ne
▁Ver mitt
▁Pal ace
sp ar
▁D imension
▁Verteid igung
▁self -
▁ex pos
▁verb esser
bal d
▁gr ünd
▁n äher
▁erlaub t
▁k orre
▁cor porate
▁Tod es
lös ung
▁begl ückw
it ts
ü ter
▁inter face
heit s
ibl iothe
▁innov ation
an im
▁ä uß
▁S en
▁er gänz
▁ro ute
fl ug
▁sicher zustellen,
ö sch
▁Br üssel
▁Gegen satz
j et
wind igkeit
▁In strumente
▁Rel ig
▁honour able
▁umfass ende
▁A R
▁Länder ,
▁Wieder auf
▁out .
▁Re port
ib et
▁Wh ere
▁In stitute
▁contin ues
▁Univers ität
▁defin it
pre ise
▁en or
▁Koh äs
▁G ut
ut r
ass ung
▁register ed
▁st able
▁( z.
▁" R
▁process ,
▁finan cing
-S terne
▁Dro gen
▁bal con
▁S or
▁chem ical
▁(1 9
▁k os
▁amb itious
ok raten
▁F ire
▁j ene
▁support .
ists .
▁ver lei
▁hel fen,
▁think ing
▁Er hol
▁Al ban
man agement
▁unterst ütze
( )
▁bo und
▁Tre k
▁nutz en,
▁sch ed
▁f ern
re b
iv es,
▁appe al
▁Ein richtungen
U N
▁city .
▁Abgeord nete
yr ight
▁highl ight
▁P oker
▁Beschäft igungs
▁Dat a
▁Ris iko
ens ions
▁EC U
▁e p
uz z
▁Gree k
▁co ok
us te
▁particip ate
▁entsp ann
▁Tod ay
▁T isch
▁Verständ nis
▁Bank en
5 00
u a
ist a
▁sich erstell
▁relax ing
▁stell en,
▁ze igen,
▁achie ving
▁Bestand teil
ich e
▁Auf fassung
is ierte
all er
ad or
kl ang
▁For um
▁room .
▁T im
▁ver t
-s pe
▁C af
▁möchte ,
▁Wh ite
▁fre ie
▁ke pt
um n
▁C am
es :
▁sag te,
▁Go od
▁condem n
S ,
▁Kir che
▁corresp ond
▁Herstell er
▁Lat in
▁S D
est ,
▁wir ksam
▁dar aus
▁Auf fass
2 2
an ische
h y
▁Entwick lungen
▁Pr ess
▁P ool
▁er fre
▁comp r
▁S orge
▁App arte
▁Bevölk er
ic .
▁min ute
▁An lage
▁Tex te
▁dist in
▁W orte
▁ver gleich
▁Be im
oin ted
▁Bahn hof
▁P o
id o
bie ter
▁ #
▁ge öffnet
s b
ab ilities
▁urg ent
▁comp at
▁un ten
▁ele cted
itt en,
▁item s
▁F ert
▁spezie llen
▁surround ed
kn ü
▁Bedürf nisse
us es
om as
▁th re
▁3 6
▁exper ts
▁hoff e
▁sorg en,
▁equ ality
7 5
▁expla in
▁y esterday
▁" I
▁anges prochen
▁Prior ität
e kt
gef ähr
S L
r as
▁um welt
lin e.
▁R ent
▁Re is
▁now .
▁priv ile
▁anal y
▁Pe ter
l og
ol ge
ul a
▁ben ach
▁Med ia
▁Ire land
ro llen
▁tra ding
▁einfach e
▁Ge fühl
▁gesch ie
▁Nach dem
▁J ac
▁L ord
▁inde penden
▁erne uer
▁a p
produ ktion
▁De finition
▁Sum mit
▁pre d
ein d
▁r asch
▁brit ischen
▁we alth
tes ten
▁N iveau
▁access ible
▁Meer es
iz z
▁Daten schutz
▁sour ces
▁Führ ung
▁F eld
govern mental
▁tem per
it ,
▁differ ences
▁phys ical
▁w ählen
hand lungen
▁dr ug
▁infrastruct ure
▁Schw ed
▁sur v
▁Kl im
▁bur den
as e.
▁ex klus
▁at tend
omb ination
▁zu ge
▁199 5
schl äge
▁problem s.
▁K atastrop
erm a
▁Gebie ten
▁Archite ktur
ib el
tel lect
▁qu ot
▁Ma x
▁(P T)
▁re ject
▁gest immt.
▁Ph ot
ak et
▁Sl ow
v erein
▁Sch m
heb ung
▁transl ation
▁prin t
▁Mon at
▁ent stand
▁sorg fält
e f
o very
▁f iscal
▁N ik
enn is
▁Weit ere
▁medium -sized
▁ph ilosoph
▁organis ation
▁C re
▁E N
gr ün
statt ung
S QL
▁mov ing
▁arr ival
▁N am
▁Liberal isierung
A )
▁sub s
▁bal anced
▁al t
▁Far b
▁ad ap
▁gl ass
" )
- 200
▁sag te
▁Betrie bs
▁Loc ated
▁über prüf
▁G az
▁d é
▁Herr en,
▁Partner schaft
▁beant wor
▁n a
▁G ent
vers ion
▁2010 .
▁mitt l
ash ion
▁r ig
▁Leist ung
▁safeg uard
▁II I
▁L ake
ent in
▁cons ens
▁gut er
▁wunder schö
▁außer ord
▁mer ely
gra de
▁erweit er
▁und erg
▁art icle
▁mic ro
▁fail ure
▁man chmal
ob ility
▁Unfortun ately,
▁t ürk
▁Bar ,
schloss en
6 4
▁angeb oten
w agen
▁in come
se c
ut ing
▁re ve
▁mittel s
▁D ay
▁s am
end en,
▁app ar
▁coff ee
▁Gegen teil
▁Zeit en
▁dage gen
m ach
s. ..
▁comm unities
▁haupts ächlich
▁ent schieden
▁just ice
▁Arbeits markt
▁ide ale
▁p ension
▁Fr ont
▁pres erv
▁spr icht
▁Grund rechte
▁de te
▁aus länd
ell er
▁( "
▁all gemeine
▁p un
ter nen
▁Arbeitslos igkeit
▁so bald
▁some one
▁ass um
▁care fully
▁perfect ly
▁erm ö
▁anim als
▁constant ly
▁Ab stimm
▁unemploy ment
▁mö glichen
▁Er wart
▁Mut ter
z il
▁cons ists
▁ask ing
▁prev ention
▁S quare
▁situ ation.
▁Mark et
▁fa iled
▁put ting
- of
▁dar ,
▁particip ants
▁ant i-
▁statement s
rä um
▁And re
anc ing
ub le
▁sens itive
▁Z oll
ag en,
▁c ore
▁M EP
▁St ation
mö gen
ence ,
▁Be ob
▁assoc iation
▁ausge wogen
▁vo ice
▁ermö glichen
kt op
▁clos ed.
▁p ill
▁s we
od urch
▁vorgeschlagen en
▁approxim ately
▁bring ing
techn ik
▁but ,
▁gew iss
▁debate .
▁P ic
▁rele ased
▁gl ad
gy pt
▁beton en,
▁Unabhäng igkeit
qu alität
▁Über zeug
▁brauch t
▁H äl
▁Kop f
prü ft
▁Never theless,
▁J eder
re if
tr itt
▁program s
wach stum
▁18 .
▁g rie
aus o
▁jüng sten
▁B oth
ik ing
▁ass ign
▁mass ive
▁S yr
▁Ents pann
je ction
▁e g
▁fra ud
▁Bl og
▁l angen
ak er
▁Tra de
▁difficult ies
▁Austr al
or ough
▁Früh stücks
▁nehm en.
▁Patient en
▁hand s
iqu id
▁tr end
▁sub mit
▁co ol
▁pro portion
▁sp ot
▁bl og
vere ign
▁poin ted
▁areas ,
▁V om
▁coun t
r ier
▁so vereign
▁9 .
▁stark e
▁Ab sicht
▁erziel t
ie fer
▁bes tell
▁result ing
▁Balk an
gestell ten
▁Mart in
▁respons ibilities
▁continu ing
▁R oll
▁dies el
▁Ru he
▁S ur
▁polit isch
f ung
▁Ch em
▁Haus es
▁number s
▁zurück ge
▁h all
ra hmen
▁ id
▁R umän
▁T emp
b ody
▁sl ight
▁Link s
▁ 's
▁En joy
▁zu gleich
▁herz lich
▁Pr esse
▁schö ne
▁L os
▁S ä
▁E ben
▁sector ,
▁" N
-S tr
]] .
▁Th ose
▁Aus führ
▁ u
▁b erecht
▁25 0
▁Milit är
▁be ob
▁n orm
▁con clude
▁betroffen en
▁w odurch
▁P op
▁gew orden
▁af ford
▁med izin
schie de
▁contain ed
T P
ir k
▁bereit ,
á n
▁b io
▁out standing
▁Sch ne
▁book ing
▁S un
▁re tain
▁h .
▁proper ly
▁candid ate
▁d ig
▁se cret
▁m aster
lich em
▁M erk
▁compon ents
▁right ly
20 10
▁lux ury
▁viel er
▁Java S
▁re -
▁Rev olution
▁J o
▁con temporary
▁ab st
▁Nieder land
▁( IT
▁Re pr
▁pr üf
as e,
▁terra ce
▁gen ü
▁K ünstler
▁4 ,
▁Mitglied s
richt linie
▁gemein schaft
▁Ges am
▁f uel
▁l ov
▁charge d
▁to ler
E ,
▁Ch amber
▁Ma ße
▁bor ders
▁s em
p al
é e
▁st amm
▁Cy pr
▁speak ing
▁erklär t
▁Stud io
▁E th
▁cap t
▁verbess ern.
ol o
▁Be weis
ur a
▁Teil nahme
▁Tod ay,
U M
rä ft
▁persön liche
▁Klima anlage
▁pass ed
reit ung
▁Pra kt
▁Koordin ierung
▁gew ord
▁Disk riminierung
▁Reg ulation
▁break f
▁Erklär ungen
▁strengthen ing
ü ß
ell os
▁Zentral bank
▁Bud get
▁th erm
= =
▁near ly
▁incor por
ha up
▁lead s
▁cap able
▁V e
▁j ungen
▁J ournal
sicht s
▁ch osen
in formation
▁P in
im e,
▁W ür
loss en,
n g
▁e chte
▁B M
▁Sch ool
el t.
▁einz us
▁Aut or
b u
r ies
▁d ritten
ent scheid
▁We iß
▁wichtig ste
▁2009 ,
▁author ity
▁J ose
▁Z uf
▁St reit
▁ange p
▁Bos n
▁organis ed
▁F ax
▁am t
▁ex tended
rach t,
▁Ad min
▁International en
▁vor bereit
▁pass word
▁Wel che
le te
d o
glie der
▁Tele fon
st at
▁K affe
▁Beschl uss
▁D ort
▁An griff
▁Sch war
teil en
-K on
▁wa iting
üss en
ungs k
▁gut ,
h aben
m lich
▁at temp
inn ing
▁bestimm t
verb ind
▁Herr en
arbeit en,
▁bring s
aus ende
▁einz igen
um er
▁requ ested
air s,
ie b
▁gram mat
▁n ar
▁seek ing
▁Erhö hung
▁verbess ert
g in
los en
gän glich
▁E benso
▁Nicht raucher
▁P ublik
ungs bereich
▁Mär kte
▁nachhalt ige
me ister
▁prakt isch
▁tr uth
▁par allel
▁Europä er
▁l au
▁Is land
▁Ferien wohn
z ig
▁D utch
äuf er
▁zunehm end
▁asyl um
ist ungs
▁ges etzt
í a
ipp ing
▁exerc ise
▁vul ner
▁south ern
▁An lagen
▁Lauf e
-Fraktion .
▁l iability
▁m e,
i pe
▁19 0
▁Regel ungen
▁c ult
arbeit en.
▁happen ed
u j
▁seit ens
▁cla ims
▁cons olid
▁consider ation
▁max im
In nen
▁S ud
oten zial
▁Nutz er
▁tas te
▁a cht
le v
▁V ia
▁K or
▁m a
▁h um
▁multip le
▁withd raw
d en,
▁B ill
▁Stud ien
u ver
▁grenzüber schreit
▁v ide
▁ex plan
▁ign or
ä ten
▁E P
▁b on
▁R ich
▁f ro
setz en
▁A kte
▁qual ifiz
▁Thank s
▁in hab
▁p ick
▁res pekt
r ant
ver w
▁( The
▁sie ben
▁lab or
▁ п
▁O ld
▁Herausforder ung
▁datab ase
ed on
▁own ers
O P
▁rein for
▁them selv
af ft
▁Roy al
▁imm igration
▁he at
▁viel fält
▁Belar us
3 5
iss ens
▁vor gelegt
▁dynam ic
C C
▁d isch
▁einges etz
▁Proble men
▁ {{
▁context ual
/ A
▁obvious ly
▁Kont in
▁Tre ffen
▁soll en,
▁national er
▁bess eren
f est
ov a
▁regel mäßig
stand s
▁wish es
▁rem ove
lin ge
-h ow
▁Städ te
▁tr ägt
▁prim ary
▁R und
▁se hen.
▁gran ted
▁un g
wer ten
▁Auf grund
▁stud ies
▁con cep
▁j en
▁er g
▁Großbritann ien
▁Über n
▁akt ual
▁nam es
f el
▁Ch amp
▁Ide en
uf e
▁T ai
▁G raf
▁Dub lin
oh ann
▁T wo
unehm en,
▁auth ent
h err
▁ver teid
ze ß
▁kon text
▁Wel t,
▁k licken
▁gew esen
iqu es
▁Jahrhunder ts
▁Häl fte
a ktionen
ennt nisse
▁Ko operation
▁B an
▁ausreich end
▁Bes itz
- cl
k arten
p hrase
de cken
▁tradition ellen
tellect ual
y er
▁emphas is
▁j ournal
▁pres idency
rok rat
vers e
end ing
▁writ e
▁arbeit et
rach t.
sch ätz
▁Kon k
at lant
weis en.
▁f if
▁R ules
▁mem or
▁Wir t
▁sinn voll
sel ben
▁Freiz eit
▁H or
end et
▁Sehenswürd igkeiten
if orm
▁hab e.
▁deut sche
▁E lemente
qu ir
▁there by
▁Fin ancial
▁U .S.
▁stand s
▁Ber ücksichtig
ator ,
ag ue
D R
▁f ried
k ar
▁M ach
▁Ver hältnis
▁me ters
▁ste hen,
emb ly
▁dies be
▁die ,
▁mut ual
▁K ategor
▁15 .
▁R em
▁St ück
▁Pro vin
▁Cl ass
▁Über prüfung
▁terror ism
▁h yd
▁Just ice
u den
c omm
▁c le
▁4 8
▁dam als
▁s ale
▁Fot os
▁glob ale
▁let ter
▁Größ e
ist .
▁weiter es
▁länd lichen
isten z
ol z
▁stor age
▁8 00
▁Aut ob
▁sor gen
▁l ern
▁Fortsch ritt
▁Ind ia
▁hoff en,
▁v oc
▁D ach
▁Kommissar in,
▁among st
▁oper ations
▁Anpass ung
▁kürz lich
▁erfüll t
▁einzel ne
▁prep are
▁„ D
▁Ver öffentlich
▁hat te.
▁klar ,
▁chang ing
sch irm
▁Form ular
▁k ost
▁Prüf ung
hand els
▁Sch if
▁sp rach
▁turn ed
▁prim arily
▁Rot ary
) ;
▁17 .
▁Kar ten
m utz
▁Zweif el
▁Se k
▁Fl ash
, 00
r d
▁V ision
▁Teil en
ro t
ind e
▁technolog ical
▁T om
▁Pres iden
tr ib
▁Ch urch
▁Gew inn
▁issu es.
▁Q ue
▁satell ite
▁R iv
art ner
▁ges pe
▁small er
-Mit glied
▁tour ism
▁s now
▁un anim
▁A B
▁Ein klang
äd t
▁grie ch
▁Mark en
▁societ y.
▁de alt
able d
l er,
▁on to
erma ßen
fü llen
▁e ight
▁al one
▁B io
▁K ong
▁wa it
▁Unter kunft
▁territor ial
▁serv ice,
▁d ur
▁dazu ,
▁writ ing
▁qual ified
▁b ran
▁sel ten
▁demokrat ische
▁Des pite
▁build ings
▁system at
▁im per
▁viel mehr
▁er w
▁position s
▁Ir land
▁Voraus setzungen
▁O F
▁upd ate
▁berühm ten
lic it
ic on
▁F ollow
▁i .
▁Ex press
▁Empfehl ungen
▁J es
▁ins urance
▁insp ir
w ww.
ul ated
▁un ion
▁(IT )
▁sw itch
▁bleib en.
end ung
un sten
t able
▁g esellschaft
▁gr and
▁leaders hip
grund lage
▁St unde
▁So und
▁kle iner
▁jun ge
▁posit iven
ran ce
▁b ureau
k reis
h le
▁führ enden
▁schnell er
▁TV ,
▁ex ceed
▁beaut y
▁Found ation
▁Kommissar in
spl an
▁Unter schied
▁industr y,
▁erschein t
▁Schlusselwor tern
al tet
▁A 3
ring en
▁verbess ern
krä fte
▁Dav id
▁blo od
▁b and
o ot
▁find ing
▁Bei hilfen
▁par ad
▁Fahr zeug
▁ur ge
gel t
▁Schlusselwor tern,
reib en.
▁S ein
ä ger
▁ge änder
▁ver k
▁J ohann
g ien
▁compon ent
▁le isten
▁reason ,
▁fest gelegt
▁nam ed
- 4
k or
io de
▁( 4
▁Anwend ungen
▁zu verläss
▁Zahl ungs
▁Mar ia
▁12 0
▁nö tig
▁Pat ent
▁Tele f
▁re jected
▁Verfüg barkeit
ö ger
▁dr iving
el m
b indung
ic an
ateg ory
▁Bet r
▁198 0
▁bed arf
our s
är kte
▁system s,
org nis
▁ehemal igen
▁success fully
▁Mittel n
▁sch n
▁pres ident
▁höch st
c ast
es ign
▁Fre ude
▁comple ted
▁me ist
▁L ou
▁near by
▁d imension
▁würd en.
▁Mitglie dern
▁genann t
▁100 %
▁sprech en,
it ar
▁l ock
el s,
▁D adurch
ical ly,
▁6 00
-B e
▁learn ing
ungsver fahren
8 6
ä fen
▁Ar m
▁F ac
▁Bra zil
g ot
▁Ver k
▁gu ide
▁discuss ing
▁ear n
▁verb reit
▁Dire ctor
▁A ktionen
▁E p
▁Exper ten
A B
▁Sch aden
▁hervor ge
▁derzeit igen
▁J ean
-b order
end um
▁J ack
▁oth ers.
▁Vorbereit ung
▁ult im
ol er
v ak
▁fin ance
▁Bed ro
▁Fre unde
▁Programm s
ing ton
▁K now
▁Berücksichtig ung
▁Wirk ung
ad ow
▁ent re
▁fin ish
▁achie vement
▁hor iz
▁2008 .
▁Sü den
▁M as
▁ver we
▁gew isse
▁Mun ich
l .
▁ch ain
I )
l ike
▁G M
▁G rad
▁Re zept
▁B alt
me chan
▁pen alt
ut re
▁l äuf
▁we g
▁Pr äs
▁German y.
n etz
▁Ro h
kunf ts
bere cht
▁in stru
▁überzeug t,
T ER
▁organ ization
▁itself .
▁Stre et
▁Prem ier
▁S atell
wo od
vel y
la ir
S C
f ers
▁cr ime
▁0 ,
▁land wirtschaft
- the
f are
▁K unde
▁bir th
ktiv ität
▁Afr ika
abl en
▁Bot schaft
с т
▁Restaur ant,
▁advert ising
▁Ereign isse
▁b uffet
▁W in
▁also ,
▁K ombination
▁so d
▁mod els
z ust
▁help ing
▁Mark eting
▁Be fore
▁E G
ess or
▁Ex port
▁Gen er
▁conf igur
▁Schwer punkt
-D ate
ost er
▁Ph ase
▁represent ative
clud ing
▁K reat
▁wel chen
▁Dire kt
ausschuss es
▁l esen
ans ion
▁As ia
▁Comp any
▁„ S
▁question .
ne w
wer b
▁H oll
▁eng ag
▁Gl as
ission en
▁extre me
▁v olle
▁out door
▁We gen
-A b
▁akt uell
r ist
uropä ischen
▁sit e.
em a
▁R ub
ay er
▁16 .
▁tit le
he ber
ent wurf
▁below .
▁ade quate
th eit
▁econom y.
▁cours es
go ing
▁subsid iar
v ol
▁trans form
ge iz
▁" K
▁ver f
▁Komm ent
▁b itten,
▁sp a
▁Sh ow
▁konkre ten
▁Griechen land
am ,
▁übr ig
▁Viel leicht
▁An gel
▁review s.
▁sle ep
▁co -
▁durch führ
V .
g ro
ok ument
▁Zahl en
▁b ilden
▁Z ul
▁́ s
▁Reg istr
▁wieder um
sp h
▁tre ffen
▁13 .
s ysteme
▁v ess
▁spend ing
▁f allen
▁erforder lich,
jähr ige
▁P rom
▁Er wä
▁meet ings
▁H erk
▁Geschäfts ordnung
r est
▁such en
s c
▁T ake
▁repr esen
▁hous es
it ime
zü g
▁F er
▁kein es
err y
ist ry
▁fig ures
▁p .m.
▁need s.
▁ent lang
i è
▁w ild
▁H ong
h ar
▁f ed
ic s,
▁out put
▁la ut
▁mark ed
▁komp liz
▁st ore
term ine
▁Europ a.
▁individ uell
▁mov ed
▁ander erseits
▁furn ished
▁im pl
- out
▁Verpflicht ung
▁conclus ions
▁fant astic
▁A ustausch
▁Gesetz gebung
▁Kar l
▁resol ve
▁jem and
▁I l
▁ro t
▁mem ory
▁T a
sp arte
▁Verb esser
▁pract ices
▁kind s
- I
▁schwier ig
▁ad j
im e.
▁mainten ance
▁" The
▁s ights
ad y
▁noch mals
▁feel ing
▁M aster
▁aud io
▁r iver
▁Mor gen
▁relativ ely
▁be iz
▁Fra ktionen
▁d ict
▁pro ud
▁veh icles
isch .
▁Maßnah men,
▁ze ich
or s.
▁ha ir
bahn hof
own ed
▁stark en
lich en,
▁tr ial
▁Haupt stadt
▁för dern.
x .
▁produc ers
▁d og
enn ung
▁ste ht.
▁USA ,
▁reserv ation
▁dein er
▁divers e
▁offensicht lich
▁F ischer
▁re ven
▁Ha up
o ftware
▁T on
▁R ock
▁fahr en
aus e,
con t
▁bl ue
▁re icht
▁unter s
▁serious ly
▁spe zial
▁pl ug
▁mach ines
▁l atter
▁V alle
▁trotz dem
▁p ap
▁för dern
▁A ction
▁Al ter
▁hal ten.
▁apprec iate
▁heav y
n t
/ C
r asch
▁D afür
▁It 's
▁Zus atz
▁de part
ör t
▁V ar
if all
▁lie fern
▁cop y
ag t
▁ge ist
▁Gene hm
▁Gä sten
▁P R
▁Frieden s
ent er
▁L uf
▁begrü ßen
▁w ähl
▁B ör
g ese
i ating
▁l ag
▁ge pr
▁oper ate
▁f and
▁we ight
▁caus es
▁disch arge
▁Ris iken
▁c old
▁geeign et
▁ho her
▁crisis .
▁centre .
k m
▁wh atever
ettbewer bs
▁decision -m
▁Pol en
▁manufact uring
▁circumst ances
▁proposal .
▁beginn t
▁zie mlich
at r
de f
▁st ory
▁lands cape
▁Kü ste
▁re por
▁Auf gab
▁enterpr ises
▁Sp ann
icher ungs
▁Ziel ,
▁Fran c
▁versuch t,
▁5 ,
▁pack ages
▁determin ed
▁Hous e,
▁fal sch
▁keep ing
▁wh e
▁Aus nahme
▁H ans
le chter
ass e,
▁pe op
vers orgung
best imm
2 7
▁D isc
▁woll te
ränk ungen
re al
▁O ffen
▁temper ature
u v
▁o d
▁A z
▁ob st
▁poin t,
▁saf et
▁set s
▁f ill
füll ung
▁Ex ec
▁und /
▁T urn
▁u. a.
▁zie hen
it ory
▁l ös
▁U ser
▁co vers
▁Bü ro
▁La w
k .
reg ion
▁Ris ik
bezieh ung
▁Flexibil ität
▁m aß
▁Eff izienz
▁außer gewöhn
is men
▁help s
▁respect ive
é r
ur m
▁könn ten.
▁wichtig es
▁Umwelt schutz
▁recogn ise
▁an schließ
▁out come
▁Am ts
as ten
▁zurück .
▁oth ers,
▁relig i
▁repe ated
▁cross -border
▁cor rupt
▁bod ies
leist en,
leb nis
▁deliver ed
im p
▁part n
▁Män ner
▁be weg
▁Kon sequ
▁crisis ,
k op
▁comp lic
▁( v
▁comp ly
ies t
la use
▁cor ner
▁Um ständen
▁region ale
▁d ry
all ery
▁adv ance
▁Ländern ,
▁distr ict
▁Prof ession
▁M alt
▁H äus
str ategie
▁Ob ama
▁hö here
▁Char ter
▁S et
ab ling
▁er öffnet
▁gen auso
▁spiel t
folger ungen
▁cl oth
▁Y et
▁Tour isten
ampag ne
▁ver änder
A V
ier end
▁Gr enze
▁struct ures
▁th orough
zahl ung
▁gewähr leistet
▁tas ks
stra ße
u y
▁K ranken
▁al ter
waren ess
▁Aus land
▁Frem den
▁1 000
▁er b
▁komm un
▁invol ving
▁Sk ype
▁italien ischen
zie hen
▁stra ight
un f
▁K orr
ve c
ary .
trä cht
▁v ast
▁Eisen bahn
2 6
n es
▁Alt stadt
▁könn te,
▁spect ac
h ard
▁B urg
▁s icht
▁away .
▁previous ly
▁veh icle
▁g ül
weg s
▁action .
▁B aum
▁ge leistet
reib en,
/ S
▁g ather
▁Ind ien
▁C ook
▁plann ed
z in
▁critic ism
▁we ather
▁Ges icht
▁Gästebewert ungen.
▁P ay
▁zu gänglich
▁Mon te
▁um zus
▁cont ents
▁environment ,
▁Nor den
▁s age
E F
▁wh ilst
▁Re fer
▁umfass enden
▁direct or
▁bekann ten
▁unmittel bar
▁b reat
▁Tem peratur
ã o
▁y e
▁charm ing
M S
o ten.
us al
▁condition s.
▁Fern er
▁garant iert
▁Term in
▁Will en
▁in tellectual
▁net works
▁ol der
▁thre aten
▁compl iance
▁matter .
▁gewähr leisten,
lie b
ok e
▁Fran ce,
▁ut il
▁ko ordin
ut ter
▁c a
▁ausgew ähl
▁a .
▁All iance
▁m obility
T E
▁199 4
▁fl ight
▁weltw eiten
▁nehm en,
it .
it age
trag en.
▁Wirtschafts -
▁min im
▁cons erv
▁h ält
▁Re alität
▁Ex pl
▁und/ oder
▁T ax
▁k ü
▁Re cht,
▁Swed ish
▁Un gleich
▁att itude
lag en.
▁kurz em
▁not ice
▁vers ucht
bet rieb
▁Fl uss
▁rele v
▁Origin al
lauf en
▁My SQL
▁zusätz lichen
ition en
▁sol ve
▁place ,
ro c
▁künft ig
▁U se
▁res idence
▁Brit ain
3 3
▁im pression
▁lic ens
▁g irl
▁V ir
▁act s
▁dram at
▁He iz
▁Wel come
▁nutz en.
▁201 1
as chen
▁histor ische
▁cour t
▁al arm
▁Det ail
d is
▁R en
▁Gru pp
▁A ward
▁Gebie te
▁S ens
ick ing
▁famil iar
▁enter ed
▁m ünd
ub au
▁fav or
▁Wirk lichkeit
s ie
▁Mittel punkt
▁Lie be
▁t a
V )
▁d ans
▁so fern
ang es
▁ra re
▁Man ager
▁f elt
▁grundleg enden
▁H ü
fahr en.
m aterial
s. com
▁recommend ations
ä ußer
▁tre ated
▁purpos es
v ed,
▁Um gang
▁abge lehn
▁Pro ced
▁invol vement
▁Untersuch ung
▁K ann
▁adv ice
angeb ot
▁Nahrungs mittel
as en
▁Hin dern
ur ger
▁voll er
▁citizen s,
▁min ut
▁Sign al
polit ischen
ic ed
▁C a
▁d ien
ch ron
▁comb ating
▁ausgestatte t.
▁Bericht ,
▁extens ion
▁W ash
▁fl at
▁pie ce
▁Bruss els
▁inter ior
is ory
el a
▁( 5
▁renew able
▁l ose
▁ste ht,
▁debate ,
leis ten.
ter en
▁agreement .
▁sh ower
▁run s
▁L ike
▁verl oren
▁European s
▁wesent liche
▁A P
sch lagen
ted ly
▁Gl ück
hinder t
▁obst ac
m odell
▁import ant.
sprü che
▁l äng
▁Um wel
▁centre ,
▁S ov
▁T w
▁Agrar politik
▁fact ors
▁GN U
( s)
▁us e.
▁durch zuführ
▁help ed
▁dev ice
▁bureau c
▁e igent
▁Ro bert
▁Dienstleist ungs
▁Angeb ote
▁Comp ut
▁wes halb
▁enth us
p äck
isp iele
▁cuis ine
▁large ly
el ten
▁discrimin ation
qu es
▁Gree ce
▁Beruf s
▁E c
▁Auffass ung,
▁M S
▁de partment
▁Er inner
▁Unter schiede
▁individual s
▁Entwicklungs ländern
▁schwier igen
▁Schl oss
and on
▁E lect
▁zu erst
astr onom
▁webs ite.
ken nen
▁emphas ise
▁erwähn t
▁r ank
st ation
▁k ombin
f al
z za
▁a gency
▁d ’
▁De legation
▁Politik er
▁consum ption
▁ges tern
▁Pol icy
▁stud ent
▁ermöglich en,
▁schön sten
▁S ad
ap ter
▁2008 ,
▁sk ills
▁Er de
ges undheit
re chn
▁P uert
▁Stand ort
ang er
iger ung
▁SM E
ess ene
▁teleph one
▁sh ape
ro chen
▁R et
ste henden
▁O hne
▁commit ments
▁S O
▁on e,
ro ph
-f ree
te en
met ho
▁change .
▁hervorrag ende
ic ip
▁Reg ul
▁gewähr leisten.
▁exclus ively
▁Fr iend
▁glaub en,
▁S und
th ,
is ieren.
anc es,
wh at
▁evalu ation
▁R äum
▁launch ed
el er
▁new ly
▁nie mals
ämp fen
ie ßen
▁inc ent
s a
▁ges prochen
fr iend
▁Diskussion en
el s.
▁gew es
▁Eng land
▁ill ustr
▁In stead
▁lif e,
▁pat ient
▁zweif ellos
▁Produ ct
an ia
▁eigen es
▁protect ing
▁Bef ug
▁de termine
▁serv es
▁El tern
▁draw ing
▁tät ig
isch e,
▁ausge zeichnete
▁darstell t.
t igt
ang ing
▁world 's
▁A gency
▁über w
▁sch war
▁consist ent
▁Min utes
fäh ig
▁res erve
an cy
▁bek ommen.
1 00
▁M all
ur d
▁dire kte
▁loc ation,
▁At om
▁betreff enden
▁Sch uld
▁neues ten
▁spr ing
▁lim its
▁bo at
▁issu e,
▁in zwischen
▁Land schaft
▁unterstütz t.
▁F our
▁( m
▁14 .
ie ß
▁g il
▁ver ändern
ver letz
▁St ahl
itä re
▁Metho den
▁und erm
kt ors
▁Ge gend
▁beträ cht
▁W olf
ob en.
▁ge tr
▁c er
▁fac ed
▁K ost
▁hosp it
▁str ugg
▁on ,
in stitution
▁reg istration
▁institution s.
▁ в
▁a wareness
▁L uc
▁A gric
▁verg essen
▁ex em
us s,
▁compet ence
▁Energ y
▁ausgezeichnet en
▁natür lichen
▁Grund sätze
u ens
▁m el
▁W il
▁betrachte t
d essen
▁c ards
ck en,
▁page .
▁stim men
▁Pers pekt
▁opp osed
▁Allgemein en
▁US D
▁Pr in
▁Ges etze
un a,
▁D iv
▁f asc
▁et c
▁adv oc
▁mill ions
▁inhab it
le ge
isch ung
▁gew alt
▁beach es
▁2. 0
▁Z usätz
ör ter
▁well ,
▁cas es,
▁Far ben
▁Pla za
8 5
▁s ides
sch äd
rach ten
▁m ur
▁Kap az
▁Konfl ik
▁pro hib
fu hr
▁sp anischen
▁Nach frage
▁Ky oto
▁dec is
id ,
▁represen ted
▁c ommission
▁be haup
ismus ,
er a
ar l
ro te
▁L adies
n en,
zie hen.
▁komm er
▁i. e.
or gan
sch ule
▁control s
▁grundleg ende
▁mon ument
▁ze igt,
▁Gar den
▁ein erseits
we ich
▁import ant,
▁Ged anken
▁T own
i rol
▁ab road
▁comm un
st ood
▁can cel
▁cont roll
h ow
k urs
▁mus ste
▁significant ly
let t
▁beinhal tet
▁intens iv
▁d ich
▁p hen
▁look s
t äus
▁Parlament s,
▁Nah en
ar p
▁an wes
▁pro ve
▁Un gar
ud s
▁Hand eln
▁ad ul
▁deta ill
d a
▁ursprün glichen
ro b
utt le
▁Ausgang spunkt
▁Ge orge
▁Man gel
▁est im
▁sp ät
▁remain ing
▁K roat
▁ab ol
unic ip
▁The ir
klär ung
▁oppos ite
te le
▁Kl ar
▁extra ordin
▁Veranst altung
▁sex ual
▁weiter ge
▁Det ails
at es,
▁G DP
-R eg
▁fa ith
▁leis ure
▁oper ational
▁Wor ten
▁mensch lichen
- min
▁valu able
▁Opp osition
▁V iertel
emin ar
▁v ous
▁co her
▁g old
▁Sp iele
▁exam ples
▁le aving
we ll
▁3 3
m iss
▁( I
▁fest stellen,
▁(N L)
▁komm t,
▁2007 .
▁Harmon isierung
o be
w ers
CH T
▁se at
▁W ähl
cl ing
▁Fr id
▁Bud ge
ut s
nehm ern
▁Pfl anzen
▁Person en,
▁Jed es
▁cert ific
▁s in
is ierungs
▁Hostels club
▁f ab
▁ver an
▁Ver d
▁A th
reich ung
▁Zuständ igkeit
ies s
▁Stabil itäts
▁Empfehl ung
ra p
▁All ian
▁beteil igt
▁exception al
▁unterb reit
▁c ab
in ational
▁Schul den
▁Wahr heit
▁weap ons
▁P ia
▁Komm un
▁zahl en
▁p ush
gen ce
▁ste el
trag ung
TM L
▁resul t,
▁UN O
▁Leit linien
▁constru ctive
▁Sch ad
▁pay ments
▁activities .
O W
lo oking
▁vol unt
▁tal ks
form ance
ar io
▁Gesch mack
▁budge t.
l ated
▁M assen
▁gem acht.
/ D
▁G ard
▁mehr .
▁mann er
ir ing
▁Se cret
ate ful
▁mo de
raum ,
▁G U
▁so ft
▁Y ear
-A dr
▁künft igen
▁E dition
ig u
▁rem ote
▁holid ays
▁höch sten
▁s i
w ald
▁T iere
▁sow eit
▁In ner
▁D auer
ip el
▁geb aut
▁colle ctive
▁Einkauf s
l an
▁Kolle ge
▁unterschied lich
onym ous
all eng
▁c atalog
▁Group ,
ünf te
ent ure
▁vorhand en
9 5
est r
▁equ ally
▁invol ve
▁hold ing
▁Kompet enz
▁d ark
▁sett lement
▁jähr lich
▁Kü sten
▁de leg
p ap
gen er
▁Ar z
▁rec ip
▁automat ic
▁A D
▁Ein stellung
▁verg essen,
▁will .
▁verschieden er
▁address ed
2 8
▁creat es
▁K as
ul ating
▁Bud ap
▁Th erm
▁( or
▁Wes ten
▁agen cies
gesell schaften
▁an spruch
▁creat ive
▁St imm
▁n ob
▁N ap
▁yo uth
▁phot os
▁einger ichtet
▁region ,
▁tempor ary
▁" V
▁spac es
inu ier
▁Th rough
leg t.
▁Be hinder
▁Einwander ung
▁T schech
▁Zust and
n ischen
▁c ry
▁L u
▁gel öst
▁Eng ine
▁Antw orten
▁Voraus setzung
▁coup le
▁Switzer land
▁an statt
▁bes eit
▁Ma astr
▁dav on,
▁verein fach
ag g
▁une ing
▁w itness
zip lin
p a
▁3 7
▁institution s,
▁c atch
▁st one
ste uer
▁art ists
▁werden ?
▁Dire ct
▁ac quis
az ier
▁Ho hen
l aden
▁Serv ice,
g yp
▁B SE
igh ten
▁air craft
fre ie
o e
ra in
▁W ild
▁V ice
▁Air bus
▁mag az
▁oblig ations
▁Fen ster
▁(z. B.
▁reve al
è s
iz it
▁be zug
▁tr ib
▁Up date
▁( O
▁Barcel on
▁Br asil
▁terr itory
co hol
▁Dritt ländern
▁d ritte
▁G eschäft
▁L ate
▁off enen
▁consens us
▁hard ware
▁ries igen
▁w ettbewerbs
▁car s
▁T er
▁condu cted
a ctions
▁R iver
▁le istungs
cil iation
▁aufge forder
▁af tern
▁W are
▁con stitution
▁ra ce
▁einzig artige
é n
▁E is
ant ly
kl ass
he ben
▁( 10
▁verpflich tet
▁diejen igen
el t,
▁verfüg bar
▁W ord
▁Fest legung
▁ iron
▁bec ause,
▁Mon etary
▁proposal ,
▁h ill
▁ge ts
ug os
▁9 00
▁test ing
▁Pap ier
▁cons c
M L
▁über nehmen
▁Pol ish
▁Exec utive
▁D E
▁page ,
▁Grün de
ab sichtig
▁vers uchen
k er
▁up .
ll es
▁bre ite
▁Mus ic
▁W al
zahl t
▁facilit ate
▁Ind ones
▁Gleich gewicht
r ate
▁dev ices
f ar
▁b all
▁n avig
▁am ounts
▁Ar me
▁ger äum
▁zug unsten
▁T ime
▁order s
▁Mein ungs
ard ,
▁T ru
▁ver ständ
ak ten
▁San ktionen
▁childr en.
▁Sch ule
▁ey e
▁phen omen
� r
▁P RO
▁möglich e
▁Ver ring
mit ten
▁Metho de
▁content ,
▁kur ze
T R
i ary
k y
▁h it
▁N och
▁( and
▁bek omm
re ibt
▁W LAN
ein er
▁know s
▁pleas ure
▁bind ing
▁pat ients
enk en,
▁Net work
6 5
z ent
▁c af
▁B lock
rä ume
▁ident ify
ra k
▁supp osed
▁Vien na
G B
or ter
▁oblig ation
p .
▁E vent
▁am az
▁d rop
▁un gefähr
▁H imm
▁ge kommen
▁recommend ed
▁kulture lle
/ L
▁a vec
▁f oll
▁St ruct
▁Tag ung
▁F älle
▁l iv
▁einfach en
▁em ission
▁Kandid aten
▁mit ten
▁Ind ian
▁Stud ie
▁Überein stimmung
▁prä z
▁ir re
▁verste hen,
▁sty lish
▁Regierungs konferenz
▁dem ,
▁ch alleng
▁met al
▁wissenschaft lichen
▁A part
▁supp lement
▁sag t
▁north ern
häl t,
rat ing
▁Information en,
▁Struktur fonds
io x
▁zuständ igen
▁K rie
▁Wachstum s
▁ruh igen
▁N ic
▁hat ten,
▁zentral en
ake te
▁r ück
▁we chsel
▁Über setzung
▁Entwicklungs länder
▁obtain ed
▁Be ispiele
▁econom ies
▁un for
▁gefähr d
▁a ußen
▁parl ament
igran ts
▁L ist
▁Ge heim
▁Um feld
▁schw ed
▁s la
aus end
-t ime
▁un möglich
▁term in
▁Altern ative
2 9
▁H D
▁( ES
▁Über setz
▁applic able
wirk lich
- 5
▁w ären
▁architect ure
▁Fäh igkeit
g ut
▁M old
sch au
▁dre am
schl uß
▁rec overy
▁room s.
▁world ’s
▁Bild ungs
н о
▁d inner
▁f aster
ur ,
▁J er
▁present ation
▁Ur spr
▁univers al
▁ab andon
▁gro unds
ich ten.
▁B or
ot te
▁n ation
hn t
4 9
▁f ather
ich te,
▁kont inuier
▁Minder heiten
▁ehr geiz
ann e
▁Vor be
▁rec over
▁besitz t
▁vor z
▁Tats ächlich
ohl en
▁inform iert
▁programm e.
▁consult ation
▁unaccept able
-B er
organis ationen
▁früher en
▁t ut
d own
m l
▁( {{
▁purs u
▁Erwart ungen
ru h
▁polit ics
▁schle cht
▁Prote ction
la red
▁verw ende
▁sod ass
▁regul atory
▁V iet
▁poin t.
▁fight ing
▁un ent
▁Saf ety
▁Sch n
▁depend s
▁außerord entlich
▁Aus führung
▁m other
▁Bed enken
▁re act
▁K MU
▁gesch aff
i our
▁setz en.
▁hin ,
▁class ic
▁L im
▁Verb rechen
grif fe
▁t icket
▁Bedeut ung.
▁uneing eschrän
▁ph arm
g ä
▁natur ally
▁Autom obil
▁T rag
▁P olit
▁De v
▁Sub sid
▁Ent last
▁zust imm
häl t.
▁An ze
ann er
od es
▁city ,
at ing,
är ke
stru ktion
▁Tar if
▁Ab schnitt
▁vers ions
▁dest ru
▁terror ist
▁forder e
▁hundred s
▁Wir d
zeich nis
▁f ragen,
▁jedoch ,
▁Gew icht
e w
fol io
▁Br and
▁Adr esse
ad ing
▁The ater
▁verpflich tet,
▁prot est
▁t ail
ne .
▁einz uf
▁Men ü
1 99
▁beach ten
▁Sol ar
▁Pf lich
▁to b
▁Bedeut ung,
▁f ashion
abil ität
▁z ählen
▁ge hen.
▁attack s
▁magn ific
l iste
U n
▁unver züglich
▁at tract
sp ap
▁gr ateful
▁der artige
▁K reis
▁de posit
▁situ ation,
id el
▁guarante ed
▁inc omp
▁Opt im
▁recognis ed
▁b ilateral
▁def ine
▁dest ination
end en.
▁Kategor ie
ers e
▁person ally
▁50 %
k rit
▁An ton
▁bott om
▁vis ual
▁benö tigt
▁gew issen
▁Arbeitspl atz
▁nachhalt igen
▁P ension
▁group ,
▁Sh op
▁erm ut
▁today 's
ad e,
▁In fl
OM (
usst s
▁confirm ed
▁discover ed
▁Br enn
▁dest in
▁Bo ot
▁impress ive
▁abgesch lossen
▁geschütz t
▁S atur
▁pro of
▁sol ar
▁ge ändert
▁Europ ol
▁mö chten.
rech ten
▁Bau ern
▁der art
▁N E
▁Ä r
▁Bes te
▁umf assen
▁al bum
wor fen
▁bew ahr
▁A M
ro vers
▁Th omas
ild ing
▁entfern t,
▁beit ragen
▁er griffen
▁Bl ut
▁Mount ain
▁EU -Mitglied
▁notwend ige
and al
▁Er satz
▁Nach richt
▁tats äch
▁Camp ing
н а
▁c ategory
ail ing
▁lo vely
n en.
weis ung
▁mult inational
▁s ter
hr ist
ich ern
ac ion
▁Hous e.
▁Slo vak
▁lie gt.
▁Pol and
vent ions
▁inv ite
▁market s.
▁vor ange
▁join ed
meld ung
▁ant i
▁intens ive
▁div ision
▁Con gress
▁Ant i
▁kur zen
o ub
▁ent halten.
gemein schaft
▁ö sterreich
▁poll ution
is er
▁wel fare
▁Ein heit
▁bed ro
be hörden
▁2007 ,
▁F ood
▁Um geb
enk ung
▁ver folgt
▁Ver fahrens
▁Verring erung
▁U -Bahn
▁Ar men
▁Amer ika
▁frei will
▁expend iture
▁verd ient
▁prot ocol
▁o ught
der .
▁ge hen,
▁er füllen
▁vis ible
6 8
▁Aus stellung
▁Fra mework
▁Eigen schaften
C E
▁re fr
▁mit ge
▁Hilf s
▁An fragen
▁no ise
▁spec ies
▁Play er
▁Leg al
▁Spe icher
▁D enk
▁st opp
or gt
▁F air
▁er lä
umin ium
ör d
▁Verb ot
▁improvement s
▁sch ne
▁Strateg ien
▁untern ommen
▁Krank heit
▁( f
▁econom y,
▁d ining
▁L t
▁accept able
erg ie
le vel
▁ar ms
▁Wh ether
▁wel chem
ch e.
▁p as
▁Ein beziehung
är ken
▁einge führt
▁Kr imin
▁issu ed
▁Landwir te
▁independen ce
▁Gent oo
▁inhabit ants
er geb
de b
sicht igen
anc es.
▁kurz frist
e te
▁T O
▁R ome
▁targe ts
▁str ing
▁Ste u
C )
▁H of
▁kont akt
▁Z yp
r ichtig
▁centur y.
▁s ymp
▁sh ops
▁interess ante
▁verstär kt
- g
ö p
▁bie ten.
▁fl ights
▁Aut hor
▁mechanism s
▁Rad io
▁cal cul
▁Qu ark
▁vere hrte
a )
ik as
▁Ver träge
▁F ind
▁Z iffer
▁Kon zep
▁Ro ad
▁v ot
▁s ac
id den
▁An liegen
ein en
ko hol
▁über tragen
▁Mus e
▁ges piel
▁2010 ,
k ul
stell en.
▁Kr isen
b ach
▁or al
▁I B
▁H olid
▁muß .
aussch uß
f änger
k ur
▁beein druck
▁frequ ently
▁und ,
▁under stood
▁N GO
G )
▁an tw
▁ge zw
▁de legation
leg ungen
heb en,
be weg
▁Ab häng
▁some what
▁c amer
▁L ager
▁legisl ation.
▁betr ie
▁care ful
▁dom ain
▁Luxem bourg
▁be merk
▁P act
▁Insel n
U NG
▁A V
▁A ccess
ne ter
are t
▁problem ,
h ot
▁3 4
▁So ,
▁maintain ing
▁Dok umente
▁correspond ing
▁Klimawand el
▁schn elle
▁Kre uz
▁requirement s.
▁E R
▁bene fic
▁fig ure
▁dire kten
▁advant ages
▁Veranst altungen
at re
▁gem acht,
▁Gest altung
▁Subsid iar
▁O R
ific ations
▁ethn ic
▁ ende
▁dr ivers
▁W esent
▁Akt ien
▁ver wand
cr ip
▁B ucht
▁R a
vention en
▁Besonder s
▁Kil ometer
▁L ife
▁r ub
▁suffer ing
▁Japan ese
▁distr ic
▁staat lichen
▁Gründ ung
ak s
▁ro ot
▁app oint
▁w ann
tend lich
▁reich en
S A
▁depend ing
▁gelten den
at en.
▁produ cing
pro chen,
▁würd en,
▁a wa
m ärkte
▁er leben
▁http:// www.
▁erstell t
▁Technolog y
▁repe at
c ode
▁agreement ,
▁mir ,
▁del ighted
▁f itness
▁sie he
▁Ind ivid
▁h ängt
▁N os
▁Aus gabe
▁Problem ,
t ung
▁in put
▁B ibliothe
▁Verbesser ungen
▁Fran z
▁F err
▁jour ney
▁Akt ual
▁accompan ied
it ten
▁bes uchen
f ac
h i
▁dang er
2 1
b ürger
▁curr enc
▁sk in
▁Kons ens
▁le bens
▁(B e
▁ex istence
▁work sh
▁fest zu
▁Zwe i
▁handel t,
▁eing esch
▁pat tern
z ure
pro chen.
▁Ger icht
▁zuf olge
▁Hoff nung
▁compens ation
▁t rop
▁nahe zu
l en
komm unik
▁mone y.
▁funktion iert
▁In st
▁attra ction
▁a part
▁L ö
▁most ly
▁Überein kommen
▁fac ility
▁vote .
▁Dank ,
D S
ver tre
▁pre is
▁Maastr icht
▁Bed ing
▁cooper ation.
ein amer
▁sc ale
▁9 5
▁show ing
stoff en
▁höher en
▁health y
▁d ienen
▁beträ gt
▁c ategor
▁Ent fern
▁197 0
▁geze igt,
▁Beweg ung
us che
▁ord nungs
ze llen
▁Wirtschafts wachstum
▁west lichen
ag ,
▁Sp azier
▁199 2
▁Pers ön
▁3 8
▁com .
▁sol ange
▁rest ruct
▁Son y
g or
▁see ing
▁vollständ ige
▁dist ingu
▁return ed
▁N ice
in strument
un ning
▁D al
▁– ,
▁„ W
▁prov ed
▁besch leun
▁s ad
▁F ull
▁Gesetz es
▁entwickel ten
▁Aud io
fl ächen
▁bekann t,
ifiz iert
▁contra d
▁Sch atten
▁je gliche
▁spectac ular
▁Viet nam
▁Nach richten
bed ing
ul f
ub ring
▁Fre it
▁experience .
▁increas es
c ar
▁standard s.
▁control led
▁D ynam
▁( e.
▁other .
mäß igen
in ts
▁effect iveness
▁ermöglich en.
▁Nor men
▁Quest ion
bereich e
l us
▁ {
en kt
▁M em
▁Ge päck
▁high- quality
▁Ord nung
▁D ass
▁sh ap
▁Bed ien
▁invol ves
▁Jed e
▁s ah
▁aut onom
▁Werk zeug
▁str eng
▁compan ies.
▁Ver mögen
▁Außen politik
il led
▁k orr
if orn
▁Arg ument
▁ag o.
▁ph ase
▁nach zu
▁accoun ts
- Q
▁Deut schen
in uten
▁ow ner
▁us ual
▁Ch ild
▁Ver pack
dem okrat
▁Gen au
▁behav iour
▁present s
bring en
% ,
▁E xt
▁T auch
▁N az
ô tel
ab we
▁sm ooth
▁E qu
we ile
be auftrag
mittel t
▁repla ced
▁verhin dern,
▁erforder t
ä umen
▁Ma j
▁Bestell ung
▁perform ed
▁chines ischen
▁cas e.
▁pal ästinens
▁unter zeichnet
▁6 5
▁c m
▁S ymbol
▁Des wegen
▁U R
▁6 ,
grenz ung
▁Amend ments
▁Schweiz er
▁Autob ahn
p g
▁Terr asse
▁childr en,
st .
▁r ational
▁ro ll
▁quality .
uver än
▁V ict
▁technolog y.
b ett
▁n ights
▁g one
▁Plen um
▁ra w
▁„ A
▁Pal ästinens
▁veröffentlich t
▁l ake
▁profit ieren
p et
▁organ ized
▁sorgfält ig
isch -
▁con fer
▁educ ational
▁Maßnah me
▁bild et
/ M
▁requ ests
▁arbeit en,
▁L E
▁Buch ung
▁Berat ung
▁Ausführ ungen
▁Korr upt
z on
н и
▁K at
▁5 5
if est
▁Mil ch
▁heut ige
U L
▁V ier
▁Sta aten,
▁T ibet
mäß ige
enn zeichnet
▁though ,
▁prepar ation
st ud
▁spezif ischen
▁Mo z
n ational
▁oper ator
ath ol
▁gen der
}} )
▁I b
▁sch lä
▁demand ing
ot he
▁Be am
▁n ine
▁An merk
▁appro val
▁erheb lich
p ol
▁e chten
▁Red ner
▁vol ume
▁Hung arian
▁passen ger
▁A .
▁Kon gress
▁Als o,
▁wid ely
▁h under
▁pl enty
une hmen
▁basis .
- und
u ese
▁V ize
▁d raf
▁f em
▁resour ces.
▁Kommunik ations
▁Kohäs ion
▁e dition
▁car bon
würd igkeit
▁up ,
▁end ,
▁focus ed
▁Leg isl
in a,
ur laub
▁t ie
▁T erra
▁concern ed.
▁muß ,
▁Israel i
▁def ault
trä gen
e ben
ies en.
qu ellen
▁exp licit
▁S ar
▁visit ing
▁angem essene
▁Z ert
▁de als
▁18 0
▁Garant ie
▁J a,
▁hand ling
▁P ot
▁go als
▁N ation
▁er kennen
leg t,
pro zess
▁bed auer
▁Gelegenheit ,
och en
▁custom s
▁mitt ler
▁democ rat
▁abhäng ig
V ,
ere icht
▁ne un
▁gee ig
▁expert ise
▁pl en
dem ark
▁position .
▁wäre .
▁demonstr ate
▁er l
▁pr est
oun ter
ian a
▁invest ments
▁inc ident
o den
▁c able
▁Aff airs,
▁Soll ten
▁ordnungs gemäß
▁B ord
▁" O
▁beste hende
▁gegeben en
▁Barros o
▁wor ry
▁res pected
p ers
at i
▁D ipl
▁B IP
▁Kon text
▁prec ise
▁bezie hen,
▁expens ive
▁Alex ander
▁definit ely
▁Stock hol
en. ..
▁priv acy
▁compat ible
pro blem
ne imit
▁C urr
▁Bes orgnis
1 60
c as
n ö
▁M ur
▁facilities .
l i
▁obl ige
3 4
▁an gesch
▁speak ers
▁virt ual
▁Mc C
▁T y
▁Wohl stand
3 9
g ess
▁ins pe
▁Des cription
▁Tra ining
▁l aden
▁vis a
▁h alten,
▁gr ün
▁dat a.
▁Aut omat
▁expl ore
▁unc ertain
▁f an
▁2006 ,
▁decor ated
- se
▁V iew
▁project .
b sp
▁W art
▁ange ht,
▁nun mehr
▁ursprün glich
▁divid ed
be hörde
▁Cl ient
D A
d ,
us ted
▁f ü
ik .
▁Mar ina
▁Res pekt
neimit tel
teil en,
▁Ad obe
▁Zimm ern
▁find e
▁Pol ic
▁dür fen.
▁pro sper
▁err or
▁Mün chen
▁destru ction
▁pro c
▁Med ik
is iert.
▁b ilater
▁do .
▁tim es.
▁Fe uer
-to -
▁manufactur ers
änd ler
hr ten
▁Part ners
▁p ed
▁L iter
och ter
▁situ ations
/ P
at es.
▁letz tlich
p le
▁contain ing
▁Krieg s
or en,
▁business .
igen ce
-V ers
▁Room s
▁grundsätz lich
▁Aus maß
▁Soll te
▁Europe ’s
▁North ern
T S
ver trag
ness ,
▁Pap er
▁diesbe züglich
▁sp ür
▁un iform
▁V ater
qu er
▁Pro ject
▁Bezieh ung
con dition
führ te
▁jud icial
cre en
▁mor e,
it ra
▁s ud
▁b in,
▁Z ür
▁project s.
C P
▁is rael
id ad
▁G iven
▁unter scheid
▁Ins besondere
▁Flug zeug
ul in
▁trans atlant
loy ment
▁Stud enten
▁cred ibility
▁E M
▁str onger
▁compan ies,
ah nen
▁en han
▁Pl ug
▁geforder t
▁cut ting
▁An bieter
glich keit
▁off ic
▁Deutschland ,
▁attra ctions
▁um ge
n ’t
schaf fung
▁Aus bild
▁vis itor
▁wirtschaft lich
▁j a,
▁Ch air
▁Zu ge
▁gew öhn
▁verl assen
▁St ift
▁erhö ht
▁Wi -F
▁nur ,
▁var i
▁Salz burg
▁le id
rüst ung
▁l abe
▁al cohol
▁Reg ime
▁top ic
▁I ll
▁luxur ious
▁t ar
▁f uer
▁ent schied
ät igung
▁dec lared
▁Entwick lung,
▁par t,
▁directive .
▁Em ail
▁Zweit en
ie ten
▁em otion
▁theor et
▁N ob
erecht igkeit
▁entwickel t.
▁satisf ied
t y,
as che
▁J ames
▁adop ting
▁Balt ic
▁bek räft
▁question ,
▁vict im
▁E duc
▁mar itime
▁polic ies.
▁problem s,
▁exc iting
▁übrig ens
. ,
▁vis ited
▁zurück zu
▁Can on
er in
▁Follow ing
▁B ang
eth eless
▁regular ly
▁horiz ont
▁t ru
▁Rechts staat
▁award ed
▁unfortun ately
ul ich
gel öst
▁alle ,
▁ass ure
-G en
▁send ing
▁Selbst verständlich
▁Ear th
te in
▁Bet rag
▁art icles
▁Änderungsant rägen
▁Struct ural
▁deut sch
▁sprech en.
▁d ign
▁lang sam
▁er hol
▁flo od
▁meas ures.
▁divers ity
▁N iger
▁leg end
▁di agn
▁entscheid ende
b or
▁H en
▁T sch
▁W ho
▁wichtig .
▁With in
▁vorhand enen
is ieren,
▁K ab
▁bre it
▁tre ten
▁Veröffentlich ung
y e
▁In t
▁le gen
▁mult i-
ch st
▁Rechnungs hof
S D
▁recht lichen
▁repla ce
▁in klus
▁E Z
▁security .
▁( 8
▁view .
▁Vorschl ägen
-E uropean
▁einheit lichen
▁Fra gen,
▁Beit räge
▁quar ter
_ mar
▁in j
▁re action
▁komm t.
▁gestell t.
▁Fernse h
▁an wend
▁N orm
▁Ver g
▁Ur heber
▁7 00
▁Stad t.
▁foll ows
▁M ode
▁part ly
▁gesch lossen
▁E gypt
m aschinen
ar ische
▁arr ive
ump ing
forsch ung
▁rech tzeit
▁issu es,
ig a
▁Re gen
▁br ut
▁unf air
▁K ais
▁St aff
▁erfolgreich e
▁d. h.
▁(e. g.
D ER
▁ste henden
c are
▁The or
▁pr ice.
▁Sp aß
▁Kons ult
m ore
▁tack le
▁ange wand
▁day s.
▁Th urs
ac ión
▁lie ß
örder ung
▁bew ält
c al
as er
ath em
▁2006 .
n i
▁Er wachs
▁Intern et.
▁entsp rechen
▁Red _mar
▁Don ner
▁empfehl en
▁Red_mar quis
▁ändern .
▁2 2.
▁Ver lauf
▁dispos al
f a
▁fäll t
r iers
▁v en
▁P unkten
▁K er
▁on going
▁emer gency
▁sus pend
▁h il
▁P age
ieren der
▁Führ ungs
▁M B
▁Arbeit ,
▁ident ified
▁ass ume
▁US S
▁together .
- pro
is ation,
▁An schluss
m ess
▁Sch rift
är kt
▁dise ase
t y.
-S ta
▁protection .
▁thous and
▁P ub
▁L etz
▁ upp
ich ern,
ul ous
▁Ger äte
▁Puert o
im edia
▁demonstr ated
6 7
il ,
▁con stitutional
mer z
▁individ uellen
knü pf
▁C lear
ber ge
▁ge leiste
-D E
▁Per haps
▁BM W
I X
f it
▁eing ereicht
▁2000 ,
▁brit ische
▁angegeben en
ü ne
ro wn
ic kt
▁K ub
ien ted
▁vor genommen
▁p oten
▁A uge
▁k ing
▁disc ip
o fern
▁Sch äden
▁Portug uese
▁Hotel .
▁support ,
▁luxur i
▁Haft ung
▁inst ance,
▁groß züg
▁beste hen,
ätz e,
-L e
▁iP h
▁priv at
▁democra cy,
▁eas tern
an w
▁m ac
hör igen
▁K u
▁ge halten
ierung ,
▁Minister s
▁Struktur en
W F
▁pan oram
re p
▁besch lossen
▁bestimm ter
▁konk ret
▁Ratspräsident schaft
▁d im
▁Red uz
▁liberal isation
▁Engl isch
r or
▁Gegen stand
ar kt
▁star ts
er zeug
▁exper iment
▁Material ien
▁Sov iet
▁intell igent
o ul
enc es.
▁th r
pr ene
gr enzen
▁spiel en.
▁happen ing
▁B ug
▁de cre
▁compet ent
▁S atz
▁fl u
▁st il
▁Ex change
▁ident ity
▁lie gt,
ens wer
▁F A
▁renov ated
▁a rab
▁be wer
in sel
▁Rat ,
▁Führ er
▁appe ared
▁success .
▁rep ly
▁individ uelle
gän ge
▁mad e.
▁beglückw ünsch
▁Provin z
n or
at iver
▁l ots
▁V ene
▁recommend ation
ed s
▁security ,
▁art istic
g ung
▁M erc
▁other ,
p ot
▁a men
▁V AT
au ,
▁Council 's
▁S AP
▁Park platz
▁Sch e
▁b attle
▁Bereit stellung
▁W ünsche
▁In stitut
▁change ,
▁Schw imm
▁lic ense
▁Sing le
▁russ ischen
▁AK P
it im
▁P en
▁mount ains
/ B
d ienste
weit e
▁sens ible
▁Bade zimmer
▁poss ibly
▁every day
▁enjoy ed
▁Fund amental
р а
▁be absichtig
ze ll
gän ger
▁Verbraucher schutz
-Adr esse
erv ice,
▁V el
▁L aut
▁Ph ilosoph
s eite
▁Aus stell
▁199 3
▁I ,
ö konom
▁C up
▁w ünschen
▁beg innen
▁ens ures
▁Gemein de
ik a,
▁cos y
c i
an en
▁S av
▁happ ens
▁trans action
▁Mall or
/ s
▁S omm
zeich nen
▁Is ra
▁Erweit er
m o
▁stor ed
▁erheb liche
be handlung
▁centur y,
▁Ern ähr
▁decision-m aking
▁s amm
▁S ong
▁Verb reitung
▁order .
▁Ob jekt
▁verwend en,
ü ler
▁bo ost
▁Rechts grundlage
▁cour age
▁itself ,
▁d ates
▁part ial
▁7 ,
▁compan y.
fre ien
▁arrange ments
▁M obile
▁prepar ing
it o
ent lichen
▁technolog y,
▁else where
▁über ein
▁mus ical
▁With out
▁experien ces
’ .
an i
▁se ien
▁Genehm igung
A F
▁( for
▁Am ong
▁bew ähr
▁continu ous
-Sterne -Hotel
▁w är
▁be hinder
▁J ap
m ir
stand ards
▁30 .
▁wom en,
▁zusam men.
c ale
or ama
▁aus einander
▁3 1.
▁erfolgreich en
utz er
▁Invest ment
d orf
▁H TML
▁Schl uß
▁Treat y.
▁san ctions
▁E L
uch ten
▁pr ü
▁Ess en
▁Ü br
▁groß em
▁countr ys
▁bed s
▁enh ance
▁tob acc
▁er öff
▁Z usam
▁Ste uern
▁Le on
▁applic ations.
▁ultim ately
▁Thurs day
I ,
▁war ten
▁Amer ikan
▁Wor ks
▁Vers and
▁Verhand lung
▁gef ördert
▁reserv es
▁Zusätz lich
r ical
▁not .
▁T ät
▁F ried
▁perfe kt
▁entscheid en,
t own
▁M ission
▁Kore a
▁magnific ent
▁ с
▁t ests
▁ge plan
▁de ter
▁bl ind
▁Bel ast
asst .
▁you' ll
s hip
▁un its
ot ive
▁S amm
▁Ver n
▁Me ister
wie gend
▁sole ly
f ragen,
ograph ic
▁einges tell
▁R am
▁O der
wer ks
▁Comm on
ium .
iti ative
▁(A pp
▁educ ation,
▁Con c
in os
▁M ov
▁de lla
▁non -s
▁Gespr äche
▁h yp
▁entertain ment
▁Ne ue
▁good .
▁fern er
▁restrict ions
▁Dol om
▁ab ziel
▁object s
▁wat ers
▁Ang st
▁a fr
zie llen
▁Fr on
▁Democrat s
▁e. g.
ul pt
w est
▁E ch
▁l it
▁K om
▁legit imate
▁Vor gehen
▁wes tern
▁Th us,
se hen,
ichte t.
▁S C
▁R ule
▁Rumän ien
▁z one
▁consider ing
▁verantwort ungs
- 8
▁r id
ze igen.
▁Zus ch
▁Holid ay
▁Mus lim
▁Tra in
▁Gespr äch
▁display ed
▁Prinzip ien
▁politic ians
▁Schwed en
▁str en
▁Su ite
▁emer ging
▁nach drück
▁sor gt
-min ute
▁Hostelsclub .
l if
▁( die
▁bis lang
▁fest ival
-A r
▁Vorschlag s
▁month s.
▁staff .
▁Plan ung
▁upd ated
▁sus p
▁elektron ischen
▁l obby
▁no ted
▁gra v
▁Fuß ball
▁W ichtig
▁G ang
▁arbeit en.
▁unver gess
▁Verl ust
▁G B
▁Emp fang
bel ang
e ter
▁H istor
▁Ver ordn
▁war n
oss en
▁Problem s
lehn ung
▁n ations
▁str ik
▁sign s
▁rev ision
▁carry ing
▁Fäh igkeiten
▁all es,
▁exp ansion
▁L ok
pp ed
wend et
▁verwend en.
-P rodu
par te
▁Kap itel
▁collabor ation
▁vor rang
▁meas ures,
▁strateg ischen
I .
▁to ile
▁societ y,
ing en,
▁„ B
▁Drit tens
▁ex ists
▁benutz en
c ision
▁Kon zer
▁genann te
▁We i
▁official s
v an
re l
▁So hn
▁function ing
▁entscheiden der
▁S at
ot ic
▁übern ommen
▁schlä gt
▁an belang
ro ck
teil s
▁gesch ehen
▁programm e,
▁einzig art
▁( J
▁JavaS cript
tell en
▁Bemerk ungen
▁Bl ue
R oom
▁In c.
▁J ob
▁pre ced
▁who ,
▁Verbind ungen
äl sch
▁repor ted
7 7
est ra
▁Roman ia
▁PPE -DE
▁govern ance
▁bro wser
a ire
▁c am
▁su ite
zie hen,
▁Grund ,
▁respect ,
▁konn te.
▁engine ering
/ F
á s
▁l ibrary
▁sh ock
▁Prof essor
▁apply ing
▁kos tet
▁amer ikanische
▁But ,
▁unfor get
▁activ ely
▁opin ions
n ummer
le isten
▁def ect
ival ent
▁passen gers
▁four th
▁impos ed
▁St utt
amp le
▁bestät igt
' A
▁10 %
▁2005 ,
▁betreff end
▁Ac adem
us ter
▁Konk urr
▁solution .
▁H om
▁Room s,
▁forder t
▁peop les
▁T ip
▁tr ifft
▁Agric ulture
ag entur
▁sagen :
d s
▁inter pre
▁subst ances
▁accoun t.
▁in g
▁Th ail
ach ing
▁dr iver
▁ö konom
▁me at
or en.
i )
on ic
▁Er stellung
▁20 %
▁sim ult
▁oper ators
L O
▁ ·
la im
▁Regierung sche
iz er
▁bo ot
▁Part nern
▁r ental
▁hab it
ign et
▁Ch o
▁AC P
▁extraordin ary
▁H ost
▁kon front
▁minor ity
▁prov en
▁Str as
▁contribution s
▁Ch arta
▁6 4
▁beit ragen,
▁for um
▁le ichter
▁Minister präsident
ib en
▁Char les
▁Frühstücks b
p rechen
▁Bet racht
▁contex t,
m ung
ug en.
▁Tra vel
▁character istic
f ällen
▁W ater
or ia
▁Aus flü
▁Problem e,
▁Or ient
▁communic ations
▁satisf action
▁genü gend
▁G olden
▁R ab
▁st ake
▁sk ill
▁Eff e
▁declar ation
r im
or b
▁M ade
bed arf
▁Kü hl
▁W omen
▁L ook
▁man ual
▁Ad dition
: 5
▁S icherung
ent h
▁Sch on
▁Pro p
▁vor anz
▁um geben
▁T ochter
▁Mr .
▁Nach halt
w ise,
▁B ett
▁quality ,
▁slight ly
▁abs ence
▁necessary ,
▁sug ges
▁Kir k
st es
▁P fer
ach te
▁ge ziel
r y,
▁sol ches
▁schütz en.
▁Zyp ern
e ing
▁Pl attform
loss enen
▁pre -
▁lok ale
▁Vereinbar ungen
est .
eschä tz
▁book s
if ies
▁art ist
▁g ese
▁perspect ive
▁delic ious
▁weit gehend
▁spec ified
jen igen,
▁c ul
▁S ind
▁T reib
produ kte
▁amb ition
-re lated
▁Erhol ung
▁Ge hm
▁Grund s
▁necessary .
r ück
▁ ice
▁Mr d.
▁pl ays
▁Sk i
▁stre ets
▁Pf licht
▁Untersuch ungen
▁ent rance
▁There fore
▁tradition elle
▁democra cy.
▁re lie
▁An stieg
▁J ung
▁läuf t
▁aus geb
wend ungen
▁tra demark
rech ter
▁thing s,
▁mittl eren
act ory
▁St or
▁me .
▁to urs
▁führ te
▁event ually
▁offiz iellen
▁fert ig
I K
▁P utin
ol i
▁Be ge
▁Treat y,
▁H aving
▁über wach
schl äg
▁spok e
▁b urn
▁colleag ue
E .
▁in .
▁you ’
▁app ointed
▁imp ose
▁Augen blick
l ight
6 6
ile .
▁condition s,
▁fil ter
▁school s
▁Hard ware
ge hens
▁Sp ace
ym pt
▁lab el
▁in mitten
▁will kommen
▁D ritten
▁P otenzial
▁Fest pl
▁record ed
fun ktion
e ktor
an b
▁L i
▁Wider spruch
▁Wash ington
-P r
▁well- known
▁St ill
▁Ser ie
US S
▁ey es
▁Arz neimittel
all ,
-V ert
▁res ident
▁ro of
▁Mich el
▁W äl
▁F rie
▁on line.
▁r ight.
k ultur
▁l ernen
▁comp lement
ichte te
▁person en
▁don e.
▁spok en
l ink
▁„ E
- 9
▁comp let
ro v
▁Kon figur
▁25 .
▁setz en,
un ction
▁l unch
▁Bürger ,
f angen
▁hin weg
▁akzept iert
▁nar row
▁(ES )
▁in fr
▁A qu
▁G ö
▁regard ed
▁Übergang s
▁rece iving
▁n örd
▁C F
▁ins ist
P C
▁G i
▁do ,
▁sur ve
▁Besch wer
le ute
▁Form at
▁Verletz ung
▁Frau en,
▁übern immt
▁französ ische
▁MEP s
▁b ann
▁t ast
▁off ices
▁kn app
ichte t,
▁Schluss folgerungen
U )
▁en abling
forder ung
▁stay .
▁Third ly,
d ire
is ation.
▁K a
▁Notwend igkeit,
▁einzig artigen
▁Eing ang
▁e ast
-Str ategie
▁authent ic
b rech
▁Kommissar !
▁mess ages
▁b atter
ar tet
-E r
▁wunderschö nen
▁Vize präsident
▁con stitute
▁sie ,
p on
y ll
ab et
▁exec ution
▁Sch le
▁ele ctor
▁cas h
ul ations
▁all zu
▁bas iert
▁real istic
▁Far be
▁niedr ig
▁diskut iert
▁acknow ledge
▁s aving
▁j ung
ip her
▁Al ger
▁Gewähr leistung
▁Er füllung
▁gl ück
▁för dern,
LA F
▁Mit tag
▁Donner stag
▁Aus stattung
▁Sonn tag
▁l ’
reu ung
▁t end
▁expect ations
▁refuge es
▁W issens
▁R ena
▁letz ter
▁co al
hl en
▁sehr ,
▁viel es
▁Her bst
▁man ag
▁letz tendlich
▁Vor aussch
▁At tra
▁dr ugs
▁Verz öger
▁Unter nehmer
eschä d
▁P fe
▁Pro di
zü ge
ro g
ud i
▁Reduz ierung
T C
u ite
▁P il
▁propos es
iv a
▁tex ts
▁An alys
▁„ M
▁found ation
▁Res olution
▁admin istr
▁Krä fte
▁indic ated
iz za
▁character istics
▁Dom in
▁remov ed
▁Zwe cke
ne x
techn ologie
▁kil omet
ü gen,
ro ,
▁P SE
et s,
▁entste hen
att en,
▁Cons ult
▁erfüll en.
▁beschäft igt
▁Swed en
▁erst mals
ES CO
▁Situ ated
in ux
▁Ab kommens
▁rep ut
▁decis ive
e hen.
ad a,
ugh ter
▁sozial er
▁Dar um
▁gain ed
3 2
▁F ass
▁k reat
▁bek ommen,
▁Polize i
▁M ak
▁klar en
▁auf genommen.
▁encour aging
▁Mik ro
▁K ünst
fl ow
▁Comm itte
▁char ges
▁W ählen
▁de pendent
▁j apan
▁ge zogen
▁mil es
▁kil led
▁fed eral
n iveau
politik ,
▁Arbeitspl ätzen
bezieh ungen
▁you' re
▁S n
▁comp osition
▁w rote
de hn
▁resolution ,
oc kt
▁deb ates
lichkeit ,
▁Stad t,
▁sicherstell en,
▁sch we
▁min i
mb uds
▁angen ehm
▁Min i
ier n
▁direct ives
▁hil ft
▁(App lause
▁( In
▁resul ts.
▁m unicip
▁st ütz
▁J os
▁pl astic
▁defic it
▁g ap
op olit
▁könn ten,
▁form ed
▁foot ball
▁w ireless
ud es
▁ans wers
▁over come
▁Ger ade
re geln
▁l iquid
▁art ic
▁pie ces
▁AN D
j pg
▁staff ,
▁bevor zug
▁we ist
▁entwick eln,
▁b erechn
▁Krank heiten
▁acknow led
ie ten.
▁Wel tw
▁Kop enhagen
▁tw enty
▁Glaub würdigkeit
▁install iert
▁App le
▁Chin a.
▁zukünft igen
em it
▁le gt
e. ..
x y
-E n
▁bezie ht
▁indire ct
▁B ased
▁advert is
▁Satur day
ad vant
▁Bud d
▁bre iten
▁ret ail
▁webs ites
▁Cont ent
▁rad ical
▁H under
▁tran qu
▁Im age
▁gel angen
▁Trotz dem
▁compar ison
▁verwend et.
▁v ary
▁P or
▁Ident ität
Ü ber
▁( und
▁bre ach
▁Liefer ung
▁Minder heit
▁mand ate
▁leis ten.
▁Ge fahren
▁exc urs
▁K abel
▁Or te
os ing
ob b
▁Am t
▁Bro wser
un ktion
res ident
▁Ger ät
▁umfass end
ur teilung
▁ob ser
▁just ified
▁führ ende
▁exam ine
u es,
la ut
▁durch schnitt
▁sc al
aus piel
a ue
▁" s
▁fe e
▁inv ited
▁gek ennzeichnet
h ilf
▁Verein fach
▁akt ive
▁E mb
▁H at
▁custom ers.
▁Investition s
▁purs ue
▁an gesehen
ut age
D )
op en
wer ts
▁(Be ifall
▁F a
be ll
▁optim ale
▁lik ed
▁Eigent um
W e
▁t on
▁belie f
▁vorgesehen en
▁upp er
▁All tag
▁infl uen
▁Wider stand
uch s
▁Wer bung
zure ich
▁ex it
ian ischen
▁möchte .
-cl ass
▁institution ellen
▁attemp ts
▁volunt ary
▁Late Room
▁maintain ed
▁Mobil ität
ol es
hand elt
▁Comm unic
▁direct ive,
▁verfüg baren
к о
▁to ,
▁st ation.
▁des cription
▁bar s
▁G ames
▁Pr äsent
▁her gestellt
▁position ,
D ie
▁con cluded
br id
▁Nether lands
3 7
8 8
▁vac ation
▁Re f
▁(E L)
▁Son ne
▁W etter
▁se he
mit glied
dr ückt
▁beg leit
▁group s,
k ore
▁E S
▁strateg ies
▁nah m
▁z ählt
▁Um satz
▁Ziel en
▁entre prene
▁ge legen,
▁beein trächt
▁sh ares
▁an schließend
▁über sch
▁inter v
▁superv ision
р о
▁Freiz üg
▁Zür ich
▁ac adem
▁Wer ke
▁veh ic
▁des ired
▁vor schlagen
▁solution s.
▁function al
r ik
▁lau tet
▁dire cted
it ale
ie ller
▁C atal
▁propos ing
▁bedeut ende
▁präsent iert
▁Kont rollen
-con dition
-Te chn
▁Apparte ment
▁Kl ass
▁the me
dr ich
▁S terne
▁F ein
▁entwick eln.
▁Mill enn
▁und oub
▁j ener
/2 000
▁ab zusch
▁Er lebnis
▁dis advant
▁künft ige
▁(C hrist
aler ie
▁Jose ph
▁an g
▁D res
▁r é
▁tax es
▁f as
▁entwickel t,
St ar
▁verhin dern.
it able
▁Entlast ung
ö ch
▁care er
▁ren owned
ens wert
▁ange hör
▁l ösen
▁as p
▁pay ing
▁Fahr zeuge
▁budge t,
▁centr es
u en,
▁man ip
pos ition
▁ra c
▁trans mission
N A
w ater
▁Je w
▁Sor gen
▁oblige d
# 160
d urch
▁w elt
▁gener ated
▁Rück kehr
▁wissenschaft liche
#160 ;
▁Ab fall
▁great ly
▁hospit ality
' ll
▁lie ber
▁design ,
▁speak er
▁Pol y
▁hard ly
▁größer es
T V
is es.
ungs system
▁excess ive
▁K amera
▁k ern
▁Gef äng
▁or ,
▁Berichterstatter ,
▁Fle isch
-Gen eral
u ven
▁Vor der
▁gehör t,
▁Phil ipp
▁Übern achtung
eit er
ard o
▁gew ählt
▁Russ ia,
▁Ger ichte
▁Par is,
▁hier bei
▁geb rauch
▁look ed
▁prevent ing
▁Tai wan
hr t
▁V ort
▁ver lie
▁rel ative
▁pool ,
▁verurs acht
▁ref ers
▁( 7
▁de fe
▁St ability
o ured
an spruch
▁T R
▁Mitglied schaft
▁ermöglich t,
▁week end
▁illeg alen
▁Schön heit
at in
▁Ver hält
▁have ,
igkeit en,
▁R uf
▁furn iture
v iertel
z usammen
▁W ed
ug ang
▁part ies.
▁K laus
▁Er gänz
▁com pe
▁erklär en,
g s
ot en,
▁ge he
▁man che
▁gen ere
▁News letter
ystem s
staat lichen
▁Slo ven
ö d
▁ein st
▁contact s
▁Bedro hung
▁Im port
her ,
▁act ing
▁production .
▁w enden
▁par ents
▁bisher igen
▁E X
▁r ate.
▁hom e.
▁Pass wort
▁simult ane
▁themselv es.
ent ions
au x
▁Social ist
▁pain t
▁o u
▁dat a,
▁UN ESCO
▁Pro jekten
▁can cell
gre g
▁erforder lich.
em ark
▁K orre
▁conf ig
▁Tra um
▁We ise,
▁(A 5-0
▁sug ar
▁contrib uted
▁super ior
▁Anw ender
▁Män nern
▁Vide os
igkeit .
▁no vel
▁kle ines
▁Vorschlag ,
▁arr ived
comm unic
▁fasc in
▁jur is
▁welcom es
I CH
p fl
if ferenz
▁Vor gehens
▁imp lic
▁un zureich
el te
▁unter such
▁leg ally
▁spezif ische
▁inklus ive
▁ge pl
▁Sch nell
i ang
▁Kommission spräsident
▁val ley
▁prin ting
▁negot iating
▁bit ten
▁s en
▁an gest
▁sub sequent
trag en,
▁199 1
man ,
re in
for dern,
▁personen bezogen
: 4
▁M A
▁M ü
▁( RO
▁Al b
▁Weit eren
▁vorgeschlagen e
ie gen
dem okraten
▁Gehm inuten
▁I V
▁beste ht.
▁(w ith
er ie
▁Ital y,
▁Mitgliedstaat en.
1 ⁄
▁region s.
ess en.
ce an
▁Gleich stellung
▁mur der
▁t ank
▁S ob
▁D än
▁Gesch windigkeit
▁g ard
▁Sa ison
niss e,
▁People 's
l ings
▁Politik en
▁Chin as
▁O ste
▁2004 ,
▁des erv
▁fin ished
▁h es
ak e.
▁Qual ity
▁transport ation
é ,
▁V alen
▁sh adow
▁" In
▁As ien
▁Gen ießen
▁wat er,
▁R od
un ruh
ist an,
▁rec y
▁De ck
▁langfrist ige
▁Merk mal
h at
▁ ere
te ch
▁As ian
▁gewähr leisten
▁M iß
▁er ör
▁Webs eiten
▁period .
▁Text il
d auer
ed e
▁( *
▁origin ally
▁th erap
▁an hand
▁C R
▁hand le
-F orm
ier a
▁auf gebaut
▁Se v
▁inter nen
▁growth .
▁anerk annt
▁electric ity
et ic
n utz
ere ,
▁4 4
oph istic
▁Mor oc
▁cop yright
▁ergreif en,
▁G ame
itu ation
mitteln .
▁over view
▁H ot
▁introdu cing
y an
ain ed
sp olit
▁bei .
▁Ab schaffung
▁colle cted
▁Do es
▁E uch
stand ard
▁Haushalts plan
▁remain ed
▁Play a
▁sogen annten
ger ,
▁C AP
▁Vor stellung
▁8 5
is ed.
▁Sh ould
▁Volks gesundheit
w affen
▁non-s m
ie le,
▁G üter
▁conc er
▁Energ ien
▁S E
▁198 9
or se
▁l äß
▁Con f
▁D ikt
geb racht
▁Berlin er
▁Sch rif
▁sustain ability
▁spl end
▁t emp
▁C ivil
ver sch
gr unde
▁ges te
▁Cons umer
ussts ein
▁b ird
▁N av
zie le
am .
▁sp ons
öff nung
▁function ality
▁C ulture
▁Ein fl
▁port ug
▁n ord
▁B ab
▁Gro ss
▁enthalten en
▁zukünft ige
▁An kunft
▁pol y
▁Beschl üsse
v ar
er er
▁bet ont
▁All es
▁Webs ites
nit ten
▁configur ation
- friend
g al
em m
▁St amm
▁cover ing
▁Sund ay
▁B all
el be
we chs
▁at trib
▁mensch liche
▁Ans ichten
▁poin ts.
▁field .
▁ed itor
▁Commission ’s
▁Auf sichts
▁resolution .
▁Erzeug nisse
kont rolle
▁rep air
▁P os
▁brauch en,
▁so ught
▁comp act
▁Ex istenz
▁prüf en,
trie ben
▁se qu
▁Secret ary
in y
▁bed au
▁besonder er
▁moment ,
th and
folg ung
▁bro ws
▁refle cted
▁Kompon enten
▁ausges prochen
a al
o -
▁sch äd
▁Fahr rad
▁Gesell schaften
▁(S V)
▁Verhand lungs
▁firm ly
polit ische
▁militär ischen
▁Möglichkeit en,
▁Finanz ierungs
jen igen
ugg age
or ation
tr it
wir ken
▁mod ule
enk en.
gel assen
▁ange künd
▁mult ilateral
▁research ,
verb rauch
sprech en.
▁S ammlung
▁is lam
▁z ivil
▁con ce
▁Fot ograf
▁enhan ced
▁incl usion
▁incre d
▁resour ces,
▁facilities ,
w issen
▁him .
ipf el
▁atmosphere .
usal em
way ,
▁Markt es
▁treat y
▁ и
▁s enden
ach er
-M od
▁einge halten
▁ord inary
st al
▁growth ,
▁bleib en,
▁vorgesch lagen,
▁F ünf
▁pre t
a ustausch
▁zu grunde
▁ent standen
▁control .
ommer ce
▁darstell t,
▁k itch
▁war rant
AT ION
▁direction .
▁Premier minister
b il
▁in ev
▁L ern
▁Mein es
▁sure ly
▁ing red
▁4 2
▁del iber
▁Qu ad
▁indic ate
on i
ing ly
ann t.
▁bed ank
arm a
-A us
▁comb ine
ränk ung
▁manufactur er
▁ag gress
fl äch
▁Bevölker ungs
▁gel ungen
hol ders
▁ann ivers
▁langfrist ig
▁dish es
▁regard less
▁Met ro
izien te
▁organiz ations
et a
▁über wind
▁verfüg bar.
▁propert ies
▁histor y,
▁Wohn ung
▁pow er.
▁conflic ts
▁Cor porate
y ner
▁v it
ed y
▁erklär t,
▁st ations
▁teil en
▁br ight
▁suffer ed
st en,
▁P S
ier ra
▁ar ran
▁compan y,
▁umfang reiche
▁Luxem burg
ent liche
▁P ac
fü gt
▁stand ing
▁Weg ,
▁vorlie gende
sch iff
▁R E
▁us ed.
▁X P
▁wirtschaft licher
stra fe
enc es,
▁Chanc en
▁h art
op f
▁Fahr t
▁vulner able
▁c ra
▁hat ten.
▁off ene
▁transport ,
▁St immen
▁First ,
▁qualit ativ
▁( 0
▁Sch üler
arbeit et.
▁restaurants ,
▁M ah
iv ely.
▁pr ices.
▁19 60
oz i
are ,
▁Haupt bahnhof
▁States '
▁cooper ation,
▁rapid ly
▁Bemerk ung
U P
ach sen
▁inform ieren
▁syn th
▁well ness
▁ende av
U B
▁Met all
▁D or
▁ è
▁H alt
▁Ver arbeitung
▁cost s.
▁gemeinschaft lichen
▁L ith
▁N avig
pp ing
pla ce
▁EU -B
▁tim es,
bek ämpfung
▁hervorrag enden
▁pr ime
▁Über legungen
▁(RO )
▁reach ing
▁prakt ische
▁ähn lich
in o,
os is
▁Ein wohner
▁L it
▁he im
▁group s.
▁EZ B
ö tz
▁C OM
▁rest ric
▁tim et
▁bekann t.
▁Tab ak
▁jetz igen
ugos lav
▁Intern et,
▁staat liche
▁vor gese
▁en jo
eit igung
▁K en
▁L obby
▁transpar enc
▁Bulgar ia
▁inf o
k ampf
▁S zen
▁re chten
▁ver folgen
▁where as
▁interess ant
▁militär ische
ist ischer
fin anz
▁perfe kte
▁show ed
▁Terr itor
▁Fakt oren
▁satisf y
▁romant ic
▁L ohn
▁Ab lehnung
▁real ise
3 6
3 8
▁gegründ et
it es,
▁z it
▁C oll
ence .
▁Zusam mens
as ters
▁Me eting
▁zurück zuführ
▁Ge werk
ement s
▁[[ D
▁ho hem
▁enc ounter
▁schrift lich
▁entwickel te
▁conne ctions
▁gewünsch ten
wahl en
r ates
▁t ill
▁m i
▁F els
▁turn ing
▁Städ ten
▁stell te
▁bek ämpf
weil en
on st
▁A S
▁R io
▁H it
ad d
▁N ummer
▁fil led
al ing
qu enz
▁Vor lage
▁Art ik
▁transfer red
▁Abhäng igkeit
▁c rop
▁mehr fach
▁Res erve
crib e
bit r
▁B rief
▁contr ary,
j unkt
gr enze
▁proced ure.
▁gener ate
▁wider sp
▁Aufent halts
▁Bef ür
▁Cap tain
hl t
eld orf
▁wom an
▁handel t.
ger äte
▁Geschäf te
▁bank ing
▁hochwert ige
▁s ophistic
▁23 .
▁cast le
▁m igration
um ber
▁r ight,
ain e
sparte i
ist ent
▁Ar t,
▁polic ies,
▁repr äsent
▁Trans fer
▁t ested
▁en ger
▁resolution s
ra cy
icht en,
je ktiv
▁alloc ated
information en
▁H els
la c
▁strateg ische
- 7
▁s qu
▁Bet reiber
▁Entscheid ungs
rieb en.
▁C ON
▁erziel en.
▁Ham as
▁gross e
▁hor se
▁ §
▁An lass
▁erh ielt
▁Croat ia
p read
▁pass ion
▁Spe kt
▁inde ed,
▁geze igt
▁Repr esent
▁Geb urt
▁believe ,
g ner
▁t ab
▁be .
▁F R
▁k ünstler
den ken
▁ex ternen
▁einfach er
▁Prot ocol
▁Islam ic
▁.. ...
il m
▁le aves
▁geword en.
▁ver schaf
gel aden
▁Seit e.
▁Pass ag
▁t ickets
▁v ig
▁über aus
be f
▁weit er.
ES S
▁tradition s
ES T
▁schütz en
▁f u
us t,
▁B ö
▁besch rieben
▁wom en.
▁lands cap
▁or ig
▁en em
▁Berlin ,
▁chann el
▁Konsequ enzen
ie val
▁H ann
▁A u
▁dec ad
▁month s,
▁2005 .
or ous
▁Sie d
-- --
▁hostel s
- 6
▁pro min
▁forth coming
T H
et o
ay a
▁a er
ag on
▁Ein richt
▁mach t.
▁Welt krieg
ü mer
▁die d
end ar
▁special ist
▁T ok
ahr t
▁Rich ard
▁Johann es
▁b omb
res erv
▁man aging
▁Famil y
j an
st ab
▁st ret
▁ähn liche
-P resident
▁reflect s
▁Pia zza
▁undoub tedly
▁r ising
▁ch amp
▁erk ennen,
▁mil k
▁Hoff n
▁festgeleg ten
▁cal m
▁Par ad
▁min imal
▁führ t.
▁be urteil
▁St att
▁aus ser
out ique
▁any where
▁present ,
wart en,
▁Ein stellungen
ück sichtigen
ksam keit
k et
▁O mbuds
▁j enen
oun try
▁erweit ert
u age
one y
▁organis iert
▁Will kommen
I O
▁Position en
▁Amb iente
▁sugges ted
▁rel iability
▁won ach
▁Br un
▁recon struction
▁in eff
▁town s
▁korr ig
▁S olution
▁R out
▁st olz
▁“ S
org ungs
▁et abl
it arian
▁Schl ag
▁var ied
▁entscheid end
▁bedeut end
▁anz ub
al us
▁th es
▁unter lie
▁Fre unden
▁erst klass
▁verbess ern,
iov is
▁sh ipping
wirk ung
▁pow er,
c ol
▁se vere
▁überprüf en,
iv als
ess ,
ag en.
▁unabhäng igen
▁st uff
kt ure
▁ver he
▁Program men
▁le it
▁Komp lex
▁ant icip
▁th umb
▁it ’s
▁J a
▁hoff entlich
▁in ade
▁dis abled
▁hon est
▁cooper ate
▁he aring
▁hand eln
▁Frid ay
besch reibung
y th
▁( see
wesen heit
ess ions
ix el
läss lich
h ir
▁a .m.
▁Män gel
▁nieder länd
ak ers
▁Ma z
▁reason s,
▁natür liche
▁Y ugoslav
▁International e
▁portug ies
▁H on
ul en
ul se
▁gen ehm
▁Groß teil
▁univers ity
▁Flor enz
▁Kontin ent
▁z iel
der ung
sp artner
▁Be wer
▁Profession al
▁symp ath
▁T anz
▁energ y,
▁24 .
f t,
ü chte
▁w alls
▁to .
▁Leit ung
y ss
▁S achen
▁ch a
▁stat istics
▁Strateg y
▁pret ty
▁n one
▁G ay
▁Sektor en
▁does n't
▁Fall ,
▁health ,
▁Lux us
▁distrib uted
▁resist ance
▁Wei hn
▁less ons
▁industr ies
▁contract s
▁Hand lungs
▁Urlaub s
▁Allian z
▁infr inge
▁m at
▁person nel
▁Aus einander
▁Pla ce
▁me al
▁dec ades
▁Mark e
▁mult i
an ter
ne cess
lin ed
▁bran ch
n bsp
▁f ax
ut ral
ap ital
▁Gemeins ame
ch t.
▁every where
▁mon opol
▁strateg y.
▁Gef angen
▁unforget table
▁Kont akte
eff izienz
▁Ol iven
▁ent deckt
ru pp
▁over looking
▁zurück ,
▁transport .
▁for .
M A
glich er
ions hip
▁Sil ver
▁T ausende
ak zept
▁Gr ünen
val u
▁Option en
herstell ung
▁CH F
▁E V
▁market s,
▁All ah
▁belie ves
▁komplet te
▁( wh
▁19 th
▁Y es,
▁gu ard
use um
▁zie hen.
▁ernst haft
▁auf s
▁Re ferenz
▁hier für
▁organ ic
▁erlä ut
▁Mar c
▁Ä ußer
▁human itäre
fert igt
▁(Applause )
▁ ält
▁to ward
▁trave ll
▁genieß en.
▁wirks ame
O C
▁Konz ern
▁I F
▁event uell
▁address es
▁anwes end
f ield
▁in e
▁sh arp
▁Le iden
find en
▁Cop enhagen
-the -
w ähl
▁m ith
▁sich ere
▁Jahr en,
▁ges undheit
re ifen
▁Al kohol
stand en,
▁Wik itra
▁adap ted
▁S old
▁Aus blick
ühr en.
▁Ph än
▁Bild ,
-s cale
s e.
re ffen
▁sh aring
▁lauf enden
▁underg round
▁don ’t
▁K och
utz utage
ame ters
▁max imal
▁interess iert
▁neighbour ing
▁st ru
ian ,
▁Fr ist
▁air -condition
we ge
▁ber ücksichtigen
p ay
▁ro ut
▁need ed.
▁fem ale
aut en
▁rest ore
▁offen bar
▁ent täus
▁appro ve
▁Herk unf
▁Wi-F i
p en
▁Sch auspiel
▁Comm un
▁2003 ,
- or
m aschine
▁v ic
▁R ail
▁C e
▁Be ide
▁kein em
- 10
▁B ru
▁W ould
geb ä
pro gramme
-A l
b aus
▁B our
▁Über blick
▁Bild schirm
▁imm igr
quis ite
häus er
▁(Beifall )
▁Freizüg igkeit
▁ed ge
▁Schwar z
▁D .
ach ts
▁Pro cess
▁Sp itzen
ble me
▁Ad d
▁concentr ate
k ret
▁g allery
▁aus gesetzt
▁loc ation.
▁contin ent
▁V ul
age ments
▁dis ag
▁ber uh
▁mehr ,
▁cy cle
▁protection ,
▁Description :
▁W E
▁Lat einamer
▁techn iques
▁fra me
▁princip le,
▁Sad dam
▁Wikitra vel
▁le iden
▁sp ann
▁employ ment,
▁Den mark
▁welcom ing
▁einheit liche
▁G erechtigkeit
▁beach ,
un ge
▁Ver teilung
▁akzept ieren
▁panoram ic
v i
▁man ager
▁stim ul
▁m ächt
▁I ron
ot yp
▁document ation
▁So f
▁unterstütz t,
é t
▁A st
▁Er schein
▁end ors
▁cre w
▁Ein kommen
▁end orse
▁never theless
▁sag en.
▁histor y.
▁em pt
▁Di am
▁hin gegen
▁Sw imming
▁tour ists
ü gen.
it ate
▁p rag
▁ge pf
▁über rasch
▁gesch rieben
▁juris d
& B
as ion
ig ger
▁Politik ,
▁Sk y
▁frü hen
é es
▁v .
▁K öl
oc op
▁cal c
▁approach .
▁rul es.
▁M äd
ers '
e hen,
▁K ürz
▁form .
▁Mon itor
▁competition .
▁Straß burg
ik i
▁Le ip
▁normal erweise
▁tobacc o
▁l ounge
▁des wegen
▁V ie
▁prov ince
▁region s,
▁2004 .
▁fas zin
[ [
▁sel ber
▁necess arily
▁job s.
k ö
▁ge geben,
▁Arbeit geber
▁cr imes
▁recogn ized
▁umfang reich
▁pictures que
ver anst
▁komm e
▁Fran zös
▁production ,
▁d ollar
pl ans
▁Ungar n
▁z ähl
▁beg onnen
▁glaub en
▁Prakt iken
▁h et
icht ung
▁infl ation
jahr es
▁Veränder ung
▁( a
ste ,
▁Sam stag
▁Som it
▁g olden
▁cl in
▁Voraussch au
c ow
▁se a.
▁sup erb
▁garant ieren
▁mittler weile
▁tra um
▁Lou is
at on
▁te a
▁Des k,
▁Wel thand
▁Minister ,
▁erstell en
▁therm al
- on
u i
ction .
▁jud ge
▁hingew iesen,
▁Ander e
▁Gaz a
▁cont rovers
▁Now ,
▁gesetz lichen
st ens
end e,
▁management .
▁hinzu ge
� n
▁E F
▁de i
▁sch afft
▁Frei heiten
▁erst re
▁sel ben
▁sett ings
▁b uch
▁gew innen
freund liche
ur o
▁S ich
ier .
▁Ä gyp
▁Ide al
▁be we
▁" ,
tre ten.
k re
▁Sc ience
▁produz iert
▁c in
▁un ten.
▁do ctor
▁Grund lagen
▁selbst ,
▁Lie b
▁hour s.
▁arrange ment
▁geänder t.
▁de gre
B C
▁F isher
▁ver ändert
än z
▁Be aut
▁Q uellen
▁ver schl
▁Mitarbeit ern
▁wind ows
▁traff icking
▁Gefahr ,
▁D aten,
▁C S
▁te ile
▁3 9
▁ep is
▁W icht
▁R oth
▁Min ute
▁beach .
mitt lung
▁We il
▁gew onnen
▁normal en
▁Ke y
▁Öff nung
▁highl ights
▁türk ischen
▁Expl or
/ i
e per
or ies
▁guest s.
▁Lab our
▁ver h
▁Er sten
▁ind ustrie
ode x
w ig
▁F ang
▁Bl u
▁A str
▁ist :
▁met ro
▁subsid ies
▁trave lling
▁un necess
ah e
▁J .
▁dank en
▁auf bau
▁Wähl er
▁M ie
▁Ne xt
h ers
sequent ly,
▁Sing ap
▁weap on
atur es
▁interpret ation
▁permit ted
▁b ul
▁ste uer
▁dist ort
ier te,
PE G
▁elekt r
▁MP 3
athed r
▁Tät igkeiten
▁Kolleg in
▁hör en
f allen
u led
▁ein sch
▁Al bum
▁deut lich,
▁w ides
▁H aben
▁14 0
▁besch lossen,
▁Res ult
i ad
ber at
▁tra ged
▁schw eren
▁gross en
▁Custom er
▁Frie drich
▁b la
▁Er haltung
▁lie fert
▁group .
▁invest ors
▁T icket
▁F an
▁Spain ,
lin e,
▁legisl ation,
▁Aktion splan
ak e,
▁le ast,
▁activities ,
▁H IV
▁J on
▁8 ,
▁Punkt ,
f o
▁A ben
▁Ver gn
ction ,
olog ien
▁zu ges
acht en,
leit er
▁Belg ian
▁Bulgar ien
f t.
▁in fe
▁R ic
▁begr ünd
▁refer ring
▁Außen minister
▁firm s
▁unmittel barer
zog en.
-Vert rag
▁t ort
▁in com
z ur
▁Vor haben
ches ter
▁Sub st
▁F öder
gen ommen,
▁er folgen
▁loc ations
▁Mehr werts
ifik ation
▁Elekt ro
▁supp lied
▁leb en,
gebie te
▁st ick
▁überzeug t
▁in con
▁Ver lag
- off
▁Pl us
-E in
▁gegenwär tige
▁lauf en
h üt
▁c ategories
mit glieder
▁hold s
▁digital en
▁h ung
uf fer
▁Tele kommunik
▁Frankf ur
▁p ilot
▁un gar
▁K amer
▁Verfüg ung,
H O
▁cons ent
▁Kont o
▁Katastrop hen
▁m üß
teil t.
V O
▁ver hindert
▁gut .
▁Hels ink
f ox
om an
pp er
▁komfort able
▁Rezept ion
K T
w issenschaft
u um
▁Re ad
▁good ,
▁resour ce
▁adul ts
▁Pl äne
▁dann ,
▁prof ile
▁equ ivalent
ness .
▁examp le.
▁Ho he
▁Satell iten
/ N
rat s
▁lay out
▁Wiederauf bau
b ran
▁B A
▁g eschätz
▁l iable
▁nachdrück lich
▁N ero
in burg
▁un us
▁A ch
umen te,
rieden heit
▁Nor mal
▁darstell en.
▁ändern ,
▁is lands
▁minut es.
▁A ven
il a
▁week ,
aß t
▁upd ates
▁v irus
▁present ing
▁eng aged
▁anbelang t,
p aket
▁Zahl ung
fäh igen
▁mar g
▁enor me
▁Vice -President
▁geeig nete
▁l ived
▁den ken
▁Al ters
▁ausge führt
▁Aut onom
gesetz t.
▁an p
▁Re z
▁Be ll
▁W a
▁d abe
▁c art
▁ol ive
st ark
▁se lling
▁comp os
▁Reg ister
▁day s,
us ing
▁S ierra
▁P L
▁F al
▁wor st
▁Mod elle
▁enable d
▁Atlant ic
▁ung laub
z enten
▁e at
▁deep ly
E X
it es.
▁I R
▁ein bezogen
▁Be wert
äum t
▁länd liche
▁Euro zone
▁Wesent lichen
h ous
w id
ad en,
▁Bes eitigung
is es,
ag og
▁enter ing
▁dür fte
▁occur red
▁klass ischen
▁amaz ing
▁m aler
▁conc ert
y on
▁F uss
▁Eas y
▁Kaffe e
▁Bör se
▁such en,
▁comb ines
▁Got tes
▁d ial
ad en.
▁se a,
▁rapporte urs
▁geograph ical
▁Mon ten
▁UR L
h ungen
▁question s.
▁sl op
▁unabhäng ige
ibl en
í n
un te
▁B ig
ir s
tw ick
▁Hoch schul
▁ec ological
u hl
▁learn ed
▁(H -0
▁I' m
▁griech ischen
▁un w
▁B org
▁K atalog
▁Jer usalem
ü m
▁b ug
▁0 7
▁stre am
▁confirm ation
uf ficient
bar es
▁nat ure,
▁Dar stellung
▁Or t,
▁„ P
▁term s,
▁Drit tel
▁p ast,
et en,
▁for got
▁sich eren
weis ungen
▁Sicherheit spolitik
▁Hö chst
▁Rei hen
et ch
▁Kon zentr
▁Imp lement
k ir
▁Er m
▁ar ising
w all
▁( oder
▁Version en
▁intend s
▁be ,
▁Energ ies
lös ungen
▁perm ission
▁S ymp
sp rachen
▁Sta ates
▁Regierungsche fs
▁Zu verläss
ograph y
▁Kroat ien
ü cht
ar c
▁( 9
▁An hör
▁political ly
▁ge prüft
▁Im mer
▁ger inger
▁pract ice.
▁Befug nisse
ing s,
▁add s
▁China ’s
▁Min ut
▁Em issions
▁norm ally
▁Registr ierung
▁Z auber
▁Gal ile
▁er sta
ze g
▁fund ament
▁defin iert
-W e
▁fant ast
’ ,
▁v ine
▁C la
ck en.
▁fest gestellt
▁require d.
▁meet s
▁employ ment.
l or
R e
▁Bon us
▁ab schließ
wer ken
äch er
▁list ings
▁erreicht .
▁ful f
▁Prag ue
▁st unning
▁Aus gleich
▁Res idence
▁Mag az
▁Nachhalt igkeit
▁un ited
▁F ü
▁(1 99
▁EC B
- and
▁k ämpf
erm ann
arbeit ungs
▁besch ließ
▁lat er,
▁aud iovis
▁herr lichen
▁Ander erseits
em on
ag t,
▁integr ierten
▁M ake
▁health .
▁richtig ,
▁expla ined
▁p ast.
▁C lin
▁( U
▁Erinner ung
▁dabe i,
▁an zus
he iz
e hmen
▁Be arbeitung
▁" J
ph a
▁verhin dern
▁T ennis
▁O N
▁Sch icks
ru ckt
▁represent ation
▁bar ,
▁Zivil gesellschaft
▁so unds
ichte ten
▁bekann te
▁concep ts
ak a
▁Wirtschafts politik
▁stärk ere
-w ide
▁kü mm
▁ev ident
▁lie gen.
▁bie tet.
▁business ,
▁Ad v
bestimm ungen
▁Perspekt ive
' re
T .
▁d up
▁J ur
▁neg ativen
▁prom pt
▁fra ge
▁D rei
▁O bst
▁project ,
▁arm y
▁Ab lauf
gel tlich
- th
iz e,
▁rel ates
atast roph
re .
ib an
▁Sicherheit ,
▁restaur ant,
▁clean ing
▁Budap est
wirklich ung
c or
▁er lang
▁Sch nit
▁Veranst altungs
▁Franc is
m iet
▁er wor
lie ben
▁sp here
▁Früh jahr
▁C o.
▁Sie g
▁berücksichtig en.
ag d
▁Ha ve
stre am
▁verabschied et
- a
▁in her
▁mach t,
▁10 ,
▁18 9
▁dise ases
▁iPh one
p an
▁d oppel
▁W är
▁so ul
▁über nehmen.
▁comp uls
▁tra gen,
▁erhö hen.
▁cult iv
G E
▁ein stimm
▁k amen
▁hier zu
▁recht liche
▁Prä z
ire ,
lic ation
▁So uverän
▁disapp ear
m acht
▁e ignet
▁ind oor
▁nat ure.
▁13 0
3 1
ien sten
▁wiederhol t
4 7
ant as
▁matter ,
▁ruh ig
▁urg ently
athed ral
z esse
ktion s
▁Rat ifizierung
▁schne llen
▁S QL
les en
▁versch är
▁con vert
än en
▁Schul en
▁enthus ias
es c
▁1 st
zwe if
▁pun ish
▁V IP
▁De partment
ep ing
▁resul ted
▁helpful .
▁rechtzeit ig
▁ver standen
▁he il
▁conf idential
▁Dar f
▁old est
▁plan et
▁S &
▁O t
▁app ell
▁ar bitr
▁Intern al
▁Serv ice.
▁Arme e
▁E .
▁derzeit ige
/9 8
▁Malt a
▁anspruch s
▁plen ary
▁for ts
ian s,
▁Wirt schaft,
▁wides pread
▁ о
▁D A
ass e.
▁pack aging
▁period ,
it é
▁Kon vent
▁virt ually
▁3 50
cl es
▁who le.
▁contr ast
▁caus ing
▁Sm all
▁ Š
▁S ter
▁( 6
oll en
anz ig
▁inde x
▁exec utive
▁Schlaf zimmer
▁Modern isierung
uf en,
▁ge geben.
ist ical
▁Re vision
▁dr ast
▁last ing
▁Bürger beauftrag
▁Them a,
▁fil ms
▁Kultur en
b ro
▁N ok
▁Be vor
fäh ige
/ der
▁un nö
ough t
▁unent geltlich
▁D ritte
▁er wer
▁produ ces
▁Wer be
n ische
▁mus t,
▁water .
▁Car l
▁Us ing
▁wo hnen
▁S L
▁consider s
▁mov ie
ra ,
och e
▁Kl asse
▁Stoff e
ah me
▁Tre ff
▁beein fluss
i op
oc al
▁entscheid enden
▁Fed eration
s e,
▁b ieten,
▁ex ch
▁Reg ulierung
▁eng age
▁freedom ,
▁Dan ish
D .
р е
▁er a
▁Z y
reich en,
▁event s.
▁betriff t.
ie den
▁" .
▁accept ance
▁iP od
▁abgest immt
▁Vereinfach ung
▁S ir
-Pro jekt
▁Proz esse
▁bra chte
▁Korrupt ion
▁C P
▁rec ording
▁Zahl ungen
▁begrüß t
▁Urs achen
K )
ge fühl
▁L ic
▁has ,
▁Im per
▁Mond ay
▁n ative
setz en.
▁Benutz ung
▁Konz ert
▁Qu elle
▁S org
▁E benen
▁Ber eits
▁US -
mittel n,
▁Cas a
▁relax ation
▁anz up
▁Last ly,
▁Ferienwohn ung
▁D ring
rä ger
▁environment ally
▁Berlin .
-1 9
▁strict ly
▁ ört
hol der
▁Verteid igungs
▁Pr im
▁Con stitutional
g äng
▁pro xim
▁Med izin
▁week .
▁sit e,
▁Ratspräsident ,
▁Ven ed
▁syn chron
▁maß geb
▁an halten
▁Wir ksamkeit
▁gew id
▁order ed
gram men
er es
▁S enkung
end em
ord an
▁Nach mittag
▁% .
▁Graf ik
▁Schif fe
▁Dän emark
un ft
▁S earch
▁st immt
▁J oint
▁4 -star
raf t,
▁Alp en
▁Katastrop he
▁abgelehn t
▁K DE
▁affect s
▁Kohäsion spolitik
▁in folge
as s,
▁ent r
▁reich halt
▁c ott
▁ein s
▁public ation
▁put s
▁Sob ald
▁bei ,
▁Loc ation
4 8
▁rec re
▁bedeut enden
il .
▁L ud
ger ät
▁Vermitt lungs
al ten.
▁M aus
▁D üss
▁An h
▁Ch ic
▁Port o
▁Plan eten
▁Lt d.
- ch
▁with .
▁sh uttle
▁ro ugh
▁kon sequent
▁did n't
▁aff airs
▁schem e
▁G a
▁us e,
▁hel fen.
▁Arg entin
m ail
▁G PS
lo v
▁incl us
▁Tr ib
▁br idge
▁Preis en
▁Cypr us
par atur
ies sen
▁authorities .
▁parliament s
▁Ed inburg
abr ik
k ons
t okoll
▁be unruh
▁St ör
▁ent halten,
▁real er
▁individ ually
▁ut most
▁einver standen
▁n om
st ock
-S oftware
▁Ur teil
▁s ink
re me
▁f ly
▁D in
▁H ill
▁r ide
-St unden
▁to urn
▁op ens
▁imm igrants
zentr en
▁Wochen ende
ape ut
kap az
▁imag ine
▁vermeid en,
▁Wür de
▁Lith uan
▁m ort
▁Mit entscheid
▁ass ets
▁Fil ter
P ress
▁in quir
▁einz ur
▁pres erve
▁argument s
▁acqu ired
▁Ver wirklichung
▁profession als
▁angemessen en
T ,
т о
▁L abor
os c
▁eigen er
▁Park plätze
▁prü fen
am i
▁L ight
▁ass et
-B ereich
▁Initi ativ
n ot
▁S W
ub en
▁harm ful
l ers
▁C anc
▁energ y.
f akt
▁Ber ichten
▁top ics
▁re iter
▁gro wn
▁programm ing
▁request .
▁akzept ieren,
▁Lond on,
▁zusam men,
k ter
r iere
ar g
▁S z
▁be zieh
▁zu gest
iz ation,
▁ad mit
▁along side
es k
▁miss ing
▁sav ed
▁Stras bourg
o ter
▁ q
gen z
ub l
▁ro utes
▁Qu art
ij k
▁Ag ain
▁C ross
▁ges amm
▁pro sec
▁An nehm
▁Kon struktion
▁difficult y
▁essential ly
-U nter
▁offiz ielle
▁Übr igen
▁ver ank
lung en,
air s.
▁suggest ions
▁acc eler
▁tre es
AL E
▁Get rän
▁Re isen
▁Elekt ron
▁t rat
▁C ru
▁management ,
▁Organ e
▁Nik on
- pr
▁D usch
▁L ind
ag a
▁sp ite
▁Se x
▁anzu zeigen.
▁B erechn
▁coordin ated
os a
ink el
▁Bes ides
▁cap abilities
▁lif t
sequ ently
▁town .
▁fair ly
▁Jahrzehn ten
▁diplomat ic
a ders
▁M .
▁fre m
▁hal b
▁Menschenrechte ,
▁angen eh
▁link s.
▁Presiden cy,
▁Tip :
ig ung.
▁st ärken
rie be
▁ir ischen
▁Caf é
▁c ater
▁gewähr t
u cc
ür ze
▁Al m
▁up grad
▁her itage
▁sag t,
▁new ,
▁targe ted
ID S
▁Präs enz
▁su ites
▁disp ute
▁pure ly
▁so eben
▁house hold
▁culture ,
▁Sud an
r ig
istr ibution
▁9 ,
▁bewusst ,
▁Zu kunf
-D aten
▁harmon isation
▁prakt ischen
▁t ap
▁M ED
▁add ing
▁beh err
▁wachs enden
is tern
▁C reat
▁see ks
w ass
▁P ut
att ung
▁„ K
▁Do ha
▁Sam s
▁Stockhol m
▁D ör
id es,
arbeit et,
▁reserv ations
▁Auftrag s
▁H uss
▁R oss
▁Ha ar
haf ter
- day
ung al
▁Er richtung
▁wesent licher
▁Frankreich ,
▁Auf zug
▁ ©
▁L ine
▁Le vel
heb en.
▁T us
vor schläge
▁hous ing
▁Academ y
▁Ex tra
▁Ged ank
▁T ickets
▁rapporteur .
▁Nether land
▁Z erstör
▁Bes uchen
▁action ,
▁supp lies
▁explo it
▁z ut
▁l ists
▁K h
ace ut
▁w ünsche
▁stud io
▁konn ten.
▁Acc ount
▁w ines
▁b uchen
▁B lair
▁he ating
alen der
▁interest s.
▁16 0
wär ts
▁L ounge
au te
▁War craft
▁Mo der
▁denk en,
▁Freiheit ,
▁kauf en
▁sud den
▁E ure
▁T ests
▁treff en,
▁n omin
▁her um
kont roll
m ot
▁sh ips
▁Str ände
▁darf .
▁e en
▁B aby
ber n
str ö
▁government ,
▁äl teren
▁P ier
od ge
oun ted
app ro
▁bedroom s
▁thumb n
▁ver letz
▁best and
▁dep enden
▁Environment ,
▁treff en.
▁mac ro
in anz
▁st ation,
▁1 10
ühr en,
▁Christ mas
▁T el
▁He im
▁Ha upts
▁Vertre tern
▁Cor por
▁w ed
▁qu er
▁4 7
▁know -how
öl f
▁Situ ationen
▁for ,
ss ysteme
▁country 's
▁Tr end
▁Bü rokrat
ra chte
lag er
▁(s ie
▁p f
▁St ärke
▁Staats -
▁Ents te
▁D ir
tes te
▁special ized
▁sav ings
▁Mex ico
▁negotiation s.
▁L or
▁enough .
▁Steuer ung
▁Up d
▁An bet
ien ces
▁ar med
▁W alk
▁F unds
▁langfrist igen
▁L ong
▁wo oden
▁Zugang s
▁clar ify
▁a st
▁typ ischen
uell ,
▁gradu ally
▁t ip
▁is .
▁Aus bau
▁stimm en.
▁convention al
V IS
▁R A
ähr t
▁polit isches
▁vers ichern,
▁get roff
▁Regierung ,
▁bel g
▁ö st
/ W
O B
P L
qu et
▁c ultur
▁S now
▁W .
▁19 50
▁prin ted
▁subject s
▁committe es
verw altung
I ER
in s,
▁n u
▁Beschl uß
▁bem üh
A n
e le
▁Arbeit er
▁programm es.
nter prise
u ous
▁serv ing
▁every body
▁said .
▁Konflik te
▁Jap an,
ir tschaft
▁Er fordern
▁forward .
▁software .
prü fen
▁korre kt
▁Min ib
▁clear ,
▁2000 .
▁29 .
▁undert aken
▁instru ctions
▁the ory
▁in ,
▁n ight.
▁cl imb
▁Komp lett
▁akt iven
▁USA .
w enden
iss ance
▁Sch rit
▁kon zip
▁Demokrat ie,
▁insp ired
▁P ed
▁L ear
▁Re chten
wor ld
▁fl ag
▁tax ation
▁Can ada
▁mind ,
▁Will iam
▁zeich net
r up
▁N u
▁Adr i
▁obstac les
▁F OR
▁C ann
▁im pr
▁such en.
▁oft mals
▁Sm art
ran sport
▁pres iden
▁verlang t
▁incorpor ated
▁Aufgab e,
▁in akzept
▁E ver
▁se ctions
▁J ud
tre ten,
▁event s,
▁Sub ject
1⁄ 4
▁Sc ot
system s
▁re ly
▁Aus arbeitung
▁Restaurants ,
afr ika
w in
▁recogn ize
▁vermeid en.
▁Freit ag
▁wirk liche
▁In tell
▁Par ameter
▁humanit ären
ach ter
▁con vers
▁eur os
▁stattfind en
▁gestal tet
M .
▁n ennen
▁Pal m
▁citizens '
▁teach ing
d ring
ra ul
▁„ F
geben en
▁nam e,
uk lear
▁ed it
▁Beteil igten
▁k op
ver hält
▁stru kture
on ia
▁B ah
▁public .
▁Ass embly
▁extend ing
▁cours e.
▁tele communic
▁erhö hen
▁26 .
▁effe ktive
niss es
▁bon us
▁g al
ist iken
ing t,
end o
▁Ver he
▁man ,
ond s,
▁Jed och
5 -00
▁A U
sch ön
▁C EO
▁cut s
ce llen
▁Sp l
▁immed iat
▁signific ance
▁( p
führ ungs
▁project s,
▁erhö h
▁subst ance
▁be aring
▁R ap
ram m
ific ial
▁Über tragung
▁trans actions
▁sch reiben
▁Rat schlag
▁Con sequently,
▁Nachbar n
▁Phot os
▁R enn
▁people 's
▁mach te
gend es
▁aud ience
aceut ical
▁balcon y
▁partn ers.
▁r ender
▁Ent deck
iod ivers
▁team s
ig ende
▁pr ize
▁Industr ial
▁Fire fox
ur .
-c ountry
▁Deb atten
▁Bedürf nissen
▁E hr
▁ra in
-S p
▁verst ärk
D ,
▁ ....
▁together ,
ll o
▁med ieval
▁stay ed
▁sophistic ated
8 9
ck ,
▁europä isches
▁Con dition
gesch ichte
▁Weiter entwicklung
▁Altern ativ
: 1
d at
s orge
▁ab use
▁Jahr en.
bereich en
▁schwier ige
▁Generation en
▁IM F
▁Child ren
▁se i,
▁Flücht linge
▁gewähl ten
▁hilf reich
▁P sych
iz a
▁201 2
▁beein fl
▁expl os
▁be ibe
▁Ch ines
▁cor por
▁stud ied
▁viol ations
▁manufact ure
▁dep th
▁tourn ament
ed ing
▁amendment s,
▁konzentr ieren
▁philosoph y
▁complic ated
ack s
▁interest .
▁H u
led .
▁Balk on
- line
▁f ließ
▁S em
▁D ifferenz
▁K äufer
icht linie
▁Ein en
är er
▁integr ierte
t ime
▁p od
ig ious
▁Des ktop
y t
▁S ort
▁X ML
▁consult ing
▁diskut ieren
-Sta aten
▁T enden
▁Z war
be g
▁Member s,
▁At t
sk i
▁Gel der
▁pl ötz
▁gleich ermaßen
▁Wass ers
b art
etz ugang
▁col umn
▁particip ating
▁Bestimm ung
▁beschrän kt
▁E conom
▁28 .
▁v illa
▁W under
leg te
-Pro zess
üb ung
▁zu gesch
▁Eigent ums
▁f ram
▁Ein wohn
ible .
schaf ten.
▁Vers orgung
▁refer endum
▁seem ed
▁conclus ion,
1 /
▁G AP
▁Kir chen
▁offiz iell
▁fle et
▁succeed ed
▁aftern oon
O F
▁angep asst
▁Konkurr enz
▁G all
▁O x
▁consider ably
▁chann els
▁h erstell
▁wor se
▁Industrie ,
nes day
▁he ct
▁C lean
leg ten
amb od
▁Portug al,
▁dut ies
re form
▁fact s
▁Monten eg
▁hosp ital
▁estim ated
▁f ans
▁ch rist
gr ession
▁' E
zustell en
▁empf ohl
▁Mos k
▁can 't
▁ra ising
vers ammlung
gesetz t,
gor ith
j ud
▁Sch reiben
▁aber ,
▁4 3
▁dam al
fle isch
▁Th ree
▁Vor rang
con ne
▁Glaub en
▁F ord
▁k ill
▁auf ger
rom e
▁20 th
Ã 1⁄4
zahl ungen
▁[[ C
▁Abend essen
▁italien ische
▁accur ate
▁import s
▁Vorder grund
4 4
ig aret
▁fre ut
▁12 .00
▁constru ct
▁worksh op
▁p ump
▁L ad
-to -d
▁annivers ary
- eff
▁T ief
▁vor n
▁illeg ale
▁Mod ul
▁imper ial
ic i
ot ten
if ahr
zieh ung
▁angeze igt
▁en vis
▁fre ely
▁re cess
▁App lik
▁Pf lege
▁gil t,
▁S A
▁Binnenmarkt es
▁f ach
sp ace
ard in
▁gu ided
ber ichterst
ub b
▁available ,
▁eing eschrän
▁authorities ,
▁27 .
▁vorgeleg ten
▁stat t,
▁tä glichen
▁enfor cement
ess ed
▁ge legt
▁Gesetz geb
▁meaning fully
▁b ik
▁be z
▁sh ift
be völk
▁stärk en.
▁community .
▁le isten,
▁eff iziente
▁Vers ammlung
▁Americ ans
▁Ko oper
▁head ing
▁moment an
▁vollständ igen
▁Wand el
▁s telle
ug t
▁integr ate
▁char akter
-friend ly
f unk
▁S tern
▁ski ing
▁Dre h
▁provider s
O K
▁M ärkten
▁L esen
h is
▁R enten
▁An reg
▁Beschreibung :
▁Kais er
▁c lo
▁unter nehmen,
▁basis ,
teuer ung
▁ver mut
▁Verfass ungs
▁S S
▁ein seit
▁Aus weit
▁an ste
▁princip al
▁fab ric
▁B R
▁strateg y,
gen ie
▁Wer den
▁appear ance
▁Che f
is ed,
ver handlungen
▁schl imm
▁investig ation
▁gestal ten.
▁Fremden verkehr
em ble
▁aid .
▁t ritt
reis en
▁class ical
▁broad cast
▁"F ind
▁resol ved
▁agend a.
▁Rechtsstaat lichkeit
▁enjo ys
▁T amp
ard .
▁process ed
▁famil y.
opp elt
▁Aktiv ität
▁Dan ach
▁mann er.
st able
▁res c
▁beginn en,
▁Steuer zahl
▁Cast le
▁Kreat iv
ä ge,
▁V arian
recht lichen
▁Außen -
▁sched uled
▁List ings
▁( Z
▁Über nahme
▁prom ise
▁Instrument s
▁Anbet racht
▁do ors
teil ungen
▁effect .
asch in
▁Afric a,
b urger
▁re ward
▁K am
▁tra gen.
▁Volk es
▁Sm ith
( C
g i
▁0 8
berg ,
▁Flugh af
▁Dan iel
▁s .
em ed
▁pain ting
▁Oper ation
▁Reserv ierung
▁attach ed
▁un ab
wirk en.
▁L änge
▁international ly
▁prom ised
▁angen ehmen
irl pool
▁P ast
▁weltw eite
▁constit utes
▁hingew iesen
▁kontext uellen
▁gewes en,
ar at
▁Inter governmental
▁period s
▁vill ages
▁leb end
▁ehemal ige
▁Note :
ort s
▁Gre ens
▁beit ragen.
▁günst ig
▁C N
▁ge führt.
▁An k
▁sp re
▁Finanz krise
-c omp
▁Site "
▁süd lichen
▁Spazier gang
i y
ic s.
änder ungen
▁NI CHT
▁benach teil
▁B av
▁K ein
▁C all
▁„ G
▁contr ary
z io
and in
▁An ders
▁ent halt
AN D
▁farm ing
▁b ike
▁k g
av i,
▁user (s)
▁Zus tell
▁worldw ide.
▁Distr ibution
▁Schnit ts
▁govern ing
▁profession elle
▁geschie ht
E nterprise
igh ter
ark et
▁check s
▁grammat ically
▁hunder t
▁Ombuds man
▁Düss eldorf
▁E hre
▁G R
ver l
▁sol ch
▁term ,
5 5
P G
▁fra gen
▁einge hen.
▁encour aged
▁Aud itors
▁Währungs union
▁g astronom
▁ver anst
▁se g
▁sch reck
▁man chen
▁export s
▁ult imate
▁elimin ate
▁depart ure
▁W asch
ot al
▁war ning
▁erhält lich.
т е
ot ,
ein richtungen
▁O '
be c
rä ge,
▁pass ing
▁zul äss
▁entdeck st,
▁gespe ichert
▁Page "
▁d essen,
▁th row
ic ing
▁R ett
▁not es
▁ges p
▁irgend wel
▁lay er
▁describ e
▁accomp lish
▁grammat isch
▁F oot
▁Be achtung
▁geb racht.
▁weak en
em ost
▁sch ritt
in ely
▁l uck
▁over look
▁jeden falls
▁tw ice
▁minister s
i ation,
▁m igr
▁v ent
▁ge führt,
▁Kon junkt
▁Verkauf s
▁Vermögen s
as is
/i >
E E
z um
▁an erkenn
le ib
▁H an
▁gen aue
▁4 6
▁keyword /
▁supplier s
▁kilomet res
▁t schech
▁K ategorien
lich e,
▁näch ster
▁Mont ag
..." ...
▁Ratschlag :
▁m ere
▁D C
-B en
▁Schlussel wort
▁"F inde
sprozess es
▁Nok ia
▁keyword/ phrase
▁mit ..."...
fahr er
ability .
▁elect rical
▁Schlussel phrase
▁Leg itim
▁schaffen, /i>
▁hinzuf ugen.
▁destroy ed
▁contextual ly,
▁kontext uell,
▁Wed nesday
▁Schlusselwort /der
ion s,
ig l
▁le ct
gar ten
▁aufge zahlt
▁Valle y
t im
▁h idden
▁H ab
▁Ver ab
▁J av
▁Be gründ
▁ele v
▁M essen
▁über prüft
▁Gro w
▁bar riers
tember aub
wär tige
▁sufficient ly
▁surpr ised
. de
▁Um struktur
▁Vertra ges
▁splend id
▁A y
we hr
-S erver
▁Lib y
▁f oss
▁T onnen
▁opp on
way .
▁zusammen ge
▁approach ,
▁bege ister
th ers
▁Eur o.
▁gemeins ames
▁Ausweit ung
▁K und
▁Prof .
▁assign ed
mutz ung
▁rub ber
c at
▁f at
▁D ra
▁Hand y
▁bo asts
clud es
▁c lock
▁An onymous
▁beste hen.
j u
▁th ick
se hen.
▁enjoy ing
▁responsibility .
▁Jew ish
▁f �r
▁Re paratur
▁Le ban
▁her be
▁Kinder ,
▁ed ited
▁Prem ium
▁re cept
ial e
▁hin ein
▁experience ,
is a
▁voll en
▁prefer red
▁explo itation
ar z
A l
▁L CD
▁proposal s.
het or
▁landwirtschaft lichen
▁l ingu
▁An im
▁var iable
▁address ing
▁Cont act
▁Term s
▁safet y.
7 1
▁t ennis
▁fe wer
▁direct ory
▁inst ance
▁progress .
▁ausger ichtet
▁percent age
-En twick
▁thumbn ail
ed ded
form ular
ite te
▁another .
▁Per formance
▁behand eln
▁Mand at
▁th res
hab ilit
▁gegebenen falls
ö pf
ch o
▁R ichter
▁(1 )
▁obser ve
c ific
▁F ont
▁ers etzt
▁pers u
schö pf
▁d rag
▁W ol
▁G är
▁Ein er
▁organ ise
▁(H U)
▁Oper a
▁Rights ,
▁C .
▁pro pr
▁con j
▁par ameters
▁statt gef
▁SME s
-Ber icht
▁R SS
▁con front
▁se as
▁Et ik
▁restruct uring
▁V ER
▁Pro zeß
▁res idential
is iert,
▁L ED
▁Ma ur
▁langu age.
möglich e
▁Vien n
rep ublik
ke y
▁sur vey
▁stay ing
▁consc ious
▁non-sm ok
s amen
▁b ürger
▁ver wirk
▁An meldung
▁event ,
▁kosten lose
▁gespiel t
▁o v
▁G ibt
▁link en
▁werden :
-M an
▁adv is
▁Bo x
▁Tru ppen
▁ är
▁k enn
▁aff il
▁finanz iert
▁rul es,
▁him ,
▁Lin ien
▁Sow ohl
z imm
▁V ista
▁ge tragen
▁sch lagen
▁code cision
athem at
▁genere ll
▁Se lect
pect ive
aur ant
▁befind et.
▁Mos cow
▁strugg le
▁S ource
▁aus schließ
▁Über sicht
▁Eur ost
f an
▁V irt
▁head quar
▁j u
▁Ex ternal
▁befind en.
▁invol ved.
▁verwend eten
▁communic ate
O D
▁st ip
▁where by
raf t.
▁trade ,
▁betra chten
▁T s
▁r öm
▁beg un
▁br ill
▁Energie effizienz
denk en,
: 2
▁d ual
▁N a
▁viol ation
zeichn ungen
F OR
ro w.
▁P ad
▁ch ief
▁Ent schlossen
wach sen
▁verfüg en,
▁Sim ilar
▁palästinens ischen
▁labe lling
▁t ree
▁F ast
▁O LAF
iz ite
reg ierung
▁entspricht .
▁for ec
ad ic
▁he ll
▁[[ S
▁erzeug t
▁v ibr
▁ha z
la ß
▁Sch alt
▁Er reichung
be ut
ell ow
tw och
▁may be
▁12 ,
▁Aut os
▁Head s
t ies
▁des ktop
▁200 2,
▁part ies,
▁“ C
ants ,
▁dest o
▁neighbour hood
i ation.
at ers
le ments
▁D usche
▁des ir
▁Be zeichnung
▁mult ilater
▁mar ine
▁frequ ent
▁genu inely
▁coast al
▁compl iment
▁re ass
▁part ition
ator ium
▁Er halt
▁Sp itze
ux e
▁Rahmen programm
ativ es.
▁mag net
▁Ext rem
▁inter view
▁Vis it
re iz
▁I WF
▁P akete
ss on
ru ppe
▁30 %
▁Pe ters
a "
g art
▁Ein fach
▁Commission '
▁He kt
rif ft
/ c
▁b read
ers atz
▁ab ges
▁schw ere
▁Zimm ers
▁for emost
▁Zeit .
▁aid ,
▁lös en.
▁P od
▁N äh
▁To gether
▁Sc ott
▁initial ly
▁200 1,
itä ten.
▁erk enn
▁Jes us
▁Maj or
andin av
° C
at om
▁Europ as,
▁beg ins
I t
▁Ver zeichnis
▁scr ipt
st äd
▁with ,
▁O m
▁As ht
▁guarantee ing
▁erschein en
▁dig itale
▁Himm el
▁thres hold
▁for tz
▁Ne hmen
▁a temberaub
re ten
▁under lying
▁6 8
▁Bar s
ma ßnah
▁Stre cke
it ative
▁Uns icherheit
= "
▁object ives.
▁highl ighted
▁end ed
▁Leit er
▁Cook ies
an forderungen
▁be hält
▁B uss
▁G ü
▁reput ation
▁Ö k
schrif ten,
AR E
▁Dialog s
▁zuständ ig
ach en,
▁Parl amente
▁Hotel s,
▁charac ters
▁ständ igen
▁wünsch en,
▁A T
▁geb oten
▁spiel en,
▁Mult i
▁Pet itions
▁dram atic
▁Überzeug ung
ig end
▁ent schloss
igkeit s
▁0 1
▁welcom ed
▁Trek :
b .
▁ind igen
▁ber aten
▁angeze igt,
wirt schaften
▁Pac ific
in stitutional
▁t enden
▁don e,
▁Cop yright
- n
6 9
s burg
▁w inning
▁l ädt
se kret
▁Entspann ung
▁Educ ation
▁b ought
▁me ter
▁Wirtschafts krise
▁million .
▁moment .
▁Di agn
▁Tun is
▁brief ly
▁aufgeforder t,
▁(sie he
▁belie ved
▁own ed
spro gramme
▁state .
▁Gre m
sph äre
▁be wegen
▁( mit
▁rec all
üh le
▁Rh ein
▁un zähl
ach ed
▁dis cl
▁join ing
▁enter prise
▁unfortun ately,
al te
▁R uß
ien e
▁Dem onstr
gä ste
▁qu i
▁Q uell
IN E
-L ös
▁mention ed,
▁erlaub en
▁Einsch ätz
ich te.
▁z er
ord s
▁offer .
▁Spe isen
▁Dokument en
▁4 9
▁inv ent
▁Mal ays
▁song s
▁Situ ation,
▁Inde x
▁f esten
▁h ence
▁P ie
▁up grade
ativ es,
▁innov ativen
▁general ,
▁Brasil ien
ô te
▁Todes strafe
weis e,
-st yle
▁Häus er
k ammer
ä sch
▁c u
id as
▁vor über
▁culture .
pid em
▁ein führ
op ard
▁access .
▁ult ra
▁Person en.
läuf ig
▁m .
▁B irm
▁behav ior
id enz
ute t
▁Partners hip
▁we ,
zie ll
▁featur ing
▁corrupt ion
▁y ield
▁ch apter
▁Eur os
▁proced ure,
▁(D ie
▁Soc iety
▁arran ged
hal le
olog isch
▁(A 4-0
▁(wh ich
▁Z one
▁( e
pl us
▁ange wendet
▁Ph ys
▁reality .
▁Slow ake
▁Russ ia.
▁drink s
▁s ight
as s.
▁Me g
▁rest ored
▁schein en
metho den
▁EU-Mitglied staaten
▁er geben
▁Ar t.
▁Unter richt
kl ar
▁Hin weise
l ay
▁M igr
▁op enn
nis ,
-s h
AR T
▁Arch iv
iz ation.
▁24 -Stunden
▁teil nehmen
▁determin ation
▁kontakt ieren
▁gezw ungen
an a,
▁D ur
iv al,
▁Inter vention
▁integr iert
▁Ar c
▁Sams ung
▁d ate.
ut .
▁R uh
ann t,
▁ev ol
▁Zusammen halt
▁poor est
▁vide os
f eind
▁t ang
▁in halt
▁was ,
ke pt
▁So ft
▁Invest oren
stra hl
▁be mer
▁besonder es
▁valu e.
] .
t irol
▁l ohn
▁short ,
▁Benutz ern
▁P ilot
▁sch ick
▁Se veral
o is
▁Be fehl
▁en ge
str ateg
▁engine er
▁hochwert igen
▁grenzüberschreit enden
▁prop ag
▁Pan oram
sch ritt
▁R unde
▁first ly
voll ständ
▁profession ellen
▁Dom ain
▁Bran chen
▁1. 5
▁equip ment,
▁Mechan ismen
▁M igration
▁tra il
▁Fl äche
f amil
▁G elt
ap el
▁mod ules
▁oblig ator
▁Rel ax
▁har bour
▁Fakt or
▁voc ational
▁Schad ens
P ,
▁Ein es
wick lung
▁201 3
▁vess els
ch mark
▁S ah
▁end .
▁einge hen
▁mittel alter
▁P ir
▁st raf
tra um
▁represent ing
▁s itz
▁K unden,
▁auf fordern,
▁standard s,
▁hervor heben,
▁D ingen
▁civil ian
▁measure ment
▁Colle ge
▁Relig ion
ont o
▁ins ufficient
▁Ergeb nissen
▁Schwe llen
iegel t
▁Lehr er
▁m ouse
▁An sprüche
▁inv o
▁surround ings
▁Entfern ung
E /
▁ent decken
▁ev olution
str äger
▁pract ice,
/200 1
▁mad e,
verein bar
▁Dring lichkeit
▁L '
▁unter nehmen
ob en,
bring en.
▁Herkunf ts
▁ver p
▁er led
▁un s.
uf en.
▁Mittel ,
▁Nutz ungs
▁Ins gesamt
▁ergreif en
▁chines ische
▁Instead ,
▁Verein igte
▁movement s
▁reduz iert
▁M aschine
▁Produ kte,
gang en.
▁müs ste
▁gespe icher
▁schwed ischen
▁I G
▁er fahren,
▁Z ins
▁Fahr er
▁entste ht
▁reag ieren
▁Zu cker
spe zif
▁umfassen der
ch ant
sp ir
▁produ cer
gang en,
▁enor men
▁Emp loyment
▁owners hip
ä le
▁tr ips
▁Region ,
▁Gew äss
f indung
▁par ameter
▁emp find
▁mone y,
asst ,
b i
w ith
et r
▁oper ates
▁fehl t
▁Hü gel
▁Krimin alität
n ik
or i
▁f örder
▁W urz
▁Re icht
▁dam ages
▁bus y
▁control ,
▁Americ a,
▁trade .
▁ausländ ischen
▁dict ators
s "
▁man gel
▁Min istry
▁small ,
▁dev oted
▁hop es
p oint
▁Th erap
▁Kon ver
cr imin
bo den
▁bew uß
▁food ,
▁berühm te
h ost
▁ho hes
▁tax pay
▁anal og
▁IB M
▁in nen
▁[[ K
▁Landwir t
▁vertre ten.
▁0 9
▁keines wegs
or gen
▁Nach druck
ett ing
iqu e,
▁term .
-m ade
an gel
▁In tens
▁for ce.
▁erinn ert
▁verurteil t
▁S i
▁to ugh
▁er we
gesch windigkeit
▁Bas el
▁Dat um
arbeit er
▁kostenlos en
é l
▁Z ut
ert o
▁up load
▁Mar ok
▁1999 ,
▁C ab
▁Z un
▁de le
▁O K
▁ent s
▁restric ted
am ed
▁des k
▁Ch ief
▁Tour ism
▁Den ken
B A
stell ung,
▁Gesch enk
▁breakf ast,
▁Vene zu
w rit
le ger
am men
▁L ay
▁er warten,
▁we isen
ak ul
▁J azz
▁befind en,
▁conven ience
-of -the-
▁aus s
▁um gehend
▁Se ction
▁Sie mens
▁comm od
pl ays
str ich
▁par ent
ber ger
▁Aus nahm
▁el der
▁erst es
▁town ,
angeb ote
▁gee hrte
▁ök ologischen
fac es
▁Bereich ,
▁Durch setzung
▁v acc
▁( ein
▁( wie
▁mein e,
▁schrift liche
sch uss
▁O EC
▁second ary
▁Grün buch
schn itts
▁proceed ings
▁E he
im atis
▁Miss brauch
г о
er 's
▁d än
▁E valu
▁führ t,
▁freund lich
▁dipl om
▁AL DE
un es
▁K art
▁av iation
▁allem ,
▁amend ing
▁network .
▁Co operation
▁Ed el
▁Stift ung
anb ul
▁e uropa
us s.
▁T ipp
▁H ände
▁Or der
▁fact ory
▁design .
▁text ile
▁road s
▁click ing
▁Wahr ung
▁Arg ent
▁cert ified
▁willing ness
ubau en.
- old
o te,
al ts
am br
▁L aden
▁con stra
▁Ge gner
ator .
▁gest immt
▁schließ en
▁fascin ating
▁or ch
lie fert
▁Y o
▁mark s
▁fest gestellt,
▁erinn ern
▁tex t.
▁Wissenschaft ler
▁Hindern isse
▁spre che
a ñ
▁p atch
▁E D
▁L ot
our se
her ber
▁first ,
▁Form ulierung
▁zie hen,
▁gesellschaft lichen
oler anz
▁to x
▁man ifest
me iden
▁art ificial
sk a
ube hör
ari at
▁Las er
▁zweit er
g ie
st il
▁man geln
▁Ne uer
▁schließ t
▁about .
eng leich
▁Lebensmittel sicherheit
dienst leistungen
▁ersch ien
▁id yll
▁be halten
▁K ampagne
antwort ung
▁kurz er
▁remark able
▁H af
▁Park ,
▁Volk spartei
K A
▁Ob ject
▁Kön nen
m oking
▁k an
men te
ger ichts
▁out s
▁unterschied licher
▁Em issionen
▁tem pl
verletz ungen
▁US- amer
on z
ra hm
▁C itiz
▁Unter halt
▁what so
▁order ,
▁lang er
ämp ft
le in
▁R ass
OT EL
▁inn ere
▁coher ent
▁con vey
▁sich .
av al
gebä ude
▁das s,
▁Vor stellungen
▁darf ,
▁appropr iations
▁favour able
▁Kunst stoff
sch rank
▁sm art
stad t,
eit ern
▁C AN
▁post al
▁bleib t.
es telle
th aus
▁Ab bau
▁Bet reuung
▁notwend ig.
▁Kultur ,
a ug
▁a fra
▁h iking
▁gr ünen
▁Amerikan er
▁ein ig
▁B onn
▁tr ends
-S pe
▁verwend et,
▁music ,
▁Trans l
gl ück
regel ung
O V
gen öss
▁government .
▁Vis a
▁elektron ische
l assen,
▁S ark
d en.
h ä
p at
в а
un s
▁g ym
▁st ruktur
▁up -to-d
▁cas ino
rop ol
▁Innen stadt
▁Gene va
beschreibung :
l ist
ü ge
ac y.
▁Unternehm en.
o ßen
▁inform al
▁Kons erv
▁Afric a.
▁f ur
olog y,
▁Bes atz
▁diffic ul
-H aus
B S
▁ ärm
ungs los
▁express ly
▁Zur ich
▁Korre ktur
▁un ber
▁N ear
▁Mit twoch
in et
▁to wer
▁D est
▁report ing
best and
▁tex t,
▁Chair man
▁R ing
▁System ,
▁amendment s.
▁schütz en,
T ra
s eiten
ect or
3 00
▁Z ahn
▁ermöglich t.
▁angeb oten.
▁Spr ing
▁reason s.
▁Sport s
▁remark s
▁repeated ly
oin ts
teil en.
▁Mus ter
▁affect ing
c z
▁we ar
▁inter ne
▁besch ränk
▁book ed
▁berücksichtig en,
▁(in cluding
▁In kraft
▁special ly
▁Jugend lichen
▁breakf ast.
▁magaz ine
▁L AN
▁neg ativ
▁tax i
▁correct ly
▁whe el
th otel
▁es cape
▁B ureau
▁sp anische
▁Y outh
▁much ,
▁terr ible
▁dür fen,
▁ruh ige
▁w ave
ot ograf
ov en
▁Gesch le
▁Not es:
sprech en,
▁t onn
▁re bu
▁fif th
P .
▁ad ult
▁per pet
oph ob
▁dep loy
▁Finn ish
▁( th
for e.
▁ent schlossen
▁star s
▁eur oz
▁inspe ction
▁vor an
▁br id
▁cla use
▁pan el
▁ge liefer
▁country ’s
▁State .
▁Weiter hin
NG L
▁endgül tige
▁acquis ition
at er,
▁Commission er.
▁err ors
apt op
▁fisher men
▁Vertrie b
▁sub sequently
▁11 ,
▁Fischere ip
▁mix ed
▁Chanc engleich
en ergie
om s
▁ger ingen
▁ide ally
zahl en
▁wirk lichen
▁erziel en
▁stimm en,
▁Nob el
▁st age.
ne id
▁ag ent
▁Vor red
ink en
▁ge äußer
ou ver
▁Krit er
▁teleph one,
▁öffentlich er
-or iented
P M
ion s.
▁Y O
gest altung
trie b
sch icht
▁oper ated
▁Wind ow
▁erstell t.
▁Cal iforn
▁Bran che
g eschäf
▁C orn
▁ar men
▁fl ash
▁verbind et
▁klein ere
▁gelang en.
▁tar iff
as i
ere ien
hal t,
▁big ger
▁fal sche
▁Landwir tschafts
▁umzus etzen.
▁ein heim
▁deb ating
i ates
▁V in
ist ory
▁should ,
ability ,
▁bekomm t
▁W en
▁Zeit plan
ock et
▁Helsink i
▁m ont
lad en.
▁SD L
▁Bibliothe k
▁Auf hebung
ht ml
▁conver gence
em en
os es
aus gaben
ger icht
▁charge .
k el
ç a
Г ¤
▁ icon
▁b ay
ild et
▁Ste p
▁repla cement
▁minor ities
▁prospect s
▁k new
▁C 5-0
▁V .
▁De posit
▁star ten
▁eleg ante
▁agen c
p es
▁p ull
▁k örper
▁Sch äd
▁b icy
▁vor sie
▁famil i
al in
▁f lie
▁D J
▁verl äng
▁health care
ein richt
zug s
ym met
▁pred ict
▁Dies en
▁Verb rech
▁med iterran
-F l
▁webs ite,
y o
▁- B
ose x
▁„ L
▁gre if
änger ung
▁South ern
▁Dokument ation
ü ben
ar s.
▁qu ote
▁Sp iegel
▁only .
▁dec lare
▁Vorsitz enden
▁b aby
oc a
▁prof ound
▁umfang reichen
gebie ten
▁pharm aceutical
▁Stutt gart
▁R amb
▁konn te,
e bene
▁s ail
la u
▁da vor
▁first ly,
gew inn
▁einge hen,
▁port s
▁port folio
n ism
▁se i.
he il
▁ref used
▁hoff en
▁gewähr leiste
▁(D as
▁Re chen
ire .
▁ar ray
▁Ent schäd
▁economic ,
▁gest ärkt
▁she et
▁geword en,
▁elector al
g ent
▁st ages
▁comp osed
▁genau er
▁verkauf t
iè re
-Vers ion
4 00
our met
▁Bereit schaft
▁explan ation
P A
Г ј
st ä
▁level s.
▁bro ader
ri age
▁B it
▁for dern,
▁eingesetz t.
▁Know -how
▁th er
AN T
▁announ cement
▁garden s
▁appoint ment
ho le
ält igung
▁Schl acht
▁Sa al
▁d ance
▁m ental
af e
▁Aus beut
▁institution elle
▁Turke y,
▁gemüt liche
▁Wär me
▁E leg
▁In tel
▁( t
▁stat es,
▁Frei handels
▁lässt .
▁C olog
etz t.
▁zw ölf
▁erforder liche
el and
▁K ürze
alt y
▁verb ring
▁dr iven
▁entspann en
w ände
▁res um
▁Ch a
▁disc ount
▁liter ature
D EN
▁p ace
▁M ol
▁C at
ber ,
▁state ,
▁transl ated
▁eth ical
▁angenommen en
▁bezie hen
▁sa una
▁Zimmer beschreibung:
▁Sa udi
▁competition ,
▁M is
▁aut or
▁erklär en
▁günst igen
kap ital
▁s ide.
▁l oy
▁In genie
iss en.
▁angeze igt.
▁Olymp ic
- tra
▁m outh
▁k olle
▁fühl en
▁tatsäch lichen
▁Grow th
н е
uch er
be griff
▁geb oren
▁employ ed
▁regul ation.
▁Luft fahrt
▁Cons erv
▁decl ine
▁transition al
I ES
▁find s
▁empf angen
▁Tool s
▁lie gen,
▁Con ne
▁Belg ien
▁uneingeschrän kt
▁H old
▁National park
▁Su iten
▁colour s
▁scr ip
▁grant ing
▁Polic y,
▁T imes
▁Al uminium
▁Budge ts
it als
▁des erve
are l
▁ger ichtet
▁A dress
ene ver
▁“ A
▁Bet rifft
▁famil y,
▁Vis ual
m ie
▁c row
▁' S
▁Umwelt fragen,
▁consum ers.
▁Imm un
b lock
m end
▁ein her
▁Er arbeitung
▁inform ieren.
▁Entwicklungs hilfe
/ O
E G
▁t ables
▁g ift
▁Comp an
▁Unterk ünfte
▁Souverän ität
▁Subject :
le hr
▁B ier
▁work ers,
▁Su ites
-Mit tel
▁safet y,
at tern
▁us age
▁da uert
▁Vers icherungs
▁Port al
orre ct
▁Well ,
▁Sow jet
stad t.
▁Anze ige
m äh
▁of ,
▁g aller
ha ust
rans fer
▁B ou
▁can cer
▁spe kt
▁sc ene
▁cour ts
▁vine y
b em
qu ote
▁J u
▁Jahr ,
▁down .
▁concentr ation
▁NE W
C on
l imin
▁V it
▁focus es
▁Apparte ments
▁compuls ory
▁T ie
el le,
▁fe es
▁inst antly
▁Auss age
P )
▁K im
▁wh enever
▁ar ise
▁etwas ,
▁los ing
▁parlament arischen
b ind
p ra
▁W ireless
▁R auch
▁ass embly
▁Fre edom
▁Abgeord net
▁prest igious
▁B ünd
▁attra ktiv
an s,
▁An aly
▁Er öffnung
▁EU ’s
▁log ical
▁19 30
▁selbst .
▁valu es.
▁trag ic
▁l ively
▁L ernen
▁[[ B
▁reserv ed
▁Mac edon
▁behinder ten
▁unus ual
r ight
▁bed s.
▁product ivity
▁2003 .
▁pool .
▁expos ed
▁erg ibt
▁b ag
ing s.
▁R ural
▁Be z
▁EU -
▁How ever
ismus .
▁Arbeits zeit
▁Dire ktor
▁Wik ic
▁Schicks al
▁in tr
ul der
pr int
▁Kl ang
▁Ste igerung
▁zurück kehr
▁Pe ace
▁erstre ckt
▁mach iner
▁arab ischen
▁surve ill
▁ `
ure ment
▁pre ven
▁mass age
▁Thail and
ro us
af e,
▁spe ll
schl üssel
▁schle chte
k üste
▁M id
▁gehör t.
▁typ isch
▁erheb lichen
▁Las ten
▁Publik um
p ft
ie v
st ätigkeit
il y.
▁U fer
▁durch zus
▁rat ification
▁loss es
▁günst ige
▁stret ch
▁ersta un
" ).
▁S ystemen
▁Ch ile
▁einz usch
▁Ind ik
▁global isation
▁entsprech en.
▁Prof il
▁Mensch en.
te enth
▁sich ern
iz iert
▁programm es,
▁Mont age
▁club s
▁Serb ia
▁benefic ial
▁w age
▁b ü
▁b ot
▁Th us
▁ge hab
▁öff nen
▁Betrifft :
at em
▁us ers.
▁su ited
▁Best ätigung
▁17 0
▁Rück gang
▁centur ies
▁an f
▁l ine.
▁Der zeit
▁sub t
▁product .
▁gest atte
▁account ing
▁manufact ured
▁contrad ict
▁deserv es
. org
sp f
▁5 2
▁constru cted
▁eingerichte t.
is en,
▁en gen
▁vers p
▁el ig
▁regul ation,
▁mechan ical
▁kern el
▁compe te
p akt
▁M ix
▁B &B
▁F uer
est y
▁Werk zeuge
▁purpos es.
▁w inn
ne uer
▁verb oten
▁Bei j
▁leb en.
▁consequ ence
▁Eigen schaft
we iß
▁per ce
▁ref und
▁vo te,
▁peace ,
▁besitz en
▁kon figur
▁Emp fänger
▁scient ists
▁bemü ht
▁W ett
▁G ute
▁new spap
▁techn isch
▁Sh ang
▁gepr ägt
▁beherr sch
▁h ors
st one
▁T en
▁H yd
ad r
me ll
▁5 4
▁Ober fläche
▁sun ny
▁Erzeug er
▁Versuch ,
▁Barros o,
▁re den
▁Ein kommens
▁ste igen
▁Comp et
▁NGO s
E/ NGL
▁h äl
ts /
▁Me ilen
▁beg leitet
▁Sa una
▁record s
▁Ins pe
▁Journal isten
ess .
▁adv ise
fil m
▁tw in
▁sogen annte
▁Engine ering
7 3
▁for ests
▁wir kt
▁mus sten
ator s,
▁deut liche
▁rob ust
▁Therm al
▁Gemein schaften
▁tradition ell
▁class es
▁hop e,
iling ual
▁B uen
▁könn t
str asse
▁Or ts
▁größ ter
▁Zur ück
▁Privat sphäre
▁Betrieb ssystem
▁Vertrie bs
le uch
▁al p
▁min eral
▁problem los
▁Kan ada
▁H ör
▁Union ’s
▁Dem okraten
▁thing s.
▁ausgestatte te
▁läß t
▁as iat
-S ervice
▁subject .
▁vorbereit et
m 2
ad ,
str öm
fr on
▁verb ringen
▁Americ a.
▁job s,
rieb en,
▁surpr ising
▁nob ody
▁Explor er
▁der selben
▁sur prise
▁Kü che,
▁candid ates
▁ausgesch lossen
▁Repr äsent
f ,
▁b lieb
▁stat es.
cent er
▁benötig en,
▁angewand t
▁Zuverläss igkeit
▁s ample
il de
ac ter
▁cost s,
-E x
▁refer ences
▁Ägyp ten
▁M und
os law
kl asse
▁“ M
▁erreicht ,
▁einsetz en,
aktiv itäten
▁appar ent
▁cancell ation
▁A ust
▁camp s
▁Flugh äfen
niss e.
▁D ER
▁St orn
▁Auf lösung
▁Um stände
▁hier ,
▁Geb ühren
ätz en,
▁opp ose
zeichn en.
l assen.
▁F assung
▁um so
▁bet roff
▁ste am
▁present .
▁ref use
▁abs urd
voll er
▁Urs ache
utor ial
as p
▁Mit t
▁fre ige
▁sc ulpt
▁listen ing
▁konfront iert
▁a qu
▁w ächst
▁ab stra
▁pers ec
▁exclus ion
l ife
in ity
▁je glicher
▁gemüt lichen
▁sen ior
P ro
▁e ure
▁l ib
▁con form
schl iess
▁Bar on
▁And alus
▁terror ism.
▁prec ious
▁deter ior
u le,
ol ar
hal t.
▁ad m
▁Air lines
▁Sim p
▁block s
▁America ’s
W G
f ör
▁o vers
il ation
▁K G
▁Z imb
▁Nord ic
▁S H
id .
▁ist ?
qu elle
ikan ischer
▁Do uble
▁niedr igen
▁zug ute
w ann
▁B ow
▁N izza
▁ex cluded
▁special ists
▁matter s.
▁ge lungen,
▁N RO
▁gesch mack
▁short -term
/L inux
▁prosper ity
▁Liter atur
▁Frühstücksb uffet
▁tr igger
▁Frem d
▁Kon vention
▁hom es
▁Mechan ismus
▁GM O
▁Klar heit
ie geln
▁f iel
▁de pr
▁verb unden.
▁Prozess es
▁Gemeins am
▁ade qu
▁V oy
▁Z in
▁zur zeit
▁trans national
▁stärk sten
ürz t
▁sty le.
▁Vertra uens
▁Def ence
▁gegründ et.
u ct
om ents
▁G ül
▁econom ically
▁question s,
▁l ibr
and em
ac y,
▁De leg
▁need .
▁Is lands
▁Pal ette
▁Bü cher
▁architect ural
▁Unter drück
▁Parliament ’s
▁Lang uage
▁Serb ien
ar on
▁S ri
▁A F
hn en.
▁today ’s
▁red und
▁reven ue
▁eigent liche
ann el
▁einfach ,
▁diskut ieren,
▁popul ation.
▁chair man
▁Millenn ium
▁Mäd chen
in vest
▁t ub
ess el
▁fund s.
▁applic ation.
unk te,
bü ro
▁g eschäft
▁ver kehr
▁Aus richtung
au en,
▁pla in
▁zie ht
▁Prot est
▁equip ment.
▁Innov ationen
▁freund liche
▁cell s
6 -0
k ing
▁build ing,
▁enc ry
▁purch ased
▁Verab schied
▁can ,
▁gel ten.
▁Problem .
▁Ist anbul
▁getr enn
reg ular
▁stock s
7 6
▁a w
▁d oll
▁ge h
bereich .
▁ren omm
O G
▁ @
▁Verbrauch ern
▁Mensch heit
▁Gipf elt
herr sch
▁empt y
den s
▁pe ak
▁gemeins amer
▁interess anten
▁funktion ieren
▁threat s
▁zweit ens
▁o h
▁F arm
▁akzept ieren.
▁Liefer anten
▁gegenseit igen
▁üb lichen
or ters
▁h orr
act or
▁Reg ard
▁Rat s
setz en,
▁“ B
▁mus ikal
▁F utter
▁H yp
▁L uk
▁Sc ient
▁ursprün gliche
+ +
▁B od
▁ch ose
▁clear .
ast ing
▁less on
▁versch wind
▁Anwend ungs
▁Bil anz
▁M ischung
▁le ts
▁Arbeit .
T F
▁N OT
▁St raft
▁beg onn
▁better .
▁Team s
and t
▁negot iated
▁tro ops
üb t
▁p oker
pro jekt
▁respect .
▁Gu ests
greif en
▁anbie ten.
X I
▁ д
on te
▁be er
▁H ein
▁Se ktors
▁Wieder herstellung
▁Eff ekt
▁gewünsch te
▁Akte ure
▁Konjunkt ur
▁C L
▁st ädt
urop e
▁research .
▁field ,
▁chem ische
▁green house
▁complet ion
iv ate
▁ne utral
aut omat
▁Sozial demokrat
▁colleag ue,
▁ausführ lich
▁n utr
▁freedom s
▁strengthen ed
▁joint ly
▁Arg umente
▁subsidiar ity
▁r ichtet
▁komp et
▁ce iling
▁Welthand els
ies e
▁le ichte
▁sh if
▁Vor stand
▁Or ch
hör ige
▁elect ron
▁focus ing
mö glichen
▁Heiz ung,
▁A SE
▁R .
▁( 2)
ass o
▁pres idential
▁erfolg en.
▁Gl ückw
▁Funktion ieren
▁Fortsch rit
▁tem peratur
platz ,
▁Centre ,
▁Zun ahme
r ise
al on
▁del ight
▁term s.
▁sicher gestellt
▁tre as
▁begrüß en,
▁hyd ro
o ben
▁un known
▁L anz
üt ter
▁Ev ents
▁GU E/NGL
n ight
▁In haber
sp ann
ähr ung
▁Bet roffen
▁access ,
▁ir ak
▁content .
▁Cap ital
▁undert ak
▁rat ified
▁jüng ste
▁spect rum
▁wunderschö ne
k om
▁t ruck
▁be fore.
▁Or ten
▁bas ically
ha i
▁konzentr ieren,
▁Liber alen
▁österreich ischen
v on
▁E sp
▁z un
ex p
▁tomor row.
: 3
л ь
▁aus zus
▁Er folge
ason ic
▁second ly,
▁Can ad
7 4
▁werden ;
▁fe et
▁woll ten
▁Jug oslaw
▁bathroom ,
▁Kommissions vorschlag
▁Är z
л и
ne ider
▁Ser ies
▁beteil igten
▁Nichtraucher zimmer,
▁cle an,
▁h af
▁co ckt
oll y
▁And ,
▁prem ium
▁Präs id
nism äß
/ 199
▁P ent
▁In halts
spro zeß
▁gener ous
▁list .
▁Kre bs
▁verstär kte
▁sand y
▁penalt y
o ir
▁ Č
en ne
▁m ater
▁un bek
▁G T
sch if
▁ref urb
▁software ,
▁Univers al
▁Ass ist
▁Dynam ik
& #160;
im en
▁H i
▁sonst ige
▁s ach
▁ob s
▁President .
ific ation,
▁exp ense
▁Aspe kten
▁compr ises
▁k oh
▁Geb ühr
▁eindeut ige
▁sovereign ty
▁Pat r
▁Sant i
▁afr ikanischen
ic ient
teil t,
▁bereit gestellt
komp et
▁Non -S
▁Mallor ca
zusammen arbeit
▁R og
▁nam e.
- Über
K W
▁E B
▁D im
▁C irc
be ing
rä umen
10 .
▁thank ing
rimin al
▁heraus ge
in i,
▁ver meiden
▁sur f
▁bro ken
▁See le
▁nachhalt ig
▁zentral er
▁Bew usstsein
▁d okument
un n
▁an stre
▁ge arbeitet
▁so il
▁qu ie
▁Arbeit nehmern
▁"D ie
▁Ern st
▁Komment are
c ard
▁sc ann
▁Fernse hen
▁diesel be
▁Betr ug
▁implic ations
▁Adri atic
▁Verabschied ung
▁w ahre
▁M ind
▁r ichten
▁her .
▁geb ill
▁gest alten
▁proposal s,
▁prom ises
▁citizens hip
▁spirit ual
▁feed back
as es,
▁verl ieren
▁Austr ia,
▁comput ers
kö mm
-Ben utzer
c s
▁ на
▁Ob jekte
▁lange m
▁später en
▁geöffnet .
N ET
y b
etz t,
▁amend ed
▁negot iate
▁head s
▁heraus rag
▁herrsch t
▁Haup tz
7 8
as es.
produ kt
▁train ing,
▁geeign eten
▁Philosoph ie
▁over wh
▁ange w
▁undert ake
l ow
▁B le
oc ation
▁Sup erm
▁dete ct
S M
▁B ach
▁K eine
▁bu ying
▁Design er
▁Kompet enzen
▁Div ision
ubring en.
er ted
ad el
ull y
raf ts
▁nütz lich
k al
ot on
▁sum m
▁ident ifiz
▁durchge führt.
▁vict ory
▁expand ed
▁berecht igt,
▁progress ive
▁Exper ience
▁Budd h
st oß
▁T ieren
▁2 nd
ific ation.
▁sens it
▁Mobil tele
▁committe e,
▁belong s
▁vermut lich
▁Chancengleich heit
▁D ist
▁re ib
▁Un til
acht ungs
▁Erd be
▁adjust ment
▁Betrie be
▁eg al
▁Sek unden
▁Fischereip olitik
к а
▁g if
▁r anging
▁Le ague
▁end s
▁official ly
rei ze
▁bring t.
▁% ,
▁E IB
▁F uj
▁auf treten
▁18 th
azz o
ic a,
am ar
ret t
l ,
es a
▁gestell t,
▁Hoch zeit
▁Non-S moking
I m
▁über s
▁hand eln.
▁ander en,
▁relig ion
▁Hinweis :
▁sicht bar
▁explicit ly
w ing
▁M ethod
▁ein iges
▁com o
▁9 9
▁State ,
▁exam ination
▁ausländ ische
k as
▁a rom
ün den
▁dis cre
▁real ize
▁prof its
▁turn s
er t.
▁b att
▁c at
leich ter
▁Hung ary
▁Slow en
▁Jos é
▁s eminar
▁b oy
▁e ase
ally .
▁sol o
▁pass iert
▁em bar
▁Mot iv
▁konzentr iert
▁Räum e
▁Individ ual
▁K ohl
▁sp ir
▁Einzel heiten
▁emer ged
▁komplex en
▁endgül tigen
▁spl it
▁privile ged
▁B E
▁H P
ühr t
▁Gesch lechter
▁verantwort lich.
▁weak ness
is ten.
▁m erk
▁un gewöhn
▁auf einander
▁ger inge
▁brauch en.
▁vol um
▁airport .
▁medizin ische
▁univers ities
besch l
▁Anmerk ungen
▁Präsent ation
▁Gefäng nis
▁whatso ever
▁sp are
ling en
▁beginn en.
▁eleg anten
▁Ele v
i :
ro up
▁ver teilt
▁sind :
▁gr ass
▁1, 5
▁hervorrag end
▁Admin istrat
ion es
▁c ens
▁C ert
▁wird ?
▁check ed
▁Klimaanlage ,
▁d ate,
▁sch icken
▁imp orted
AR D
▁port al
▁Institution en,
k ind
ca ution
▁Mex iko
▁gül tig
▁navig ation
/ G
▁acc um
▁Wh ich
▁fol g
▁program .
▁far ,
▁Prof it
▁fall ing
▁Log istik
▁mittl ere
▁Zerstör ung
▁K lin
▁( „
▁über prüfen
▁favour ite
▁wahr en
▁Sup erv
▁wachs ende
▁angeboten en
▁Entwick ler
▁höch ster
▁Democ ratic
▁s enten
▁vor schlag
▁Br ü
reit en
▁organ ize
-O r
▁Eindruck ,
▁en rich
▁regard ,
▁Tradition en
▁gam e.
▁partn ers,
k und
▁zw ing
▁son n
gew iesen
k unden
▁w al
▁be ef
▁Aus übung
▁terror ism,
▁Rechn er
▁Gast freund
▁wert volle
▁diesel ben
▁Proced ure
- )
▁M ahl
▁P un
▁N ichts
ile t
▁continu ously
us hing
ll i
▁P as
▁W M
ver kauf
▁bis schen
▁empf ie
▁Dres den
▁st age,
ant es
▁not ified
▁Gu ine
▁Fort setzung
reif en,
S I
▁U t
▁Bank ,
▁Wert pap
▁= =
▁Spezial itäten
▁supplement ary
▁Sark oz
▁fac es
▁Zimmer .
▁Pan orama
hy th
▁Niederland en
▁k ünst
▁sh ot
▁4 1
▁deshalb ,
▁Kern el
k ov
r and
▁p ays
lie genden
▁langu ages.
-h our
▁Galile o
á r
▁Men gen
▁Wohn ungen
▁Kle id
▁Here ,
▁circumst ances,
▁jurisd iction
▁Autonom ie
▁afra id
U C
st en.
▁D ampf
qu est
▁Se c
▁Auss agen
▁file .
▁Bosn ien
▁Erwachs ene
n ame
p ie
▁R eit
os e,
▁bef assen
▁down town
▁agreement s.
▁design s
▁einge gangen
▁Plan et
▁unters ucht
▁phenomen on
le ucht
▁k lick
od a
ap se
▁think ,
▁schwer wie
▁Nichtraucher zon
▁Roh stoff
▁Friend ly,
▁dictators hip
▁C ome
▁coun cil
▁Mar co
▁Fac ilities
▁inev it
▁be haupt
▁sch uld
▁Erfolg s
▁komfort ablen
▁Le id
▁Pal ac
▁Wohn zimmer
▁stor ies
▁endgül tig
▁Spekt rum
O .
k atastrop
▁R ang
▁ge be
▁f ein
▁K m
▁An gabe
ute il
▁hät te.
▁Mil ose
abl es,
▁behaupt en,
▁F igur
▁Ch ance,
▁just ify
▁Problem atik
▁track s
liefer ung
▁T ank
▁Comm er
cur ities
▁typ ically
wander ung
▁M agn
▁V i
fahr ts
▁Eur o,
▁aufz unehmen.
el led
▁con ciliation
▁R EA
ver folg
▁hand .
▁Garant ien
ge ld
ver halten
-c ent
▁Belg ium
▁P V
▁K atal
▁where ver
▁Gro ßen
▁decision .
▁distin ction
r ent
▁o m
▁im bal
ill er
▁inter active
▁attention .
▁hör en,
n amen
in strumente
▁ge ograf
▁he utzutage
▁shop s,
▁hes itate
bevölk erung
▁remov al
▁Doppel zimmer
▁Mittelmeer raum
nor men
sekret är
▁M eld
▁Pr int
▁Al bert
▁Region .
▁fil es.
▁empf ängt
▁Infl ation
▁überein stimm
▁ein be
▁K unden.
est het
oc ratic
je kte,
▁Inter pret
▁Ven ice
▁sil ver
▁Kenn zeichnung
▁Leip zig
limin ary
▁T ues
▁system atic
▁Ph oto
▁press ing
▁maxim ale
▁spekt akul
▁region aler
▁prec ision
sv olle
adem ie
▁Sand str
▁unnecess ary
/ 4
▁zu gelassen
▁Süd tirol
▁bein ahe
▁academ ic
▁Rez ession
g eschäft
n s
▁o s
▁weiter entwick
▁found ations
▁Kapaz ität
▁V ent
rat t
▁eigen ständ
▁schein t,
▁schle chter
▁anbie ten
▁co d
ok ol
▁arr est
▁as ide
▁tra ce
▁Andre as
h el
▁Mod ule
▁negotiation s,
▁stamm t
▁I .
▁inter med
▁Ex hib
verb indung
▁circ uit
▁klein eren
▁„ N
▁demokrat isch
▁contrib uting
▁effizient er
▁GNU /Linux
▁eigent lichen
ü ch
et schen
ac kt
▁Br ut
▁hät te,
▁aktiv ieren.
▁enlarge ment.
▁Tamp ere
z unehmen.
an o,
▁K ör
▁ha us
▁aus üb
schaf ter
auf nahme
▁car te
▁mod ify
▁modern er
▁Europas .
▁Balk ans
▁geplan ten
od ox
▁organis ierten
▁Monteneg ro
▁D IN
ein heit
▁Ver ts/
▁viel seit
▁trans formation
▁countrys ide
m ärkten
in a.
▁K enntnisse
-T V
▁bü rokrat
▁finan ced
▁Spiel en
schätz ung
▁T ob
▁W ünschen
▁K it
ct u
▁er inner
▁pl atz
▁ins ert
▁pla cing
▁organis ieren
▁announ ce
▁Konver genz
▁D ivers
▁le ather
▁would ,
▁more over,
▁anzu wend
stät ten
b e,
ig er,
▁he ight
verständ nis
▁fal se
t age
▁p il
▁C omfort
▁O d
▁Ab schluß
▁De cl
ph one
▁proxim ity
c end
▁th ir
▁D ocument
▁F ok
▁über ras
bring en,
▁ausreich ende
▁unanim ous
▁Beam ten
g io
▁ent ge
▁women 's
▁Finn land
▁religi ösen
▁T os
ows ki
▁vereinbar ten
▁Isra el,
k ost
н ы
▁S icher
-M ed
▁organis ierte
▁Iran ,
▁Verl ängerung
▁occas ions
-of-the- art
/ K
il y,
▁W atch
▁se ats
▁An wesenheit
▁Aus ge
▁pre caution
▁t ag
▁s ympt
▁r ing
net .
▁weiter zu
▁18 8
▁erwähn ten
bring ung
▁Col omb
▁gepr äg
▁incent ives
nbsp ;
▁ ‚
▁auf nehmen
ah ,
erb a
h me
im ents
▁ver größ
iz ar
fert igung
▁expend it
1 ]
k örper
ch ar
▁c ir
▁Pr est
▁my th
▁bie tet,
▁restaur ant.
▁cy cl
z icht
▁A mp
elt a
▁Tag ,
▁S emin
▁B und
▁de lete
pro of
stell ungs
▁get ö
▁Änder ungs
▁mind .
▁Kern kraft
▁Ire land,
sph ase
▁b ond
am per
▁dis m
▁Paris .
▁Enter tain
▁Agentur en
▁b iodivers
▁Pr ize
▁3 60
▁gel ern
▁eing ereich
▁sk y
▁importance .
s um
▁m oments
▁re iz
▁ge kauf
▁An künd
▁lie genden
▁Ha iti
▁Entscheid ung,
▁inn eren
▁komplex e
▁pursu ant
▁Vened ig
▁K lick
über greif
▁Se gel
▁Jan e
▁Natur al
zog en,
▁mit teilen,
▁Ü b
▁Is ol
▁trop ical
▁kitch en,
AS S
▁Dat ens
▁lik e,
▁Cal a
▁einsetz en
k le
▁for ce,
fahr zeuge
▁Pl ätze
▁Gu ide
▁veröffentlich t.
▁sonst igen
▁Georg ia
▁autom otive
▁An dr
▁5 6
-b as
▁engl ischen
▁Ferienwohn ungen
▁se cre
▁conf ident
bet rag
▁renew ed
▁dah in
▁Verts/ ALE
▁an nehmen
▁pl ate
▁beg ünst
▁Volks wirtschaften
▁societ ies
-Re zept
▁heav ily
▁Bil dern
▁girl s
▁F ace
▁unter liegen
▁inter ven
▁year 's
▁ins ofern
▁space .
▁coordin ate
▁beeinfl usst
T EN
ach en.
▁our selv
▁eigen em
▁spec ify
▁fol der
reg ionen
best ände
ub s
mann ,
▁consist ently
▁jähr lichen
▁Geträn ke
▁Ver t
▁Be hörde
▁integr al
▁log ic
▁border s.
▁observ ed
▁Kooper ations
z i
▁all mäh
con f
zeit raum
▁bereit .
▁Geb ur
▁event .
▁keep s
▁80 %
▁furn ish
▁Net ze
▁begrenz t
ig o
▁ch ron
▁ch ocol
▁bes orgt
▁“ P
part y
bo ot
▁contract ual
▁Vis um
▁angen ommen.
▁Verteidigung spolitik
etheless ,
▁V il
▁1 :
▁sign ing
d isk
v ic
ig enden
▁ein druck
▁F ans
▁Th yss
lim ited
-spe ed
▁reveal ed
▁Auf ruf
ider s
▁Besch ränkungen
▁material s,
▁Projekt s
▁betre ffen
▁impos ing
▁Fel der
▁S ymb
▁W W
▁0 6
▁Heil igen
▁dign ity
in th
ag u
▁Fre il
▁k re
▁con version
▁Rat es,
▁ke en
▁hervor ,
▁(S t
▁evalu ate
es is
▁EU -E
▁De ep
▁Ex cellent
▁bar .
▁motor way
▁S ab
▁S ix
ür ft
▁r ufen
▁at tended
▁Pr äm
▁erb aut
▁cancel led
▁N o.
▁sh el
▁Gr iff
▁[ 12
▁benutz en.
▁ign ore
ens ive
▁" c
▁beh oben.
▁erwähn t,
▁H .
▁„ T
▁wieder her
▁erreich bar.
▁accommod ate
krä ft
▁beruf lichen
▁spät estens
▁Edinburg h
ac ted
▁applic ant
▁Wer ten
▁zeit genöss
▁medizin ischen
▁S ho
▁R ind
▁über ein,
tr as
▁[[ J
▁Bild ung,
▁Vo gel
▁Sold aten
▁Inkraft treten
▁D IE
▁co ach
▁fl ows
▁R F
iv ely,
▁Be wohner
▁Ar ena
eng ünst
▁Stat istiken
OR T
ungsver trag
▁d rit
▁“ T
-Date ien
le ts
▁D rag
▁ein gel
▁rev ised
▁GmbH ,
▁unterst reichen,
▁gratul ieren.
▁durchzuführ en.
crip t.
ä uß
▁s q
▁the atre
▁A er
▁C ad
▁my ster
▁kosten frei
▁Ukra ine,
olog ischer
▁[[ T
▁War s
▁demonstr ates
▁Anwend ungsbereich
st het
▁product ive
ants .
▁risk .
▁apprec iated
▁Prä vention
▁V ari
▁Ver folgung
sp rodu
▁dar stellen
ograph ie
▁suggest s
wel ve
k u
▁s ake
▁US ,
▁ähn lichen
▁geeign et.
g es.
w as
▁d ating
ten se
▁ch amber
▁det r
▁potential ly
▁Wien er
▁geist igen
▁favor ite
in j
le y,
▁P oint
▁L ibrary
ad ed
▁ass emb
oth ing
▁ständ ige
** **
▁Tun es
▁themselv es,
▁horizont al
▁Entschlossen heit
y st
▁P az
▁fre ight
▁fr on
▁Fran ce.
▁cr ash
▁tro ub
▁Buch st
▁frequ ency
▁kontroll iert
▁auth ors
▁Citiz ens
f te,
▁post pon
▁AG ,
▁Krie ges
og a
fl üss
▁“ The
▁sens e,
/ 99
▁R ö
▁pl ural
gel ung
▁Turke y.
▁d' A
▁einstimm ig
it is
▁M are
▁( der
▁Ein blick
▁fund s,
▁publish ing
k i,
▁den en,
▁( as
ze igen
ank a
▁poss ess
▁process es.
▁meas uring
äum e
▁darstell en,
▁industrie llen
▁belieb igen
▁teach ers
▁bezahl t
ampag nen
▁präz ise
▁Schwimm bad
▁municip al
▁Zusammens etzung
▁OEC D
ü re
▁K inn
▁cal endar
▁food .
▁betrie ben
▁Ausbild ungs
h att
▁H äfen
▁r ating
▁An hang
▁200 2.
▁cons ul
▁str ike
▁Entwicklung .
▁Fe ed
▁mist ake
▁durchführ en
▁gese hen,
in ental
ad s
▁Pro ph
▁Coun try
▁fol glich
▁Gew inner
▁II .
▁Wachstum sp
▁undert aking
▁(Christ ian
▁M ug
▁T aten
pro f
weit en
▁X V
▁Ob vious
▁pack age.
▁gelegen en
▁Swimming pool
m es
▁S eminar
▁K ell
▁R ac
ant o
▁you !
▁Be urteilung
ss icherheit
▁" the
burg ,
▁glaub würd
▁Erzeug ung
▁Größ en
▁Refer endum
öß e
▁zust ande
▁Altern ativen
▁occup ied
▁conv ince
▁be fore,
▁L aur
▁Ne ph
▁ir regular
▁Author ity
Q U
te am
▁S CH
ens ion,
▁tra ined
ond a
▁own .
gestell te
▁cho ices
▁langu age,
itäts prinzip
▁Govern ance
▁Offen heit
▁M ap
ab eth
▁this :
▁pol nischen
▁techn ischer
▁Bar n
▁Ass ozi
▁erneuer baren
▁beiz ut
▁Treib haus
O r
▁l ens
▁fre e.
▁Techn ical
▁komp at
umm ern
▁scr utin
▁ober en
▁prison ers
▁hervorge hoben
- room
O ,
▁Er laub
▁gef rag
▁Jac ques
▁Cho ose
k ong
▁to ll
▁D ich
▁sich ern.
▁Be hör
▁befind et,
wirk en,
▁erfüll en,
▁ergänz t
▁afford able
▁t urb
▁L ob
▁mit ,
▁Commission ers
▁einge tragen
-E U
▁bar rier
▁cho ice.
▁erlaub t,
▁eingestell t
st uff
▁M öglich
▁se ver
▁Tra ck
▁Sh opping
▁vol lem
▁Gesell schaft,
▁dah er,
▁Muse en
▁pass ende
▁san ction
▁stattfind en.
▁Huss ein
▁Lanz ar
▁Tues day
▁in struction
▁f oun
▁ent hält.
form at
▁Ziel setzungen
▁Jun ior
serv ice
▁jetz t,
▁S ternen
▁v iable
▁K ne
▁Le ft
▁approach es
▁Ausbeut ung
▁w inner
ill on
▁( ex
▁saf e,
▁connection ,
▁En s
▁statt dessen
▁floor .
D I
en ade
▁K od
id es.
oc o
▁Geb ir
▁schwier ig,
▁purch asing
▁detail s.
▁entschied en,
▁L ar
▁st range
▁ch at
▁Ein nahmen
▁per ipher
wir r
▁fest zustellen,
reib ungen
▁flex ibel
▁jem als
▁Rub rik
▁detr iment
ö ne
ab ly,
ver teilung
▁her kömm
р и
▁b ere
▁Ch ir
▁Sa una,
▁Pic ard
▁ärm sten
L .
▁s ide,
▁S ien
▁B aden
▁resul t.
▁Kü chen
uell er
▁Georg ien
ed ge
▁F eder
ib iot
▁ent hält,
▁Deutschland .
▁benutz en,
▁hom e,
▁Erk rank
▁f lav
▁not ably
▁Fre uen
▁sit es,
▁M ary
▁St ufe
tr itts
▁" d
▁develop ers
▁andere ,
▁Rechts vor
▁prom oted
▁conver ted
▁b id
▁S end
▁Ge ben
▁Ber ge
▁inter action
▁Berichterstatter s
▁tele fon
▁Konsult ation
▁f igur
▁E tw
▁T orre
▁B ath
▁B atter
end et.
▁ex terne
▁car rier
▁Rolle .
▁Iran ian
▁Mic ro
in o.
▁er adic
▁ex haust
▁pr ices,
▁adv enture
▁Programm e,
▁ident ification
▁geforder t,
F T
l er.
ic ular
▁k ämpfen
tr ess
▁Stud ios
▁Vermitt lung
▁pill ar
st rom
▁An reiz
▁4 50
▁serv ers
-P olitik
▁denn ,
▁Ital ien,
▁pract ically
bereich ,
▁music .
▁Get re
▁breat ht
▁Ergänz ung
/ T
v ie
▁ver schie
▁St ich
▁ag ents
se h
▁Min eral
▁option al
▁sched ule
▁Vorgehens weise
▁part -s
▁3 .0
▁Inner halb
▁ge hol
▁September ,
▁H as
ers te
▁st roll
ib t,
▁fe as
▁Schutz es
▁educ ation.
4 3
▁parad ox
/ 3
ate ur
weis t,
▁technolog ische
▁relationship s
-r un
▁kost engünst
ion ed
▁„ C
▁Stud ent
▁Lat v
▁Olymp us
▁m ild
▁ge heim
▁who le,
▁Fin land
▁umge kehr
▁c up
▁dem onst
▁dis asters
▁Pal ma
▁doub ts
▁konzentr ieren.
- hand
s q
▁z us
▁weit aus
alt ung,
▁Ro ute
▁indic ates
des ign
-We bs
u en.
Ã ¤
▁H änden
ad os
▁zwe ier
▁Frage .
▁agreement s,
▁viol ent
EC T
AC K
▁24-Stunden -Rezept
in ians
uropä ische
▁Sol che
▁Lissabon -Strategie
▁ernst hafte
▁committe e.
▁controvers ial
▁Zin ss
▁dass elbe
är enz
▁He ll
▁view s.
▁Qual ität,
telle kt
▁low est
▁amen ities
7 2
ik a.
▁te uer
▁Frage :
▁Tr ink
▁finanz iell
▁erstell en.
▁Nieder lass
▁erleb t
gro up
-Techn ologie
▁C ockt
▁Ch ange
ierung .
▁40 %
/9 7
▁erweiter ten
gien e
▁spezial isiert
▁Pub lish
p m
al t,
lich sten
▁ch ambr
▁Them en,
▁state -of-the-art
▁relax ed
▁exam ined
▁Aben teuer
s ).
re y
▁h alt
▁ro le.
▁Minister rat
▁appar ently
▁ausgewähl ten
g es,
v ents
▁geb racht,
▁gef äll
▁E-Mail -Adresse
▁bege g
▁A par
ed ition
▁Ar ts
▁bi ological
▁Maz edon
legen der
▁Qu oten
▁ein ander
▁H ä
▁N ature
▁se gment
▁Ver markt
▁An bindung
▁Pro d
ect ive
hol z
▁zusammen zu
▁zuf äll
▁F C
ann a
▁Berichterstatter in,
▁claim ed
▁Bosn ia
▁mod ular
▁Russ lands
▁UN D
▁Überzeug ung,
▁ther apeut
/ w
N E
▁G 20
ungs weise
per iode
ee ing
▁news letter
▁beige tragen
▁marg inal
▁f rank
▁f ördert
▁Un fall
ue ber
▁hand eln,
▁Gemein den
▁Forsch ung,
▁dur ation
j i
m e,
m ap
v y
▁ м
▁D B
▁L uz
neh in
schl ägen
▁7 2
komm t.
voll es
▁gestell ten
▁Innov ations
▁Berat ungen
P R
▁be endet
▁ab us
▁Unter zeichnung
▁5 3
änder ung
▁Rolle ,
▁arg ue
▁Amsterdam ,
▁describ es
▁Disc over
uch t,
▁nach folg
▁sorg en.
bre ite
▁accident s
▁distingu ish
▁g rad
▁V eg
▁von einander
▁( h
▁3 rd
other ap
▁Pol and,
▁fa ult
▁russ ische
▁Fisher ies
Enterprise ''
f eit
w ich
▁h ills
▁C in
▁Emp ire
▁prepar ations
▁Kredit karte
▁quant ity
▁Urspr ung
beweg ung
▁israel ischen
n e,
▁C ra
ne te,
▁work ers.
▁cl im
▁stress ed
rt ikel
▁00 :
▁underm ine
▁Aufzug ,
D as
▁re ct
sp rechen
▁ab stimm
▁2007 -20
▁perform ance.
▁vertre ten,
▁Francis co
▁C ertain
▁An träge
▁def ining
▁Kar riere
▁ne hme
▁acqu ire
▁AK VIS
an er
▁dev ast
▁Every thing
▁reality ,
le ister
▁be ings
▁T .
▁Vor feld
▁trans mit
▁g od
▁are .
▁form ats
▁cent er.
▁krit ischen
7 9
▁se es
▁he ft
▁Univers itäten
▁Bü hne
▁Eigent ümer
▁Bew ältigung
▁Weiß buch
▁up-to-d ate
Q u
o ard
▁out com
-A uf
▁English ,
▁Austral ia
▁Palästinens er
▁Bürokrat ie
ü se
ar ier
▁techn ique
▁air lines
▁further .
▁Gu ant
▁Mot to
▁cert ification
▁Vill age
▁5 1
▁erst ens
▁law y
▁Mehr wert
räum e,
ie der
▁K of
▁k id
▁Er ic
▁5 %
▁Gew inne
▁Fil me
▁talk ed
▁verein bart
▁fit ted
at te,
▁ex cellen
▁An reize
ste hende
ens ion.
▁Parliament ary
▁achie ved.
▁clos ing
▁leb t
▁ingred ients
▁Yo ung
ve z
▁i z
he ar
▁Gen uss
▁Bü ch
▁compla in
▁quot as
▁sin cer
ig i
▁F ab
▁r ivers
▁Software ,
▁Admin istration
▁fe ier
kon zept
▁2. 5
▁Abstimm ungs
▁Presiden cy.
E x
ic ted
▁ins ur
▁25 %
▁mag ic
▁Vertre tung
▁einver standen,
▁ca ught
o hne
▁Ab u
▁pre liminary
ließ en.
▁important ly,
▁every th
▁warm ly
▁Ereign is
▁Konzentr ation
/ H
Z E
o que
▁comm end
lä ub
▁automat ische
▁Terror isten
▁dien en.
h armon
▁in cur
▁G n
sp aper
▁ab gesehen
▁ab schließend
▁rat es.
▁Cr ist
▁п о
▁Erwä gung
b aum
▁Aus nahmen
▁problem at
▁fact o
s... "
▁cult ures
▁trib ute
▁for ese
▁mov es
▁bleib t,
▁(K OM(
▁catalog ue
▁b are
▁C omb
▁r iv
▁auf er
▁has t
▁Aus rüstung
ac o
▁bereit et
▁Intern etzugang
lad ung
▁Verhalten s
▁beru ht
fel der
▁P y
▁des cript
▁inc orrect
bl att
▁an gel
▁r and
los igkeit
▁Sk r
▁1. 0
▁Chr .
arl iament
un ting
▁peace .
▁grund legender
▁900 1
▁preven ted
▁oh nehin
▁t ur
om a
▁me als
▁inter institutional
▁sign ature
▁erklär te
▁verfüg en.
▁compla ints
▁Pflich ten
▁Aktual isierung
▁arbitr ary
ot a
erv ers
▁Sp irit
ible ,
▁13 ,
▁regul ated
iz en
▁Ed itor
estr ian
▁m ale
▁S in
▁ex tern
▁durch .
▁fol gen.
▁Bro ad
▁Tal iban
▁Stor age,
eld et
▁eng ines
▁satisf actory
▁endeav our
▁promin ent
▁t or
▁on es.
au .
▁Al ong
▁drink ing
▁Tab elle
▁Lib an
▁Verletz ungen
▁timet able
▁a chten,
is ol
om od
▁ver deut
▁er ,
▁sp an
▁bes tens
▁Me er,
▁verl angen
▁Ital y.
▁short ly
▁beit rä
▁Iraq i
▁rul ing
▁N ull
▁zwe ck
/200 1)
▁berücksichtig t.
▁distin ct
▁FA Q
▁b uff
▁F ly
fe ktion
äl te
▁build ing.
gl .
▁CD -R
▁Spain .
▁niedr iger
▁propr iet
t ät
ge henden
ed a
▁r ust
▁st ol
out s
roll er
▁treat ments
▁bedeut en
▁gere gelt
p rom
▁s hr
▁p act
ain er
▁ad mitted
he ll
▁9 6
▁Ad am
▁erh iel
e ches
▁d os
▁S ul
▁l ives.
▁It ’s
▁serv iert.
▁deb ated
▁rece ives
▁lok al
▁Gel ände
▁Theor ie
▁Rena issance
▁ge ein
▁stat istical
▁Region en,
▁erhält lich
▁plötz lich
ent ly,
▁L ow
▁j üd
chn et
▁form ,
▁C old
▁Be haupt
▁5 8
▁bed ,
▁ass ert
200 9
▁Gree ce,
▁bilater alen
r ession
▁C ur
▁- >
▁15 ,
-C h
▁express ing
▁g ate
▁wir tschafts
▁serv iert
▁Bericht .
▁Con ver
▁Log ik
▁verfolg en.
▁withdraw al
zust imm
▁W eine
▁F .
▁k öst
ag l
▁um zu
▁Vers orgungs
▁Stat istik
▁schw äch
▁rad ik
▁suspend ed
4 6
▁be wir
▁vor hin
ün de
-H our
▁jen e,
▁24-Stunden-Rezept ion,
▁A ra
ir y
▁Hand lungen
▁Arbeitslos en
▁Wolf gang
P P
▁Al c
▁Mar g
red ite
▁Kons um
▁kontinuier lich
▁Commun ist
b on,
i 's
z ub
▁Ä hn
▁neg l
▁je opard
komm t,
▁IN TER
▁Barcelon a,
▁C M
▁[[ M
gew alt
▁ret ire
▁Uhr .
▁fair en
▁Belast ung
W E
ol as
▁Pro gress
▁decision s.
▁S us
▁P atch
-s ite
▁[[ R
▁sector s.
▁subject ,
▁sit es.
▁comput er.
▁f lying
ter s,
▁[[ 23
-L änder
haus halt
▁Bewer ber
ic op
▁( im
▁An na
▁lie fer
▁Bet ten
stru ct
▁set up
▁ze igen.
▁integr ation.
▁cho osing
▁gute m
▁regulation s.
▁benötig en.
▁Festpl atte
▁bemüh t,
▁Begründ ung
▁w ake
▁St ick
▁pos ted
▁morn ing.
▁gewiss er
▁Budget ary
ts tell
▁Er neuer
▁agre es
▁(C S)
▁enlarge ment,
c ,
ot ions
▁us ed,
▁hotel s,
▁member s.
▁soc io
wirtschaft ung
▁children 's
▁museum s
denk en.
▁acknowled ged
▁Upd ates
▁W ood
▁H istory
▁he ated
äl le,
▁1999 .
▁ruh iger
▁Zeitpunkt ,
▁Schiff s
▁gewinn en.
H R
▁E CH
▁C ong
▁hin der
▁(S K)
wär tig
▁pot ent
▁wom it
▁Eing abe
▁Real isierung
▁gil t.
▁detaill ierte
F )
le cted
▁H osp
▁Re lease
▁comp ress
▁verkauf en
al ia
ge hende
▁vor sichtig
▁condition ing
- level
▁d iving
ign ed
▁lok aler
▁unter sch
fe hle
▁konstru ktive
▁haz ard
\ "
k ern
ú n
▁un pre
geb ühr
▁gen ommen.
▁trans it
▁konk urr
▁Os lo
y es
z ing
re ff
▁W esen
▁L uggage
rech t,
▁mean s,
▁Sum me
s ame
on es,
▁es te
▁refer end
ül le
▁Auftrag geber
▁las er
▁grenzüberschreit ende
▁cry stal
▁Decl ar
ig ert
ic ious
et tet
th al
fra gt
▁24 -Hour
▁verste ht
▁assoc iations
▁worth y
▁alloc ation
▁bureauc ratic
▁Ausflü ge
▁f ails
▁R ight
ab ile
▁aus gebaut
▁3 000
▁hand led
▁fa ire
▁21 st
▁mith ilfe
d os
▁J uan
▁pr ere
▁term inal
▁kl imatis
▁tell s
▁material s.
es erv
▁Z ubehör
men ge
▁ab und
ced es
▁Dar in
▁nö tigen
▁kombin iert
▁ört lichen
_ _
z iger
® ,
é d
▁a ux
un er
▁n ic
▁re jection
▁V II
▁ne ol
pe zif
▁view ed
▁Menschenrechts verletzungen
▁cos met
mechan ismus
▁Mehrwerts teuer
▁angeneh me
▁Fuer te
▁18 5
▁adv ent
▁activ ity.
▁(A us
▁graph ic
▁Plen ars
▁threaten ed
▁Anhör ung
▁Me an
▁consum pt
▁heiß en
ibil ität
verbind ungen
▁C redit
aut hor
▁Vers prechen
▁perform ing
vent h
▁pover ty,
▁schritt weise
in ent
end ienst
▁vis its
app e
▁angeb lich
mechan ismen
s m
ö die
ov o
▁dec ent
▁Br ücke
-b y
▁heraus ,
▁kommer ziellen
n ungen
▁F at
all ing
▁gener ations
▁sor ry
▁Sow eit
H z
as ien
tern et
▁dead line
▁U V
ug end
ever kehr
▁stat istic
▁col ors
/200 3
▁Term inal
▁Dis ziplin
!! !
▁election s.
▁gewes en.
z o
ab kommens
▁fin est
▁Pl atten
yp en
▁General dire
▁SM S
▁Champ ionship
▁re vers
▁H T
▁aus zusch
▁Le hre
▁ac id
▁air line
gew and
▁Bl izz
▁download ed
▁graph ics
▁w ife
▁G am
▁„ H
gab en,
▁Bur ma
▁bedroom s,
▁zunehm ende
▁overwh elm
z ert
▁J am
oss ier
▁alle ged
bas is
▁Lateinamer ika
▁m org
▁P ek
▁W ur
▁R ennen
▁gel ingt,
▁flex ib
EL L
▁erk ennt
t igkeit
▁gew ann
▁real en
▁9 8
▁Ro und
bet riebe
▁Deutschland s
▁Zimb abwe
al p
▁der ,
▁E ck
▁H ändler
est ag
▁In halten
▁N H
▁Bl anc
▁let ters
▁character ized
( CO
ä chte
▁sw ift
▁Pat ten
▁Komprom iß
o ge
p unkten
▁F inger
▁initi ative,
▁belong ing
▁Telef on,
▁Kinn ock
▁ausge geben
▁pass port
▁Community .
▁Dienstleist ung
▁sport ing
▁fehl er
▁Riv iera
▁Urspr ungs
▁Vict or
▁Phän omen
▁conj unction
ch ,
ant wor
▁Niger ia
▁Thyss en
b ilder
▁a ver
▁G ulf
▁L en
▁( als
▁se ch
▁arbeit s
▁vol unte
▁beglückwünsch en.
▁Dikt atur
▁B aus
▁Am az
▁irgend ein
▁verm ieden
sprü chen
▁exklus iven
▁Umgeb ung.
▁Verordn ungen
▁breatht aking
▁h er,
▁T able
ak ed
▁dis plays
▁modern ,
▁Programm ,
▁ans on
▁draft ing
▁Z er
▁über d
▁bro ther
▁vorhand en.
-spe cific
▁mi xt
ann i
▁Te e
itz ung
▁[ 16
loss ene
▁Rück en
▁community ,
▁größer er
▁äl tere
▁zerstör t
▁lov ed
т а
om er
et ooth
▁F if
▁Mus l
▁Bro k
▁tal ent
▁stopp ed
ö t
▁der er
▁ver letzt
▁ass ured
▁Mein ungen
▁inde pend
▁tro uble
-U n
▁Legisl ativ
ag ger
pro b
▁ger aten
▁verste hen.
▁der artigen
▁Sch eitern
▁gr ös
▁Terr asse,
▁198 8
ühl en
▁Hel p
▁Holl y
▁Zert ifik
▁E g
▁D S
▁F akten
▁er z
▁ges onder
▁solution ,
▁Kons ument
▁demokrat ischer
▁restr iction
▁genet ic
s ),
▁in tense
▁n os
▁bef ried
▁technolog ischen
▁nam ens
▁efficient ly
▁legitim acy
▁Abgeordnet en,
ct ic
▁N ight
▁Fl ag
▁gel tend
▁konn ten,
▁Sim b
▁Seit e,
▁Red u
-e conomic
▁expand ing
bran che
(CO D)
kun de
▁centr ally
▁verbesser te
▁wähl en.
u ent
ck et
▁Ab stand
stechn ik
▁conserv ation
▁münd lichen
л е
▁th read
▁" Z
▁fr ustr
▁Gem äß
▁[[ L
▁bor row
▁comfortable .
▁expla ins
▁Gest atten
fun ktionen
▁A ctive
uch en,
ib t.
▁O ra
▁vor legen
▁exist iert
▁1998 ,
▁Buen os
c uss
▁F ile
geb ühren
▁act ors
▁Stud ium
▁Köl n
4 1
▁t ight
th umb
▁not ion
▁vor zusch
▁Aus grenzung
▁poin ts,
▁Are a
▁Grunds ätzen
F S
ver z
▁( l
▁install ieren
▁Frei will
▁observ ation
▁emb ry
ö ste
▁d oc
▁ra ises
ph an
▁follow -up
▁quick ly.
▁Pan asonic
▁Stabilitäts pakt
N S)
▁b ow
▁p ine
▁fin ally,
▁min ib
▁Bo x,
▁prior ity.
▁beschäft igen
▁pover ty.
▁erfre ut
▁amt ierender
dis ziplin
▁anson sten
6 00
k ten.
for ce
▁aus sprechen.
▁initi ated
▁away ,
▁bevor stehenden
▁morn ing,
▁Gesell schafts
▁P oss
▁An ruf
▁„ V
▁12 5
▁refle ction
▁transatlant ic
▁Bürgerbeauftrag ten
▁Einschätz ung
u es.
▁Mar x
▁Ent decken
▁(D er
▁angen ommen,
▁Vorsitz ender
▁bild en.
bef ug
g rab
▁k ulin
▁An al
ang o
▁Gr ill
-V or
▁schle chten
▁emb ra
▁compar able
▁Annehm lichkeiten
▁W äsch
▁mein en,
▁Vorschl äge,
OM E
ane ben
▁enlarge d
▁fal schen
▁bezahl en
▁swe et
▁Optim ierung
wechs lungs
▁R oc
▁Demokrat isierung
▁stop s
▁budge ts
läuf e
▁Train ings
▁H um
gesch ritten
▁global er
-St and
▁vernünft ige
▁Tschech ischen
▁Ersten s,
▁stattgef unden
▁f ru
▁an x
st reit
▁al one.
▁Re f.
▁Ser ien
verb and
-l ike
▁Medik ament
▁Represent ative
▁f ung
te u
▁un like
▁R I
▁Ch at
▁space ,
▁erhö hen,
▁Col umb
▁Dis play
meid ung
▁convenient ly
t rans
on ie
▁p ione
▁P est
▁F as
▁Ab teilung
▁“ pro
▁(P arliament
▁verste he
▁Mö bel
▁G ate
▁In v
▁we ib
ak ,
▁aus wärtige
ungs maßnahmen
heit lich
▁dis cret
gesch neider
▁erziel en,
▁coll apse
▁simultane ously
ach ,
ver arbeitung
▁dem ographic
▁j ahre
▁ir ische
▁valu es,
▁ehr lich
-Date i
▁immediat ely.
▁Steuerzahl er
k ette
▁char ter
▁typ ische
▁Bek annt
▁eith er.
▁Club s
▁Verfass er
▁inn oc
B ER
is en.
▁auf rechter
pr ä
▁hier mit
▁Information en.
ätz en.
▁Alp ine
▁agriculture ,
▁Lok al
▁openn ess
▁t act
at us
ome ters
▁Parlament s.
abe llen
▁design er
▁öff net
▁Wohl be
▁Kur d
▁Ty rol
▁infringe ment
a ze
w en
▁h ik
sch we
▁trans fers
aj a
erstell ung
▁ce ase
▁Every one
as ste
▁form ation
▁Wh irlpool
▁solution s,
▁lo ud
▁Car ib
▁hon or
▁Nachbar schafts
▁medic ine
▁hinzuf ügen,
▁Similar ly,
▁wh y,
▁beg ab
▁mon at
▁capital ,
▁experien cing
▁Regul ierungs
▁vor teil
▁Ber ater
▁Land es,
▁disk rimin
▁erziel ten
▁Wahr nehm
▁York ,
▁B 5-0
▁K ra
▁Er nen
our en
▁comp are
▁vielfält igen
f isch
▁l ights
▁sch rieb
▁Dar auf
▁Govern ment,
▁incor porate
▁incred ible
in itiative
▁w is
▁R ou
▁J ak
▁Man hatt
▁public ,
-R ichtlinie
▁rapporteur 's
▁regul ate
▁herr liche
▁ergreif en.
▁Schatten berichterst
- produ
▁v end
▁L om
▁Mar ine
▁“ W
▁Ö konom
▁Spe ed
▁Fen st
äuß ert
k laus
▁t iss
▁D R
ver tra
▁Sch ott
ger ä
▁hotel 's
▁post s
▁character ised
▁irgendwel che
k ürz
v ille
▁f ut
▁Z ell
▁spe eches
▁Sal v
▁Hö hen
▁betra chten.
▁eingerichte te
▁Kub a
jpg |
▁H ub
▁Union sb
▁cons isten
▁bl ow
enk und
▁hous e,
▁gelegen e
al s,
▁e cht
▁n ennen.
▁damit ,
▁bo ats
▁opt ical
▁Cas tell
stück e
▁accoun t,
▁Amts zeit
▁diagn ost
▁Gipfelt reffen
h ause
▁m athemat
▁B reit
▁z üg
▁ro w
▁fest ge
▁bre ites
▁km .
▁gegenseit ige
kore a
▁lingu istic
al i
sch ra
▁co inc
än n
▁up coming
fahr zeug
▁Zusammenarbeit ,
▁Hol y
▁later .
▁S. A.
struktur en
▁C hal
▁aus gelöst
▁Welt bank
▁Gesch ichte,
▁Class ic
in s.
▁200 1.
▁Ind ia,
▁var iet
▁Verein igung
▁äußer ster
▁schem es
▁Committe e,
k andid
le bens
az ione
▁'' Enterprise''
▁island .
▁bod y.
mission en
▁Mass age
▁Ord ner
▁celebr ate
ipel ine
▁bez auber
▁den ied
ges pr
▁mod el.
▁unver zicht
▁aktiv iert
▁mand atory
f ried
▁ £
an teil
▁T ry
'' ,
▁normal e
▁einsetz en.
▁REA CH
s inn
▁d iox
ul ator
ür en
▁Sch uh
▁Al pha
▁redu ces
▁Kr ist
▁Klimawand els
▁Subsidiar itätsprinzip
▁w and
▁ex t
▁We ek
▁8 8
▁Amer ikas
▁zusammen häng
▁Geschäfts reis
sprech end
▁Ap ache
▁wähl en,
▁relie f
▁LateRoom s.com
▁Le icht
arbeit eten
▁Rahmen bedingungen
▁Cl ose
▁train ing.
dom in
▁Berat ungs
▁Einsch ränkungen
▁Solution s
C A
▁P ict
▁L isten
ant rag
▁Be hand
▁Me er.
▁jeweil ige
▁criter ia.
▁tail ored
▁bes ucht
▁new spaper
▁Har bour
▁capt ure
▁entreprene urs
▁M ID
▁H ir
▁C ry
▁unter scheiden
▁tre mend
▁accept ing
▁Tür en
igran ten
▁Inf o
▁bo om
▁found ing
leit et.
▁wunder schön
▁Cub ase
▁geschie ht,
▁z ert
em pf
▁off enkund
▁bed ien
▁einz ube
▁interest ,
▁bew aff
▁clar ity
▁Beschwer den
thumb |
ä der
▁p ig
▁L ove
▁ver hand
ver trä
▁Hotel s.
ality ,
▁relev anten
änd ig
-G ruppe
▁entste hen,
▁lern en,
▁Gepäck raum,
am an
icht lich
ark ed
land schaft
▁alle ine
▁govern ed
▁capital .
▁verd ienen
▁jud gment
▁part-s ession
in stall
▁g ä
▁g raf
▁ab end
schl üsse
▁Ste fan
▁show er,
▁diskut ieren.
▁popul ation,
▁Einwander er
▁besuch en.
▁bio techn
▁b at
▁Ber gen
▁Ab out
▁rel ations.
▁Char me
▁Ze ug
▁C athol
▁ge legen.
olog y.
▁“ L
▁Ide e,
▁simpl ify
▁brut al
[...]
